#version: 0.2 - Trained by `huggingface/tokenizers`
Ġ Î
Î ±
Ġ Ï
Î ¿
Î ¹
Î µ
Î ½
Ï Ħ
Ï ģ
Î¿ Ï
ĠÏ Ħ
Î ¬
Î »
Ï ĥ
Ï Ĥ
Î ·
Î ¯
ĠÎ º
Î¿Ï ħ
Ï Ģ
Î º
ĠÏ Ģ
Ï Į
Î ¼
Î Ń
Î± Î¹
ĠÎ ¼
ĠÏ ĥ
ĠÎ ±
Î ³
Î± Î½
Ï ī
Ï ħ
Îµ Î¹
ĠÎº Î±Î¹
ĠÎ µ
Î¹ Î±
Ï ĩ
ĠÎ ½
Î ®
ĠÏĦ Î¿
ĠÎ Ń
Î ´
ĠÎ½ Î±
ĠÏĦ Î¿Ïħ
ĠÏĦ Î·
Î ¸
Î¿Ï į
ĠÎ ´
Ïģ Î±
ĠÎ ³
ÏĦ Î±
Ï İ
Ï į
Ïĥ Îµ
Ï Ĩ
Î½ Î±
ĠÏĥ ÏĦ
Ïģ Î¹
ĠÎµ Î¯
ĠÎ ¿
ÏĦ Îµ
ĠÏ Į
ĠÎ± ÏĢ
ĠÏ Ĩ
ÏĦ Î¹
ĠÏĦ Î±
Î¿Ï Ĥ
ĠÎ¼ Îµ
Î ²
Î ¶
Ïģ Î¬
ĠÎ ²
ĠÎº Î±
Î¿ Î½
ÏĦ Î±Î½
Îµ Î½
Î» Î±
ĠÏ ĩ
Î ¾
ĠÏĢ Î¿Ïħ
Î¿ Î¹
ÏĦ Î¬
Îµ Î¯
ÏĦ Î·
Î» Î¹
Î¼ Î±
ĠÎ ¸
Â µ
ĠÎ ¬
Î» Î¬
ĠÎ »
ĠÏĦÎ· Î½
ĠÎ±ÏĢ ÏĮ
ĠÎ ·
ĠÏĦÎ· ÏĤ
Ïģ ÏĮ
Î¿ Ïģ
Îµ ÏĤ
ĠÎ ®
ĠÎ³ Î¹Î±
ÎŃ Î½
Î¬ Î½
Ïĥ Î±
Î¿ Î»
Î¹ Îº
Îº Î¹
ĠÏĦÎ¿ Î½
Îº Îµ
Ïī ÏĤ
Î¿Ïħ Î½
Ïĥ Î¹
ĠÏĥÏĦ Î¿
ĠÏĢ Î±
Ïħ ÏĦ
Ïģ Î¯
Ïĥ ÎµÎ¹
ĠÎŃ Î½Î±
ĠÏĦÎ¿Ïħ ÏĤ
ĠÎ¼ Î±
ĠÎ¸ Î±
ÏĢ Îµ
ĠÎ´ ÎµÎ½
Ïĥ ÏĦ
Î» Î·
Ïģ Îµ
Ïĥ Î±Î½
Î¹ Î¬
ĠÎ ¾
ĠÎ ¤
Ïĩ Îµ
Î» Îµ
Î» Î¿
â Ģ
Î¼ Îµ
Î¯ Î±
Î· Î½
Î¯ Î½
Ïģ Î¿
ĠÎº Î¬
ĠÎ® ÏĦÎ±Î½
ÏĮ Î½
ĠÎ¼ ÎŃ
ĠÎ¼ ÏĢ
Ïģ Ïī
Îº Î±
ĠÎ ĳ
. .
ĠÏĢ Î¿Î»
ĠÏĢ Îµ
ĠÎ ļ
ĠÎ¼ Î¿Ïħ
Î½ Îµ
ĠÎ± ÏħÏĦ
ĠÎ ľ
Îº ÏĮ
ĠÏĥ Îµ
ĠÏĦ Î¹
ĠÎ± Î½
Î½ Î±Î¹
Î³ Î¬
Î¼ ÎŃÎ½
ÏĢ Î±
ĠÎµÎ¯ Î½Î±Î¹
Î³ Îµ
Ïī Î½
Ġ Âµ
Î¾ Îµ
Ï Ī
ĠÎ ¶
ÏĢ Î¿
Î¼ Î¬
ĠÎµÎ¯ ÏĩÎµ
ĠÎ ķ
Îº Î¬
Î¸ Î·
ĠÎ¼ Î¹Î±
ĠÎº Î¹
Î¿Ïį ÏĥÎµ
ÏĦ Î¿
ÎµÎ¹ ÏĤ
ĠÎµÎ¯ ÏĢÎµ
Î³ Î±
Î¿Ïħ ÏĤ
Ïģ Î¿Ï
ÏĢ Î¹
ĠÏĥ Ïħ
Î ¤
ÎŃ ÏĤ
Î³ Î¿
ĠÎ ł
Î»Î¹ Î¬
Î¸ Îµ
ĠÎ² Î±
ÎŃ Ïģ
ÏĮ Ïĥ
Ïģ ÎŃ
Îº Î±Î½
Ïģ Ïĩ
ĠÏĥÏĦ Î·Î½
ĠÏĢÎ¿Î» Ïį
ÎŃ ÏģÎ±
Ïģ Î·
Îº ÎµÎ¯
ÏĦ Î¯
ĠÏĢ Î¬
Ïģ Î®
Ïĥ ÏĦÎµ
Î½ Î·
ÏĮ ÏĤ
Î Ł
Î ľ
Î´ Î¹
Ïĥ Î·
Ïģ Ïİ
ÏĦÎ± ÏĤ
ĠÎ £
ÏĮ ÏĦÎµ
ĠÎ¬ Î»
ĠÎ¿ Î¹
Ïħ Ïĩ
Î ļ
ĠÏĮ ÏĦÎ¹
ĠÏ ģ
ĠÎ Ł
Î¶ Îµ
Î´ Î±
ĠÏĥ Îº
Î¼ ÏĢ
ĠÎ¼ Î¹Îº
ÏĦ ÏĥÎ¹
ĠÎŃ Ïĩ
ĠÏĮ Î¼
ĠÏĥ ÏĦÎ±
ÏĦÎ· ÏĥÎµ
ĠÎ± Î»
ÏĦ Î±Î¹
ĠÏĥ Î¿Ïħ
Ïİ Î½
ÎŃ Î»
ÏĦ Î®
Î½ Î¿
ĠÏĩ Î±
ĠÏĢ Î±Î¹
ĠÏĦÎ¹ ÏĤ
ĠÏĢ Î®
ÎŃ Î½Î±
ĠÏ ħ
Î¿Ï Ģ
Î¿ Î¯
ÏĢ Î¯
Î ĳ
ĠÎ Ī
Î´ Îµ
Î¹ Î¿
Ïģ Ïħ
Î² Î±
Îº Î¹Î±
ĠÎ¼ Î¬
Ïĥ ÏĥÎ±
Ïĥ Ïī
Î¼ Î¿
ĠÎµ ÎºÎµÎ¯
Ïİ ÏĤ
ĠÏĥÏĦ Î¿Î½
âĢ Ļ
Î¸Î· ÎºÎµ
Î´ Î¹Î¬
ÏģÎ¿Ï ĥ
ĠÎº Î¬Î½
ĠÏĢ Î¬Î½
Î½ Î±Î½
ÏĦÎ· ÎºÎµ
ĠÎ¼ÏĢ Î¿Ïģ
Î» Î¿Î¹
Î» Î®
ÎµÎ¯ ÏĤ
Î± ÏĤ
Îº Î¿Ïħ
Î´ Î¹Î±
Ïį ÏĦÎµ
.. .
ĠÎ Ķ
ÏĦ Ïī
ĠÏ Ī
ĠÎ±ÏħÏĦ ÏĮ
Î» ÎµÎ¹
ĠÎ Ĺ
ÏĢ ÏĮ
ĠÎŃ ÏĨ
ÏĮÏĥ Î¿
Î ķ
Î» ÎŃ
ĠÎ²Î± ÏĥÎ¹
ÏĢ Î·
Î¿Ïģ ÏĨ
ÏĢ Î¿Ïħ
Î» ÏĮ
Î¹ ÏĥÎµ
ĠÎ» Î¯
Ïģ Î¿ÏĤ
ĠÎ±Î» Î»Î¬
Ïĩ Î±Î½
Î ł
Îº Î¿Ïį
ĠÏĥÏĦ Î·
ĠÎ´ Ïħ
ĠÎ¼Îµ Î³Î¬
ÏĮ ÏĦÎ±Î½
Î¿Ïį ÏĥÎ±Î½
ÏĢ Î¬
ĠÏĢ ÏīÏĤ
Î¼Î± ÏĦÎ±
Î¿Ïħ Î¼Îµ
Ïİ ÏģÎ±
ĠÎ Į
ĠÎ¬ Î½
Î³ Î¹
ÏĦ ÎŃ
ÎµÎ¹ Î±
ĠÏĨ Î¿
Î¿Î½ ÏĦÎ±ÏĤ
ÏĦ Î¹Î±
ĠÎ¾ Îµ
ĠÎºÎ± Î¸
Îº Î¿
Î¶ Î¯
Ïĥ Î¯
ĠÎº Î¿Ïħ
Î¿Ïį Î½
ĠÎ¼ÎŃ ÏĥÎ±
ĠÎ ĵ
ĠÏĥ ÏĢÎ¯
ĠÎ¤ Î¿
ĠÎº ÏĮ
âĢ ¦
ÏĢ ÎµÎ¹
ĠÏĢ ÏĮ
ĠÎ¼Î± ÏĤ
Ïī ÏĥÎµ
Î¼ Î·
ĠÏĮÎ¼ ÏīÏĤ
ĠÎ± Î³
ĠÎ ĺ
Î Ĺ
ÏĦ ÏĮ
ĠÎ´ Îµ
Î £
Ïį ÏģÎ¹
ĠÏ İ
ÏĢ Î¿Î¹
Î¿Ï ĥ
Î³ Îº
ĠÎ± Ïģ
Î¬ ÎºÎ¹
ĠÏĢÎµ ÏģÎ¹
ĠÏĢ Î¹Î¿
ĠÎ± Ïħ
ĠÏĩ Ïī
ĠÏĢÎ± ÏģÎ±
Ïģ Î¿Ïį
ĠÏĮ ÏĦÎ±Î½
ĠÏĥÏĢÎ¯ ÏĦÎ¹
ÏĢ ÏīÏĤ
Î¿Ï Ĩ
Ïĥ Î¿ÏħÎ½
Î¯Î½ ÎµÎ¹
Ïĥ Î¼ÎŃÎ½
ĠÎ¼Î¹Îº ÏģÏĮ
ĠÏĥÏħ Î½
ĠÎº Î¿
Î» Î¯
Î¼ ÎµÎ½
Î¼ Î®
ÎŃ Ïĩ
Î¶ ÎµÎ¹
ĠÏĦ ÏĮÏĥÎ¿
ĠÏĮ Î»Î±
ĠÏĦ Îµ
ĠÎ¼ ÏĮÎ½
ĠÎ¬ ÏģÏĩ
ÏĦÎ¹ ÎºÎ¬
ĠÎ³ Îµ
ĠÎº Ïħ
ĠÎµ Î½
ĠÎ½ Îµ
ĠÏĥ Î±Î½
ÏģÎ¹ Î¬
Ïģ ÎµÏĤ
ÎŃ Ïĥ
ĠÎºÎ± ÏĦÎ±
ĠÎ¼ÎŃ ÏģÎ±
ĠÎ²Î±ÏĥÎ¹ Î»Î¹Î¬
ĠÎµÎ¯ ÏĩÎ±Î½
ĠÎļ Î±Î¹
Î¬ Ïĥ
ĠÎ± Î½Î±
Î³ Î±Î½
Î³ ÎºÎ¹
ÏĢ Î¿Ïį
Î³ Î·
ĠÏĢ ÏģÎ¹
ĠÎ»Î¯ Î³Î¿
Ïĩ Î½
Î» Î¿Ïį
ĠÏĨÎ¿ ÏģÎ¬
ÏĦ Ïĥ
ĠÎ Ĵ
ĠÏĢ Î¿
ĠÎŃ ÎºÎ±Î½
ĠÎ Ŀ
Ïĩ Î±
ĠÎ´ Î¹Î±
ĠÎºÎ± ÏĦÎ¬
ĠÎ³Î¹Î± ÏĦÎ¯
ĠÎºÎ± Î»Î¬
ĠÎº Î¿Î¹
ĠÏĢ ÏģÎ¿Ïĥ
ĠÏĦ ÏīÎ½
Î Į
Î³ Ïİ
Î´ Î¯
ÏĢ ÎŃ
Î¼ Î±Î¹
ĠÎ¾ Î±Î½
Î Ī
Î¹Îº Î¬
Ïģ Î¹Î±
ĠÎº Î±Î½
ÏĪ Îµ
ĠÎ±ÏĢ Î¿
Î¸ ÎµÎ¯
ĠÎ ¹
ĠÏĢÎ¬Î½ Ïī
ĠÎ¼Î± Î¶Î¯
ĠÎ± ÏĨ
Î» Î¿Ïħ
ĠÎķ Î¯
ĠÂµ Îµ
Î¿Î½ ÏĦÎ¬
Î¤ Î¿
Î³ Î®
Î¶ Î±Î½
Î´ Ïİ
ÏģÎ± Î³
ĠÎ³ Ïħ
ÏĦÎ¹ ÎºÏĮ
Ïĥ ÏĦÎ±
Âµ Î±
Ïİ Î½Î±
ĠÎ §
Î² Î¬
Ïģ Ïį
ĠÎºÎ± Î»
Îļ Î±Î¹
Ïģ ÎµÎ¹
ÏĥÎµÎ¹ ÏĤ
ÏĦ ÏģÎ±
Î¸ ÏģÏī
ĠÏĨ Î¯
ĠÏĥ Î±ÏĤ
ĠÏĨ Î±
ĠÎ» ÎŃ
ĠÏĢÎ±Î¹ Î´Î¹Î¬
Î» ÎµÏĤ
ĠÎŃ ÏĦÏĥÎ¹
Î´ ÎµÏĤ
ĠÎµ ÏĢÎ¹
ĠÎ ī
ĠÏĥÏĦ Î¹
ĠÎ ¯
Î Ŀ
Î¿Ï ĩ
ĠÎ Ĩ
Ïģ Î½
ĠÎĶ ÎµÎ½
ÎŃ ÏĨ
ĠÎºÎ¬ Î¸Îµ
ĠÎ³ Î¹
ĠÎ¶ Ïī
Î¼ ÎŃÎ½Î±
ÏĦÎµ ÏĤ
Ïĥ Îº
ÏģÎ¬ ÎºÎ¹
Î» Ïī
ÏģÎ¯ Î³ÎºÎ¹
ĠÎŃÎ½Î± ÏĤ
ĠÎŃ ÏĢ
ĠÎ± ÎºÏĮ
Î¿Ïį Î»Î±
ĠÎŃ Î²
Î´ Ïħ
Î¾ ÎµÎ¹
ĠÏĦ Î¯
ĠÎŃ Î½Î±Î½
ÏĦÎ¹ Î¬
ĠÏĮÎ¼ Î¿ÏģÏĨ
ÏģÏĮ Î½
Ïģ Î±Î½
ĠÎ¤ Î±
Îº Î±Î¹
ÏĦ ÏģÎµ
ÏĦ ÎŃÏģÎ±
ĠÏĦ ÏĮÏĦÎµ
ĠÎ² Î¬
Î¿Î½ ÏĦÎ±Î½
ÏģÎ¯Î³ÎºÎ¹ ÏĢÎ±
ÏĢ ÏĮÎ½
Î» Î¿ÏĤ
ÎŃ ÏģÎ¹
Ïĥ ÏĦÎ·
ĠÏĢ Î¯
ÏĢ Î®
Ïģ Î¸
Î³ Î¹Î±
Î» Î¿ÏħÏĤ
Ïĥ Î±Î¹
ĠÎ´ Ïį
ÏģÎ¯ ÏĤ
ÎŃÏĥ ÏīÏĤ
Î¿Î¹ ÏĢÏĮÎ½
ĠÎº Îµ
ĠÏĢÎ± ÏģÎ¬
ĠÎ± Î¼
ĠÏĨ ÏīÎ½
Î² Îµ
ĠÏĢ ÏģÏĮ
Îº Î®
ÏĨ Î¹
ĠÏĨ Ïį
ĠÎ´Ïħ Î¿
ÏĦ Ïħ
ĠÎºÎ¬ ÏĦÎ¹
ĠÎºÎ¬Î½ ÎµÎ¹
Ïĥ ÏĦÎ·ÎºÎµ
ĠÏĢ ÏģÎ¯Î³ÎºÎ¹ÏĢÎ±
Î¼ Î¹
ĠÎ¼ÏĮÎ½ Î¿
ĠÏĦ ÏİÏģÎ±
ĠÏİ ÏģÎ±
ÏĮ Î»Î¹
ĠÎ±Ïħ ÏĦÎ¬
ĠÎ¬Î» Î»Î¿
ĠÎµ Î¾
Ïĥ Î¿
ÏĨ Î¬
ĠÎµÎ¯ Î´Îµ
Î¿Î¯ ÏĦÎ±
ÏĦ Î¿Ïħ
ĠÏĥ Î·
Ïĩ Î¹
ĠÏģ Ïİ
ÏģÎŃ ÏĢÎµÎ¹
Î¼ ÏĮ
ĠÎ± Î³Î±
Î³ ÎµÎ¹
Ïį Ïĩ
Î» Ïħ
Î± ÏĨ
ĠÎŃÏĩ ÎµÎ¹
Î³Îº Î¯
ĠÎ±ÏħÏĦ Î®
ĠÎ Ľ
ĠÎ± ÎºÎ¿Ïį
ĠÎŃ Î»Îµ
ÏĨ Îµ
ĠÏĮ Î»Î¿Î¹
ĠÎ¸ ÎŃÎ»
ÏĦ Î¿Î¹
Îº Î·
Î¾ Ïī
Î¹Îº ÏĮ
ĠÏĢ ÎŃ
Î±Î¹ Î½Îµ
ÏħÏĦ ÏĮ
ĠÏĢÎ® Î³Îµ
ĠÎ¬Î½ Î¸ÏģÏī
Î Ķ
Î¼ Î¯
ĠÎļ Î±
Î½ Î®
ĠÎ· Î¼
ĠÏĢ Î¿Î½
ĠÎºÎ±Î¹ ÏģÏĮ
ĠÎ¬ÏģÏĩ Î¹ÏĥÎµ
Ïĥ Î¯Î±
Î³ÎºÎ¯ ÏĢÎ¹
Î½ Î¬
ĠÎ´ ÎŃÎ½
Î¬Î½ ÏĦÎ·ÏĥÎµ
ĠÎºÎ¬ ÏĦÏī
ĠÎ± ÏģÏĩ
Î´ Î·
Î¬ Î»Î±
ĠÎľ Î±
ĠÎ² ÏģÎ¬
ÏĦÎ· ÏĤ
ÏģÎ¯ Î±
ÏİÎ½ ÏĦÎ±ÏĤ
ĠÎµ Î´Ïİ
ĠÎ´ Î¯
Î¿ Î³
ĠÎ¼Îµ ÏĦÎ¬
ĠÎ ¡
ĠÏĢ Î±Î½
ĠÏĢ Î¹Î±
ĠÏĮ ÏĢÏīÏĤ
ĠÎ» Î¿Î¹ÏĢÏĮÎ½
Î¼ÏĢ Î¬
ĠÎŃÎºÎ±Î½ Îµ
ĠÏĨ Ïī
ĠÏĩ Î¬
ĠÎ¼ÏĢ Î±
ĠÎĺ Î±
ĠÏĥÏħ Î¼
ÏĮÎ»Î¹ ÏĤ
Î» Î±Î½
Î¼ÎŃÎ½ Î¿
ÏģÎ¹ ÏĥÏĦ
ĠÎ¼ Î·
Î¸ Î®
Ïİ ÏĥÎµÎ¹
ĠÎ» Î±
ÏģÏħ Ïĥ
ĠÎ²Î±ÏĥÎ¹Î»Î¹Î¬ ÏĤ
ĠÏĦÎ¯ ÏĢÎ¿
Î¹ Ïĥ
Ïĥ Ïį
ĠÏģÏİ ÏĦÎ·ÏĥÎµ
Î½ Î¿ÏĤ
ĠÎ± Îº
Î³ÎºÎ¯ÏĢÎ¹ ÏĥÏĥÎ±
ĠÎµ Î³Ïİ
ĠÎŃ Îº
ÎŃ Î²
ĠÎº ÏĮÏĥ
Î» Î¹Î±
ĠÎŃ Î´
Î»Îµ Ïħ
Î½ ÏĮ
ÏĦ Î¿ÏĤ
ĠÏĥ Ïĩ
Ïĩ ÏģÎ¹
ĠÏĩ ÏģÏĮÎ½
ĠÎľ Îµ
ĠÏĢ ÎµÎ¹
ĠÎ² Î¿
Î¾ Î±Î½
ĠÏĢ ÏģÏİ
ĠÏĩÏī ÏģÎ¯ÏĤ
Î ĵ
ĠÎ¼ÎŃ ÏĩÏģÎ¹
ĠÏĢÎ¬Î½ ÏĦÎ±
ÎŃ ÏĪ
ĠÎ¼ Î·Î½
ĠÎ® Î¸Îµ
Ïģ ÏĦÎ±
ĠÎ´ Ïī
ĠÎ¬ ÎºÎ¿Ïħ
Î· ÏĥÎµ
ÏĦ Î¿ÏįÏĥÎµ
Ïĥ ÏĢ
ĠÎµ ÏħÏĩ
ĠÎ» Ïį
ĠÏĢ ÏģÏī
ĠÎ¿ ÏįÏĦÎµ
ĠÏĥ Î¹
Î¸ Ïħ
ÎŃÏģ Î¹Î±
Î½ ÎµÎ¹
ĠÎ» Î¹
ĠÏĢ ÏģÎ¬
ĠÏĮ Î»Î¿
ÎµÎ¯ Î¿
ĠÎ¼Î¬ ÏĦÎ¹Î±
ĠÎ±Î¼ ÎŃÏĥÏīÏĤ
ĠÎº Î¿Ïģ
Î¿ Îº
ÎŃ Î»Î±
ĠÎ² Î»ÎŃ
ĠÏ į
ĠÎ¼Î± Îº
ĠÏĢ Î¹
Î¼ Î¿ÏģÏĨ
ĠÏĨ ÏİÎ½Î±
ĠÎºÎ± Ïģ
Î»Î· ÏĤ
Ïģ Î¿Ïħ
Î¼ Î¿ÏĤ
ĠÎŃ Î³Î¹
ĠÎ´ Î¬Ïĥ
ĠÏĢÎ® ÏģÎµ
ĠÏ ī
ĠÏĢÎ¿ ÏĦÎŃ
Âµ ÎŃÎ½
Î¼ÎŃÎ½ Î¿ÏĤ
ĠÎī ÏĦÎ±Î½
ĠÎº ÏģÎ±
Î³ Î¹Î¬
ĠÏĢÎµ ÏģÎ¯
ĠÏĥÏħÎ½ ÎŃÏĩ
Îº Î¿ÏĤ
Î»Î¬ ÎºÎ¹
Î¼ÎŃÎ½ Î·
ĠÎ¼ Ïħ
ĠÏĨ Î¿Ïģ
ĠÎ» Îµ
Î¹Îº Î®
Î´ Î¿
Î¿Ïį ÏĤ
ĠÎ¼ÏĢÎ¿Ïģ Î¿ÏįÏĥÎµ
Î½ Î¹
ĠÏĢ ÏģÎŃÏĢÎµÎ¹
ĠÎ¼Î± Î¼Î¬
ĠÏĢÎ¬ Î»Î¹
Î¸ Î¹
ÏĨ Î±
ĠÏĢÏģÎ¯Î³ÎºÎ¹ÏĢÎ± ÏĤ
Î¶ Î¿ÏħÎ½
Îľ Î¹Î±
ĠÎº Î¿Î½ÏĦÎ¬
ĠÎ´ ÏģÏĮ
ĠÎ ¦
ĠÏĥ Î±
ĠÎµ Î¼
ĠÎ±ÏĢ Î¿ÏĨ
Îľ Î±
Î» ÎµÎ¯
Î´ Î®
ĠÎ²Î± ÏĥÎ¯
ĠÏĢ ÎŃÏģÎ±
ĠÏĢ ÏģÎ¿ÏĤ
Ġ âĢ
Î¯ Î¿
ĠÏĢÏģÎ¹ Î³ÎºÎ¯ÏĢÎ¹ÏĥÏĥÎ±
ÏĦ ÏģÎ¿
Î³ Î¿Ïħ
Î³ ÏĮ
Î¬ ÎºÎ¹Î±
ĠÎ¾Î±Î½ Î±
ĠÏĩÏģÏĮÎ½ Î¹Î±
Î½ Ïī
ĠÏĢ ÏģÎ¿
ĠÎ¿ Ïħ
ĠÎ±ÏĢ Î¬Î½ÏĦÎ·ÏĥÎµ
ĠÎĪ ÏĦÏĥÎ¹
ĠÎ½Îµ ÏģÏĮ
ĠÎºÎ±Î» ÏįÏĦÎµ
Ïĥ Ïĥ
Ïĩ Ïī
Î¸ Î±
ĠÎºÎ±Î¸ ÏİÏĤ
ĠÏĢÎ¯ ÏĥÏī
ĠÎ´ Î¹
ĠÏĢÎ¿Î» Î»Î¬
ĠÎ±ÎºÏĮ Î¼Î±
ĠÎ¬Î» Î»Î±
ĠÎ³ Î¯Î½
Î¯Î½ Î±Î¹
ÏģÎ±Î³ Î¼Î±
ĠÎ¿ ÏĢÎ¿
ĠÎºÎ¬ ÏĢÎ¿Î¹
ĠÎº Î¿Î¯ÏĦÎ±
ĠÎ¼Îµ ÏĦÎ±
ĠÎ´ Î¿Ïħ
ĠÎ¤ Î¹
ĠÎ²ÏģÎ¬ Î´Ïħ
ÏģÎ¿Ï ĩ
ÏģÎ¿Ïĥ ÏĦÎ¬
ĠÎ¼ÎµÎ³Î¬ Î»Î·
ÏĨ Î±Î½
ĠÏĢÎ± ÏĦÎŃÏģÎ±
Îļ Î±
ĠÎ´ ÎµÎ¹
ĠÎ³ ÏģÎ®
Î½Î± Î¯
Îº ÎºÎ¹
ÎŃ ÏģÏī
Î¿Ïį Î¼Îµ
Î¤ Î±
ĠÎ¬Î» Î»Î·
ĠÏĥÏĦÎ¹ Î³
ĠÎ± Î³Î¿
ĠÏĨ Î¬
Î¾ Î·
ĠÎĳ Î½
Î® ÏĤ
ÏģÎ¹ Ïĥ
ĠÏĦÎ¯ÏĢÎ¿ ÏĦÎ±
Î»Î¬ Î²
ÏĢ Î»Î±
Î¿Î½ ÏĦÎ±Î¹
ĠÎµÎºÎµÎ¯ Î½Î·
ĠÎ² ÏģÎ®
ĠÎ¶ Î®
Î¸Î· ÎºÎ±Î½
Î¤ Î¹
ĠÎ¼ÎµÎ³Î¬ Î»Î¿
Î» Ïİ
Î³Î¿ ÏģÎ±
Ïį ÏģÏī
ĠÎ» ÏĮ
Î Ļ
Î¯ Î¿Ïħ
ĠÎ´Ïħ Î½Î±
ÏĢ Î±Î½
ĠÎŃ Î²Î±
ĠÎ¸ Ïħ
Î¼Î¬ ÏĦÎ¹
ĠÏĦ Ïģ
ĠÎ³Î¹Î± Î³Î¹Î¬
ĠÏĥÎº ÎŃÏĨ
ĠÏĢÎ±Î¹ Î´Î¯
ĠÎ» Î¿Ïħ
ĠÎļ Î¹
ĠÎķ ÎºÎµÎ¯
ĠÎ³ Î±
ÏįÏģÎ¹ ÏĥÎµ
ĠÎ¼Î¹ÎºÏģÏĮ ÏĤ
ĠÎ± ÏĥÏĦ
ĠÎ±Î½ Î¸
Î¼ Î¿Ïħ
ÏĥÎµ ÏĤ
Î¾ Î¹
ÏħÏĦ ÏħÏĩ
ĠÏĩ ÏģÏħÏĥ
ĠÎ¹ ÏĥÏĦ
ĠÎ³Ïħ Î½Î±Î¯
Î½ Î¿Ïį
ĠÎŁ Î¹
Î¯ ÏĦ
ÏĢ Î¿ÏĤ
Î±ÏĨ Î½
ĠÎµÎ¯ ÏĥÎ±Î¹
ĠÏĥÏĦÎ¹Î³ Î¼Î®
ÎŃ Î±
ĠÎ± Î»Îµ
Î¸ ÎµÎ¹Î±
ĠÏĦ ÏģÎ±
ÏĦÎ¬ ÎºÎ¹
ĠÏĢÏĮ ÏģÏĦÎ±
ĠÎºÎ¿ ÏģÎ¹
ĠÎŃÎ³Î¹ Î½Îµ
Î»Î¹ ÏĥÏĥÎ±
ĠÏĢÎ¬ ÎµÎ¹
ĠÎ¼Î¹Îº ÏģÎ®
ĠÎ·Î¼ ÎŃÏģÎ±
ÏĦ Î¿Î½
Ïĥ ÏħÏĩ
Î¬ ÏĥÎ¹
Îµ Ïģ
ĠÏĨ Ïħ
ĠÏĪ Î·
ĠÎ»ÎŃ ÎµÎ¹
ĠÎ³ÏħÎ½Î±Î¯ ÎºÎ±
ĠÎ³ Î¯Î½ÎµÎ¹
ĠÎĮ ÏĦÎ±Î½
ĠÏĨÏīÎ½ Î®
ĠÎ¼ Î¹
Î³ ÏģÎ±
ĠÏĢÎµ ÏģÎ½
Îľ Îµ
ĠÏĩÎ± ÏģÎ¬
ĠÎ¬Î½ Î¿Î¹
ĠÎĴ Î±
ĠÎ³ÏģÎ® Î³Î¿ÏģÎ±
Î» Î»Î¬
Ïħ Î³Îµ
ĠÏĢÎ± Î»Î¬
ĠÎ¬Î½Î¸ÏģÏī ÏĢÎ¿Î¹
ÎĶ ÎµÎ½
ĠÏĢ Î»Î·
Î¼ ÏīÏĤ
ĠÎ³ Î¬
Î¹ ÏĥÎ±Î½
ĠÎĵ Î¹Î±
ĠÏĢÏģÏī Î¯
ĠÎ±Î½Î¸ ÏģÏİ
ĠÂµ Î±
ĠÎ±Î½ Î¬
ÏģÎ¿Ï Ĩ
ÏĦÎµ Î¯
Î¾ Î¯
ĠÎŃÏĨ ÏĦÎ±
ĠÎ´Ïį Î¿
ĠÎ´Î¿Ïħ Î»ÎµÎ¹
Î Ľ
ĠÎ½ ÏįÏĩ
ĠÎŃ Î¾Ïī
ĠÎµÎ¯ Î¼Î±Î¹
ĠÏĮ Î»Î·
ÏĦÏĥ Î¬ÎºÎ¹
Î¬Î»Î± ÏĥÏĥÎ±
ĠÎ®Î¸Îµ Î»Îµ
Î» Î±Î¹
ĠÎ´ Ïİ
ĠÎºÎµ ÏĨÎ¬
ĠÎ±Î»Îµ ÏĢÎ¿Ïį
ĠÎŃ ÏģÎ¸
Î»Î± Î²Îµ
ĠÏĢÏģÎ¹ Î½
ĠÎ¾Î±Î½ Î¬
ĠÎ±ÏĨ Î¿Ïį
ĠÎŃÎ»Îµ Î³Îµ
ĠÎ´Î¬Ïĥ Î¿ÏĤ
ĠÏĢ ÏģÎ±Î³Î¼Î±
Î³ Ïī
ĠÎ¼Îµ Î³Î±
Ïģ Î¸Îµ
Î»Î¹ ÎºÎ¬
Âµ Îµ
ĠÏĢÎ± Î¯
ĠÎ±ÏħÏĦ ÏĮÏĤ
ĠÎº Î®
Ïħ Îµ
Ïį Î½
ÏĥÏĦÎµ Î¯
ĠÎµÏħÏĩ Î±
ĠÎŃ ÏĦÏģÎµ
ĠÎ³ Î»Ïħ
Î² Î¿
ĠÎ¶ Ïİ
ĠÏĨÎ± Î³Î·
ĠÎ¯ Î´Î¹
ĠÎµ ÏĥÏį
ÏĪ ÎµÎ¹
Î· ÏĤ
ĠÏĢ Î·
Î² Î¹
ÏģÏĮ ÏĤ
ĠÎ¾ Ïį
Î ĺ
ÏĨ Ïħ
Ïģ ÏĩÎµ
ĠÎ³ Î¿Î½
Î¿Ïģ Î¯Î±
ĠÎ¾ ÎŃÏģ
ĠÎ¼ÏĢ ÏģÎ¿ÏĥÏĦÎ¬
ĠÎ²Î¿ Î·
ĠÏĢÎ±Î»Î¬ ÏĦÎ¹
ĠÎºÎ± ÎºÏĮ
ĠÏĥÏĦÎ¹ ÏĤ
ĠÎ¶Ïī Î®
ĠÏĢÏģÎ¬ Î³
ĠÏĦ ÏģÎ¹
ĠÏĥ ÎºÎµ
ÏĨ Î¿
ĠÎºÎ±Ïģ Î´Î¹Î¬
Î½ Ïİ
Î¶ Î±
ĠÎ® Î¾Îµ
Îµ ÏĦÎ±Î¹
ÏĦ Î¿Ïį
ĠÏĢ Î¿Î¹
ÏĮÎ½ Î¿
ĠÎ¼Î±Îº ÏģÎ¹Î¬
ĠÎº Î»Î±
Ïĩ Î¿
ÏĦÎ® ÏĥÎµÎ¹
ĠÏĢÎ® Î³
ÏĦ Î¿ÏįÏĥÎ±Î½
Î» ÎŃÏĤ
Î¶ Ïī
Î±ÏĨÎ½ Î¹ÎºÎ¬
ĠÎºÎ¿ÏģÎ¹ ÏĦÏĥÎ¬ÎºÎ¹
ÏĥÏĦ Î®
ĠÎ¼ÏĢÎ¿Ïģ ÎµÎ¯
Ïģ Î³
Î» Î¯Î±
ĠÎ³ ÏįÏģÏī
ÏĨ Î¹Î±
Î½ Î¿Î¹
ĠÎµ ÏĢ
ĠÎŃ Î»Î±
ĠÎ´ÎŃÎ½ ÏĦÏģÎ¿
ĠÏĥÎºÎŃÏĨ ÏĦÎ·ÎºÎµ
ÏĦ Î¶
Ïĥ Ïĩ
ĠÎ± Îµ
ĠÎŃ ÏĢÎµ
ĠÏĨ ÏĮ
ĠÎ´ÏģÏĮ Î¼Î¿
Ïĥ ÏĦÎ¹
ĠÎ»Î¿Ïħ Î»Î¿Ïį
ĠÎŃÏĩ Ïī
ĠÎ¼ÏĢÎ± Î¼ÏĢÎ¬
Î½ ÎµÏĤ
ÏĢ Ïī
ÏĢ Î¿Ïģ
ĠÏĥ ÏĢÎ¹
ÏģÎ± ÏĤ
ÏģÎµ ÏĢÎµ
ĠÎļ Î¬
ÎŁ Î¹
ÏĢÎ¬ ÏģÏĩ
ĠÏĨÏİÎ½Î± Î¾Îµ
Ïħ Î¸
ĠÎ´ Î¹Î¬
ĠÏĪ Î¬
ĠÎºÎ±Î½ ÎŃÎ½Î±
ĠÎºÎµÏĨÎ¬ Î»Î¹
Ïģ Î¿ÏħÎ½
Îº Î¯Î½
ĠÏĥÏĦ Î¿ÏħÏĤ
Î¶ Î¿Î½ÏĦÎ±ÏĤ
ĠÎºÏĮ ÏģÎ·
ÏĥÎ¼ÎŃÎ½ Î·
ĠÎ´Î¯ ÏĢÎ»Î±
ÏĮÎ½ Î¹
ĠÎĳ ÏĢÏĮ
ÏĦ ÎµÎ¹
ÏĦ Ïį
Ïģ Î¿Î½
Î¯ ÏĥÎµÎ¹
ĠÎ¼Î± Î³
ĠÎ£ Îµ
ĠÎ±ÏĢÎ¿ Îº
ĠÎŃÎ´ ÏīÏĥÎµ
Ïĥ Î¹Î±
ÏĦÎ· Î½
ĠÎ¶ Î·
ÎĮ ÏĦÎ±Î½
ÎĪ ÏĦÏĥÎ¹
Ïģ ÏĢÎ±
ĠÎµ Îº
ÏģÎ¿Ï Ģ
ĠÎ±ÏĢÎ¿ÏĨ Î¬ÏĥÎ¹
ĠÎºÎ±Î»ÏįÏĦÎµ ÏģÎ±
Ïģ ÏĨ
ĠÎŃÏĩ Î¿ÏħÎ½
Îµ Ïį
ĠÎ» Î¬
ĠÎķ Î¯Î½Î±Î¹
ĠÎ³Î¿Î½ ÎµÎ¯ÏĤ
ÏĢ Î¿ÏħÏĤ
ĠÎ²Î±ÏĥÎ¯ Î»Î¹ÏĥÏĥÎ±
Ïĥ ÎºÎµ
ÏĢ ÏĢÎ¿Ïį
ĠÏĨ Î±Î½
Î¶ Î¹
Î½Î· ÏĥÎµ
Î· ÎºÎµ
Î¼ ÎµÎ¹
Î¼ Î¿Î½
ĠÎ¿ Î¹Îº
ĠÏħ ÏĢÎ®
Ïĥ Î¼Î±
ĠÎ¼ Î¯Î±
ÏĨ Î¿Ïģ
ĠÎ® Î»Î¹
Î® Î¸ÎµÎ¹Î±
ĠÎ® ÏģÎ¸Îµ
Î¼ÎµÎ½ Îµ
ĠÎŃÎ² Î»Îµ
ĠÎºÎ¿Î¯ÏĦÎ± Î¾Îµ
Ïĥ Î¿ÏħÎ¼Îµ
ĠÏĮ ÏĥÎ¿
ĠÎºÏĮ ÎºÎºÎ¹
ĠÏĦ ÏģÏĮ
ĠÏĥÏĦ Îµ
ĠÏĩ Î¿Ïģ
Ïĥ ÏĦÎ¬
ÏģÎ¬ ÎºÎ¹Î±
ĠÎ¸ Î¬Î»Î±ÏĥÏĥÎ±
ĠÎ¤ ÏĮÏĦÎµ
ÎŃÏģ ÎµÏĤ
ĠÎ½Îµ ÏģÎ¬
ĠÎŃÏĢ Î±Î¹
ÏĥÏĥ ÏĮÏĦÎµ
ĠÏĦ ÏģÎŃ
ĠÏħ ÏĢ
ĠÎºÎ¬Î½ Ïī
ĠÎºÎ±ÏĦÎ± Î»Î¬Î²
Î½ ÏĮÏĦÎ±Î½
ÏĢ Î»Î·
ĠÏĩÎ± ÏģÎ¿Ïį
ĠÏĢÎ±Î¹ Î´
ĠÎŃÏĩ ÎµÎ¹ÏĤ
ĠÏĩÏī ÏģÎ¹
ĠÎ¬ÏģÏĩ Î¹ÏĥÎ±Î½
ĠÎµÎ½ Ïİ
ÏĩÎ½ Î¯
ĠÎºÎ±Î½ ÎµÎ¯ÏĤ
â Ī
ĠÎº ÏģÏį
ĠÎºÎ± Î»ÏĮ
ĠÎĿ Î±
ĠÎ±Î³Î¿ ÏģÎ¬ÎºÎ¹
âĪ Ĩ
Ïħ ÏĢ
ĠÏĩ Î¹
ÏĢÎ¿ Î¹Î±
ĠÎ³Îµ Î¼Î¬
ĠÏĨÎ±Î³Î· ÏĦÏĮ
ĠÎ¸ ÎŃ
ÏĪ Î±
Î¿Î³ ÎŃÎ½
ĠÎ¬ÎºÎ¿Ïħ ÏĥÎµ
ĠÎ´Î¿ÏħÎ»ÎµÎ¹ Î¬
ĠÏĦ ÏģÎ±Î³
ÏĨ Î¿ÏĤ
ĠÂµ Î¹Î±
ĠÎµÎ¼ ÎµÎ¯ÏĤ
ĠÎ Ļ
ÏĦ ÏĮÏĤ
Î» Î»Î±
ĠÎ± Î´Îµ
ĠÎ±ÏĢ Î±
ĠÏĩ Ïİ
Ġ "
Î³ ÏĮÏĤ
ĠÏĥÏĦ ÏģÎ±
ĠÎ¬ ÏĨ
ĠÏĢÏĮ Î´Î¹Î±
ĠÏĢÎµÏģÎ¹ ÏĥÏĥÏĮÏĦÎµ
ÏĥÎ¼ÎŃÎ½ Î¿
ÏĥÎ¼ÎŃÎ½ Î¿ÏĤ
ĠÏĦÎµ ÏģÎ¬
ĠÎŃÎ²Î± Î»Îµ
ĠÏĥ Î®
ĠÎ² ÏģÎµÎ¹
ĠÏģ Î¿Ïį
ĠÏĦ ÏĮ
Î¼ Î¹Î¬
Î³ Î³
ÏĦÎ· ÏĦÎ±
ĠÏħ ÏĢÎ¬ÏģÏĩ
ĠÎ¿ Î»ÏĮ
ĠÏĨ ÏĦÎµ
Î³Î¬ ÏĢÎ·
ĠÎ¶ Îµ
ÎĿ Î±Î¹
ĠÎ¼Î¹Îº ÏģÎ¬
ĠÎ±Ïģ ÎºÎµ
ÏĦ Î¿ÏĢ
ĠÏĦ Ïĥ
Î¯ ÎµÏĤ
ĠÏĦÎ± Î¾Î¯
ĠÎºÎ± ÏĦÎŃ
Î¬Î½ Ïī
ÎºÎ¹ Î¬
ĠÎ¼ÎŃ ÏģÎµÏĤ
Î¤ Î·Î½
ÏĢÎ¿Ïħ Î»Î¿
ĠÎŃÏĢ ÏģÎµÏĢÎµ
Ïģ Î³Î±
ĠÏĦ ÎŃÎ»
Î» Î¿ÏĢ
ĠÏĥ Î¿
ĠÎ² Î¹
ĠÏĩ ÎŃÏģÎ¹Î±
ĠÏĢÎ± ÏĢÏĢÎ¿Ïį
ÎºÎ± Î»Î¹Î¬
Î¼ÎµÎ½ Î·
ĠÎ¿Ïħ ÏģÎ±Î½
ĠÎ¿Î¹Îº Î¿Î³ÎŃÎ½
Î» Î»Î¿
Îº ÎŃÏĤ
Î¼ Ïī
ĠÎ¼ ÏĮÎ»Î¹ÏĤ
Ïĩ ÎµÎ¹
ĠÎ´ Î¬
ÏģÎ¬ ÏĥÎµÎ¹
ĠÎ² Î³Î®
ĠÏĩ ÎŃÏģÎ¹
ÎµÎ¯ Î±
ÏĥÏĦÎµ ÏģÎ±
ĠÎºÎ±ÏĦÎ¬ Î»Î±Î²Îµ
ĠÎµ ÏħÏĦÏħÏĩ
ÏĦÎ· ÏĥÎ±Î½
Âµ Î¬
ÏĢÎ± Î¸
ĠÎºÏĮÏĥ Î¼Î¿
ĠÎ²ÏģÎ® ÎºÎµ
ĠÎº ÏįÏģÎ¹
ÏĨ ÎŃÏģ
ĠÏĮ Î»Î¿ÏħÏĤ
ĠÏĢÎ¬ ÏģÎµÎ¹
ĠÎ±ÏĨ Î®
ĠÏĥÏĩ Î¿Î»
ĠÎ¬Î½Î¿Î¹ Î¾Îµ
Î½Î± ÏĤ
ĠÎ» ÎµÏĤ
ĠÎł Î±
ĠÎ£ ÏĦÎ±
ĠÎ¸ÎŃÎ» Ïī
ĠÎµ Ïħ
ĠÎµ ÏĢÏĮ
ĠÏĮ ÏĢÎ¿Ïħ
ĠÏĥÎº Î¿
Î»Î® ÏĤ
ĠÎ±Î³Î± ÏĢ
ĠÎºÎ® ÏĢÎ¿
Î¯ ÏĥÏĦÎ·ÎºÎµ
ĠÎ± Î´
ĠÏĨ ÎŃÏģ
ĠÎ´Ïī Î¼Î¬ÏĦÎ¹
ĠÏģÎ¿Ïį ÏĩÎ±
ĠÎ ĸ
Î¹ Î¹
ĠÎº ÏģÎµ
Î³ ÎµÏĤ
Î¸ ÎµÎ¹
ĠÏĩ ÏģÏİ
. âĢ
ĠÎ ŀ
ÏĦ Ïİ
ÏģÎ· ÏĤ
Î±Î½ ÏĦÎ¬
Ïħ ÏĨ
ĠÎ³ ÏģÎ¬
ĠÏĨ ÏĦÎ¬
ÎŃÎ½ Î±Î½
ĠÎ±Î³ ÏĮ
ĠÎķÎ¯ ÏĩÎµ
Îĵ Î¹Î±
ĠÏī ÏģÎ±
ĠÏĨÎ¿Ïģ ÎŃÏĤ
ĠÎŃÏĨÏĦÎ± ÏĥÎµ
ÏĦ ÏģÏī
Î· ÏĥÎ±Î½
ĠÎº ÏģÏħ
Î¼ Î¼Î±
ĠÏĨ ÏĦÎ¹Î¬
ĠÎ¸ Îµ
ĠÎĳ ÏħÏĦ
ĠÏĥÏħÎ½ÎŃÏĩ Î¹ÏĥÎµ
ĠÎ¼ÎµÎ³Î± Î»
ĠÎ®Î¾Îµ ÏģÎµ
Îº Î¿Î»
ÎŃ ÏĢ
ÏģÎµ ÏĥÎµ
ĠÏĢÎ¿Î» Î»ÎŃÏĤ
ĠÎ±Î³Î± ÏĢÎ·
ĠÎ¶Ïİ Î±
. "
Î¬ Ïģ
ĠÎº Î¿ÏħÎ½
ÏĮ Î»Î¿Ïħ
Î±Î¹ Î½Î±Î½
ĠÏĥÏĦ ÏĮ
ĠÏĢÎ¿Ïħ Î»Î¹Î¬
ĠÎŃÏĨ Îµ
Î» Î¿ÏįÏĥÎµ
ĠÎº Î¿ÏĢ
ĠÏĢ Ïī
ĠÎ¬ ÏĥÏĢ
ĠÎ¼ÏĢ Î®
ĠÎ±ÏħÏĦ Î¿Î¯
! .
Î ŀ
ĠÎº Î¿Î»
ÏģÎ¹ Î²
Î¤ ÏĮÏĦÎµ
ĠÏĥÎ¹ Î³Î¬
ĠÎ¼ Î®
ÎŃÎ½ Îµ
ÎºÏĮ ÏĦÎ±Î½
ÏĢÎ¿ ÏĦÎµ
ĠÎ±ÎºÏĮ Î¼Î·
Î ¥
ĠÎ± Î³Î¬ÏĢÎ·
ĠÏĮ ÏĩÎ¹
ĠÎ¤ Î·Î½
Î¯Î½ Î¿ÏħÎ½
ĠÎµÎºÎµÎ¯ Î½Î¿ÏĤ
ĠÎŃÎºÎ±Î½ Î±Î½
ĠÎ»ÏĮ Î³Î¹Î±
ĠÎ¹ÏĥÏĦ Î¿ÏģÎ¯Î±
Î¿ Î½Î±
ÏģÎ¹ ÏĥÎµ
ÏĥÎ· ÏĤ
ĠÏĢÎ±Î¹ ÏĩÎ½Î¯
ĠÎ¯ Î´Î¹Î±
ĠÏĮÎ¼Î¿ÏģÏĨ Î±
Î± Î±
ĠÎ¼ÏĢÎ¿Ïģ Ïİ
ĠÏĨÏī Î»Î¹Î¬
Î¿ Î´Î¿
ĠÎº Î»ÎµÎ¹
ÎŃ ÏĥÎ±
ĠÏĥ Ïī
Î¸ Î¿Ïħ
ĠÎºÎ¬Î½ Î¿ÏħÎ½
ĠÏĨÎ¿ Î²
ĠÏĢÏģÏİ ÏĦÎ·
ĠÎ±Î½Î¸ÏģÏİ ÏĢÎ¿ÏħÏĤ
ĠÏĥÎºÎµ ÏĨ
Î´ Î¬
Î¼Î± ÏĥÏĦÎµ
ĠÏĢÎµ ÏĦÎ¬
ĠÏĢÎµ ÏģÏĢÎ±
ĠÏĪ Î±
Îķ Î¯
ĠÎ¾Îµ ÎºÎ¯Î½
ĠÎ·Î¼ ÎŃÏģÎµÏĤ
ĠâĢ ĺ
ĠÎ½ÏįÏĩ ÏĦÎ±
ĠÎŃÏģÎ¸ ÎµÎ¹
Î» ÏīÏĥÎµ
ĠÏĢ Î»Î¬
ĠÏĥ ÏįÎ½
ĠÎ± ÎŃÏģÎ±
ĠÎŃÎ»Îµ Î³Î±Î½
Î± ÏĢ
Îº ÏģÏħ
ĠÎ¼ Î¿Î½
ĠÏĩ ÎµÎ¹
Î¾ Ïį
ÏĥÏĦ ÏģÎ¿
ĠÎĳ Î»Î»Î¬
ĠÏĢÎ¬ ÏģÎ±
ĠÎĮ Î¼ÏīÏĤ
ĠÏĪÎ· Î»Î¬
Î Ĵ
ĠÏĦ ÏģÎ¿
Î» Î¿Î½
ĠÏĢ ÏĮÏĥÎ¿
ĠÎ¼Îµ ÏģÎ¹
ĠÏĥÎº Ïį
ĠÎ±Î³ ÎºÎ±Î»Î¹Î¬
ĠÎ¯Î´Î¹ Î¿
Î §
Î¼ Î¯Î±
ĠÎµ ÏĢÎŃ
Î² Î¿Ïħ
ĠÎºÎ± Î»Î®
ÏĦÎ· ÎºÎ±Î½
Î¹Îº Î±
ĠÎĳ ÏħÏĦÏĮ
ĠÂµ Î¿Ïħ
ĠÎ¶ Î¿ÏįÏĥÎµ
ĠÎŃÏĨ ÏħÎ³Îµ
ĠÏĢÎ±ÏģÎ¬ Î¸Ïħ
ĠÎ´ÏīÎ¼Î¬ÏĦÎ¹ Î¿
ÏĦ ÏĥÎ±
Ïĩ Î½Îµ
ÏģÎ± Îº
ĠÏĨ Î¹
ÏĦÎ¹ ÎºÎ®
ĠÎºÎ¬ Î¸
ÏĪ Î±Î½
ĠÎºÎ¿ Î¼
ĠÏĮÎ¼Î¿ÏģÏĨ Î·
ÎŃÎ² Î±Î¹
ĠÏĢÎ±ÏĦÎŃÏģÎ± ÏĤ
Î¸ Î¿ÏĤ
ĠÎ³ ÏįÏģÎ¹ÏĥÎµ
ĠÎºÎ± Î»Î¿
Îļ Î¹
ĠÏĮÎ¼Î¿ÏģÏĨ Î¿
ĠÏĢÏģÎ¬Î³ Î¼Î±ÏĦÎ±
ĠÎº Î»Î¿Ïħ
ĠÏĮ Î»ÎµÏĤ
ĠÎ» Ïħ
ĠÎ¼Î± Î»
ĠÎºÏħ Ïģ
ĠÎºÎ±ÏĦÎ¬ ÏĨÎµ
ÏĥÎº Î¿Î»
Î³ÏģÎ± ÏĨ
ĠÏĥÏĦÏģÎ± ÏĦÎ¹
ĠÏĥÏĩÎ¿Î» ÎµÎ¯Î¿
Î Ĩ
Î ī
Î¿Ï Ī
ÏĦÎµ Ïħ
Î¾ ÎµÎ½
ĠÎľ Î¹Î±
ĠÏħ ÏĢÏĮ
ĠÎ¼Î· ÏĦÎŃÏģÎ±
ĠÎŃÏĢÎµ ÏĥÎµ
Îµ Î³
Îº Î»Î·
ĠÏĢ Î¹Î¬
Ïİ Î¸Î·ÎºÎµ
ĠÏĩ ÏİÏģÎ±
âĢ Ŀ
Î¶Îµ ÏĦÎ±Î¹
ĠÎºÏħ Î½Î·
ĠÎŃÎ² Î³Î±
ĠÏĢÎ®Î³ Î±Î¹Î½Îµ
ĠÎŃ Î¼ÎµÎ¹
ĠÎ³ ÎµÎ½
ĠÎ¿ Î¼Î¿ÏģÏĨ
ÏĦÎ¬ ÎºÎ¹Î±
ĠÎºÎ¿Î¹ ÏĦÎ¬
ĠÎ³Ïħ ÏģÎ¯
ĠÎ»Î¹ Î¿Î½ÏĦÎ¬
ĠÏį ÏĢ
ĠÎ±ÏĢÎ¿ÏĨÎ¬ÏĥÎ¹ ÏĥÎµ
Î³ Î¿Î½ÏĦÎ±ÏĤ
ĠÎ½ ÏĮ
ĠÎ³ Î½Ïī
ĠÎ² Îµ
ĠÎ² ÏĮ
ÏĥÏĦ Î¿
ĠÏĩÎ± Î¼Î¿
ĠÏĢÎ±ÏģÎ± Î¼
ĠÏĥÎ· Îº
ĠÎ»Ïį ÎºÎ¿ÏĤ
ĠÏĢÏģÎ±Î³Î¼Î± ÏĦÎ¹ÎºÎ¬
ĠÏĦÎŃÎ» Î¿ÏĤ
Ïģ ÎŃÎ½
Ïĥ Ïħ
Î¯ Î³Î¿Ïħ
Î³ ÎµÎ½
Î±Î½ Îµ
ĠÎµÎ¯ Î´
ĠÏĨ Î¬Î½
ÏĥÏĦ ÏģÎµ
ĠÎľÎµ ÏĦÎ¬
ĠÏħÏĢÎ® ÏģÏĩÎµ
Î¸ Î¿ÏįÎ½
ĠÎ´ ÎµÎ¯
ÏģÎ¹ Î¿
Î¿Î» Ïį
ĠÏģ Î¯
ĠÎķÎ¯ ÏĢÎµ
ĠÎ»Îµ ÏĢ
ĠÏĦÏģÎ± ÏĢÎŃ
ĠÎ¿ÏħÏģÎ±Î½ ÏĮ
Î» ÏīÎ½
Ïĥ Î¬
ĠÎŃ Î½Î¹
ĠÏĩ ÏģÎ®
ĠÎ¬ Î³
ĠÎ» ÎŃÎ½Îµ
ĠÎ¼ÎŃ ÏģÎ¿ÏĤ
ÏĦ ÏģÎ¹
ĠÏĦ ÎŃ
Î´ ÏĮÎ½
ĠÎ³ Î¿Ïħ
ÏĨ Î¿Ïį
ĠÎ² Î¿ÏħÎ½
ĠÏĢÎ± ÏģÎŃ
ÏĦÎ¿ Î¼Î±
ÏĦÎ¹ÎºÏĮ ÏĤ
Î»ÎµÏħ ÏĦÎ±
Î¿ Î¼Î¯
Ïĥ Î¿Ïħ
ĠÏĢ Ïħ
Ïħ Î¼Î±
Î¸ ÏİÏĤ
ĠÎ² ÏģÎ¯
ÏĥÏĦ ÏĮ
Î»Î· ÏĥÎµ
Î²Î± Î¯Î½ÎµÎ¹
Îĺ Î±
ĠÎ¼ÏĢÎ±Î¼ÏĢÎ¬ ÏĤ
ĠÎ³ ÎŃ
Î¿Î½ ÏĦ
ÏĦÏī Ïĩ
ĠÏĦÏģ ÎµÎ¹ÏĤ
Îº Î¿Î¯
ĠÎºÎ±Î¹ Î½Î¿Ïį
ÏĥÎ¹ Î¬
ĠÎ±Î½ ÏĦÎ¯
Î¸Î· ÏĥÎµ
ÏİÎ½ ÎµÎ¹
ĠÎ±Îº ÏģÎ¹Î²
Ïĩ Î¿ÏĤ
ĠÎŃ Ïĥ
ÏĦÎ¹ Î¿Ïį
Î² Î¯
Î¯Î½ Ïī
ÏĦÏĥ Î¹Î±
ĠÏĥÎ· Î¼Î±
ĠÎŃÎ²Î»Îµ ÏĢÎµ
Î³ ÎºÎ¬
Î¹Î± ÏĥÎµ
ĠÎ½ ÎŃ
ĠÏĮ Î½Î¿
ĠÎºÎ±Î¸ ÏĮÎ»Î¿Ïħ
ÏĢÎµÎ¹ Î´Î®
ĠÏĨÏīÎ½ Î¬
ĠÏħÏĢÎ¬ÏģÏĩ ÎµÎ¹
ÎŃÎ²Î±Î¹ Î±
ĠÏĢ ÏİÏĤ
ĠÎ¼ Î¿Î¹
Î±Î½ Î±
Î¸ Î¬
ÏģÏĮ Î½Î¿
ĠÎ¾ Ïī
Î¼Îµ ÏģÎ±
ÏĪ Î·
ĠÎ²Î¿Î· Î¸Î®
ĠÎ±Î´Îµ ÏģÏĨ
Ġ âĪĨ
Î± Î¼
Î± ÏħÏĦÏĮ
ĠÎ´ Î·
ĠÎ¾ ÎŃÏģÏī
Î³Î¬ ÏģÎ¹
ÏīÎ½ Î¯Î±
Îķ ÎºÎµÎ¯
ĠÎ²Î±ÏĥÎ¹ Î»ÏĮ
ÎĮ ÏĩÎ¹
ĠÏĦÏģÎ±ÏĢÎŃ Î¶Î¹
; ,
ÏĦ ÎŃÎ»
Î¯ Î½Î±
ĠÏĢ ÎµÎ¯
ÎŃ Î±ÏĤ
Ïħ Î»Î¿
ĠÎ´ ÏģÎ¬
ĠÏĩ ÏĦÏħ
Î¾ ÎµÎ¹ÏĤ
ĠÎ¬ Î»Î¿
ĠÏĥÎº ÎŃÏĪ
ĠÏĥÏĦÎ± Î¼Î¬
ĠÎºÎ¬Î½ ÎµÎ¹ÏĤ
ĠÏĦÎµ Î»ÎµÏħÏĦÎ±
ĠÏĨÎ± Î¯Î½
ĠÎ¬Î½Î¸ÏģÏī ÏĢÎ¿ÏĤ
ÏĥÏĩ Î·
ĠÎ²Î¹ Î²
ĠÎ»Î¹Î¿Î½ÏĦÎ¬ ÏģÎ¹
ĠÎ¼ Î¿Î½Î±
ĠÏĥ ÏĩÎµ
Î® ÏĥÎµÎ¹
ĠÎµÎ¯ ÏĩÎ±
ÏĥÎ± Î¼Îµ
Î»Îµ Ïį
Î¯Î± ÏĤ
Î¯Î½ Î·
ĠÎ¹ Î´
ĠÏĢÎŃ ÏĦÎ±
ÎŃÏĪ ÎµÎ¹
! !
ĠÏĦ ÏģÏİ
Î¯ Î´Î±
ĠÏĥ ÎºÎ±
ĠÎ² ÏģÎŃ
ĠÎĮ Î»Î¿Î¹
ĠÏİ ÏĥÏĦÎµ
ÎĿ Î±
ĠÎ¾Ïį ÏĢ
Î¼ Î¼
ÏģÎ¹ Î½
ĠÎµÎ¯ ÏĢÎ±Î½
ĠÏĨ ÎµÎ³
Î¾ Î±
Î¾ Î¹Î¬
ĠÏĢÎ¿Ïħ Î»Î¬ÎºÎ¹
Î¼Î± ÏĦÎ¹
ĠÎ¤ ÏİÏģÎ±
ĠÎľ ÏĢÎ±
ĠÎķ Î³Ïİ
ĠÎ²Î± Î¸
ĠÎ¼Î¬ Î³Î¹
ĠÏĨÎ¯ Î»Î¿ÏħÏĤ
ĠÎ±Îº Î¿Î»
ĠÏĢÎŃÏģÎ± ÏĥÎµ
ĠÏĢ Ïį
ĠÎ´ Î±
ĠÏĨ ÏĦÏīÏĩ
Î¶ ÏĮÏĦÎ±Î½
ĠÏĩ ÏģÎµÎ¹
Î¾ Î¿ÏħÎ½
Î»Î¬ ÎºÎ¹Î±
ÏģÎ¯ Î¸Î·ÎºÎµ
ĠÎ¼Î¿Ïħ Ïĥ
ĠÏĨÏį Î³ÎµÎ¹
ĠÏĥÎ· Î¼
ĠÎºÎ¿Ïģ Î¯
ĠÏĨÎ¬ ÎµÎ¹
ĠÏĥÏĦÏĮ Î¼Î±
ĠÎ¼Î¬Î³Î¹ ÏĥÏĥÎ±
" ,
ÏĨ Î¬Î½
Î¿Ïģ ÏĦÎ¿
ĠÎł Î®
Î¿ÏĢ Î¿Î¹
ĠÎŃÏĨ ÏĦÎ¹Î±
ĠÎ¬Î½ ÏĦÏģÎ±
ĠÎ±Ïģ Î³Î¬
ĠÏĢÏģÏĮ ÏĥÏī
ĠÏī ÏĤ
ĠÎµÏħÏĩÎ± ÏģÎ¹ÏĥÏĦ
ĠÎº Ïį
ĠÏĥ Î¯Î³Î¿Ïħ
ĠÎ±Î½ ÎŃÎ²
ĠÎºÎ¿Ïħ Î²
ĠÏĥÏĢÎ¹ ÏĦÎ¬ÎºÎ¹
ĠÎ½ÎµÏģÎ¬ Î¹
ĠÎµÎ¯Î´ Î±Î½
Î» Ïį
Îº ÏĦÎ¹ÎºÎ¬
ĠÏĢ Î»Î¿Ïį
ĠÎ± Î¯
Ïĩ Î¬
ĠÎŃ ÏĦÎ¿Î¹
ĠÏĨ ÏīÏĤ
Î»Î¹ ÏĥÏĦÎ±
.. ..
ĠÎ±ÏħÏĦ ÏĮÎ½
ĠÏĥÏħ Î½Îµ
ĠÏĥÎº Ïħ
ĠÎ±Î» Î®Î¸ÎµÎ¹Î±
ĠÎĹ ÏģÎ±Îº
ĠÏĦÎµ Î»ÎµÎ¯
ĠÎ²Î»ÎŃ ÏĢ
ÂµÎŃÎ½ Î¿
ÎľÎµ ÏĦÎ¬
ĠÏĢÎ· Î³Î±
ĠÎ»Î¿ÏħÎ»Î¿Ïį Î´Î¹Î±
ĠÏħÏĢÏĮ Î»Î¿Î¹
ÏĦ ÏģÎµÏĤ
Ïĥ Î¼Î±ÏĦÎ±
Îº ÎµÏĤ
Îº ÏģÎ·
ĠÎ® ÏģÎ¸
ĠÏģ Î¬
Î¿Ïĩ Î®
ĠÎŃÎ´ ÎµÎ¹
ĠÎºÎ±ÏĦÎŃ Î²
ĠÎµÏĢÎŃ ÏĥÏĦÏģÎµ
ÏĦ ÏģÎ¬
ÏĦ ÎŃÏĤ
ÏĦ ÏİÎ½ÏĦÎ±ÏĤ
Ïģ ÎŃÏĤ
ĠÎ¼ Î±Î½
ĠÏĥÏĦ Î¬
ĠÎºÎ¬ ÏĢÎ¿Î¹Î±
ĠÎ±Î½ Î¿Î¯
ĠÎ£ ÏĦÎ¿
ĠÏĢÎµÏģÎ¹ Î¼ÎŃÎ½
ÏĥÏĦÎ· ÎºÎ±Î½
ĠÎ´Ïį Î½Î±
ĠÎ³Î¯Î½ ÎµÏĦÎ±Î¹
ĠÎ¼ÎµÏĦÎ± Î¾Ïį
ĠÎ´ÏħÎ½Î± ÏĦÎ¬
ĠÏĢ Î¿Ïį
ĠÎľ ÏĮÎ»Î¹ÏĤ
ÎºÎ¿Ïħ Î²Î¬
ĠÏĢÏĮ Î»Î·
Î³Î· ÏĥÎµ
ĠÎ±ÏĥÏĦ ÎŃÏģÎ¹Î±
ĠÎ¿Î¹ÎºÎ¿Î³ÎŃÎ½ ÎµÎ¹Î±
Î±Î½ÏĦÎ¬ ÏĨÏħ
ĠÎ¼ÏĢÎ® ÎºÎµ
ĠÎ¿Î¼Î¿ÏģÏĨ Î¹Î¬
Îµ ÏĦÎµ
ĠÏĦ ÏĮÏĥ
ĠÏĢ Î»Î±
Î¼ Î¿ÏħÎ½
Î³ Ïħ
Î³ ÏģÎ¬
ĠÎŃ ÏĥÏĦ
ÏģÎ¹ Î¿Ïį
Î¶ Î¿
ĠÎ¼Î± Ïį
ÏĥÏĦ ÏħÏĩ
ĠÎ¾ Î±ÏĨÎ½Î¹ÎºÎ¬
ĠÎ¤ Î¿Î½
ĠÎ¼Î¹Îº ÏģÎ¿Ïį
ĠÎ¼ÎµÎ³Î¬ Î»Î±
ĠÏĢÎ±Î½ ÏĦÏģÎµ
ĠÎºÎ¬ÏĢÎ¿Î¹ Î¿ÏĤ
Î¯ÏĦ ÏĥÎ±
ĠÎ¼Î±Î» Î»Î¹Î¬
! ,
ĠÏĦ ÏģÎ¯Î±
Î» Î¿ÏįÏĥÎ±Î½
Ïĩ ÏĦÏħ
ÏĥÎµ ÏĦÎµ
ĠÏĮ Âµ
ĠÎ² ÎŃÎ²Î±Î¹Î±
ÏģÎ· ÏĥÎµ
Îļ Î¬
ĠÏģ Ïī
ĠÏĥÎº Î¯Î¿Ïħ
ĠÎµÎºÎµÎ¯ Î½Î¿
ÏĦÎ¿Ïħ ÏĥÎ±Î½
ĠÏĢÎµÏģÎ¯ Î¼ÎµÎ½Îµ
Î¯ÏĦ ÏģÎ¹
ĠÏĦÏģÎ¹ Î±Î½ÏĦÎ¬ÏĨÏħ
ÏĦÏį ÏĢÎ·
ĠÎ¼ÎµÎ³Î±Î» ÏįÏĦÎµ
ĠÎ±ÎºÏģÎ¹Î² ÏİÏĤ
Î³ Î¿ÏĤ
ĠÎ³ Îº
ÎºÎ± ÏĤ
Î±ÏĨ Î±Î½
ÏģÎ¹Ïĥ ÎºÏĮÏĦÎ±Î½
ĠÎŃÎ»Î± ÏĦÎ¿
Î Ĳ
ÏĦ Î¿ÏħÏĤ
Ïģ ÎµÎ¹ÏĤ
ĠÏĦ Ïħ
ĠÏĦ ÏģÎ¯
Î» ÏĢÎ¯
Î» ÏİÎ½ÏĦÎ±ÏĤ
Î¼ Î¹Î±
Î´ ÎµÎ¹
ĠÎ³ Î½Ïİ
ĠÎºÎ± Î¼Î¹Î¬
ĠÎŃÏĨ Î±
ĠÏİ ÏģÎµÏĤ
ĠÏĦÎµ Î»Î¹ÎºÎ¬
ĠÎºÏħ ÏģÎ¯Î±
ĠÏĢÏģÎ¿Ïĥ ÏĢÎ±Î¸
ĠÏĨÎ¯ Î»Î¿Î¹
ÎŃÎ»Î± ÏĥÎµ
ĠÏĢÎ»Î· ÏĥÎ¯Î±
ĠÏĥÏĦÎµ Î½Î±
ĠÏĩÏīÏģÎ¹ ÏĮ
ĠÎ²Î±ÏĥÎ¹Î»ÏĮ ÏĢÎ¿ÏħÎ»Î¿
Î¯ Î¶ÎµÎ¹
ĠÏĥ ÎºÎ¹
Î¬Î½ Î¹
ÏģÎµ Ïħ
ĠÎ¤ Î¿Ïħ
ÏĮÎ½ ÏĦÎ¿ÏħÏĥÎ±Î½
Î¼ÎŃÎ½ Î¿Î¹
ÏĮÏĦÎµ ÏĤ
ÏģÏħ ÏĥÎ±
ÎŃÏĩ ÏģÎ¹
ĠÎµÎ½ ÏĮÏĤ
ĠÎŃÏĦÏģÎµ Î¾Îµ
ĠÎ»Î¿ÏħÎ»Î¿Ïį Î´Î¹
ĠÎºÎ±Î½ÎŃÎ½Î± ÏĤ
ĠÏĦÎ±Î¾Î¯ Î´Î¹
ĠÏĦ Î¿Ïį
ĠÎ² Î³Î¬
ÏĥÏĦ Î¹Î±
ĠÎĳ ÏĢ
ĠÏĢÎµ ÏģÎ¬ÏĥÎµÎ¹
ĠÂµ Î¹Îº
ĠÎł Îµ
ĠÎŃÏĩ Î¿ÏħÎ¼Îµ
Îĳ ÏħÏĦÏĮ
Î£ Îµ
Î¼Î® Î¸Î·ÎºÎµ
ĠÎ¸ÎŃÎ» ÎµÎ¹ÏĤ
ĠÏĩÏģÏħÏĥ Î¬
ĠÏĢÎµÏģÎ¹ÏĥÏĥÏĮÏĦÎµ ÏģÎ¿
ĠÏĦÎµÏģÎ¬ ÏĥÏĦÎ¹
ĠÎ¾ÎµÎºÎ¯Î½ Î·ÏĥÎµ
ĠÏĥÏĦÏģÎ±ÏĦÎ¹ Ïİ
ĠÏĦ ÏĥÎ±
ĠÏĦ ÏģÏį
Î» ÎŃÎ½
Îº Î¿Î¹
ÏĨ Ïį
ÎµÎ½ Î¬
ĠÎĳ ÏĥÏĢ
ĠÎ±ÏħÏĦ Î¿Îº
ÏħÏĩ Î®
ÏĦÎ® ÏĤ
ĠÎĺ Îµ
Î»Î±Î½ Î®
ĠÎ¿ÏĢÎ¿ Î¯Î±
ĠÎ¿ÏĢÎ¿ Î¯Î¿
ĠÎ±ÏĢÎ¿Îº ÏģÎ¯Î¸Î·ÎºÎµ
ĠÎ²Î³Î® ÎºÎµ
ĠÎµÏĢÏĮ Î¼ÎµÎ½Î·
ĠÏĩÏģÏİ Î¼Î±
ĠÏīÏģÎ± Î¯Î±
ĠÏĢÎ±Î¹ÏĩÎ½Î¯ Î´Î¹Î±
Ïĥ ÏīÏĤ
ÏĢ ÎµÏĤ
ĠÎµ ÏĢÎµÎ¹Î´Î®
ĠÏĮ ÏĥÎ±
ÏĮÎ½ ÎµÏĤ
ĠÎ±Î½ ÏĦÎ¹
ĠÎ¬Î» Î»Î¿Î¹
ĠÏĥÏħÎ½ÎŃÏĩ ÎµÎ¹Î±
Î ¦
Ï Ĭ
ĠÎµ Î»Î¬
ĠÎŃ Î´Î¹
ĠÎŃ ÏĦÏģÏī
ĠÏĥÏĦ Î¿Î»
ĠÏĮ Î½ÎµÎ¹
Âµ Î®
Î¼Îµ ÏĥÎ±
ĠÎļ Î±Î½
ĠÎķ Ïħ
Î´Î± ÏĨ
ĠÎĶ Îµ
ÏĢÎµÎ¹ ÏĦÎ±
ĠÎ³Î¹ Î½ÏĮÏĦÎ±Î½
ĠÏĢÎµÏģÎ½ Î¿ÏįÏĥÎµ
ĠÏĦÏģÎ±Î³ Î¿Ïħ
Î»Î¿ÏĢ Î¿ÏįÎ»Î±
ĠÏĢÎ±ÏģÎ¬Î¸Ïħ ÏģÎ¿
ĠÏįÏĢ Î½Î¿
Ïģ Î¼Î±
ĠÏĦ Î¿ÏĢ
Î» Î»Î·
ĠÏĢ ÏĮÏĦÎµ
ÏĮ ÏģÎ±
ĠÎ± Î½Îµ
ĠÎ½ Î·
ĠÎ½ Î±Î¹
ĠÎ¿ Î´Î·
ĠÎºÎ± ÏĦÎµ
ĠÎºÎ± ÏĦÏĥ
ĠÏĩ ÏģÏĮÎ½Î¿
ÏĥÎ¹ Î»Î¹Î¬
ĠÎºÎ¿Ïħ ÏģÎ±
ĠÎĵ Î¹
ĠÎŃÎº ÏĢÎ»Î·
ĠÏĨÏĦÎµ ÏģÎ¬
ĠÏĩÏģÎ® Î¼Î±ÏĦÎ±
ĠÏĥÏĩÎµ Î´ÏĮÎ½
ĠÏĥÏħÎ½Îµ Ïĩ
Î ©
Î± Î»ÏĮ
Î¿ ÎºÎ¹
Î½ ÏĦÎ¬
Î¼ Î½Î·
ĠÎ± Î¹
ĠÎµ ÏĢÎ¯
ĠÎŃ ÏģÎ¹
ĠÏĩ ÏĮ
ĠÎ¼Î± Î¶Îµ
ĠÎ±Î½ Î¿Î¹
ĠÎºÎ¬Î½ Î¿ÏħÎ¼Îµ
ĠÎµÎ¾ Î±ÏĨÎ±Î½
ĠÏĢÎ¿Î½ ÏĦÎ¯
ĠÎ¡ Î¿Î´Î¿
ĠÏį ÏĥÏĦÎµÏģÎ±
Î½Î¿Ïį ÏĥÎ±
ĠÎĴÎ± ÏĥÎ¯
ĠÎ®Î»Î¹ Î¿ÏĤ
ĠÏĩÎ±ÏģÎ¿Ïį Î¼ÎµÎ½
ĠÏĥÎ® Î¼ÎµÏģÎ±
ĠÎ¿Î»ÏĮ ÎºÎ»Î·
ĠÎ³Î½Ïī ÏģÎ¯
Î´Î±ÏĨ Î½Î¿ÏįÏĥÎ±
ĠÎ¡Î¿Î´Î¿ Î´Î±ÏĨÎ½Î¿ÏįÏĥÎ±
Î ¡
ĠÏĦ Î¶
Î¯ Î¿ÏĤ
Î¿Ïħ Î¸
ĠÏĥ ÏĢÎ·
ĠÎ± Î²
ĠÎµ Î¹
ĠÎµÎ¯ ÏĢÎ±
ĠÎ² ÏģÎ¹ÏĥÎºÏĮÏĦÎ±Î½
ĠÎ¼ÏĢ Î¿Ïħ
Î¿Î¯ ÏģÎ±
Îķ Î¯Î½Î±Î¹
ĠÎ´Îµ ÏįÏĦÎµ
Î£ ÏĦÎ¿
ĠÎ±Ïģ ÎºÎ¿Ïį
ĠÏĢÎ±ÏģÎ± ÎºÎ±
ĠÎºÏįÏģÎ¹ Î¿ÏĤ
ĠÏĩÏģÎµÎ¹ Î¬
Ïĥ ÏĦÎ¹ÎºÏĮ
ÏĥÏĦ ÏģÎ±
ÏģÏī ÏĦÎ®
ĠÎĪ Î½Î±
ĠÎºÎ¿Î¹ Î¼Î·
ĠÎµÎ¼ ÏĨÎ±Î½
ĠÎ¶Î® ÏĦÎ·ÏĥÎµ
ĠÎºÏģÎµ Î²Î¬
ĠÎŃÎ²Î³Î± Î»Îµ
ĠÎŃÎ¼ÎµÎ¹ Î½Îµ
Ïģ Î¿Î¹
Ïĥ Î¼ÏĮ
Î¯ ÏģÎ¹
ÏĢ Î¹Î±
Ïĩ ÏĦÎ·ÎºÎµ
Î´ Ïī
Î¸ Ïİ
Î² ÎµÎ¯
ĠÎ¬ Ïģ
ÏĮÎ½ Î·
ÎŁ Î¥
ĠÏĢÎ¯ ÏĥÏĦÎµ
ĠÎ±ÏģÏĩ Î®
ÏĨÎ¿Ïģ Îµ
Î± ÏĥÎµ
ÏĢ Î¿Î½
Î¼ ÎŃÏģÎ±
ĠÎµ Î±ÏħÏĦÏĮ
ĠÎ³ ÎŃÏģ
ĠÏĥÏĦ ÎŃ
Âµ Î¿
ĠÎľ Î¬
ĠÎ²Î¬ ÏĦÏģÎ±
ĠÎĵÎ¹Î± ÏĦÎ¯
ĠÎ¬ÏĨ Î·ÏĥÎµ
ĠÎ±Î³ÏĮ ÏģÎ¹
ĠÎ»Ïħ ÏĢÎ·
Ïĥ ÏĦÎ±Î½
Ïĥ Î¼ÎŃÎ½Î±
ĠÎº Î¿Ïį
Î¼ ÏĢÎµ
Î³ Î¿ÏħÎ½
Î³ Î³Îµ
ĠÎ½ Î¿Î¼Î¯
Î¸ Î¬Î½
ĠÎ´ Î¹ÎºÏĮ
ĠÎ³ Î¿Ïģ
ĠÏĩ ÏĦÏįÏĢÎ·
Âµ ÎŃÎ½Î±
Î»Î¬ ÎµÎ¹
ĠÏĢÏģÏİ ÏĦÎ¿
ĠÎ²Î±ÏĥÎ¯ Î»ÎµÎ¹
ĠÎ¿Ïħ ÏģÎ¬
ĠÏĥÏĢÎ· Î»Î¹Î¬
Î± ÏĢÏĮ
ÏĦ ÏģÎ¯
Ïģ Î½Îµ
Ïĥ ÏĢÎ¿Ïħ
ĠÏĢ ÎµÎ½
ĠÏĢ Î»ÎŃ
Î³ Î¹Î¿
ĠÎ½ ÎŃÎ±
ÏĨ Î·
Î¶ ÎµÎ¹ÏĤ
ĠÎ² ÏģÎ±
ĠÎ¬ Î¼
ĠÏĢÎ¬ Ïī
ĠÎ£ Ïī
Îĳ Î½
ĠÎºÎ±Î¸ Î±
ĠÎºÎ±Î½ ÎŃÎ½Î±Î½
ĠÎ±ÎºÎ¿Ïį ÏĥÏĦÎ·ÎºÎµ
ĠÎŃÎº Î»ÎµÎ¹
ĠÎ¸ÎŃ ÏĥÎ·
ĠÎ´Î¬ ÎºÏģÏħ
ĠÏĩÎ±Î¼Î¿ Î³Îµ
ÏħÎ»Î¿ ÎºÏĮ
ĠÎºÏģÎµÎ²Î¬ ÏĦÎ¹
; .
Ġ (
ĠÏĦ ÏģÎµ
ĠÏĢ Î»Î±Î½Î®
Î¼ Î¿Ïį
Ïħ ÏĦÎµÎ¯
ĠÎ´ ÏİÏĥÎµÎ¹
ĠÎºÎ± ÏģÎ¬
Î¯Î½ Î´Ïħ
ĠÏħ ÏĢÎŃ
ĠÎ²Î±ÏĥÎ¹ Î»Î¿ÏĢÎ¿ÏįÎ»Î±
ĠÎºÎ±Î¸ ÏĮÏĦÎ±Î½
ĠÏĢÏģÎ¿Ïĥ Îµ
ĠÏĢÏģÎ¿Ïĥ ÏĢÎ¬
ĠÎŃÏĢ Î¹Î±ÏĥÎµ
ĠÎ±ÎºÎ¿Ïį ÏĥÎµÎ¹
ĠÎ´ÎŃÎ½ ÏĦÏģÎ±
ĠÏĢÎµÏģÎ½ Î¿ÏįÏĥÎ±Î½
ĠÏĢÎ¿Î¹ Î¿ÏĤ
ĠÎºÎ±ÏĦÎ±Î»Î¬Î² ÎµÎ¹
.âĢ ĵ
Îī ÏĦÎ±Î½
Î¿ÏģÏĦÎ¿ ÎºÎ±
ÏĮ Î»Î±
Î´ ÏģÎ¿
ĠÎ³ ÏģÎ±
ĠÎ¬ ÏĥÏĩÎ·
Î¿Î» Î¿Î³
ĠÎ±ÏħÏĦ ÎŃÏĤ
ĠÏĢÎ® Î³Î±Î½
... ,
ĠÏĢÎ¿Î½ Î·
ĠÏĦÎ¯ÏĢÎ¿ ÏĦÎµ
ĠÎºÏĮÏĥ Î¼Î¿Ïħ
ÎļÎ± Î»Î·
ĠÏĩÏģÏħÏĥ ÏĮ
ĠÏĦÏģÏĮ ÏĢÎ¿
ĠÎ±ÏģÎºÎ¿Ïį Î´Î±
ĠÏĦ ÏįÏĩ
ĠÎµ Ïį
ĠÎ¸ Î·
ĠÎ¬ ÏģÎµÏĥÎµ
ĠÏĢÎµÏģÎ¹ ÏĥÏĦ
ĠÎ¶Ïī Î³ÏģÎ±ÏĨ
ĠÏĨÏī ÏĦÎ¹Î¬
ĠÎ±ÏĢÎ¿ÏĨ Î±
ĠÎºÎ±ÎºÏĮ ÏĤ
ĠÏĥÎ¿ Î²Î±
ĠÏĢÎ±ÏĢÏĢÎ¿Ïį ÏĤ
ĠÎµÏħÏĦÏħÏĩ Î¹
ĠÏĨÏĦÎ¬ ÏĥÎµÎ¹
ĠÎºÎ¿ÏĢ ÎŃÎ»Î±
ĠÎ¬ÏĥÏĢ ÏģÎ¿
ĠÎºÎ¬Î¸ Î¹ÏĥÎµ
ÏĦÎŃÎ» Î¿ÏħÏĤ
ĠÎ²Î±Î¸ Î¹Î¬
ĠÎ´ÏįÎ½Î± Î¼Î·
ĠÏĥÏĦÎµÎ½Î± ÏĩÏī
" .
ÏĦ ÏĮÏĦÎ±Î½
ĠÏĦ Î¬
Î¬ Î½Î±
Î¼ ÏĢÎ±
ĠÏĥ Ïİ
ĠÎ± ÏģÎŃ
ĠÎŃ Î¼ÏĢ
ĠÎ³ Î·
Ïį ÎµÎ¹
ÏĦÎµ Î»
ĠÎ² Î³Î±
Î»Î± Î²Î±
Âµ ÎµÎ½
ĠÎ¬ ÎºÏģÎ·
ĠÏĢÎ± ÏĢÎ¿Ïį
ÏĥÏĦ ÏģÎŃÎ½
ÎºÎ± ÏĦÎ±
ÎŃÎ» Î¹Î±
ĠÏħ ÏĢÎ¿
ĠÏĢÎ¬Î½ Îµ
ÏįÏģÎ¹ Î¿
ĠÎĽ Î¯
ĠÎ±Î½Î¬ Î¼ÎµÏĥÎ±
ĠÎ¾ÎŃÏģ ÎµÎ¹
ĠÎ¼Î±Î³ Î¹ÎºÏĮ
ĠÏĦÏģÎ±Î³ Î¿Ïį
ĠÎºÎ»Î¿Ïħ Î²Î¯
ĠÏĢÎ±ÏģÎŃ Î±
ĠÏĨÎµÎ³ Î³Î¬ÏģÎ¹
Î¹ Î¿ÏĤ
Ïģ Î³Î¿
Î· Î³
ĠÎŃ Î¶
Î¿Ïį Ïģ
ÏĦÎ· ÏĥÎ·
Î»Îµ ÏĥÎµ
Î¼Îµ Î½Î±
ĠÎľ ÏĮÎ½Î¿
ĠÎ£ ÏĦÎ·Î½
ĠÎºÎ¿Ïħ ÏĦÎ¯
ĠÏĩÏī ÏģÎ¬
ĠÎºÎ¿Î¹ ÏĦÎ¿ÏįÏĥÎµ
ĠÏĦÏģ ÎŃÎ½
ĠÏĨÎ¬Î½ Î·ÎºÎµ
ĠÎºÎ¿ÏħÎ² ÎŃÎ½
ĠÎ Ĭ
Î¹ Î¶Îµ
Î½ Î¯
ÏĦ ÏģÎŃ
ÏĦ Î¿ÏįÎ½
Ïģ Î¿ÏįÏĥÎµ
Î¼ Î¿ÏħÏĤ
Î³ Î±Î¹Î½Îµ
Ïī ÏģÎ¯ÏĤ
Ïĩ Ïİ
ĠÎµÎ¯ Î¼Î±ÏĥÏĦÎµ
ĠÎ® Î´Î·
ÏĮÎ½ Î¹Î±
Î³Îµ ÏħÎ¼Î±
ÏĮÏĦÎµ ÏģÎ±
ÎŃÎ½Î± ÏĤ
ĠÎ¼ÏĮÎ½ Î·
ĠÎ¼ÏĮÎ½ Î¿ÏĤ
ĠÎµÏĢÎ¹ ÏĥÏĦ
ĠÎ³Î¹ Î¿Ïģ
ĠÎ´Ïį ÏĥÎºÎ¿Î»
ĠÎ±ÏģÏĩ Î¯ÏĥÎµÎ¹
ĠÎ¾ÎŃÏģ ÎµÎ¹ÏĤ
ĠÎºÎ»Î± Î´Î¹Î¬
Ïģ Î¿ÏħÏĤ
Î¼ ÎŃÏģÎ¹
ĠÏĥ ÎµÎ¹
Î³ Î¿Ïģ
Ïį Î¼Î±
Î² Î»Î·
ĠÏĩ Î±Î¹
ÏĦÎ¬ ÏģÎ¹
Î»Î¹ Î¿
Î¬Î½ ÏĦÎ±
ĠÏĥÏħ Î½Î±Î½
ĠÏĩÎ± Ïģ
ĠÎ¼ÏĢÎ¿Ïģ ÎµÎ¯ÏĤ
ĠÎ»Î¯ Î¼Î½Î·
ĠÎ±Ïħ Î»Î®
ĠÎ´Î¹Î± ÏĨÎ¿ÏģÎµ
ĠÎ§ ÏģÎ¹ÏĥÏĦ
ĠÏĨÎ¯ Î»Î·
ĠÎºÏĮÏĥ Î¼Î¿ÏĤ
ĠÎ»Ïį ÏĥÎ·
ĠÏĢÏģÏī Î¹
Î³ÏĮ Î½Î±
ĠÎºÏģÏį Î¿
ĠÎºÎ¿ÏģÎ¯ ÏĦÏĥÎ¹
Î ĩ
Î¬ ÏĢ
ĠÎ¼ Î¯
ĠÏĥ Ïį
Ïī ÏĥÎ±Î½
ĠÎ¼Îµ ÏĥÎ·
Î² Î±Î½
ĠÏĩ Îµ
Âµ Î·
ĠÏĢÎµ ÏĦÎ±
ĠÎļ Î¿Î¯ÏĦÎ±
Î¼Î¬ ÏĦÎ¹Î±
ÏģÏİ Î½
Î»Î® ÏĥÎµÎ¹
ĠÎĶ Î¹
ÏĢÎ¿Î¹ Î¿ÏĤ
Î¼ÎµÎ½ Î±Î½
Î¬Ïĥ ÏĦÎ·ÎºÎµ
ĠÏĥÏĩ ÎŃ
ÂµÎŃÎ½ Î¿ÏĤ
ĠÎ¼Ïħ Î±Î»ÏĮ
ĠÎ±ÏĥÏĦ ÎŃÏģÎ¹
ĠÏĨÏħ Î»Î±
ĠÏĪÎ¬ ÏĩÎ½
ĠÏĦÎµÏģÎ¬ ÏĥÏĦÎ¹Î±
ĠÎ³Î¿Ïħ ÏģÎ¿ÏħÎ½
ĠÎ¾Ïī ÏĦÎ¹ÎºÎ¬
Îµ Îµ
Î¬ Î»
Î¯ Î³Î±Î½
ĠÎº ÏģÎŃ
ĠÎº Î¯ÏĦÏģÎ¹
ÎŃ ÏģÎµ
ĠÏĥ Î¿ÏĨ
ĠÎµ ÏĦÎ¿Î¹
Î® ÏĢÏīÏĤ
Î¸ Î¹Î±
Î¿Ïį ÏĥÎ±
ĠÎ´ Î¹Îº
Ïį ÏĦÎ·ÎºÎµ
Î¶ Î¿Î½ÏĦÎ±Î½
ÎµÎ¯ ÏĦÎµ
ĠÎ¼ÏĢ Î¹Ïĥ
ÏĦÎ¿ Î¯
Îł ÎŃÏģÎ±
ÏĥÎ¼ÎŃÎ½ Î¿Î¹
ĠÏĢÎ±ÏģÎ¬ Î¾ÎµÎ½
ĠÎ»Îµ Ïħ
ĠÎºÎ¬ÏĢÎ¿Î¹ Î¿
ĠÏĦÎŃ ÏĦÎ¿Î¹
ĠÏĥÏĦÎ±Î¼Î¬ ÏĦÎ·ÏĥÎµ
ĠÎ¾ÏįÏĢ Î½Î·ÏĥÎµ
ÎºÎ¿ÏħÎ²Î¬ Î³Î¹Î±
ĠÏħÏĢÎŃ ÏģÎ¿Ïĩ
Î½ Î¬ÎºÎ¹
Î¬ ÏĤ
Î¬ ÎµÎ¹
ĠÏĥ ÎºÎ¬
Î³ Î¼Î±
ĠÎ´ Î¿ÎºÎ¹
ĠÎ³ Î¬Î»Î±
ÏĨ ÏīÎ½
ĠÎ² ÏģÎ¿Ïĩ
Î¿Î¹ Î¿ÏĤ
Î»Î¿ Î¯
ĠÎľ Î¹
ĠÏĢÎ¬ Î¼Îµ
ĠÎ±Î³ ÏīÎ½Î¯Î±
ĠÏĦÎµ Î»ÎµÎ¹
ĠÎºÎ±ÏĦÎ± ÏĨÎŃÏģ
Î¿Ïĩ Ïī
ĠÎŃÏĨÏĦÎ± ÏĥÎ±Î½
ĠÎºÏĮÎºÎºÎ¹ Î½Î¿
ĠÎĳÏħÏĦ Î®
ĠÏĢÎ±ÏģÎ±Î¼ Ïį
ĠÏĮÎ½Î¿ Î¼Î±
İ ÏĥÏĦÎµÏģÎ±
Ïĥ Î®
Ïĥ ÎŃÎ½Î±
Îº Ïħ
Ïī Î¸Îµ
Ïħ ÏĦÎ¬
ĠÎŃ ÏģÏĩÎµ
ÏĨ Î®
Î»Î¹ ÎŃÏĤ
ĠÎ±ÏĢÏĮ Î³ÎµÏħÎ¼Î±
ĠÎ¾ ÏħÎ»Î¿ÎºÏĮ
ĠÎĳ ÏĨÎ¿Ïį
ĠÏĥÏħ Î³
ÏĦÎ¯ Î½Î±
ĠÎĺ ÎŃÎ»
ĠÎĿ Î¯Î¿Ïħ
ÎºÎ· ÏĤ
ĠÎļÎ± Î¸ÏİÏĤ
ĠÏĥÏħÎ¼ Î²Î±Î¯Î½ÎµÎ¹
Î¼Î¿ÏģÏĨ Î·
ĠÎ´Ïİ ÏģÎ¿
ĠÏĢÎ±Î¹Î´ Î¬ÎºÎ¹
ĠÏĥÏįÎ½ Î½Îµ
ĠÎºÎ±ÏĦÎ¬ÏĨÎµ ÏģÎµ
ĠÎ¹Î´ ÎŃÎ±
ĠÎĹÏģÎ±Îº Î»Î®ÏĤ
Î¹ Î´Îµ
ĠÏĦ ÏģÏħ
Ïĥ ÏĦÎ¹ÎºÎ¬
ĠÏĥ ÏĢ
ĠÎµ Î»Î±
ĠÎµ ÏģÏĩ
Î´ ÎµÎ½
ĠÎ±ÏĢ Îµ
Î¬Î½ Îµ
ĠÎ¾ Î·
ĠÎ¼ÏĢÎ¿Ïģ Î¿ÏįÏĥÎ±Î½
ĠÎ´Ïħ ÏĥÏĦÏħÏĩ
Î¶Î¯ Î½Î±
ĠÏĥÏĢÎ¯ ÏĦÎ¹Î±
ĠÎºÏħ ÏģÎ¬
ĠÎ±Î½Î± ÏĢ
ÎĮ Î¼ÏīÏĤ
ÎĪ Î½Î±
ĠÎĽ Î¿Ïħ
ĠÏĢÎŃ ÏĦÏģÎ±
ĠÏĢÎ±Î½ ÎŃ
ĠÎµÏĢ Î¹Îº
ĠÏĦÏĮ ÏĥÎ±
ĠÎ±ÏģÎºÎµ ÏĦÎ¬
ĠÏĥÎ¿ ÎºÎ¿
Î¹Î¹ Î¹Î¹
ĠÎŃÏĨÎµ ÏģÎµ
ĠÎºÎ¿Î¼ Î¼Î¬ÏĦÎ¹
Î¿ÏĪ Îµ
ĠÏĮÂµ ÏīÏĤ
ĠÏĥÎºÎ¯Î¿Ïħ ÏģÎ¿ÏĤ
Î½ ÏĦÎ±
ÏĦ ÏīÎ½
Î· Î¼Î±
Î¯ ÏĤ
Î¼ Î¹ÏĥÎµ
Î¼ Î¼Î±ÏĦÎ±
ÎŃ Î»Î¹
ĠÎ± ÏģÎ¹
Ïĩ Î¿Î¹
ĠÎ´ ÎµÎ¹ÏĤ
Ïį Î¿ÏħÎ½
ĠÎ² Î¿Ïħ
ĠÎ² ÏģÎ¿ÏħÎ½
ĠÎ® ÏĥÏħÏĩ
Î»Î¿ Î³Î¿
Î´Î¹ Î¿
ĠÎ£ Î±Î½
ĠÏĥÎº Î¿Ïħ
ĠÎ¼Î¬ Î¸
ĠÎ¼Î¬ Î¸ÎµÎ¹
ĠÏĪ Î¹
ĠÏĪ Ïī
ĠÎ»Î¯ Î³Î·
ĠÎĮ Î»Î±
ĠÎ±Î³ ÎºÎ¬
ÂµÎ± ÏĦÎ±
ĠÏĩÎ¬ ÏģÎ·
ĠÎ³Î»Ïħ ÎºÎ¬
ĠÎ³ÎµÎ¼Î¬ ÏĦÎ¿
ĠÏĢÎŃÏĦÎ± Î¾Îµ
ĠÎµÏħÏĩÎ±ÏģÎ¹ÏĥÏĦ Ïİ
ĠÎ±Î½Î¿Î¹ Ïĩ
ĠÎ¼ÏĢÎ¹Ïĥ ÎºÏĮ
Ġ 1
Î½ Î¹Î¬
Î» Î»Î¿Î½
Ïĥ ÏĥÎµÏĤ
Î¼ Î²
Î¼ ÎŃÏĥÏīÏĤ
ĠÎµ ÎºÎ±
ĠÎŃ Î¾
ÏĨ Ïİ
ĠÏĥÏĦ ÎµÎ½
ĠÎ±ÏĢ Î¬Î½
ĠÎ² ÏģÏī
ĠÎ· ÏĥÏħÏĩ
ĠÏĢÎ± ÏĤ
ĠÎºÎ¬ Î¼ÏĢ
ĠÂµ ÏĢÎ¿Ïģ
Îľ ÏĮÎ»Î¹ÏĤ
ÏĦÎ® ÏĥÎ¿ÏħÎ½
ĠÏħ ÏĢÎ·
ĠÎ¼Î¬ Î»Î¹ÏĥÏĦÎ±
ĠÏĪ ÏħÏĩÎ®
Îł Î±
ĠÎ²Î»ÎŃ ÏĢÎµÎ¹
ĠÎĴÎ± ÏĥÎ¹Î»Î¹Î¬
ĠÏĨÏĮ Î²Î¿
ĠÏĨÎ±Î½ ÏĦÎ±
ĠÏĢÎ±Î¹Î´ Î¬ÎºÎ¹Î±
ĠÏĩÏİ Î¼Î±
ĠÏĥÎ® Îº
ÎĵÎ¹Î± ÏĦÎ¯
ÏĦ ÏģÎ¿ÏĨ
Î· Î³Î®
Î¼ ÏĢÎ¹
ÎŃ ÏĥÎµÎ¹
Î±Î¹ Î½ÏĮÏĦÎ±Î½
Ïĩ ÏģÏī
ĠÎŃ ÏĪÎ±
ĠÎ³ Î¯Î³Î±Î½
Î² Î®
ÏģÎ¬ Ïĩ
Î¿Ïģ Î¯ÎµÏĤ
ÎŃÎ½ Î¹Î±
Î¿Î» ÏĮ
ÎºÎ¹ Î½
ĠÏĢÎ± Î³Ïī
ÏĩÎµ ÏĦÎµ
Î¯Î½ ÎµÎ¹ÏĤ
ÎºÎ¿Ïį ÏĤ
ĠÏĢÏĮ Î´Î¹
Î£ Î±Î½
ĠÎµÎ½ Î¸Î¿Ïħ
ĠÎ¸ÎŃÎ» ÎµÎ¹
ĠÎ²Î¿ Î®Î¸ÎµÎ¹Î±
ĠÎŃÎ³Î¹ Î½Î±Î½
ĠÏĢÎ®Î³ Î±Î¹Î½Î±Î½
ĠÏĨÎŃÏģ ÎµÎ¹
ĠÎ¼Î® ÏĢÏīÏĤ
ĠÎ¼Î¿ÏħÏĥ Î¹ÎºÎ®
ĠÎŃÏĨÎ± Î³Îµ
ĠÏĦÎµÏģÎ¬ÏĥÏĦÎ¹ Î¿
ĠÎ½Î· ÏĥÎ¯
ĠÎŃÎºÎ»ÎµÎ¹ ÏĥÎµ
ĠÏĦÏįÏĩ Î·
ĠÏĢÎ±ÏĢÎ¿Ïį ÏĦÏĥÎ¹Î±
Î¹ Ïİ
Î» Î»Ïī
Ïĥ ÏĮ
ÏĢ ÏģÎ¬
Îº Î¿ÏĢ
Î¼ Î¿Î¹
Î¼ ÏĮÏĦÎ±Î½
ÎŃ ÏĦÎ±
ĠÎ¼ Ïį
ĠÎ± ÏĥÏĦÎµ
Î³ Î½Ïī
Î¸ Î±Î½
ÏĨ ÏĦÎ±
ÏĦÎ¹ ÏĥÎµ
Î»Î± Î´Î®
ĠÎĳ ÏĥÏĦÏģÎŃÎ½
ĠÎ±Î½ Î·
ĠÎ±Î½ Î®
ĠÂµ Î¬
ĠÏĢÎ¬ Ïģ
Îĳ ÏħÏĦ
Îĳ ÏĢÏĮ
ĠÎ¼Î¬ Î¶Îµ
Î»Î¯ Î¿
ĠÏĢÏģÏĮ Ïĥ
ĠÏĢÎ±Î½ ÏĦÎ¿Ïį
ĠÏĥÏħÎ¼ Î²ÎµÎ¯
ĠÏĥÏĩ Î®
ĠÎ³Î»Ïħ ÎºÏĮ
ĠÏĦÏģÎŃ Ïĩ
ĠÎ²ÏģÎ¯ ÏĥÎº
ĠÎµÏĢÎŃÏĥÏĦÏģÎµ ÏĪÎµ
ÏĦ ÏģÏĮ
Î¯ ÎµÎ¹
ÎŃ Î»Î·ÏĤ
Ïħ Î±Î½
Ïħ Î³Î±Î½
Î´ Î¿ÏįÎ»Î±
ÏģÎ± Î»Î¿Î³Î¿
ĠÎ³ ÏįÏģÎ¹
ĠÎ³ Î»Ïİ
ÏģÎ¹ Î¶Îµ
ÏģÎ¹ ÏĥÏĦÎ·
ĠÎ¿ Ïģ
Î² Î·
ĠÎ² Î¹Î±
ĠÎºÎ± ÏĢÎŃ
ĠÏĢÎ± Î»Î±
ĠÎľ ÏĢÎ¿Ïģ
ÏģÏĩ Î¹ÏĥÎµ
Î´Î¹ ÏİÎ½
ÏħÏĩ Î±
ĠÏĩÎ± Î¼ÏĮ
ÏĢÎ¬ ÎºÎ¹
ĠÎ³Î¹ Î¿ÏĤ
ĠÏĢÎŃ ÏĦÏģÎµÏĤ
ĠÏĢÏģÎ¬ ÏĥÎ¹
Î¿Îº Î¿ÏĨ
ĠÎ³Î¬ ÏĦÎ¿ÏĤ
ĠÎ®Î»Î¹ Î¿
ĠÏĥÎ·Îº ÏİÎ¸Î·ÎºÎµ
ĠÏĦÎµÎ»ÎµÏħÏĦÎ± Î¯Î±
ĠÎĳÏĥÏĢ ÏģÎ±Î»Î¿Î³Î¿
ĠÏĥÎµÎ¹ ÏģÎ¬
ĠÎĳÏĥÏĢÏģÎ±Î»Î¿Î³Î¿ Î³Î¹
Î¼ ÏĮÏĤ
ÎŃ Îº
ÎŃ Î»Î·
ĠÎ¼ Î¹Ïĥ
ĠÎŃ Î¼Î±
ĠÎŃ Î´Î±
Î´ ÏģÏĮ
Ïį Î½Î·
ĠÎ¤ Î¶
ÏģÎ¿ Î¯
ĠÎ¶ Î¿ÏįÏĥÎ±Î½
ĠÎł ÏģÎ¹
ĠÎł ÏģÎŃÏĢÎµÎ¹
ĠÎ¬Î» Î»Î¿ÏħÏĤ
ĠÏĥÏĦÎ± Î¼Î±
Î½Î® ÏĥÎµÎ¹
ĠÏĩÎ¬ ÏĥÎµÎ¹
ĠÎ»Î± ÏĩÎ±Î½
ĠÏĢÎµÏģÎ¯ ÎµÏģ
ĠÎºÎ¿Î» Ïħ
ĠÏĦÏĮÏĥ Î·
Î»ÏĢÎ¯ Î´Î±
ĠÏĦÏģÏį ÏĢÎ±
ĠÏĩÏĦÏįÏĢÎ· ÏĥÎµ
ĠÎ²Î±ÏĥÎ¯Î»ÎµÎ¹ Î¿
ĠÎŃÎ´Î± ÏĨÎ¿ÏĤ
ÏĦ ÏģÎ¿ÏĢ
Ïĥ Î¹ÎºÎ¬
ĠÏĢ ÏģÎ¿Ïĩ
ĠÏĨ Î¿Ïħ
Î² Î¿Î»
Î¶ Î·
ÏĦÎ¬ ÎµÎ¹
Î»Î¹ ÎºÎ®
ÏĢÎµ ÏģÎ¹
ÎºÎ¬ Î»Î¹
Î³Î¿ Î·
ÎŃÏģ ÏĨÎ¹Î±
ÎºÎ±Î½ Îµ
ÏģÏĩ Î±Î½
ÏİÎ½ Î¿ÏħÎ½
ĠÏĢÎ® ÏģÎ±Î½
ÏĢÎ¿Ïħ Î»Î±
ĠÏĥÏħÎ½ ÎŃÎ²
Î»Î¯ Î½Î±
ĠÎķÎ¯ Î¼Î±Î¹
ĠÎ±Î³Î± ÏĢÎ¬
ĠÏĢÏģÏİ ÏĦÎ±
ĠÏĢÎ¿Î¹ Î¿
ĠÎ¿Î¹ÎºÎ¿Î³ÎŃÎ½ ÎµÎ¹
ĠÎ£ÏĦÎ± Ïĩ
ĠÎ²ÏĮ Î»
ĠÎľÏĢÎ± Î¼ÏĢÎ¬
ĠÏĢÏģÏĮÏĥÏī ÏĢÎ¿
ĠÏĥÎ¯Î³Î¿Ïħ ÏģÎ±
ĠÎŃÏģÎ¹ Î¾Îµ
ĠÏĢÎ±ÏģÎ±ÎºÎ± Î»Ïİ
ĠÎºÎ±ÏģÎ¬ Î²Î¹
ĠÎ ©
Î» ÏĨ
Îº Î¯
Îº ÎµÎ¹
ĠÏĦÎ¿ Î¯
ĠÎŃ Î½
ĠÎ´ Î¿ÏħÎ½
ĠÏĦÎ± Ïĩ
ÏģÎ¬ ÏĤ
ĠÎ² ÏģÎµ
ÏģÎµ Î¼Î±
ĠÎºÎ¬ ÏĥÏĦÏģÎ¿
ĠÎĳ Î»Î®
ĠÂµ ÎŃÏĥÎ±
ĠÎ£ Î¿ÎºÎ¿ÏĨ
ÏĦÎ® ÏĥÎµÎ¹ÏĤ
ĠÎ¾Îµ ÎºÎ¿Ïħ
ĠÎ¾Îµ ÏĩÎ¬
ĠÏĢÎ¿Î½ ÏĦÎ¹
ĠÎ±ÏģÏĩ Î·
ĠâĢ ĵ
ĠÎ²Î¿Î· Î¸
ĠÎļÎ¬ Î¸Îµ
ĠÏĥÎºÎ¿ ÏĦÎµÎ¹
ĠÏĨÏĦÎ¹Î¬ Î¾ÎµÎ¹
ĠÏĥÎºÎŃÏĪ Î·
ĠÎ½ÎµÏģÎ¬Î¹ Î´Î±
ĠÏĦÏģÎ¹Î±Î½ÏĦÎ¬ÏĨÏħ Î»Î»Î¿
ĠÏĥÎºÎ¹ Î¿Ïħ
ĠÎºÎ±ÏĦÏĥ Î¹Îº
ĠÎ³Î¿Ïģ Î³ÏĮÎ½Î±
ĠÎŃÎ¶ Î·ÏĥÎ±Î½
ĠÏĢÏģÏīÎ¹ Î½ÏĮ
ĠÏĥÎ¿ÎºÎ¿ Î»Î¬
Î½ Î¹Î±
Î» ÏĮÏĤ
Î· Î´
ÏĢ Î±Î¹
Î´ Î¹Îº
ĠÎ´ ÏİÏģÎ±
ĠÏĨ Î±Î¹Î½ÏĮÏĦÎ±Î½
ĠÎ² Î®
Î»Î¹ ÎºÏĮ
ÎŃÎ½ ÏĦÎµ
Î¿Î» Î¿
ĠÎ¼ÏĢ ÎµÎ¹
ĠÏĥÏħ Î½Î¿
ĠÎł Î¬
ÏģÎ® ÏĨÎ±Î½
ĠÎ¼Î¬ Î³ÎµÎ¹
Î¿ÏįÎ½ Î¹
Î¿ÏįÎ½ ÏĦÎ±Î¹
ĠÎºÏĮ ÏĦÎ±
Î¿Ïĥ ÏĦÎ¬
ĠÎºÎ±Î¹ÏģÏĮ ÏĤ
ĠâĢ ľ
ĠÎµÏħÏĩÎ± ÏģÎ¯
ÏĦÎ¿ÏĢ Î¿Ïį
ĠÎ±Î³Î±ÏĢ Î¿ÏįÏĥÎµ
ĠÏĥÎºÎµÏĨ ÏĦÏĮÏĦÎ±Î½
ĠÏĥÎºÏį Î»Î¿ÏĤ
ĠÎ½ÏĮ Î¼Î¹
ĠÎŃÎ½Î¹ ÏīÏĥÎµ
ĠÎ±Î¯ Î¸Î¿Ïħ
ĠÎ¬Î¼ Î¼Î¿
ĠÎ³Î»Ïİ ÏĥÏĥÎ±
ÏĦ Î¯Î½
ĠÎº Î»ÎŃ
ĠÎº Î»ÎµÎ¯
Î¼ Î¹Îº
Î¼ ÎŃÏģÏī
ĠÎ± ÏĤ
ĠÎ± ÎºÎ¿Ïħ
Ïĩ Î½Î±Î½
ĠÎ´ Î¹ÎºÎ®
ĠÎ³ ÎµÎ¹
ÏĥÎµ Î¯ÏĤ
ĠÎ±ÏĢ Î»Î¬
ĠÎºÎ± ÏĦ
ÎµÎ½ ÎŃ
Î¬Î½ ÎµÎ¹
ÏĥÏĦ ÎŃÏĤ
ĠÎ±ÏħÏĦ Î¿ÏįÏĤ
ĠÎ±Î½ ÏĦÎ±
ÏĪ Ïī
ÏģÎŃ ÏĨ
ĠÎ¬Î» Î»ÎµÏĤ
Î¿ÏįÎ½ Î¹Î±
ĠÎ±Î³ ÏģÎ¹
ĠÎ»ÎŃ Î³Î¿Î½ÏĦÎ±ÏĤ
ĠÎµÏĢÎ¹ ÏĦÎŃÎ»Î¿ÏħÏĤ
ÏĥÎº Ïħ
ĠÎŃÎ² ÏģÎ¹Ïĥ
ĠÎ²Î¬ Î»ÎµÎ¹
ĠÎ¼Î±Îº ÏģÎ¹
ÏģÎ¿ÏĨ Î®
ÏģÎ¿Î½ ÏĦÎ¯
ĠÎ±ÎŃÏģÎ± ÏĤ
ĠÏĩÎµÎ¹ Î¼
ĠÎ²Î¿ÏħÎ½ ÏĮ
ĠÏĨÎ±Î¯Î½ ÎµÏĦÎ±Î¹
ĠÎ²Î¹Î² Î»Î¯Î¿
ĠÎ²ÏģÎŃ Î¸Î·ÎºÎµ
ĠÏĥÏĦÏģÎ±ÏĦÎ¹Ïİ ÏĦÎ·ÏĤ
ĠÏĢÎ»ÎŃ Î¿Î½
ĠÎ´Î¬ÎºÏģÏħ Î±
ĠÏĦÎŃÏĦÎ¿Î¹ Î¿
ĠÏĩÎ±Î¼ÏĮ Î³Îµ
ĠÎ±Î¯Î¸Î¿Ïħ ÏĥÎ±
Î½ Î¿ÏħÎ½
Ïĥ Î¿Î½
Î· Ïĥ
Ïĩ Î¿Ïħ
ÏĨ Î¯
ĠÎ¼Îµ Î¯Î½ÎµÎ¹
ĠÏĢÎ± Î»Î¹
ĠÎ¾ Î¬ÏĢ
ĠÎºÎ¬ ÏĢÏīÏĤ
ÎºÎ± Î¯ÏģÎ¹
ĠÏĢÎµ ÏģÎ¬
ĠÏĥÎº Î»Î·
ĠÎŃÏĩ Î±ÏĥÎµ
ĠÎµÏĢÎ¹ Î¸Ïħ
ĠÎ¯ ÏĥÏīÏĤ
ĠÏĢÎµÎ¹ ÏģÎ¬
ĠÎ²Î»ÎŃ ÏĢÏī
ĠÎ¹ÏĥÏĦ Î¿ÏģÎ¯ÎµÏĤ
ĠÎ±Î´ ÎŃÏģÏĨÎ¹Î±
Îŀ Î±ÏĨÎ½Î¹ÎºÎ¬
ĠÎ¼ÎµÏģÎ¹ ÎºÎŃÏĤ
ĠÎ¼Î¿Î¹ Î¬
ĠÎ¬Î½ÏĦÏģÎ± ÏĤ
ĠÎµÎ¼ÏĨÎ±Î½ Î¯ÏĥÏĦÎ·ÎºÎµ
ĠÎ´Î¿ÎºÎ¹ Î¼Î¬
ĠÎŃÏģÏĩÎµ ÏĦÎ±Î¹
ĠÎµÏģÏĩ ÏĮÏĦÎ±Î½
ĠÎ¼ÏĢÎ¹ÏĥÎºÏĮ ÏĦÎ±
ĠÎ£ÏĦÎ±Ïĩ ÏĦÎ¿ÏĢÎ¿Ïį
Ġ âĢĻ
Îµ Ïħ
Îº Ïī
Ïħ Î³
Î´ Ïį
ÏĨ ÏĦÎµ
ÏĦÎµ ÏģÎ¿
ĠÎ® Î¼Î¿ÏħÎ½
ÏģÎ¯ ÏĥÎµÎ¹
ĠÎ¼Î± Î¶
Î»Î· Î¸Î¹
ĠÎļ Î¿Î¹
Î¼ÎŃÎ½ ÎµÏĤ
ĠÎºÎ¹ Î½
ĠÎ²Î± ÏģÎ¹Î¬
ÏĦÎ® ÏĥÏī
Î¼Î¿ Î¹Î±
ĠÎŃÏĨ ÏĦÎ±Î½
ĠÎºÎ¿Ïħ ÎºÎ¿ÏħÎ²Î¬Î³Î¹Î±
ĠÎĵ Î±
ĠÎ¤Î¿ Î¼
Î³Îº Î·
ÏģÎ¿Ïį Î»Î·ÏĤ
ĠÎ´Î¹Î± Î²Î¬
ĠÎºÎ±Î» ÏĮÏĤ
ĠÎ¬ÎºÎ¿Ïħ Î³Îµ
ĠÎºÎ¿Ïģ ÏħÏĨ
ÂµÎŃÎ½ Î·
ĠÎºÏģÎ± ÏĥÎ¯
ĠÏħÏĢ Î¿Ïĥ
ĠÎ²Î³Î® ÎºÎ±Î½
ĠÎ¼ÎµÏģÎ¹ ÎºÎ¬
ĠÎ²Î¿Î·Î¸Î® ÏĥÎµÎ¹
ĠÏĢÎ»Î·ÏĥÎ¯Î± ÏĥÎµ
ĠÎŃÏĦÏģÏī Î³Îµ
ĠÏĥÏĦÎ¿Î» Î¯
ĠÏĢÎ»Î±Î½Î® ÏĦÎ·
ĠÏĦÏģÎŃÎ½ Î¿
ĠÏĪÏī Î¼Î¯
ĠÏĩÎµÎ¹Î¼ ÏİÎ½Î±
Î Ħ
ĠÎ İÏĥÏĦÎµÏģÎ±
Îµ ÏģÎ¬
ÏĦ Î¿Î»
ĠÏĦ ÎŃÏĥ
Î» ÏĢÎ¹
ĠÎº ÏģÎ¬
ĠÎº Î»Î¬
Îº Î»Î±
Î³ Î¿Î½
Î³ ÎŃÎ»Î±ÏĥÎµ
ĠÎ½ Î¿Î¹
ĠÎ½ ÏħÏĩ
ĠÎŃ ÏĢÎ¹
Î¸ ÎµÎ½Î¬
ÏĨ Ïī
ĠÎ±ÏĢ Î±Î½
ĠÎ±ÏĢ Î¿ÏģÎ¯Î±
Î¿Î½ ÏĦÎ±
Î»Î¹ ÏİÏĤ
Âµ ÏĮ
ĠÏĢÎ± Î»Î¹Î¬
ĠÎļ Ïħ
ĠÎ±Î½ Ïħ
ÏĪ Î¿ÏħÎ½
ĠÎ¶ ÏīÎ½
Î¼Î¬ Î´Î±
ĠÏĥÏħ Î³Îº
ÎŃÏģÎ± ÏĤ
ÏģÎ· ÏĥÎ¹
ĠÎĪ Î»Îµ
ĠÎŃÏĨ ÏħÎ³Î±Î½
ĠÎ»Î¯ Î³Î±
ĠÎ¼ÎµÎ³Î¬ Î»Î¿ÏĤ
Î¿Ïĥ ÏįÎ½Î·
Î¼ÎµÎ½ Î¿
ÎºÎ±Î¹ ÏģÎ¯Î±
ĠÏĨÏį Î»Î»Î±
ĠÎ¡ ÎµÎ½ÎŃ
Î»ÎµÏħ Îµ
ĠÏĢÎŃÏģÎ± ÏĥÎ±Î½
ĠÎ¶Î® ÏĥÎ±Î½
ĠÎ´Î¿ÏħÎ»ÎµÎ¹ ÎŃÏĤ
ĠÎŃÏĢÎ±Î¹ ÏģÎ½Îµ
ĠÏĩÎ¹ Î¿Î½
ĠÏĩÎ¹ ÏĮÎ½Î¹
ĠÎ¬Î»Î¿ Î³Î±
ĠÏĢÏį ÏģÎ³Î¿
ĠÏĢÎ»Î¿Ïį ÏĥÎ¹
ĠÏĦÎµÎ»ÎµÎ¯ ÏīÏĥÎµ
ĠÏĢÎµÎ½ ÏĦÎ¬
ĠÏĢÏģÎ¿ÏĥÎµ ÎºÏĦÎ¹ÎºÎ¬
ĠÎ±ÏģÎŃ ÏĥÎµÎ¹
ĠÏĦÏģÎ±Î³Î¿Ïį Î´Î¹
ĠÏĢÎµÏĦÎ± Î»Î¿Ïį
ĠÎ³Î¯Î³Î±Î½ ÏĦÎ±ÏĤ
ĠÎµÎ½Î¸Î¿Ïħ ÏĥÎ¹Î±
ĠÎºÎ±ÏĢÎŃ Î»Î¿
ĠÏĦÎŃÏĥ ÏĥÎµ
Î¬ ÏĩÎ±
Ïĥ ÎºÎ¿
ĠÎ¼ ÏĢÎµ
Î³ ÎŃÎ½
ĠÎµ Î¼ÎŃÎ½Î±
ĠÎµÎ¯ Î´Î±
ÎµÎ¯ ÏĩÎµ
ĠÏĢÎ± ÏģÏĮ
ÏĥÏĦ Î®ÏĤ
ÏģÎµ ÏĥÎ±Î½
ÏĢÎ± ÏĥÎµ
Î¼Î¬ ÏĤ
ĠÎł ÏİÏĤ
ĠÎºÏħ ÏģÎ¯
ÏĥÏĦÎ± ÏĥÎ·
ĠÏĨÎ¯ Î»Î¿
ĠÎ²Î¬ Î»
Î»ÎµÏħ Î¸Îµ
ĠÎ®Î¸Îµ Î»Î±Î½
ĠÎ´Î¬Ïĥ Î¿ÏħÏĤ
ĠÎ¿ÏĢÎ¿ Î¯Î¿ÏĤ
Î»Î¯Î± ÏĤ
ĠÎŃÏĢÎ±Î¹ Î¶Î±Î½
ĠÎ³ÏħÏģÎ¯ ÏĥÎµÎ¹
ĠÏħÏĢÏĮÎ»Î¿Î¹ ÏĢÎ±
ĠÎŃÏĥÏĦ ÎµÎ¹
ĠÎ³Î¿ÏħÏģÎ¿ÏħÎ½ Î¬ÎºÎ¹Î±
ĠÏħÏĢÎ· ÏģÎŃ
Î¯ Îº
ÏĢ ÏģÎ¿ÏĥÏĦÎ¬
ĠÎ± Î¹Ïĥ
ĠÎ± ÏįÏģÎ¹Î¿
ĠÎµ ÏĥÎŃÎ½Î±
Ïį ÏģÎ¿
Î¶ Î¿ÏħÎ¼Îµ
ÏģÎ¬ ÏĦÎ¿
ĠÎºÎ± Î¸Î·
Î¾ Î¿ÏħÎ¼Îµ
ĠÏĢÎ¿Ïħ Î¸ÎµÎ½Î¬
Î¬Î½ Î¸Î·
Î¯Î½ Î¹
ĠÎºÎ¬ ÏĢÎ¿ÏĦÎµ
ĠÎ¼ÎŃ ÏĥÎ·
ĠÎł ÏīÏĤ
ÏĥÏĦÎµ Ïį
ÏģÏİ ÏĥÎµÎ¹
ÏĦÏī ÏĥÎµ
Îķ Î³Ïİ
ĠÏĢÎ¿ ÏĦÎ¬
ĠÎķÎ¯ ÏĩÎ±Î½
ÏģÎ½ Î¿ÏįÏĥÎµ
Î»Ïī Î½Îµ
ĠÏĢÎ¿Î½ ÏĦÎ¹ÎºÎ¬
ĠÎ¼Î· ÏĩÎ±Î½
ĠÎ±Î³Î¿ ÏģÎ¬
ÎĽ Î¿Î¹ÏĢÏĮÎ½
ĠÏĢÎ±Î¯ ÏģÎ½
ĠÎ¯Î´Î¹ Î¿ÏĤ
ÏĨÎ¿ ÏģÎ¬
ĠÏĥÏĢÎ¹ ÏĦÎ¹Î¿Ïį
ĠÏĦÏģÎŃ ÏĩÎµÎ¹
ĠÏĩÏīÏģÎ¹ Î¿Ïį
ÎķÎºÎµÎ¯ Î½Î·
ĠÎŃÎ´Î¹ Î½Îµ
ĠÎºÎ¿Î¹Î¼Î· Î¸ÎµÎ¯
ÎļÎ±Î»Î· Î¼ÎŃÏģÎ±
ĠÎ²ÏģÎ¿Ïĩ Î®
ĠÏĥÎ®Îº ÏīÏĥÎµ
ĠÎłÏģÎ¹ Î³ÎºÎ¯ÏĢÎ¹ÏĥÏĥÎ±
ĠÎºÎ¿Î»Ïħ Î¼ÏĢ
ĠÎ³ÎµÎ¹ ÏĦÎ¿Î½
, ...
Ïģ ÎµÎ¹Î±
Î» ÏİÏĤ
Î» ÏĨÎ¹
ÏĢ ÏīÎ½
Îº ÏģÎ¹
ĠÏĢ ÎŃÎ½ÏĦÎµ
ĠÎ± ÏģÎ±
Ïħ Î¼Î¬
Î´ ÏģÎ±
Î¸ ÎµÎ¯ÏĤ
ÏĨ ÏĦÎ¬
ĠÏĩ Î¿
ÏĦÎ· ÏĥÎ±
Âµ Î¯
ĠÏĢÎ± ÏģÎ¿Ïħ
ĠÎĳ Î¼ÎŃÏĥÏīÏĤ
Î¼Î¬ ÎºÎ¹
ĠÎķ ÏĥÏį
Î»Î¹Î¬ Î´ÎµÏĤ
ĠÎ£ Ïħ
ĠÎĵ Î·
ÏģÎ¿Ïį ÏĤ
ÎŃÏĩ ÏĦÎ·ÎºÎµ
ĠÏĨÏį ÏĥÎ·
ÎĶ Îµ
ĠÎ²ÏģÎ® ÎºÎ±Î½
ĠÎķÎºÎµÎ¯ Î½Î·
ĠÎ¼Î¹ Î»Î¬
ĠÎµÏħÏĩÎ± ÏģÎ¹ÏĥÏĦÎ·
ĠÎ±ÏĢÎ± Î»Î¬
ÎŃÏĢ ÏĢÎ±
ĠÎºÎ¿ÏħÎ½ Îµ
ĠÎŃÎ´ÎµÎ¹ Î¾Îµ
ĠÏĢÎ¯ÏĥÏĦÎµ ÏħÎµ
ÎłÎŃÏģÎ± ÏĥÎ±Î½
ĠÎ±Î½Î· ÏĥÏħÏĩ
Î½ ÎŃ
Î½ ÏīÎ½
ÏĦ ÏİÏĥÎµÎ¹
Î¼ Î¿ÏįÏĤ
Ïĩ Î·
Ïĩ ÏĦÎ¬
ĠÎŃ ÏģÏĩ
ĠÎ³ ÎŃÎ»Î¹Î±
ĠÏĦÎ± Î¾Î¹
Î¶ ÎµÏĤ
ĠÎºÎ± Î·
Î»Î± Î¼ÏĢ
Î¹Îº ÎŃÏĤ
Î¹Î¬ ÏĤ
ĠÎ¾ Î±ÏĢ
Î·Î½ Îµ
ĠÎ¼ÏĢ ÏĮ
ĠÎľ Î®ÏĢÏīÏĤ
ÏĢÎ¹ Îµ
ĠÎł ÎŃÏĢÏĢÎ±
ĠÎŃÏĨ ÎµÏģ
Îł Î®
ĠÎ³Îµ Ïī
ĠÎ§ ÏģÏħÏĥ
ĠÎ§ ÏģÏħÏĥÎ±
ĠÏĥÎ¹ Ïī
ĠÏĢÎ¹ ÏĥÏĦ
ĠÎ±Îµ ÏģÎ¿ÏĢ
ĠÏĪÎ¬ ÏģÎ¹Î±
ĠÎºÏĮÎºÎºÎ¹ Î½Î±
ĠÏĩÏģÏİ Î¼Î±ÏĦÎ±
ĠÎ³ÏģÎ¬ Î¼Î¼Î±
ĠÏĢÎ±Î¹ÏĩÎ½Î¯ Î´Î¹
âĢĿ ,
ĠÎ»ÎµÏĢ ÏĦÎ¬
ĠÎ®ÏģÎ¸ Î±Î½
ÎĲ ÏĥÏĦÏģÎ¿
ĠÏĩÏģÏħÏĥÎ¬ ÏĨÎ¹
Î½ÏĦÎ¬ Î¾ÎµÎ¹
ÏģÏīÏĦÎ® Î¸Î·ÎºÎµ
ĠÏĥÏİ Î¼Î±
ĠÎ·ÏĥÏħÏĩ Î¯Î±
Î³Î¿Î· ÏĦÎµÏħ
ĠÎ±ÏģÏĩÎ· Î³ÏĮÏĤ
ĠÎºÎ¿ÏģÏħÏĨ Î®
Î· ÎºÎ±Î½
Î¿Ïħ ÂµÎµ
Îº ÏģÏį
ĠÏĢ ÎµÎ¹ÏĤ
ÏĮ ÏģÏħ
ĠÎ± Î»Î·Î¸Î¹
Î® ÏĦÎ±Î½
Î´ Î¿Ïħ
Î´ ÎµÎ¯
Î´ Î¬ÎºÎ¹Î±
ĠÎµÎ¯ ÏĥÏĦÎµ
Î»Î± Î³
ĠÏĩ Î¿Î½ÏĦ
Î¾ ÏĦÎµ
ĠÎ» Î±Î¹
ÏĥÎ± Ïħ
ĠÎ¾ ÏħÏĢ
ĠÎ¼ÎŃ Î»Î¹
ĠÎ¼ÏĢ Î»Îµ
ĠÎ¼Î¹Î± ÏĤ
ÏĥÏĦÎµ ÏģÎ¬
Î´Î¹ Î¿Ïį
ĠÎ£ Îº
ÏĮÏĦÎµ ÏģÎ¿
ÏİÎ½ ÎµÏĤ
ĠÏħ ÏĢÎµ
ĠÎĪ ÏĩÏī
Î»Î® ÏģÏī
ĠÏĢÎ±ÏģÎ± ÎºÎ¬
Î»Î¯ ÏĦÏĥÎ±
ĠÎ³Îµ Î»Î¬
ĠÎ½Îµ Î±
Î»Î¿Ïį ÏĤ
ĠÏĨÏīÎ½ ÎŃÏĤ
ĠÏĢÏģÏĮ ÏĥÎµ
ĠÏĢÎŃ ÏĥÎµÎ¹
ĠÎ»Î± Î¼ÏĢÎµ
Î¸Î¹ ÏĥÎ±Î½
ÎļÎ± Î»Î¬
ĠÎĴÎ± Î³Î³
ĠÎµÏĢ Î¬Î½Ïī
ĠÎ»Î¬ Î¸Î¿ÏĤ
ĠÎ¶Îµ Ïħ
ĠÎŀ Î±ÏĨÎ½Î¹ÎºÎ¬
ĠÏĢÎ»Î¬ ÏĦÎ·
ĠÎ´ÏģÎ¬ ÎºÎ¿ÏĤ
ĠÎ±ÏħÏĦÎ¿Îº Î¯Î½Î·
ĠÎºÎ¿ÏħÎ²ÎŃÎ½ ÏĦÎ±
ĠÎ´ÏįÏĥÎºÎ¿Î» Î¿
ĠÎ¼ÎµÏĥÎ· Î¼ÎŃÏģÎ¹
ĠÏĢÎ±Î»Î± ÏĦÎ¹Î¿Ïį
ÏĦ ÏīÏĤ
ÏĦ ÏħÏĩ
Ïģ Î»
Ïģ Î³Î¬
ĠÏĦ ÎŃÏģÎ±ÏĤ
ĠÎº ÎµÎ¹
Î¿Ïħ Î¸Î®
ÏĢ Î¹Î¬
Î¼ Î±Î½
ĠÎŃ ÏģÎ·
Î´ Î¿Ïį
Î´ Î¹ÎºÎ±
ĠÎ´ ÎŃÏģ
ĠÎ¿ Î»Î¿
ĠÎ±ÏĢ ÎŃÎ½Î±Î½
ĠÏĨ ÏģÎ¿Î½ÏĦÎ¯
Î¶ Î¿Î½ÏĦÎ±Î¹
Î¶ Î¬Ïģ
ĠÎ² Î³ÎµÎ¹
ĠÎ² ÏħÎ¸
ĠÏĩ ÏĦÎ±
Î»Î¹ Î¿Ïį
Î»Î¹ Î³ÎºÎ¬
ĠÎ¬ Î½Îµ
ÎºÎ± ÏĦÎ¬
ĠÎľ Î¿Ïħ
ĠÎķ ÏħÏĦÏħÏĩ
ĠÏĥÏħ Î¼ÏĢ
Îľ ÏĢÎ±
ĠÎ¬Î» Î»Î¿ÏĤ
ĠÏģ Î¿
ĠÏĥÎº ÎŃ
ĠÏĥÏĦÎ± Î¸
Î¿ÏĢ Î¬
Î¿ÏĢ ÏĮ
ĠÎ¼ÏĢÎ¿Ïģ Î¿ÏįÏĥÎ±
ÏĦÏī Î¼Î±
ĠÎ´Ïħ ÏĥÎºÎ¿Î»
ĠÎĮ ÏĥÎ¿
ĠÎ¾Îµ ÏĩÏī
ĠÎºÏĮ ÏģÎ±
ĠÎºÏĮ ÏģÎµÏĤ
ĠÏĥÏħÎ½ Î®
ĠÎ³Îµ Î¼Î¯
ĠÏĨÏį Î»Î±
ĠÏĢÎµÏģÎ¯ Î¼ÎµÎ½Î±Î½
ĠÎ»ÏĮ Î³Î¿
ĠÂµÎ± Î¶Î¯
ĠÎµÏĢ ÏĦÎ¬
ĠÎ±ÏĢÎ¿ÏĨÎ¬ÏĥÎ¹ ÏĥÎ±Î½
Î¼Î¿Î½ Î®
ĠÎŃÎ²Î»Îµ ÏĢÎ±Î½
ÏĦÎ¿ÏĢ Î¿Î¹
ĠÎµÏħ ÎºÎ±Î¹ÏģÎ¯Î±
ĠÎĸ Î±Î¼
ĠÎ³ÏģÎ¬ Î¼Î¼Î±ÏĦÎ±
ÎķÎ¯ Î¼Î±Î¹
ĠÏĥÎºÏį Î»Î¿
ĠÎºÎ±Î»Î¿ ÎºÎ±Î¯ÏģÎ¹
ĠÎ½ÎŃ Î¿
ĠÏĥÎ·Î¼ ÎµÎ¯Î¿
ĠÎ´ÎµÏįÏĦÎµ ÏģÎ·
ĠÎ±ÏĢÎ¿ÏĨÎ± ÏĥÎ¯
ĠÏĢÎ±Î½ÎŃ Î¼Î¿ÏģÏĨ
ĠÏĩÎ±Î¼ÏĮÎ³Îµ Î»Î¿
ĠÎŃÏĥÏĦÎµÎ¹ Î»Îµ
ĠÎ±ÏĢÎŃÎ½Î±Î½ ÏĦÎ¹
Î¬ ÏģÎ¹
ĠÏĢ ÎŃÏģ
ÏĮ Î½Î±
Î¼ Î¼ÎŃÎ½Î¿
ĠÎ± Ïĥ
Î±Î½ Î¬
Î´ Î¬ÎºÎ¹
Î¸ Î¹ÏĥÎµ
ĠÎ´ ÏģÎ¿Ïĥ
Ïį Î½Î±
ÏģÎ¹ Î¬Î½
ÏĦÎµ ÏģÏĮ
ĠÎºÎ± ÏĨ
ĠÏĩ ÏģÎ·ÏĥÎ¹
Î¼Î± Î³
Î¼Î± ÏĦÎ¬
ĠÎ¬ Î¼Î±
ĠÎ· Î»Î¹
ĠÎ¤ Î¯
Î¯Î½ Î¿Î½ÏĦÎ±ÏĤ
ÎºÎ± Ïģ
ĠÏĢÎµ ÏģÎ®ÏĨÎ±Î½
ĠÎ±Î½ ÎŃ
ÏĪ ÎµÎ¹ÏĤ
ĠÎ¶ Î±
ĠÎºÎ¹ ÏĮÎ»Î±
Î¤ ÏİÏģÎ±
ĠÎł Î¯Î¿Ïħ
Î¸Îµ ÏĥÎµ
ĠÎ±Î» Î»Î¹ÏİÏĤ
ĠÎĪ Ïĩ
ĠÎ¼ÏĢÎ¿Ïģ Î¿ÏįÎ¼Îµ
ÏĦÎŃ Î»Îµ
ĠÎºÎ¿Ïħ Î²Î±
ĠÎºÎ¿Ïħ Î¶Î¯Î½Î±
ĠÎĵ Îº
ĠÎĺ Î·Ïĥ
ĠÎ±Ïģ Î³
ĠÏĢÎ±ÏģÎ± ÎºÎ¿Î»
ĠÎ±ÏĨ ÎµÎ½
Î»Ïī ÏĥÎ±Î½
ĠÎ¡ Ïİ
Î¸Î® ÎºÎ·
ĠÎŃÎº Î»Î±Î¹
ĠÎµÏħÏĩ Î®
ĠÎ¼Ïħ ÏģÏī
ÏĨÎ± Î¯
ĠÎ´ÏħÎ½Î± ÏĦÏĮ
ĠÎ´Ïİ ÏĥÏī
ĠÎ¾Ïį Î»Î¹
ÏģÎ³ Î¿ÏĤ
ĠÎ´Î¹Î¬ Î²Î±
ĠÏħÏĢÎ¬ÏģÏĩ Î¿ÏħÎ½
ĠÎ±ÏĨÎ® ÏĥÎµÎ¹
Î±Î± Î±Î±
Î»ÎµÏį Î¸Îµ
ĠÏĦÏģÏİ ÎµÎ¹
ĠÎŃÏĨÏĦÎ¹Î± Î¾Îµ
ĠÎ±ÏħÏĦÎ¿Îº ÏģÎ¬ÏĦÎ¿
ĠÏĩÏģÎµÎ¹Î¬ Î¶ÎµÏĦÎ±Î¹
ÎŃÏģÎµ ÏĦÎµ
ÏĨÏİ Î½Î·ÏĥÎµ
ÏĥÎºÏħ ÏĪÎµ
ĠÎ£ÏĦÎ±ÏĩÏĦÎ¿ÏĢÎ¿Ïį ÏĦÎ±
Î¿ ÏĦÎŃ
ÏĦ Î¯Î±
ĠÏĥ ÎŃÎ½Î±
ĠÏĥ ÏĢÎ¿Ïħ
ĠÏĥ ÏĢÎ¬
Î³ ÏīÎ½
Ïī Î¸ÎµÎ¯
ĠÎµ Î»ÎµÏħÎ¸Îµ
Ïĩ ÏĦÎ·ÎºÎ±Î½
ĠÎ½ ÏĦÏģÎ¿ÏĢ
ĠÎ´ ÎŃ
ĠÎ´ Î¿ÏįÎ¼Îµ
Î² ÎµÎ¹
ĠÎ¬ ÏĢ
ÏĥÎ¹ Î³Î¬
ÏĥÏĦ Î¿ÏĤ
ĠÎ¤ Î·ÏĤ
ÏģÎ¿ Îº
ĠÎ¼ÎŃ Î½Î±
ĠÂµ Î±ÏĤ
Î¸Î· ÎºÎ±
ÏĦÎ¿ Î¹Î±
ĠÏĢÎ¬ ÏĢÎ¹Î±
ĠÎ£ Î¿Ïħ
ĠÏģ Î±
Îĳ ÏĨÎ¿Ïį
Îł Îµ
ĠÎ´Îµ Î¾Î¹Î¬
Î¬Ïĥ Î±Î¹
ĠÏĢÏģÎ¹ Î³ÎºÎ¹
ĠÏĢÏģÎ¿Ïĥ Î¿ÏĩÎ®
ĠÎ»ÎŃ Î¾Î·
Î´Î· ÏĤ
ĠÎ¼Ïħ ÏĥÏĦÎ¹ÎºÏĮ
ĠÏĢÏģÎ¿ Î»Î¬Î²
ÏģÎ±Î³Î¼Î± ÏĦÎ¹ÎºÎ¬
ĠÎ¼ÎµÏĦÎ± Î¼Î¿ÏģÏĨ
ĠÎ³Î»Ïħ ÎºÎ¹Î¬
ĠÏĢÎ· Î³Î¬
ĠÎºÎ»Î± Î¯ÎµÎ¹
ĠÎµÎº ÏĦÏĮÏĤ
ĠÏħÏĢÎ® ÏģÏĩÎ±Î½
ĠÎłÎ± ÏģÎ±
ĠÏĨÏĦÎ¹Î¬ ÏĩÎ½
ĠÎĳÏħÏĦ ÏĮÏĤ
ĠÎ¬ÏĥÏĢ ÏģÎ±
ĠÏĢÎµÏĦÎ¬ ÏĩÏĦÎ·ÎºÎµ
ĠÏĥÎ·Î¼Î± Î¯Î½ÎµÎ¹
ĠÏĥÎ·Î¼ Î±Î½
ÏĨÎ¬Î½ ÎµÎ¹Î±
ĠÎºÏį Îº
ĠÏĢÎ¿Î½ÏĦÎ¯ ÎºÎ¹Î±
ĠÎŃÎ¾ ÏħÏĢ
ĠÎĳÏĥÏĢÏģÎ±Î»Î¿Î³Î¿Î³Î¹ ÏĮÏĤ
ĠÎ²ÏĮÎ» ÏĦÎ±
ĠÎ¶ÏīÎ½ ÏĦÎ±Î½
ĠÏĢÎµÎ½ÏĦÎ¬ Î¼Î¿ÏģÏĨÎ·
Î¯Îº ÏĦÏī
ĠÎ±ÎµÏģÎ¿ÏĢ Î»Î¬
ĠÎºÎ¹ÏĮÎ»Î± ÏĤ
Î¿ Î¼Î±Î¹
Î» ÎºÎ·
Î¯ ÏĥÏī
ÏĢ Î¿Î»Ïį
Îº Î»ÎµÎ¹
ĠÏĢ Î¿ÏģÏĦÎ¿ÎºÎ±
ĠÎµ ÏģÎ³Î±
Î¿Ïį Î³ÎµÎ½
ĠÎ³ ÏīÎ½
ĠÎ³ ÏģÎ¹Î¬
ÏĦÎµ Ïį
Î¶ Î»
Î¶ Î¹Î±
Î»Î± Î²Î±Î½
ÏĦÎ¬ Î´Î¹
ĠÎ¸ Ïį
Âµ Î¿ÏģÏĨ
ĠÏĢÎ± Î¶Î»
ÏģÎ¯ Î¶ÎµÎ¹
ĠÎ¤ Î¿ÏħÏĤ
Î¼Îµ ÏģÎ¹
ĠÎ®ÏĦÎ±Î½ Îµ
Î½Îµ ÏĦÎ±Î¹
ĠÎľ Î¿Î¯ÏģÎ±
ĠÎŁ ÏįÏĦÎµ
ĠÎ»Î¯ Î³ÎµÏĤ
ĠÎĮ ÏĢÏīÏĤ
ÏĦÎŃ ÏĦÏĥÎ¹
ĠÎºÎ¿Ïħ ÏģÎ¬
ĠÏİ ÏĥÏĢÎ¿Ïħ
Î¿ÏĨ Î¬ÏĥÎ¹
ĠÎ±Î½Î± ÎºÎ±
ÏĩÎ½ Î¿ÏįÎ»Î±
ĠÎĴ Î¯ÎºÏĦÏī
ĠÎĿ Î±Î¹
ĠÎ±ÏĢÎ¿ Î¼Î±
ĠÎĨ Î½
ĠÏĢÏģÏĮ Î²Î»Î·
ĠÎŃÎº Î¿ÏĪÎµ
ĠÎ»Î¹ Î³
ĠÎ³Î± ÏģÎ³Î±
ĠÎ±Î½Î¸ÏģÏİ ÏĢÏīÎ½
ĠÎ±Î½Î¬ Î³ÎºÎ·
ĠÎ¾Ïį Î»Î±
ĠÎ£Îµ Î»Î¯Î½Î±
ĠÏĢÎµÏģÎ¹ÏĥÏĥÏĮÏĦÎµ ÏģÎ±
ĠÎ±Î´ ÏįÎ½Î±
ĠÎºÏģÏħ ÏĨÎ¬
ĠÏĥÎºÎµÏĨ ÏĦÎµÎ¯
ĠÎŃÏĥ ÎºÎ±
ĠÏĥÎ·Î¼Î± ÏĥÎ¯Î±
ĠÏĥÎºÎŃÏĪ ÎµÎ¹ÏĤ
ĠÎ±ÎºÎ¿Î» Î¿Ïį
ĠÎ¿Î´Î· Î³
ĠÎµÏĦÎ¿Î¹ Î¼Î¬
ĠÎ¾ÏħÎ»Î¿ÎºÏĮ ÏĢÎ¿ÏĤ
ĠÂµÎ¬ ÏĦÎ¹Î±
ĠÏĦÏģÎŃÏĩ Î¿Î½ÏĦÎ±ÏĤ
! ...
; "
ĠÎ ¥
ÏĦ ÏģÎ¿Ïħ
Ïģ ÎµÎ¯
Î» ÏįÏĦÎµ
Î· Î¸ÎµÎ¯
ÏĮ ÏĦÎ·ÏĦÎ±
ÎŃ ÏĦÎ±Î¹
ĠÎ¼ Ïī
ĠÏĥ ÎºÎ±Î½
Î³ Î¿Î½ÏĦÎ±Î½
Î±Î½ ÏĮ
ĠÎ´ Î¿Ïį
ĠÎ´ Î¹ÎºÎ¬
ĠÎ³ Î¹Î¿
ĠÎ² ÏģÎ¿Ïį
ĠÏĩ ÏģÎµÎ¹Î±
Î¾ Î¯Î±
ĠÏĢÎ¿Ïħ Î»Î¯
Âµ ÏĢÎ¬
ĠÎ¬ ÏģÏĢÎ±
ĠÏĢÎ± ÏģÎ·
ĠÎ¼Î± Ïģ
ĠÎ¸Î± ÏįÎ¼Î±
ÏĥÏĦ Î¿ÏįÎ½
ÏģÎ¿ Î½Î±
ĠÎ¶ ÎµÎ¹
Î³Î± ÏĢÎ·
Î¸Îµ Î»Îµ
ÎŃÎ» ÎµÏĤ
ĠÏĩÎ± Î¸ÎµÎ¯
Îł Î¿Î¹Î¿ÏĤ
ĠÏĨÎ¿ Î²Î¬
ĠÎºÎ¿Ïħ Î´
Î£ ÏĦÎ·Î½
Î´Î¯ ÎºÎ·
Î³Î® ÏĤ
ĠÎ»ÎŃ Ïī
ĠÎµÏĢÎ¹ ÏĥÎºÎµ
ĠÎŃÎ² Î³Î±Î¹Î½Îµ
ĠÎµÎ¾ Î±
ĠÏĥÎ¹ Î´Îµ
ĠÎŃÎ²Î± Î»Î±Î½
ĠÏĦÏģ ÎµÎ¯ÏĤ
ĠÎºÎ±ÏģÎ´Î¹Î¬ ÏĤ
ÏĥÏĩ Î¿Î»
ĠÎ¶Îµ ÏĥÏĦÎ±
ĠÎ¼ÏĢÎ® ÎºÎ±Î½
ĠÏĥÏįÎ½ ÏĦÎ¿Î¼Î±
ĠÎºÏħÎ½Î· Î³
ĠÎ»ÎµÏĢ ÏĦÏĮ
ĠÎ²ÏģÎ¯ ÏĥÎºÎµ
ĠÎ½ÎµÏģÎ¬Î¹ Î´ÎµÏĤ
ĠÎŃÎºÏĢÎ»Î· Îº
ĠÎŃÎºÏĢÎ»Î· Î¾Î·
ĠÎĴÎ±ÏĥÎ¯ Î»Î·ÏĤ
ĠÎ¸Î· ÏĥÎ±Ïħ
ĠÏĢÎµÏģÎ¹ÏĥÏĦ ÎŃÏģÎ¹Î±
ĠÎ²Î³Î± Î¯Î½ÎµÎ¹
ĠÎĬ ÏĥÎ¿Î½
ĠÎµÏĢÎ¹Îº Î¯Î½Î´Ïħ
ĠÎ¾ÎµÎºÎ¿Ïħ ÏģÎ±
ĠÎºÎ¿ÏħÎ½Îµ Î»Î¬ÎºÎ¹
ĠÎ¡Ïİ ÏĦÎ·ÏĥÎµ
Î¿ÏįÎ³ÎµÎ½ Î½Î±
Î ĸ
Ġ 2
Î± Âµ
Î½ ÎŃÏĩ
Ïģ Î±Î¹
Î¿Ï Ĭ
Ïĥ ÏĦÎ·ÏĥÎµ
Îº ÏİÎ½
Ïħ Î±
ĠÎŃ Î¼Î¿Î¹Î±
ÏĨ Î¿Ïħ
ĠÏĨ Ïİ
Î² Î¬ÎºÎ¹
ÏģÎ¬ Î½ÏĦÎ±
ĠÎ¸ ÎµÎ¯Î±
ĠÎ¸ ÏĮÏģÏħ
Âµ Î±Î¹
ĠÎ» Î¿
ÏĥÏĦ ÏĮÏĥÎ¿
ÏģÎµ Î¾Î·
ĠÎºÎ¬ Î»ÎµÏĥÎµ
ÎºÎ± Î¼Îµ
ĠÏĢÎ¿Î» Î»Î¿Î¯
ĠÂµ ÏĮÎ½Î¿
ĠÏĥÏħ Î³Î³
ĠÎ²Î± ÏģÎŃ
ÏģÎŃ ÏĪÎµÎ¹
ĠÏĢÎ¿Î»Ïį ÏĩÏģÏī
ÏģÎ· ÏĥÎ±Î½
ÏģÎ® Î½Î·
ĠÏĢÎ±Î¹ Î´Î¹ÏİÎ½
Îĳ ÎĻ
Î³Î¹ Î¿ÏĤ
Î¶Î¯ ÏĦÎ¶
ĠÎ±Ïħ ÏĦÎ¹Î¬
ĠÎºÎ¿ ÏĦÎŃÏĦÏĥÎ¹
ĠÎºÎ¿Î¹ ÏĦÎ¿ÏįÏĥÎ±Î½
ÎĮ Î»Î±
ĠÎ§ Î±
ĠÎµÏĢÎ¹ ÏĥÎº
Î½Î® Î¸Î·ÎºÎµ
Î½Î¬ Î´Î±
ĠÎ»Î± Î³ÏĮÏĤ
ĠÎ®Î¸Îµ Î»Î±
ĠÏĨÏİÎ½Î± Î¾Î±Î½
ĠÏĨÎ¬ Ïī
ĠÏĢÏģÎ±Î³Î¼Î± ÏĦÎ¹ÎºÏĮ
ĠÎŃÏĦÏģÎµ ÏĩÎµ
ĠÏĩÎ¹ Î»Î¹Î¬Î´ÎµÏĤ
ĠÎ±Î³Î±ÏĢ Ïİ
ĠÎºÏģÏħ ÏĨ
ÎĴ Î±
ĠÎºÎ¿Î¼ Î¼Î¬ÏĦÎ¹Î±
ĠÎ´ÎµÎ¯ ÏĩÎ½
ĠÎłÎ® ÏģÎµ
Î¶Î¿ Î¼Î±Î¹
ĠÎ¼Î±Î¶Îµ Ïį
ĠÎļÎ¿Î¯ÏĦÎ± Î¾Îµ
ĠÏĦÏģÏħ ÏĨÎµ
ĠÎ±Î½Î¿Î¹Ïĩ ÏĦÏĮ
ĠÏĩÎ¿ ÏģÏĮ
. âĪĨ
: "
Ġ âĢ¦
Îµ Î»Î¹ÎºÎ¬
Ïģ Î½Î±Î½
Î¬ Î»Î¹
Î· ÂµÎ®
Îº ÏģÎ¹ÏĥÎµ
ĠÏĢ ÎŃÏĨ
Î¼ Ïİ
Î¼ ÏĢÎ¿
ĠÎ¼ Î¿Î¯ÏģÎ±
ĠÏĥ Î¬
Î³ ÎµÎ¹ÏĤ
Î³ ÎºÎ¿
ĠÎµ Î¾Îµ
ĠÎµ ÏĢÎ±Î½
ĠÎµ Î»ÏĢÎ¯Î´Î±
ĠÎµ ÏĥÎµÎ¯ÏĤ
Ïĩ ÎµÏĤ
Î´ ÏīÏĥÎµ
ĠÎ´ Î¹ÎºÎ±
ĠÎ¿ Î½ÎµÎ¹
ÏĦÎµ Î¯Î±
ÎµÎ½ ÏĦ
ĠÏĩ ÎµÎ¯
ĠÏĩ ÏģÎ¿Î½
ĠÏĢÎ¿Ïħ Î»Î¬ÎºÎ¹Î±
ÏĦÎ¬ Î½Î¹
ÏĥÎ±Î½ Îµ
ĠÎ¼ÎŃ ÏģÎ·
ĠÎĳ Î»Î¯
ĠÏĢÎ¿Î» Î»Î¿ÏįÏĤ
ĠÎľ Î¯Î´Î±
ÎºÏĮ ÎºÎºÎ¹
ĠÏĢÎ¬ ÏģÏī
Î¼ÏĢ Î½ÏĦÎ¬
ÎºÎ¿ Î»Î±
ÎŃÏĥ ÏĦÎ·
ÏĩÎ½ Î¬
ĠÎºÎ¿Î¹ Î»Î¹Î¬
ĠÎ±ÏĢÎ¿ ÏĦÎŃÎ»Îµ
ĠÂµÎµ Î³Î¬
Î¿Î½ÏĦÎ¬ ÏĤ
ĠÎ³Ïħ Î±
ĠÎ§ Î¬Î½
ĠÎĨ Î½Î¿Î¹
ĠÎºÎ¬Î¸Îµ ÏĦÎ±Î¹
ĠÎľÎ± ÎĲÏĥÏĦÏģÎ¿
ĠÎ¼Ïħ Ïģ
ĠÎ¦ Î±
ĠÏĥÎ± Î»Î¹Î³ÎºÎ¬
Î´Î® ÏĢÎ¿ÏĦÎµ
ĠÏĨÎ¬ ÏģÎ¼Î±
ĠÎķÎºÎµÎ¯ Î½Î¿ÏĤ
ĠÏĨÏħ ÏĥÎ¹ÎºÎ¬
ĠÏĨÎ±Î³Î· ÏĦÎ¬
Î½Ïİ Î¼Î·
ÏĢÎ»Î· Îº
ĠÏĦÏĥ Î¿Ïħ
.âĢ ľ
ĠÎ±Î³ÏĮ ÏģÎ±
ĠÎ¾ÎµÎºÎ¯Î½ Î·ÏĥÎ±Î½
ĠÏĦÏģÎ¿ Î¼Îµ
ĠÎŃÎ½Î¹ ÏīÎ¸Îµ
ĠÏĩÏĦÏħ ÏĢ
ĠÎ²Î¹Î² Î»Î¯Î±
ĠÏĮÎ½ÎµÎ¹ ÏģÎ¿
ĠÏĦÎ¶ Î¬ÎºÎ¹
ĠÎ²Î¬ÏĦÏģÎ± ÏĩÎ¿ÏĤ
ĠÏĢÎ±ÏģÎ¬Î¾ÎµÎ½ Î¿
ĠÏĥÏĩÎ® ÂµÎ±
ĠÏĢÏģÎ¿Ïĩ Ïī
ĠÏĥÏħÎ½Î¿ Î´
ĠÎŃÎ²ÏģÎ¹Ïĥ ÎºÎµ
ĠÎ¾Î¬ÏĢ Î»ÏīÏĥÎµ
ĠÎĪÎ»Îµ Î½Î±
ĠÎ±ÏģÎ³ ÏĮÏĦÎµÏģÎ±
Î¼ÏĢÎ½ÏĦÎ¬ Î»Î±
Î¹ Î¿Ïį
Ïģ Î¿ÏįÏĥÎ±Î½
ĠÎº Î»Ïī
Îº Î¯Î±
Îº Î¿Ïĥ
ĠÏĢ Î»Î¿
Î¼ ÎµÎ¯
Î¼ Î¬Î½
ĠÏĥ Î¿Ïį
Î³ ÎµÎ¹Î±
ĠÎµ Î»ÎµÏįÎ¸Îµ
ĠÎŃ ÏĢÎ±
ĠÎŃ ÏĩÎµÏĦÎµ
ĠÎµÎ¯ ÏĥÎ¿
ÏĦÎµ ÏģÎ±
ĠÏĨ ÎµÏį
ÏĦÎ· Î¼Î±
ÏĥÎ± ÏĦÎµ
ÎºÎ¹ Î¿
ĠÏĢÎ± ÏĢÎ¬ÎºÎ¹
ĠÎ¼Î± Î³Î±
ĠÎ¸Î± ÏħÎ¼Î¬
Î»Îµ ÏĦÎµ
ĠÎĳ Î¶Î¬Ïģ
ĠÎķ Î¹
ĠÎł ÏģÎ¿Ïĥ
ÏĦÎ¯ Î³
ĠÏĥÎº Î¿Ïį
ÎŃÎ» ÏĨÎ¹Î±
ĠÎĪ Î»Î±
ĠÎ¾Îµ ÎºÎ¹
ĠÎ´Îµ Î»ÏĨÎ¹
ÎĮ Î»Î¿Î¹
ĠÎºÎµ Î»Î¬
ĠÎ±ÏģÏĩ Î±
ĠÏĥÏħÎ¼ Î²Î¿Ïħ
ĠÎºÏģÎ± ÏĦÏİÎ½ÏĦÎ±ÏĤ
ÎļÎ± Î¸ÏİÏĤ
ĠÎ²ÏģÎ® ÎºÎ±
ĠÎ¸Ïħ Î¼Î¬
ĠÏĢÎ»Î· ÏĥÎ¹Î¬
ĠÎ³Î¬ ÏĦÎ±
Î»Î±Î¹ Î¿
ĠÎ®Î¾Îµ ÏģÎ±Î½
ĠÎ±Îµ ÏĦÏĮÏĤ
ĠÏĦÏģÏĮ Î¼Î±
ĠÏĥÏĦÎµ ÎºÏĮÏĦÎ±Î½
ĠÏĥÎºÎ¿ ÏĦÎ¬Î´Î¹
ĠÎĸ Î®
ĠÏĨÏīÎ½Î¬ Î¶ÎµÎ¹
ĠÎ´Î· Î»Î±Î´Î®
ĠÎ¼Î¿Î½Î± Î¾Î¹Î¬
ĠÎ±Î² Î³Î¬
ĠÎ¬Ïģ ÏģÏī
ĠÎĺÎŃÎ» Ïī
ĠÎµÎ»Î± ÏĨ
ĠÏĪÎ¹ Î¸
ĠÎ±Î³ÎºÎ¬ Î»Î¹Î±
ĠÎĳÏĥÏĦÏģÎŃÎ½ Î¹Î¿ÏĤ
ĠÎ³ÏįÏģÎ¹ ÏĥÎ±Î½
ĠÎŃÎ¼Î± Î¸Îµ
ĠÎ£Î¿ÎºÎ¿ÏĨ Î»Î®ÏĤ
ĠÎŃÏĨÏĦÎ±Î½ Îµ
ĠÏĢÎµÏĦÎ±Î»Î¿Ïį Î´Î±
ĠÎ±ÏģÎ± ÏĩÎ½Î¿ÏįÎ»Î±
ĠÎ´ÎŃÏģ Î¼Î±
ĠÎĺÎ·Ïĥ ÎŃÎ±ÏĤ
ĠÏĢÎ·Î³Î¬ Î´Î¹
ĠÎĳÎ»Î¯ ÎºÎ·
Î½ Î¿Ïħ
ÏĦ ÏĮÎ½
Î» ÏĮÎ½Î¹
ĠÎº Î¿Î½
ĠÎº ÏĮÏĦÎµÏĤ
Î¿Ïħ Î»Î¬ÎºÎ¹
Î¿Ïħ Î³ÎµÎ½
ÏĢ Î¬Î½Ïī
Îº Î¬Î½
ĠÏĢ ÎµÏĤ
ÏĮ ÏĩÎ¿Î¹
Î¼ Î¿ÏĢÎ¿Î¹
ĠÎ¼ ÎŃÎ½
Î³ ÏĮÏĦÎ±Î½
Ïī Î½Îµ
ĠÎ½ ÏĦÎ¿Ïħ
ĠÎŃ Î³
ĠÎ³ ÎµÎ¯
Ïį ÏĢ
ÏģÎ¹ Î¿ÏĤ
ĠÏĨ ÏģÎ¬
ĠÏĨ ÏģÏĮÎ½
ÏĦÎ¹ ÎºÎ¿
ÏģÎ¬ ÎºÎ¿ÏĤ
ĠÎ² ÏģÎµÎ¹ÏĤ
ĠÎºÎ± ÏģÎ±
ĠÎºÎ± ÏģÎŃ
ĠÏĩ Î¯
ÏĦÎ¬ ÏĤ
ÎµÎ¯ Î½Î±Î¹
Î»Î¹ ÏİÎ½
Î¼Î± ÏĥÎµ
Î¹Îº Î¿
ÏĥÎ¹ Î¿
ĠÎ¾ Î±
ĠÎ¾ ÎŃÏĩ
ĠÎ¼ÎŃ Î»Î¹ÏĥÏĥÎ±
ĠÎĳ Î»ÎŃ
ĠÏĢÎµ Ïģ
ĠÎļ ÏĮ
ĠÎ¼Î¿Ïħ Ïģ
ĠÂµ ÎŃÏģÎ±
ÏĢÎ¿ ÏĦÎ±
Î¼ÏĢ Î·ÏĥÎµ
ĠÏĩÎ± Î¯
Îĳ Ïĩ
ĠÎºÎ±Î¸ ÏģÎŃÏĨ
ĠÎºÎ¿Ïħ Î»Î¿Ïħ
ĠÎĵ Îµ
Î¿Ïĥ Î¿
ĠÎ±Ïģ Î½Î¬ÎºÎ¹
ĠÎµÎ½ Î¿Ïĩ
ÏĢÎ¿Ïį Ïģ
Î³Î® ÏĥÎµÎ¹
ĠÎ¶Ïī Î®ÏĤ
ĠÎ²Î¬ Ïģ
ÏĢÎ® ÎºÎµ
ĠÎµÎ¾ Î®
ĠÎĽ Î±
ÏĨÎµ ÏģÎµ
ĠÎ¸ÎŃÎ» Î¿ÏħÎ½
ĠÎ´Î¯ ÏĩÏĦÏħ
ĠÏį ÏĨÎ¿ÏĤ
ĠÏĨÏİÎ½Î± Î¶Î±Î½
ĠÎ´Î¬Ïĥ ÎºÎ±
ĠÎ³Î¯Î½ Ïī
ĠÎºÎ¿Î¯ÏĦÎ± Î¶Îµ
ĠÎ³Î± Î»Î¬
ĠÏĢÏģÎ¬Î³ Î¼Î±ÏĦÎ¹
ĠÎŃÎ»Î± ÏĦÎ±
ÏħÎ¸ ÏįÎ½
ĠÎ±ÏģÎºÎµ ÏĦÎ®
ĠÎ±Î³Î±ÏĢÎ· Î¼ÎŃÎ½Î¿
ĠÎŃÎ¼ÎµÎ¹ Î½Î±Î½
ĠÏĦÎŃ ÏĦÎ¿Î¹Î±
ĠÎºÎ±Î¹Î½Î¿Ïį ÏģÎ¹Î±
ĠÎ´Î· Î¼Î¹
ĠÏĩÏĦÏħ ÏĢÎ¬
ĠÎ±Î½ÎŃÎ² Î·ÎºÎµ
ĠÎ±Î½Î¿Î¯ Î¾ÎµÎ¹
ĠÂµÎ¹Îº ÏģÏĮ
ĠÎķÏħ ÏģÏħ
ĠÎµÎ¾Î±ÏĨÎ±Î½ Î¯ÏĥÏĦÎ·ÎºÎµ
ĠÎ£Ïī ÏĦÎ®
ĠÏĢÏģÎ¿ÏĥÏĢÎ¬ Î¸Î·ÏĥÎµ
ĠÎ§ÏģÎ¹ÏĥÏĦ Î¿ÏįÎ³ÎµÎ½Î½Î±
ĠÏĢÎ±ÏģÎ±Î¼Ïį Î¸Î¹
ĠÎ±ÏģÎ¹ ÏĥÏĦÎµÏģÎ¬
ĠÎĴÎ±Î³Î³ ÎŃÎ»Î·ÏĤ
Î±Âµ ÏĢÎ¿ÏįÏģ
Î·ÂµÎ® ÏĦ
Î¹ Î¶
Î½ ÏĮÏĤ
ĠÏĦ ÏĥÎ¹
ĠÏĦ ÏħÏĨ
Î» Î¿ÏįÎ½
Îº ÏģÎ±
Î¼ ÎµÏĤ
Î³ ÎºÎ±
ĠÎµ Î¼ÏĢ
Ïĩ ÎŃ
Ïĩ ÏĦÎ±
ĠÎ½ Î¹Ïİ
ĠÏĦÎ¿ Î»
ĠÎŃ ÏĥÎºÏħÏĪÎµ
Î¸ Î¿Ïį
Ïį ÏģÎ±
ÏĥÎµ Î»
ÏĨ Î¯ÏĦÏĥÎ±
Î² Î»Îµ
Î¿Î½ Î·
ĠÏĩ ÏģÏħÏĥÎ±
Î¬Î½ Î¸ÏģÏī
Î¹Îº ÏĮÏĤ
ÏĥÎ¹ Î¼Î¿
ÏĥÏĦ Î¿Î½
ĠÎ¤ ÏĥÎ±
ĠÎºÎ¬ Î¸Î¹ÏĥÎ±Î½
ÏģÏī Î½
ĠÎĳ ÏĨ
ĠÏĢÎµ Î¸Î¬Î½
Î½Îµ Ïħ
ĠÎľ Î·Î½
ĠÏĦÎ¹ Î¼Ïī
ĠÎ±Î½ Î¸ÏģÏī
ĠÎ¶ Î¿ÏħÎ½
ĠÎķ Î´Ïİ
ĠÎł Î¿Ïħ
ĠÏĢÎ¬ ÏĦÏīÎ¼Î±
Î¶Îµ ÏĦÎµ
ĠÏħ Î³
ĠÎĪ ÏĢÎµÎ¹ÏĦÎ±
ĠÎ¼Î¬ Î»Î»Î¿Î½
âĢĻ .
Î´Î¹Î± Î¯
Î´Î¹Î± ÏĨÎŃÏģ
ĠÎĶ Î·
ĠÎºÏĮ ÎºÎ¿
ĠÏĢÎµÏģÎ¹ ÎŃÏģ
ĠÏĢÎ±ÏģÎ± ÏĦÎ®
ĠÏĢÎ±ÏģÎ± ÏĢÎ¿Î½
ĠÏĢÎ¿ ÏĦÎ®
ĠÎ±ÏĢÎ¿ Î³Î¿Î·ÏĦÎµÏħ
ĠÎķÎ¯ ÏĥÎ±Î¹
ĠÎĨ ÎºÎ¿Ïħ
ĠÎ´ÎŃÎ½ ÏĦÏģÎ¿Ïħ
ĠÎ±ÏģÏĩ Î¯
ĠÏĩÎ¬ Î¸Î·ÎºÎµ
ĠÎ²Î¿ Î®
ĠÎ²Î»ÎŃ Î¼Î¼Î±
ĠÏĢÎ¹ ÏĥÏĦÎµÏį
ĠÎ³Î¯Î½ ÎµÎ¹ÏĤ
ĠÎºÎ¬ÏĢÎ¿Î¹ Î¿Î½
ĠÎ±ÏĢÎ¿Îº Î¿Î¹
ĠÏĩÎ¿Ïģ ÎµÏį
ĠÏĩÎ±ÏģÎ¿Ïį Î¼ÎµÎ½Î±
ĠÎµÏħ Î³ÎµÎ½
ĠÎ±Î³Î±ÏĢ Î¿ÏįÏĥÎ±Î½
ĠÏĨÎ¿Î² Î¬ÏĥÎ±Î¹
ĠÎºÎ¬Î¸ Î¿Î½ÏĦÎ±Î½
âĢĿ .
ĠÏĩÎ±Î¼Î¿ Î³ÎŃÎ»Î±ÏĥÎµ
ĠÏĢÏħ Îº
ĠÎ³ÎŃ Î¼Î¹ÏĥÎµ
ĠÎ±Î½ÏĦÎ¯ ÎºÏģÎ¹ÏĥÎµ
ĠÎ¼Î¿Î½Î± Î´
ĠÎłÎ® Î³Îµ
ĠÎļÎ±Î½ ÎµÎ¯ÏĤ
ĠÎ£Ïī ÏĦÎ¯Î³
ĠÎŃÎ¼ÏĢ Î¿Ïģ
ĠÏĦÎµÎ»ÎµÎ¹ ÏİÏĥÎµÎ¹
ÏĦÏģÎ¿ÏĨ Î¹Î¬
ÏĦÎ¿Î» Î®
ĠÎºÏģÎ¬ ÏĦÎ·ÏĥÎµ
ĠÎŃÏĨÎµÏģ Î½Îµ
ĠÏĥÎºÎ±Î½ ÏĦÎ¶
ĠÎ²ÏģÎ¯ÏĥÎºÎµ ÏĦÎ±Î¹
Î¿ÏħÎ³ÎµÎ½ Î½Î¹Î¬
Î± ÏħÏĦ
Î¹ ÎŃÏĤ
ĠÏĦ ÏĥÎ¯
ÏĢ ÏĮÏĦÎµ
Î±Î¹ ÏģÎµ
ĠÏĥ ÎºÏĮ
ĠÎ± Ïĩ
ĠÎ± Âµ
ĠÎ± Î¾Î¯
Î³ ÏįÏģÏī
Î³ ÏĮÎ½ÎµÏĤ
ĠÎŃ Î³ÏģÎ±
Î´ ÎŃÎ½
Î´ ÎµÎ¹Î±
Î¸ ÎŃ
ÏģÎ± Î¯Î±
ÏģÎ± Î³Îµ
ÏĨ ÏĦÎµÏĤ
ĠÏĥÏĦ ÎµÎ¯
ĠÎ±ÏĢ Î¿Ïģ
ĠÏĩ Î¬Î½
Î»Î¹ ÏĦÎ¶
ĠÎĳ ÎºÏĮ
ĠÎĳ Î¼ÏĢÎ½ÏĦÎ¬Î»Î±
ĠÏĢÎµ ÏĦÎ¿ÏįÏĥÎ±Î½
Î³Îµ ÏĦÎ±Î¹
ĠÎ¶ ÎŃÏĥÏĦÎ·
Î½Î· ÏĥÎ±Î½
Îľ Î·Î½
Î´Î¹ ÎŃÏĤ
ĠÏģ ÏĮ
Î²Î± Î»Îµ
ĠÎ¼ÏĢÎ¿Ïģ Î¿ÏįÎ½
Îķ ÎĻ
ĠÏĢÏĮ Î»Îµ
ĠÏĢÏĮ Î»Î·ÏĤ
ĠÎĺ Î¬Î»Î±ÏĥÏĥÎ±
ÏįÏģÎ¹ Î¶Îµ
ĠÎºÎ±ÏĦÎ± Î»Î±Î²Î±
ĠÎ§ Î¬
Î¸Ïħ Î½
ĠÎºÏģÎ± ÏĦÎ¿ÏįÏĥÎµ
ĠÏĨÎ¿Ïģ Î¿ÏįÏĥÎµ
ĠÎ¸Ïħ Î¼Ïī
ĠÎ³Î± ÏĬ
ĠÏĩÎ¿Ïģ Î¿ÏĢ
ĠÎŃÏĢÎ±Î¹ Î¶Îµ
ĠÏĦÎ±Î¾Î¯ Î´Îµ
ĠÎ²Î¹ ÏĦÏģÎ¯
ĠÎ±Î´ ÎŃÎ»ÏĨÎ¹Î±
ÎºÎ¿Î» Î¿
ĠÏĪÎ± ÏģÎ¬ÎºÎ¹
ÎķÎ¯ ÏĩÎµ
ĠÏĨÎ¬Î½ Îµ
ĠÏĨÎ±Î¯Î½ Î¿Î½ÏĦÎ±Î½
ĠÏĥÎºÎ± Ïģ
ĠÎ²Î»ÎŃÏĢ ÎµÎ¹ÏĤ
ĠÏĢÎ±Î½ÏĦÏģÎµ ÏħÏĦÎµÎ¯
ĠÏĦÏģÎ±Î³Î¿Ïħ Î´
Î¿ÏħÎ¸ Î¿ÏįÏĥÎµ
ÎŁÎ¥ ÎĿ
ĠÎµÏį ÎºÎ¿Î»Î±
ĠÏĢÎµÏģÎ¹ÏĥÏĦ ÎŃÏģÎ¹
ĠÏĥÏĦÎµÎ½Î±ÏĩÏī ÏģÎ·
ĠÏĩÏīÏģÎ¬ ÏĨÎ¹Î±
ĠÏĥÏĩÎŃ Î´Î¹Î¿
ĠÎºÎ¯ÏĦÏģÎ¹ Î½Î¿
ĠÏĥÏįÎ½Î½Îµ ÏĨÎ¿
ĠÏĥÏĦÎµÎ½ Î¿ÏĩÏī
ĠÎºÎ¬Î¼ÏĢ Î¿Ïĥ
ĠÎ±Î½Î® ÏĥÏħÏĩ
ÏħÏĩÎ± ÏģÎ¹ÏĥÏĦ
ĠÏĢÎ¿Î½ÏĦÎ¹ÎºÎ¬ ÎºÎ¹
ĠÎ±ÏĢÎ¿ÏĦÎŃÎ»Îµ ÏĥÎ¼Î±
ĠÎ§Î¬Î½ ÏĥÎµÎ»
ĠÎµÎ¯ÏĥÎ¿ Î´Î¿
0 0
Z Î±Î¼
ı ÏĥÏĢÎ¿Ïħ
Î¿ Î¿
ÏĦ ÎµÎ¹Î±
Ïģ Î³Î¹
Ïģ Î³Î¿Ïħ
ĠÏĦ ÏģÎ¬
ĠÏĦ Î¶Î¯ÏĦÎ¶
Î¬ Î¶Î±
Î» ÏĦÎ¹Î¬
ÏĢ ÏģÏĮ
Îº ÏģÎ¹Î¬
ĠÏĢ ÏĮÎ½Î¿
ĠÎµ Î»ÎŃ
Ïĩ Î¸
Ïĩ Î¿ÏħÏĤ
Ïĩ ÏĦÎµÎ¯
ĠÎ½ ÏħÏĨ
Î® Î¸Î·ÎºÎµ
ĠÎŃ Î¼ÎµÎ½Îµ
Î´ ÎŃÏģ
ĠÎ³ Î»ÎŃÎ½
ÏĨ ÏĮ
ÏģÎ¹ ÎºÎ®
ĠÎ¿ Î½Î¿
ÏĦÎµ ÏģÎ·
ĠÏĮ Î»ÏīÎ½
ĠÎ±ÏĢ Î¿Ïĩ
ĠÏĨ Î¿ÏħÎ½
ÏĦÎ¹ ÏĤ
Î² Î¿Ïį
ĠÎºÎ± Î»ÎŃ
ÎµÎ¯ ÏĢÎµ
ĠÎ¸ Î¬
ĠÎ±ÏĢÏĮ ÏĦÎ¿Î¼Î±
ĠÏĥÏĦÎ¿ Î»Î¹
ĠÏĢÎ± Î³
ĠÏĢÎ± ÏĢÎ¿Ïħ
ĠÎ¼Î± ÏģÎ³Î±
ÏĢÎµ ÏĦÎµ
ĠÎ¾ Î±ÏĨÎ½
ĠÎºÎ¬ ÏĢÎ¿Ïħ
ĠÎļ Î¿Îº
ÏĢÎ¹ ÎµÏĤ
Î³Î¿ Î»Î±Î¼ÏĢ
ĠÎł ÏĮÏĥÎ¿
ĠÎ²Î± ÏģÎ¹
ÏģÎŃ ÏĦÎµÎ»
Îľ ÏĢÎ¿Ïģ
Îļ Î¿Î¯ÏĦÎ±
ĠÎĪ ÏĢ
ÎºÎ¿Ïħ ÏĨÎ¯ÏĦÏĥÎ±
ĠÎĮ ÏĩÎ¹
ĠÎºÎ±Î¸ ÎŃÎ½Î±
Î¿Ïĥ ÎºÎ¿ÏħÏĨÎ¯ÏĦÏĥÎ±
ĠÎ±Ïģ ÏģÏİ
ĠÎ³Îµ Î»ÏİÎ½ÏĦÎ±ÏĤ
ĠÎŃÎºÎ±Î½ ÎµÏĤ
ĠÎºÎ¿Î¹ Î¼ÏĮÏĦÎ±Î½
ĠÏĢÏģÎ¿Ïĥ ÎŃÏĩ
ĠÎ¹ Î´Î¹Î±Î¯
ÎŃÏĨ ÏĦÎ·ÎºÎµ
ĠÎ´Î¯ ÎºÎ¹Î¿
Î¹Ïĥ Î¼ÎŃÎ½Î±
ĠÏĢÎµÎ¹ Î½Î¬
ĠÏĨÏİÎ½Î± Î¶Îµ
ĠÎºÎ±Î»ÏįÏĦÎµ ÏģÎ¿
ĠÎ´Î¹ ÏĢ
ĠÎ´Î¹ Î·Î³Î®
ĠÎ³ÏģÎ® Î³Î¿Ïģ
ĠÏĦÏģÎ± ÏĢÎµ
ĠÏĪÎ· Î»ÏĮ
ĠÏĢÎ±Î¯ Î¶ÎµÎ¹
ĠÎºÎ® ÏĢÎ¿Ïħ
ĠÏĨÏĮ ÏģÎµÎ¼Î±
ĠÎ³ÎµÎ¼Î¬ ÏĦÎ·
ĠÎ¬ÏĨ Î·Î½Îµ
ĠÏīÏģÎ± Î¯Î¿
ĠÏĢÎ±ÏģÎ¬Î¸Ïħ ÏģÎ±
ĠÏĥÏĦÏģÎ±ÏĦÎ¹ Ïī
ĠÏĢÏħ Î³Î¿Î»Î±Î¼ÏĢ
ĠÎ±Î´ÎµÏģÏĨ Î®
ĠÏĢÎµÎ¯ Î½Î±
ĠÎ¬Î»Î¿ Î³Î¿
!! !
ĠÎºÎ¿ÏģÎ¯ ÏĦÏĥÎ¹Î±
ĠÎĹÏģÎ±Îº Î»Î®
ĠÎ²Î»ÎŃÏĢ Î¿Î½ÏĦÎ±ÏĤ
ĠÎŃÎ´ÎµÎ¹ ÏĩÎ½Îµ
ĠÎºÎ±ÏĦÎŃÎ² Î·ÎºÎµ
ĠÏĥÏĦÎ¬ Î²
ĠÎŃÏĥÏĦ Ïī
ĠÎ¼Î±Ïį ÏģÎ¿
ĠÏĢÏģÎ¿ÏĥÏĢÎ±Î¸ Î¿ÏįÏĥÎµ
ĠÎŃÏĦÏģÏī Î³Î±Î½
ĠÎ½Î¿Î¼Î¯ Î¶Ïī
ĠÏĨÏħÎ»Î± ÎºÎ®
ĠÎ²Î® Î¼Î±ÏĦÎ±
ĠÎºÎ±ÏĦ ÏĥÎ¯
ĠÏĢÎµÎ¹ÏģÎ¬ Î¶ÎµÎ¹
Î¿ÏĢÎ¬ ÏĦÎ¹
ĠÎºÎ±ÏĨ ÎŃ
ĠÎĵÎº ÏģÎŃÏĦÎµÎ»
ĠÎ¬ÏģÏĢÎ± Î¾Îµ
ĠÎ¼ÏħÏģ Î¼Î®
ĠÎķÏħÏģÏħ Î´Î¯ÎºÎ·
: âĢ
Î± ÏĢÎ¿
Î¹ ÏĥÏĦÎµÎ¯
Îµ ÏģÏĮ
ÏĦ Î¿ÏįÎ»Î±
Î» ÏİÎ½
ĠÎº Î¯Î½Î´Ïħ
ĠÏĢ Î¿Ïģ
ĠÎŃ ÏĢÎµÎ¹ÏĦÎ±
ĠÎ´ ÏĮÎ½
ÏģÎ¹ ÏĥÎ±Î½
ĠÏĮ ÏģÎµÎ¾Î·
ĠÏĨ Î¿Ïį
ĠÏĨ ÏģÎ¿Ïį
ĠÏĨ ÏģÎ¿Ïħ
Î² ÎŃÎ»
ĠÎºÎ± Î¼Î¯Î±
ÏĦÎ¬ ÏģÎ¹Î±
ĠÎ¸ Î»Î¹
ĠÎ¬ Î½Î±
ÏģÎ¯ Î½Î±
ĠÏĢÎ¿Î» Ïħ
ĠÏĢÎ¿Î» Î»Î®
ĠÎľ Î¿Ïģ
ĠÂµ ÏĢÎ±
Î¸Î· ÏĥÎ±Î½
Î¤ Î¿Î½
ĠÏĢÎ¬ ÏģÎ¿ÏħÎ½
ĠÎŁ ÏģÏĨ
Îĳ Î»Î»Î¬
Îĳ ÏħÏĦÎ¬
ĠÎµÎºÎµÎ¯ Î½Î±
Îķ Î´Ïİ
ĠÎ¼ÎµÎ³Î¬ Î»ÎµÏĤ
ĠÎ¬Î½ ÏĦÎµ
Î¼Î· ÏĥÎµ
ĠÎ±Î³ ÏģÏĮ
ĠÎ±Î³ Î³Îµ
ĠÏĢÎ±ÏģÎ± ÏĦÎ·
ĠÏĥÏħÎ½ ÏĦÏģÎ¿ÏĨÎ¹Î¬
ĠÏĢÏģÎ¿Ïĥ ÎŃ
ĠÎ¹ ÎºÎ±Î½
ĠÏĨÎ¯ Î´Î¹
ĠÏĨÎ¯ Î»Î¿ÏĤ
ĠÎµÏĢÎ¹ ÏĨÎ¬Î½ÎµÎ¹Î±
ĠÎĨ Î³Î³Îµ
ĠÎ³Î¹ ÏĮ
ĠÏĦÎ¯ Î³
ĠÎºÎµ Î»Î±
ĠÎļÎ± Î»Î¬
ÏĥÎ¯Î± ÏĥÎµ
ĠÎ»Î¹ Î²Î¬
ĠÏĨÎ¬ Î»Î±Î¹
ĠÎ´ÏħÎ½Î± ÏĦÏĮÏĤ
ĠÎ³Î± Î»Î±
ĠÎ¹ÏĥÏĦ ÏĮ
ĠÎ´Î¬ ÏĩÏĦÏħ
ĠÎ±Î³Î±ÏĢÎ· Î¼ÎŃÎ½Î±
Î¬Ïģ ÏģÎ¿ÏĤ
ĠÏĥÎ¹Î³Î¬ ÏĥÎ¹Î³Î¬
ĠÏĢÎ¹Î¬ ÏĥÎµÎ¹
ĠÏģÎ¯ Î¶ÎµÏĤ
ĠÎ²Î¿ÏħÎ½ Î¬
ĠÏĥÏĦÎ±Î¼Î¬ ÏĦÎ·ÏĥÎ±Î½
ĠÎŃÏĦÎ¿Î¹ Î¼Î±
ĠÎŃÏĦÎ¿Î¹ Î¼Î¿ÏĤ
ĠÏĥÎºÏħ Î»Î¬ÎºÎ¹
ĠÎ²Î»ÎŃÏĢ Î¿ÏħÎ½
ĠÏĢÎ·Î³Î± Î¯Î½ÎµÎ¹
ĠÏĥÏĦÎ¬ Î¸Î·ÎºÎµ
ĠÏĥÏħÎ½ÎµÏĩ ÏİÏĤ
ĠÏĢÎ¿Î½ÏĦÎ¯ ÎºÎ¹
ĠÎĴÎ±ÏĥÎ¯ Î»Î·
ĠÎ³Î¹Î¿Ïģ ÏĦÎ®
ĠÎ»ÎµÏħ ÎºÏĮ
ĠÎľÎ¹ Î»ÏĦÎ¹Î¬
ĠÏĢÎ±ÏģÎ±Î¼Ïį Î¸Î¹Î±
ĠÎĽÎ¿Ïħ ÎºÎ¬
ĠÎĴÎ±ÏĥÎ¹Î»Î¹Î¬ ÏĤ
ÎºÎ¹Î½ Î¿ÏĥÎºÎ¿ÏħÏĨÎ¯ÏĦÏĥÎ±
Î²Î· Î¾Îµ
ĠÏĥÏħÎ½ÎŃÎ² Î·
ĠÎºÎ±ÏĦÏĥÎ¹Îº Î¿ÏįÎ»Î±
ĠÏĦÎŃÏĥÏĥÎµ ÏģÎ±
ĠÎ¼ÏĢÏĮ ÏģÎµÏĥÎµ
ĠÎŃÎºÎ»Î±Î¹ Î³Îµ
ÏĨÎ±Î¯ ÏĥÏĦ
ĠÏĥÎ·Î¼Î±Î½ ÏĦÎ¹ÎºÏĮ
ĠÎ²ÏģÎ¿Ïį Î¼Îµ
ĠÏĥÎºÎ±Î½ÏĦÎ¶ ÏĮÏĩÎ¿Î¹
ĠÎļÎ¿Îº ÎºÎ¹Î½Î¿ÏĥÎºÎ¿ÏħÏĨÎ¯ÏĦÏĥÎ±
ÏĦ ÏĥÎµÏĤ
Î» ÎµÎ¹ÏĤ
ĠÎº Î·
ÎŃ ÏĢÎ·
ÎŃ Î¼Î±ÏĦÎ±
ĠÏĥ ÎºÎ¹Î¬
ĠÎ± ÏĮÏģÎ±
Ïī Ïī
ĠÎŃ Î»ÎµÎ¹
Î´ Î¯Î±
Î¿Ïį Î»ÎµÏĤ
ĠÏĮ Ïĥ
Î² Î¿ÏĤ
ĠÎºÎ± Î»Î±
Î»Î¹ ÏĥÏĥ
ĠÎ¸ ÎµÏĤ
ĠÎ¸ Î¬ÏģÏģÎ¿ÏĤ
Î»Î¬ Î´Î±
Î¿Ïģ ÏĦÎ¶
ĠÎ³Î¹Î± ÏĦ
ÏģÎ¯ Î½Î¹Î±
ĠÎ¼Î± Î³ÎµÎ¹
Î»Î· ÏĥÎ±Î½
ĠÎľ ÏĢÎ¹
ĠÎľ ÎŃÏĥÎ±
ĠÎ¶ Î¿Ïħ
ĠÎ¶ Î¿Ïį
ĠÎķ Ïģ
Î¸Î· Î¼Î±
ĠÏĥÏħ Î¶Î·
ĠÎł Î¿Î»
ĠÎł ÏģÎ¹Î½
ÏĮÏĥ Îº
ÏĮÏĥ ÏĦÎ¹
ĠÏĥÎº Î¿ÏĢÏĮ
ĠÏĢÎ® Î´Î·
ĠÎĪ ÏĩÎµÎ¹
ĠÎĪ Î½Î±ÏĤ
ĠÎ¼Î¬ Î³Î¿Ïħ
ĠÎµÎºÎµÎ¯ Î½Î¿Î¹
Î¿ÏģÏĨ Î®
ĠÎ±Î»Î»Î¬ Î¾ÎµÎ¹
Îł Î¬
ÎºÎ¿ Î¼
Î£ Î±ÏĤ
ÏģÎ¿Ïį Î»Î·
ĠÏĥÏħÎ½ Î¬Î½ÏĦÎ·ÏĥÎµ
Î³ÎºÎ¹ Î¬Î½Î±
ĠÎ´Î¹Î± ÏĥÎºÎµ
ĠÎī Î¸ÎµÎ»Îµ
ĠÎĨ Î¹
ÏĥÎº ÎŃ
ĠÎ±ÎºÏĮ ÂµÎ±
ĠÏĨÏį Î³Ïī
ĠÎ²ÏģÎ¬ ÏĩÎ¿
ĠÎ¬ÎºÎ¿Ïħ ÏĥÎ±Î½
ĠÎļÎ¹ Î½ÎŃ
ĠÎ±ÏĥÏĦ ÏģÎ±
ĠÎŃÏģÎ¸ Î¿ÏħÎ½
ĠÎ¶Ïİ Î¿
ĠÎ¸ÎŃ Î»ÎµÏĦÎµ
ĠÏĦÏĥ ÎŃÏĢÎ·
ĠÎµÏĢÏĮ Î¼ÎµÎ½Î¿
ĠÎ¬Î³ ÏģÎ¹Î±
ĠÏĦÎµÎ»ÎµÏħÏĦÎ± Î¯Î¿
ĠÏĢÏģÏĮÏĥÏī ÏĢÏĮ
ĠÏĦÏģÎ¹Î±Î½ÏĦÎ¬ÏĨÏħ Î»Î»Î±
ÏģÎµÏħ Î±Î½
ĠÏĦÎ¶ Î¯Î½Î¹
ĠÎ±Î² Î³ÏĮ
ĠÎ³ÎŃÏģ Î¿ÏĤ
ĠÎ±ÏĢÎ¿ÏĨÎ± ÏĥÎ¹
ĠÏĥÎ¿Î²Î± ÏģÏĮ
ĠÏĩÏīÏģÎ¬ ÏĨÎ¹
ĠÏĥÏį Î¼
ĠÎ±ÏĢÎ¬Î½ ÏĦÎ·ÏĥÎ·
ĠÎŃÏĪÎ± ÏĩÎ½Îµ
ÏĢÏģÎ¬ Î²Î¿
ĠÏĥÎºÎ¹Î¿Ïħ ÏģÎ¬ÎºÎ¹
Î¼ÎŃÏģÏī ÏĥÎµ
ĠÏĢÎ¿ÏĦÎ¬ Î¼Î¹
ÏģÎ» ÏĤ
ĠÎŃÏģÎ· Î¼Î¿
ĠÎĸÎ±Î¼ ZÎ±Î¼
ĠÎ±ÏĨÎµÎ½ ÏĦÎ¹ÎºÏĮ
ĠÏģÎ± Î²
ĠÎ±ÎµÏģÎ¿ÏĢÎ»Î¬ Î½Î¿
ĠÏĢÏģÏĮÎ²Î»Î· Î¼Î±
ĠÏĢÎµÏģÎ¹ÎŃÏģ Î³ÎµÎ¹Î±
ĠÎľÎ¿Ïģ Î³ÎºÎ¹Î¬Î½Î±
! "
Îµ ÏĨÎ¬
Î½ Î¿Î½ÏĦÎ±ÏĤ
ĠÏĦ Î¿Ïĥ
Î¬ Î¹
Ïĥ ÎºÎ¬
Î¯ ÏĥÏĦÎµ
ĠÎº ÎŃÏģÎ±
ĠÎº Î¿Ïĩ
Î¿Ïħ Ïģ
ÏĢ Î¿Î»
ĠÏĢ Î»ÎµÏħ
ĠÏĢ Î¿ÏįÎ¼Îµ
Î¼ ÎµÎ¯ÏĤ
Î¼ ÏīÏĥÎµ
ĠÎ± ÏĥÎ·
Î±Î½ ÎŃ
Ïħ Î´Î±
Ïĩ Î¹Î±
ĠÎŃ Î½Î¿Î¹
Î¿Ïį Î»Î¹Î±
Ïį ÏģÎ¿ÏĤ
ÏĨ ÏĦÎ·ÎºÎµ
ÏģÎ¹ ÏİÎ½
ĠÏĮ Ïģ
Î² ÎµÏĤ
ĠÎºÎ± ÏģÏĮ
Î»Î¹ ÏĥÎµ
ĠÎ¬ Î´ÎµÎ¹Î±
ĠÎ» ÎµÎ¯
ÏģÏĮ ÏĦÎ±Î½
ÏģÎ¯ Î¼ÎµÎ½Îµ
ÏĥÏĦ ÎŃÎ½Î±
âĢ ´
Î³Î¬ ÏģÎ¹Î±
ÏĦÎ¿ ÏĦÎµ
Î³Î± Î»ÎµÎ¹
ĠÏĥÏħ ÏĩÎ½Î¬
ĠÎł Î¡
ĠÎł Î¿ÏĦÎŃ
ÏĦÎ¯ ÏĥÎµÎ¹
ĠÎ£ ÏĦÎ·
Îļ ÎµÏĨÎ¬
Î¼ÏĢ Î¿Ïģ
ÏĦÎ® ÏģÎ±
Î½Î¿ Î¯
ĠÎ¼Î¬ ÏĦÎ¹
ĠÎĶ Î®
Îķ Î£
Îķ Î½ÏĦÎ¬Î¾ÎµÎ¹
ĠÎ±Î³ Î³
ĠÎĺ Ïī
ĠÏĢÎµÏģÎ¹ ÏĢÎŃ
ĠÎ±Ïħ Î³Î¬
ĠÎµÎ½ Î´Î¹Î±ÏĨÎŃÏģ
ĠÎºÎ±ÏĦÎ± ÏĥÏĦ
Î³Î±Î½ Îµ
ĠÏĢÎ¿ ÏĦÎ±
ĠÎŃÎºÎ±Î½ Î±
ĠÎķÎ¯ Î´Îµ
ĠÎ§ ÏīÏģÎ¯ÏĤ
ĠÎļÎ± Ïģ
ĠÏĥÏħÎ¼ ÏĢÎµÏģÎ¹
ÏģÏħÏĥ Î¸
ĠÎ³Î¹Î±Î³Î¹Î¬ ÏĤ
ĠÎ±ÏĥÏĦ Ïħ
Î»Î»Î¬ Î´Î±
ĠÎ±Î½Î¬ ÏĥÎ±
ĠÎ¼ÎµÎ³Î± Î»Ïİ
ĠÎºÏĮÎºÎºÎ¹ Î½Î·
ĠÎ¸Î¬Î»Î±ÏĥÏĥÎ± ÏĤ
ĠÎºÎ±ÏĦÎ±Î»Î¬Î² Î±Î¹Î½Îµ
ĠÎºÏįÏģÎ¹ Îµ
ĠÎĸ Ïī
ĠÎºÎ»ÎµÎ¹ Î´Î±
Î´Î¬ ÎµÎ¹
ÏĦÎµÏħ Î¸ÎµÎ¯
ĠÎ³ÎŃ Î¼Î¹
ĠÏĦÏģÏİ Î½Îµ
Î¼Î¼ Ïį
ĠÎ®ÏģÎ¸ ÎµÏĤ
ĠÎ¼Î±Ïį ÏģÎ±
ĠÏĮÂµ Î¿ÏģÏĨ
ĠÏĦÏħ ÏĩÎµ
ĠÏĦÏģÎ¯ ÏĦÎ·
ĠÎµÎ»Î¬ ÏĨÎ¹Î±
ĠÎķÏħ ÏģÏħÏĥÎ¸
ĠÎ¿Î»ÏĮÎºÎ»Î· ÏģÎ¿
ĠÎ²Î¬ÏĦÏģÎ± ÏĩÎ¿
ĠÏĩÎ±Î¼Î¿Î³Îµ Î»ÏİÎ½ÏĦÎ±ÏĤ
ĠÎĽÎ¯ Î³Î¿
ĠÏĩÎ±Î¹ ÏģÎŃ
ÏĨÏīÎ½ Î¿
ĠÏĥÏįÎ½Î½Îµ ÏĨÎ±
ĠÎ±ÏĢÎµ Î»ÏĢÎ¹
ĠÎ®ÏĥÏħÏĩ Î±
ĠÎ¼Ïį ÏĦÎ·
ĠÏĢÏģÏĮÏĥ Î¸ÎµÏĥÎµ
ĠÎ¤Î¶ Î¿ÏģÏĦÎ¶
ĠÏĢÎ±Î»Î¹ ÏĮ
ĠÎµÏĢÎ¹Î¸Ïħ Î¼Î¯Î±
ĠÎ±Î¹Ïĥ Î¸Î¬Î½
ĠÏĥÎ¹Ïī ÏĢÎ·
ĠÏĢÏģÎ¹Î³ÎºÎ¹ ÏĢÏĮ
ĠÏĪÎ¹Î¸ ÏįÏģÎ¹ÏĥÎµ
ĠÎºÎ¿ÏħÎ»Î¿Ïħ ÏģÎ¬ÎºÎ¹Î±
ĠÎ¤ÏĥÎ± ÏģÎ»ÏĤ
ĠÎ´ÏĮÎ½ ÏĦÎ¹Î±
ÎļÎµÏĨÎ¬ Î»Î±Î¹Î¿
Ġ 3
Ġ K
Î¹ Î¶Î±Î½
Î½ Î¿ÏħÏĤ
Î½ Î¿ÏħÎ¼Îµ
Î½ Î¿ÏįÎ»Î±
ĠÏĦ ÏģÎ¿ÏĨÎ®
Î» ÏİÏĥÎµÎ¹
Î¯ ÎºÎ·
Îº Ïį
ÏĮ ÎºÎ·
ĠÏĥ ÏĢÏĮ
Ïī Î¼Î±
Ïī ÏĦÎ¿
ĠÎµ ÏĦÎ¿Î¯
ĠÎ½ ÏĦÏħ
ĠÎ½ ÏĮÏĦÎµÏĤ
ĠÎ½ ÏīÏģÎ¯ÏĤ
Î¸ Ïī
ÏĨ ÏĦÎ±Î½
ĠÎ¿ Î´Î®
ÏĦÎ¹ Îº
ÏĦÎ¹ ÎºÎ±
Î»Î± ÏĤ
ÏĦÎ¬ Î¾ÎµÎ¹
ĠÎ¸ Î»Î¯
Âµ ÏīÏĤ
ĠÎ¬ Î¸
ĠÎ· ÏĨÎ±Î¯ÏĥÏĦ
Î¿Ïģ Îµ
Î¬Î½ Î¹Î¿
ÏĥÎ± Î²ÎŃÎ»
ÏĥÎ¹ Î¬ÏĥÏĦÎ·ÎºÎµ
ÏģÎ¯ ÏĥÏĦÎµ
ÏģÎ¯ Î¶Î¿Î½ÏĦÎ±ÏĤ
ĠÎ¾ ÎŃÎ½
ĠÎ¤ ÏĮÏĥÎ¿
ĠÎ¼ÏĢ Î¬
ĠÎļ Î¿Ïģ
ĠÎļ Î¿Î½ÏĦ
ĠÂµ ÎŃÏĩÏģÎ¹
Î¼Î¬ Î´ÎµÏĤ
ĠÏĢÎ¿Î»Ïį ÏĦÎ¹
ĠÏģ Ïħ
ĠÎ¼Î¹Îº ÏģÎŃÏĤ
ĠÎĹ Î»Î¯Î±ÏĤ
Îł ÏİÏĤ
ĠÎ¼ÎµÎ³Î¬ Î»Î¿Î¹
ĠÎĵ ÏįÏģÎ¹ÏĥÎµ
âĢ¦ .
ĠÎ±Ïħ Î³ÏĮ
Î³Î· ÏĥÎ±Î½
ĠÎºÎ±ÏĦÎ¬ Î»Î±Î²Î±Î½
ĠÏĢÏģÎ¿Ïĥ ÏĦÎ±
ÎĮ ÏĥÎ¿
ÏİÎ½Î± Î¾Îµ
Î´Ïħ Î½Îµ
ÏĢÎ® ÏĥÎµÎ¹
ĠÎºÎµ Ïģ
ĠÏĩÎ¬ Î¹Î´Îµ
ÏģÎ¹ÏĥÏĦ Î¿
ÏģÎ¹ÏĥÏĦ Î¿ÏħÎ³ÎµÎ½Î½Î¹Î¬
ÎŃÏĪ Î¿ÏħÎ½
ĠâĢ ´
ĠÏĢÏģÎ¿ Î²
ĠÎ´Î¿Ïħ Î»ÎµÏį
ĠÏĢÎ±Î¯ Î¾ÎµÎ¹
ĠÎŃÏĦÏģÎµ ÏĩÎ±Î½
Îĺ ÎŃÎ»
ĠÎ¾ÎŃÏģ Î¿ÏħÎ¼Îµ
ĠÎ²Î¿Î· Î¸Î¬
ĠÎºÎ»Î± Î´Î¯
ĠÏĩÎ±ÏģÎ¿Ïį Î¼ÎµÎ½Î·
ĠÎµÏħÏĦÏħÏĩ Î¯Î±
ĠÎŃÏĨÎµ ÏħÎ³Îµ
ĠÎºÎ¿Î» Î¿Îº
ĠÏĢÎµÏģÏĢÎ± ÏĦÎ¿ÏįÏĥÎµ
Î±ÏĢ Î¿ÏħÎ½
ĠÏĦÏģÎ¿ Î¼Î±Î³
ĠÏįÏĢ Î½Î¿ÏĤ
ĠÏĮÎ½Î¿ Î¼Î¬
Î±Î½Î± ÏĥÎ¬
ĠÎľÏĢÎ± Î±ÂµÏĢÎ¿ÏįÏģ
ĠÎ±Î¯ Î¼Î±
ĠÏĢÎµÏģÎ¹Î¼ÎŃÎ½ ÎµÎ¹
ĠÎ²Î³Î¬ Î»ÎµÎ¹
ĠÎµÎ»Î¬ ÏĨÎ¹
ĠÏĩÏĮ ÏģÏĦÎ±
ĠÏĩÎ±ÏģÎ¿ÏįÎ¼ÎµÎ½ Î¿Î¹
ĠÎ¬Ïģ Î³Î·ÏĥÎµ
ĠÎ¶ÏīÎ³ÏģÎ±ÏĨ Î¹Î¬
ĠÎŃÎ¼ÏĢ Î±Î¹Î½Îµ
Î·Î³ Î¿Ïį
ĠÎºÎ±ÏĦÎ±ÏĨÎŃÏģ ÎµÎ¹
ĠÎ´ÏħÏĥÏĦÏħÏĩ ÏİÏĤ
ÎĳÏħÏĦ Î®
ĠÎ¿Î¹ÎºÎ¿Î³ÎŃÎ½ÎµÎ¹ Î¬
ĠÏĥÎ¿ÎºÎ¿Î»Î¬ ÏĦÎ±
ĠÎ¼Î±Î¶ ÎŃÏĪÎµÎ¹
ĠÎ»Î±Î¹ Î¼ÏĮ
ÏĦÏħÏĩ Î¯Î±
ÏģÎ¹Î¬Î½ Î½Î±
ĠÏĢÏģÎ±Î³Î¼Î±ÏĦÎ¹ÎºÏĮ ÏĦÎ·ÏĦÎ±
ĠÏĩÎµÎ¯ Î»Î·
ĠÎķÎ¹ ÏģÎ®Î½Î·
ĠÎ¼Î±ÏģÎ³Î± ÏģÎ¹
ĠÎľÏĢÎ¹ Î¶
Î±Î½ÎŃ ÏĥÏĥÎ±
Î¿ Î´
ÏĦ ÏĥÎµ
ÏĦ ÏİÎ½
Ïģ ÏĦÎµÏĤ
ĠÎº Î¿Î½ÏĦ
Îº Î»ÎµÏĤ
ĠÏĢ ÏĮÎ½
ĠÏĥ ÏĨÎ¹
ÏĦÎ± Îº
ÏģÎ¹ Î¶Î±Î½
ĠÏĮ ÏĢÎ¿Î¹Î¿ÏĤ
ĠÎ±ÏĢ Î¿Ïĥ
ĠÎ±ÏĢ Î±Î½ÏĦÎ¬
ĠÏĨ ÎŃÏģÏī
ĠÏĨ Î¿ÏįÏģ
Î² Î¹Î¬
Î¶ ÎŃÎ»
ĠÎ¬ ÏĥÏĦÏģÎ±
ÏģÏĮ ÏĥÏĦÎ±
Î¬Î½ Î¹Î±
ĠÎ¼Î± Î»Î±
ĠÎ¼Î± Î³Îµ
ÏĥÏĦ Ïİ
ĠÎ¾ ÎŃÏĨ
ĠÎ¤ Î·
Î»Îµ ÏĪÎµ
Î¼Îµ ÏģÏİÏĥÎµÎ¹
ĠÎĳ Î¹
ĠÏĢÎµ ÏģÎ±
ĠÏĢÎµ ÏĦÎ¿ÏįÏĥÎµ
ĠÎľ Î¬Ïģ
ĠÏĥÏħ Î½Î·
Î¤ Î¯
ĠÎł Î¿ÏģÏĦÎ¿ÎºÎ±
ĠÎ²Î± ÏģÏį
ÎŃÏģ ÎµÎ¹ÏĤ
ĠÏĢÎ¬ ÏĢÎ¹ÎµÏĤ
ÏģÏİ ÏĦÎ·ÏĥÎµ
ĠÏĥÎº Î¿Ïģ
ĠÏĥÎº Î·Î½
ĠÎ±Î» Î»Î¿Ïį
ĠÎ¼ÏĢÎ¿Ïģ ÎŃ
ÏĦÏī ÏĥÎ·
Îķ ÏĥÏį
ÎºÎ¿Ïį Î»Î±
ÏĥÎ¯ Î¼
ÏĥÎ¯ Î´Ïī
Î¿ÏįÎ½ ÏĦÎ±Î½
ĠÎĵ Î¿Ïħ
Î£ ÏĦÎ±
ÏĥÎ¼ÎŃÎ½ ÎµÏĤ
Î´Î¯ ÏĦÏĥÎ±
ĠÎºÎ±Î» Î»Î¹
ĠÎĨ Î»
ĠÎĨ ÏģÏĩÎ¹ÏĥÎµ
ĠÎ¶Ïī Î¬ÎºÎ¹Î±
Î»Ïī ÏĥÏĦÎµ
ĠÎºÎµ ÏĨÎ±
ÏĨÎ¬ ÎºÎ¹Î±
ĠÎ¬Î½Î¸ÏģÏī ÏĢÎ¿
ĠÎļÎ± ÏĦÎ¬
ĠÏĢÎ¿Î½ ÏĦÎ¹ÎºÏĮÏĤ
ĠÏĢÎ¹ ÎµÎ¹
ĠÏĢÎµÏģÎ¯ ÏĢ
ĠÎ´ÏģÏĮ Î¼Î¿ÏħÏĤ
ĠÏĥÎ± ÎºÎ¯
ĠÏĨÏħ ÏĦÎ¬
ĠÎ¼Î¹ Î»Î¿ÏįÏĥÎµ
ĠÎ±Î½Î¸ÏģÏİ ÏĢÎ¹
ĠÎŃÏĦÏģÎµ Î¾Î±Î½
ÏģÎ³ ÏĮÏĤ
ÏĥÏĦÎ¹ ÎºÎ®
ĠÏĩÎ¿Ïģ ÏĦÎ¬ÏģÎ¹
ĠÎ³ÎµÎ¼Î¬ ÏĦÎ¿ÏĤ
ĠÎ¿Î»ÏĮ Î³Ïħ
ĠÏĨÏĦÎµ ÏģÏĮ
ĠÏĨÏĦÎµ ÏģÎ¿Ïį
ĠÎ±ÏģÎºÎµ ÏĦÏĮ
ĠÏĨÎ¿Î² ÏĮÏĦÎ±Î½
ĠÏĪÎ± ÏģÎ¬ÎºÎ¹Î±
ĠÏĢÎ»Î¬ ÏĥÎ¼Î±ÏĦÎ±
ĠÎ¼Î¿Î½ Î¿ÏĢÎ¬ÏĦÎ¹
ĠÏĦÏģÎ¿ Î¼Î¬
ĠÎºÎ±Î»Î¿ ÎºÎ±Î¹
ĠÎºÏħÎ½Î· Î³ÏĮÏĤ
ĠÎ¼Î¿Î¹ ÏģÎ¬
ĠÎ¾Ïī ÏĦÎ¹ÎºÏĮ
ĠÎ´ÏģÎ¬ ÎºÎ¿
ĠÎ±ÎºÎ¿Î» Î¿ÏħÎ¸Î®
ĠÎ´Î± Î³Îº
ĠÏĢÎ»Î¿Ïį ÏĦÎ·
ĠÏĢÏģÎ¿ÏĥÏĢÎ±Î¸ ÏİÎ½ÏĦÎ±ÏĤ
ĠÎµÏĢÎ¯ ÏĥÎ·ÏĤ
ĠÎ¿Î»ÏĮÎºÎ»Î· ÏģÎ·
ĠÎµÎ¹ Î´
ĠÎ´ÎµÏįÏĦÎµ ÏģÎ¿
ĠÎ½Î¿Î¼Î¯ ÏĥÎ¼Î±ÏĦÎ±
ĠÎ¬ÏĥÏĩÎ· Î¼Î¿
ĠÏĥÏĦÎµÎ½Î±ÏĩÏī ÏģÎ¹
Î¹Î¹Î¹Î¹ Î¹Î¹Î¹Î¹
ĠÏĦÎ¿Î¯ ÏĩÎ¿
ĠÎ¾ÎµÏĩÎ¬ ÏĥÎµÎ¹
ĠÏĥÎºÎ¿ÏĦÎµÎ¹ Î½ÏĮ
ĠÎµÏħÏĩÎ±ÏģÎ¯ ÏĥÏĦÎ·ÏĥÎµ
ÏĦÎ¯Î½ ÎµÏĤ
ĠÎĵÎ± Î»Î¬
ĠÏħÏĢÎ¿Ïĥ ÏĩÎŃ
ĠÎºÎ»Î¬ Î¼Î±ÏĦÎ±
ĠÏħÏĢÎ·ÏģÎŃ ÏĦÎµÏĤ
ĠÎ³ÎµÎ¹ÏĦÎ¿Î½ Î¹Î¬
ĠÎ¶ÎµÏħ Î³Î¬ÏģÎ¹
ĠÏĩÏģÎ·ÏĥÎ¹ Î¼Î¿ÏĢÎ¿Î¹
ĠÎ±ÏħÏĦÎ¿ÎºÏģÎ¬ÏĦÎ¿ ÏģÎ±ÏĤ
ĠÎ´ÎŃ ÎºÎ±
ĠÎĴÎ¯ÎºÏĦÏī ÏģÎ±ÏĤ
ĠÎ±ÎºÎ¿Î»Î¿Ïį Î¸Î·ÏĥÎµ
ĠÏĦÏģÏħÏĨÎµ ÏģÎ¬
ĠÏĨÎ¬ÏģÎ¼Î± ÎºÎ±
ĠÎ½ÏĦÎ¿Ïħ Î»Î¬
ÏħÎ¸ÏįÎ½ Î¸Î·ÎºÎµ
Î·ÂµÎ®ÏĦ ÏģÎ·ÏĤ
ĠÎ¿Î½Î¿ Î¼Î¬
ĠÏĢÎ±ÏĢÎ¿Ïħ ÏĦÏĥ
ĠÏĨÏģÎ¿Ïį ÏĦÎ±
ĠÎļÎ¿Î½ÏĦ Î¿ÏģÎµ
Î±ÏĢÎ¿ÏħÎ½ Î¶ÎŃÎ»
Î¿ ÎºÏĮ
Îµ ÏĢÎ¹
Ïģ Î´Îµ
Î» ÎµÎ½
Ïĥ ÎŃ
Ïĥ Î¿ÏĤ
Î· Îº
ÏĢ ÎŃÏģÎ±
Îº Î¿ÏħÏĤ
Îº Î»ÎµÎ¯
ÏĮ ÏĦÎ¹
ÏĮ Î¼Î±ÏĥÏĦÎµ
Î¼ Ïħ
Î¼ Î¿ÏįÏĥÎµ
Î¼ Î¹Î¿
ÎŃ Î´ÎµÏĤ
ĠÎ¼ Î¿Ïį
Î±Î½ ÏĦÎ±
ÎµÎ¹ Î¬
ĠÎµ Âµ
ĠÎµ Î½Î·
ĠÎµ ÏģÏīÏĦÎ®
ĠÎµ Î¼Î¬ÏĤ
Î® ÏĥÏī
ĠÎŃ Î´Îµ
ĠÎ³ Î¿
ĠÎ³ ÎŃÎ½
ÏĦÎ± Î³Î®
ĠÏĥÏĦ ÏģÎ¹
ĠÎ¿ Î½ÏĮ
ĠÏĮ ÏģÎ¸
ĠÏĨ Î±ÏĤ
ĠÏĨ Î»Î¿Ïħ
ÏĦÎ¹ Î¶Îµ
ĠÎ¼Îµ ÏĦÎ±Î½
Î² Î¹Î±
Î² Î¿ÏħÎ½
Î² Î³Î¬
Î² Î´Î¿
ĠÎºÎ± ÏĢ
ĠÎºÎ± ÏģÏį
ĠÎºÎ± ÎºÎŃÏĤ
ĠÏĩ ÏģÏī
Âµ Ïī
Âµ Î¿Î½
ĠÎ¬ Î´ÎµÎ¹
ĠÎ» Î·
ĠÎ±ÏĢÏĮ ÏĨÎ±
ÏģÏĮ Î¹Î´Îµ
Î¬Î½ Î·
Î¬Î½ ÎµÏĤ
Î¿Î» Ïħ
Î¹Îº Î±ÏĤ
ÏģÎµ Ïį
Î¯Î½ ÎµÏĦÎµ
ÏģÏī ÏĦÎ¹
ĠÎĳ ÏħÏĦÎ¬
ĠÎľ Î·
ĠÎľ ÎŃÏĩÏģÎ¹
ÎºÏĮ ÏĥÎ¹Î±
ĠÂµ Î·
ÏĪ Î¬
ĠÏĥÏħ Î»Î»Î¿
ĠÎł ÏĮ
ÏģÎ® ÏĤ
ÏģÎ® ÏĥÎµÎ¹
ÏģÎ® Î³Î¿ÏģÎ±
Îľ Î·
Îľ Î¿Ïħ
Îĳ ÎĿ
Î²Î± ÏĥÎµ
ĠÎºÎ¬Î½ ÎµÏĦÎµ
ÏĢÏĮ Î´Î¹
Î³Î¹ Î½Îµ
ĠÎ¼ÏĮÎ½ Î¿Î½
ĠÎ§ ÏİÏģÎ±
ÏĥÏĦÎ· Î½
ĠÎ±ÏħÏĦÎ® Î½
ĠÎ±ÎºÎ¿Ïį Î¼ÏĢÎ·ÏĥÎµ
ĠÎļÎ± ÏĥÎ¯Î¼
Î½Î® ÏĥÎµÎ¹ÏĤ
ĠÎľÎ± ÏģÎ¹Î¬Î½Î½Î±
ĠÎ»Ïį ÎºÎ¿Ïħ
ĠÏĥÎ¹ ÏĦÎ¬ÏģÎ¹
ĠÎ³Î¯Î½ Î¿ÏħÎ½
ĠÎ¸Ïħ Î¼Î¯
ĠÎ¸Ïħ Î¼Î®Î¸Î·ÎºÎµ
Î³ÏģÎ± ÏĨÎ¹
ĠÏĢÏģÎ¬Î³ Î¼Î±
ÏĨÎ¿ ÏģÎ±
ĠÎ»Î¬ Î´Î¹
ĠÎ®Î»Î¹ Î¿Ïħ
ĠÏħÏĢ ÏĮÏĥ
ĠÎºÎ±ÏĦÎ±Î»Î¬Î² Î¿ÏħÎ½
ĠÎ³ÎµÎ¼Î¬ ÏĦÎ±
ĠÎĻ ÏĥÎ±Î²ÎŃÎ»
ĠÎ¶Îµ ÏĥÏĦÏĮ
ĠÏĦÎ±Î¾Î¯ Î´Î¹Î±
ĠÎ±Î³ÏĮ ÏģÎ¹Î±
ĠÎ±Î³Î±ÏĢÎ· Î¼ÎŃÎ½Î·
ĠÎ¼Î® Î½ÎµÏĤ
Î²Î¿Ïħ ÏģÎ½
ĠÎºÎ±Î»Î¿ Î¯
ĠÏĢÎ¹Î¬ ÏĦÎ±
ĠÎĺÎµ ÏĮÏĤ
ĠÏĩÏĮ ÏģÎµ
ĠÏĩÎ±ÏģÎ¿ÏįÎ¼ÎµÎ½ Î¿ÏĤ
ĠÎ³ÎŃÏģ Î¿Î½ÏĦÎ±ÏĤ
ĠÏĩÎ±Ïģ ÏĦÎ¯
ĠÏħÏĢÎŃÏģÎ¿Ïĩ Î¿
ĠÎ¼Î¬Î¸ Ïī
ÏģÎ¬Ïĩ Î½Î·
Î»Î»Ïī ÏĥÏĦÎµ
ĠÏĢÎ¬Ïģ ÏĦÎ¹
ĠÎ²ÏģÎµ Î¸ÎµÎ¯
ĠÎ²Î¿Î·Î¸ Î¿ÏįÏĥÎµ
ĠÎ¼Î¬Î³ÎµÎ¹ ÏģÎ±ÏĤ
ĠÎ¼Î¿Î¹Î¬ Î¶ÎµÎ¹
ĠÏĢÎ»Î¿ÏįÏĥÎ¹ Î¿ÏĤ
ĠÎ§ÏģÏħÏĥ Î¬Î½Î¸Î·
Î»Î®ÏģÏī ÏĥÎµ
ĠÎ²ÏħÎ¸ ÏĮ
ĠÎ¾ÎµÏĩÏī ÏģÎ¹ÏĥÏĦ
ĠÎºÏĮÏģÎ± ÎºÎ±
ĠÎ±ÏĢÎ¿ÏĨÎ±ÏĥÎ¯ ÏĥÎµÎ¹
ĠÏĢÏģÎ¿Î»Î¬Î² ÎµÎ¹
ĠÎ³ÏīÎ½ Î¹Î¬
ĠÎ±ÏĢÎ¿Î¼Î± ÎºÏģÏį
ĠÎ¸ÏĮÏģÏħ Î²Î¿
ĠÎĨÎ½Î¿Î¹ Î¾Îµ
ĠÎ±Î³ÎºÎ¬Î»Î¹Î± ÏĥÎµ
ĠÏĢÎµÏģ ÏĢÎ¬
ĠÎ¼Î¿ÏħÏģ Î¼Î¿Ïį
ĠÎµÎ¾Î® Î³Î·ÏĥÎµ
ĠÏĢÎ±ÏģÎ±ÏĦÎ® ÏģÎ·ÏĥÎµ
ĠÎŃÎ¼ÏĢÎ¿Ïģ Î¿ÏĤ
ĠÎ²Î¹ÏĦÏģÎ¯ Î½Î±
ÏħÏĩÎ±ÏģÎ¹ÏĥÏĦ Ïİ
ĠÎ½ÏħÏĨ Î¯ÏĦÏĥÎ±
ĠÎ´Î¹Î·Î³Î® Î¸Î·ÎºÎµ
ĠÎ¶Î¿Ïħ Î¶
ÏĥÎºÎŃ Î´Î±
ÏĦ ÏģÎ·
ÏĦ Î¯Î±ÏĤ
Ïģ ÏĦÎ·
ĠÏĦ ÏĥÎµ
Î» ÏĮÎ½ÎµÏĤ
Ïĥ ÎºÎ±
Ïĥ ÎºÏĮ
Î¯ Î¼Î±
Îº Î¿ÏħÎ½
ĠÏĢ Î¹Îº
ĠÏĥ Î²
ĠÏĥ ÏĢÎ±Î¸
ĠÎ± Î¾Î¹
Î³ ÎŃÏĤ
ÎµÎ¹ Î¿
ĠÎµ Î³
ĠÎ½ Î¿
Î´ ÏīÎ½
Î¸ Î¿
ĠÎ´ ÎŃÏĩÏĦÎ·ÎºÎµ
ÏģÎ± ÏĥÎ·
ĠÎ³ Î»Î¹
ĠÎ³ ÎŃÎ»Î±ÏĥÎµ
Ïį ÏĤ
ÏģÎ¹ ÎºÎ¬
ÏģÎ¹ ÎŃÏĤ
ĠÏĨ ÏĦÎ±
ÏĦÎ¹ ÎºÎ¿Î¯
Î¶ Î®
ĠÎºÎ± ÏĦÎ¿Î¹
Î¾ ÎµÏĤ
Î¿Î¹ ÎºÎ¿
Î»Î¹ Î½
Î¼Î± Î¸Î·
Âµ Î¹
ĠÎ±ÏĢÏĮ ÏĦÎ¿
Î¬Î½ ÏĦÎµ
ĠÏĢÎ± ÏĢÎ±
ĠÏĢÎ± Î»Î¹ÎºÎ¬
ÎºÎ± Î»Î¬
ĠÎĳ Ïĩ
ĠÎĳ Î½Î±
ĠÎĳ ÎºÎ¿Ïį
ĠÎĳ Î¸Î®
ĠÎĳ Î³Î³Îµ
ĠÎ±Î½ ÏĦÎŃ
Î¼ÎŃÎ½ Î¿Ïħ
ÏĢÎ± ÏģÎ±
Î¾Îµ ÏģÎµ
ĠÎķ Î»Î»Î¬Î´Î±
ÎºÎ¬ ÎºÎ¹
ÎºÎ¬ Î»Ïħ
ĠÎł ÎµÏģ
ĠÎł Î¿Î¹Î¿ÏĤ
ĠÎ²Î± ÏĦÏģÎ±
ĠÏĢÎ¬ ÏĦÎµ
ĠÎ¬Î» Î»Î¿Î½
ĠÏģ Î¿Ïħ
ĠÎŃÏĩ Î¿Î½ÏĦÎ±ÏĤ
ĠÏĩÎ± Î»Î¬
Î¿ÏĢ Î±
ĠÎ¼Î¬ Î³Î¹Î±
ĠÎ¼Î¬ Î³Î¿ÏĤ
ÏĦÏī ÏĥÎ±Î½
Î»ÎŃ ÏĨÏīÎ½Î¿
Îł Î¿Ïħ
ĠÎ¼ÎµÎ³Î¬ Î»Î¿ÏħÏĤ
ĠÏĨÎ¿ Î²Îµ
ĠÎ¾Îµ ÏĨÏį
ĠÎºÎ¿Ïħ Î²Î¬
âĢ¦ âĢ¦
Î¿Ïĥ ÏĦÎ±
ĠÎĴ Î¹
ĠÎĴ Î±Î½ÎŃÏĥÏĥÎ±
ĠÏĢÎ¿ Î¹Î±
ĠÎºÎ±ÏĦÎ¬ Î»Î»Î·
ĠÎºÎ±ÏĦÎ¬ ÏĥÏĦÎ±ÏĥÎ·
ĠÎºÎ¿Î¹ Î¼Î¬
ĠÎ±ÏĢÎ¿ Î¸Î®ÎºÎ·
ĠÎ²Î¬ Î¸Î¿ÏĤ
ĠÏĢÎ±ÏģÎ¬ ÏĢÎ¿Î½
ĠÏĨÏį Î³Î¿ÏħÎ½
ÏĦÎ¿Ïħ Î²Î¿ÏħÏģÎ½
ÏįÏĩ ÏĦÎ±
ĠÎ±ÎºÎ¿Ïį ÎµÎ¹
ĠÎ»Î± Î¼ÏĢ
ĠÎŃÎº ÏģÏħ
Î»ÎµÏħ Î±Î½
ĠÏĢÏģÏİ ÏĦÎ¿ÏĤ
ĠÎ¬ÎºÎ¿Ïħ Î³Î±Î½
ĠÎ»Î¹ Î¼
ÎŃÎ»Î± Î²Îµ
ÂµÎŃÎ½ Î¿Î¹
ĠÎºÏģÎ± ÏĦÎ®ÏĥÎµÎ¹
ĠÏĥÏħÎ½ÎŃÏĩ Î¹ÏĥÎ±Î½
ĠÎ»Îµ Î¼Î¿Î½
ĠÏĥÎ± ÏģÎ¬Î½ÏĦÎ±
ĠÎºÎ¬ÏĢÎ¿Î¹ Î¿Î¹
ÏģÎ¹Ïĥ ÏĦÎ¬
ÎĻ Î£
Î¾Î¹ Î¼Î¿
ĠÏĩÏģÏħÏĥ Î®
ĠÎ¼Î¹ Î»Î¬ÎµÎ¹
ĠÎ¼Î¹ Î»Î®ÏĥÎµÎ¹
ÎĽ Î¯
ĠÏĢÎ±Î¯ Î¶Î¿ÏħÎ½
ĠÎ±Îµ ÏģÎ¬ÎºÎ¹
ĠÎļÎ¬ ÏĦÎ¹
ĠÎºÏĮÏģÎ· ÏĤ
ĠÎ¼Î±Î³ Î¹ÎºÎ¬
ĠÎ¼Î±Î³ Î¹ÎºÎ®
ĠÎ¶Î· ÏĦÎ®ÏĥÎµÎ¹
ÎµÏį ÏĦÎ·ÎºÎµ
ĠÎ»Î¬ Î¼
Î¼ÎµÎ¹ Î½Îµ
ĠÎ±Î´Îµ Î»ÏĨ
ĠÏĩÏİ ÏģÎ¿
.âĢ Ķ
ĠÏĢÎµÏģÏĢÎ± ÏĦÎ¬
ĠÎºÎ»Î¿Ïħ Î²Î¹Î¬
ĠÎ½ÏĮ Î·Î¼Î±
ĠÎ´Î± ÏĥÎºÎ¬
ĠÎŃÏĨÏĦÎ¹Î± ÏĩÎ½Îµ
ĠÏĥÎ¯Î³Î¿Ïħ ÏģÎ¿ÏĤ
Î³ÏģÎ¬ ÏĨÎ¿ÏĤ
ĠÏĢÎ±Î½ÏĦÏģÎµ ÏħÏĦ
ĠÎ¼ÎµÎ³Î±Î»ÏįÏĦÎµ ÏģÎ¿
ĠÏĦÎ¿ÏĢ Î¿
ĠÎµÎ¾Î±ÏĨÎ±Î½ Î¹ÏĥÏĦÎµÎ¯
Î´ÏģÎ¿ Î¼Î®
ĠÏĦÎ¬ Î¾Î·
ĠÎ¼Î¯ Î»Î·ÏĥÎµ
ĠÎ±ÏĢÎ¬Î½ ÏĦÎ·ÏĥÎ±Î½
ĠÎ¤Î¶ ÏĮÎ½Î¹
ĠÎ¾Î±ÏĢ Î»Ïī
ĠÎ±Î»Î·Î¸Î¹ Î½Î®
ĠÎķÏħÏĦÏħÏĩ ÏİÏĤ
ĠÏģÎ¿ Î¶
ĠÎ¼ÏħÏģÏī Î´Î¹Î¬
ĠÎŃÎ¼Î¿Î¹Î± Î¶Îµ
ĠÎľÎ¯Î´Î± ÏĤ
ĠÎ³ÎµÎ¯ ÏĦÎ¿Î½
ĠÎ¾ÎŃÏĩ Î±ÏĥÎµ
ĠÏĦÏħÏĨ Î»Î¿ÏĢ
ĠÏĩÏģÏħÏĥÎ± ÏĨ
ĠÏĢÏħÎ³Î¿Î»Î±Î¼ÏĢ Î¯Î´Î±
ĠÎºÎ±ÏĦÏĥÎ¯ ÎºÎ±
ĠÏĨÎ¬Î»Î±Î¹ Î½ÎµÏĤ
ĠÎĻÏĥÎ±Î²ÎŃÎ» Î»Î±
ĠÎ¶Î¿ÏħÎ¶ Î¿ÏįÎ½Î¹Î±
ĠÎĳÎ³Î³Îµ Î»Î¹ÎºÎ®
Î± Î³Î¿
Îµ ÎºÎµÎ¯
Î¬ Î¶ÎµÎ¹
Î» Î¿ÏħÎ½
Ïĥ ÏĢÎ¹
ĠÎº ÏģÎ¯
Îº ÎŃ
Îº ÏģÎ¯
ÎŃ Î³
Î±Î¹ Î¿
Î³ Î¿Ïį
Î³ Î¼Î±ÏĦÎ±
Ïħ ÏģÎ±
Ïħ Î¸Î¹
ĠÎµ Î³Î³
ĠÎµ ÏģÎ³Î¬
ĠÎµ Î²Î´Î¿
ĠÎ½ Î¹
ĠÏĦÎ¿ ÎºÎ¿
ĠÎŃ Î¾Î¹
ĠÏĦÎ· Î»Îµ
ÏĦÎµ ÏģÎ®
ĠÏĮ ÏĥÎ·
ĠÏĮ ÏĢÎ¿Î¹
ĠÏĨ ÏħÏĦ
ĠÏĨ ÏģÎ¬Ïĩ
ĠÎ¼Îµ ÏģÎ¹Î¬
ĠÎ² ÏģÏİ
ĠÎ² Î³Î¿ÏħÎ½
ĠÏĩ Ïħ
ÏĦÎ· ÎºÎ±
Î¼Î± ÏĦÎ¿ÏĤ
ĠÎ¸ ÏģÏĮÎ½
ĠÎ¸ ÎŃÎ±
Âµ ÎµÎ¹
ĠÎ¬ ÏģÎµÏĥÎ±Î½
Î»Î¬ ÏĦÎµ
ĠÎ±ÏĢÏĮ ÏĪÎµ
ĠÎ® ÏģÎµ
ĠÎ® ÏĢÎ¹Îµ
ÏģÎ¯ Î¶
ĠÎ¼Î± ÏĦÎ¹Î¬
ĠÎ¾ ÎŃÏģÎµÏĦÎµ
ÎºÎ± ÏģÏĮ
ĠÎĳ Î»
ÏĢÎ¿ Î¼Î¿Î½
Î³Î¿ Î¯
ĠÎł ÎŃÏģÎ±
ÎºÎ±Î½ Î±Î½
Îľ ÎŃÏĥÎ±
ĠÏģ Îµ
ĠÎ±Î» Î»Î±
ÎŃÎ» Î»Î·
ĠÏĢÎ¬Î½ ÏĦÎ¿ÏĦÎµ
Îł ÏģÎŃÏĢÎµÎ¹
ĠÎ´Ïħ Î½Î¬
ÏĢÎ¬ ÎºÎ¹Î±
ĠÎĮ Î»Î¿
ĠÎºÎ±Î¸ ÎŃÎ½Î±ÏĤ
ÏĥÎ¯ ÎµÏĤ
ĠÎ±Ïħ ÏĥÏĦÎ·
ĠÎºÎ¿ ÏģÏĮÎ¹Î´Îµ
Î»Î¯ Î´Î±
ĠÎºÏħ Î½Î®
ĠÎ½Îµ ÏģÎ¿Ïį
ĠÎ±Î½Î± Î³ÎºÎ¬
ĠÎ±Î½Î± ÏģÏīÏĦÎ®Î¸Î·ÎºÎµ
ĠÎ±Î½Î± ÏĥÏĦÎŃÎ½Î±
ĠÎĴ Î»ÎŃ
ĠÎĿ Îĳ
ÎĪ Î»Î±
ĠÎ±ÏĢÎ¿ ÎºÎ±
Î³Î® ÎºÎµ
ĠÏĨÎ± ÏģÎ¼Î±
ĠÎ¶Ïī Î¿Î»Î¿Î³
ĠÏĢÎŃ ÏĦÏģÎ¹
ĠÎ¡ Î±ÏĢÎ¿ÏħÎ½Î¶ÎŃÎ»
ĠÎºÎ¿Ïģ ÏħÎ´Î±
ĠÏį ÏĪ
ĠÏĥÏħÎ½ÎŃÏĩ Î¹Î¶Îµ
ĠÏĨÎ¿Ïģ ÏĦÏī
ĠÏĢÏģÎ¹Î³ÎºÎ¯ÏĢÎ¹ÏĥÏĥÎ± ÏĤ
ĠÎ¾Î±Î½Î± Î³
ĠÎ¾Î±Î½Î± Î´ÎµÎ¯
ĠÎ±Î³Î¿ ÏģÎ¬ÏĥÎµÎ¹
ĠÎ´ÏħÎ½Î± ÏĦÎ®
Î¯ÏĦ Î»Î¹Î½
ĠÎ³Î¬ Î¼Î¿ÏĤ
ĠÎ½ÏįÏĩ ÏĦÎµÏĤ
Î²Î¹ Î¸Î¿Ïį
ĠÎ±Îµ ÏģÏĮÏĥÏĦÎ±
ĠÎŃÏĢÎµ ÏĨÏĦÎµ
ĠÎļÎ¬ ÏĢÎ¿Î¹Î±
ĠÎ¼Î±Î³ ÎµÎ¯
ĠÎĻ ÏĥÎ¯Î´Ïī
ĠÏĨÎŃÏģ ÎµÎ¹ÏĤ
ĠÎ³ÏģÎ¬ ÏĨ
ĠÎ¼Î¿Î½ ÏĮ
ĠÎ²Îµ Î»ÏĮÎ½ÎµÏĤ
Î¿Î¼Î¯ Î¶Ïī
ĠÏĢÎµÎ¯ ÏĦÎµ
ĠÎµÎ¯ÏĩÎ± Î¼Îµ
Î¯Î½Î· ÏĥÎ·
ĠÏĥÎºÏħ Î»Î¹Î¬
ĠÎ¼Î±Î½ Î¿ÏįÎ»Î±
ĠÏģÏī ÏĦÎ®ÏĥÎµÎ¹
ĠÎ¼ÎµÎ³Î±Î»ÏįÏĦÎµ ÏģÎ·
ĠÎ³Îº ÏģÎµ
ĠÏĦÏħ ÏģÎ¯
ĠÏĢÏģÎ¿ÏĥÏĢÎ±Î¸ Î¿ÏįÏĥÎ±Î½
ĠÎĳÏĢ Î¿ÏĨÎ¬ÏĥÎ¹
ĠÏĮÎ½ÎµÎ¹ ÏģÎ±
ĠÎļÎ±Î½ ÎŃÎ½Î±ÏĤ
ĠÎ¼ÏĢÎ¿Ïħ ÎºÎ¬Î»Î¹
ĠÎµÏħÏĦÏħÏĩÎ¹ ÏĥÎ¼ÎŃÎ½Î·
ĠÎ²Î³Î± Î¯Î½Î¿ÏħÎ½
ÂµÎµÎ½ Îµ
ĠÎĬ ÏĥÏīÏĤ
ĠÎºÏģÎŃ Î±ÏĤ
ĠÎ´Î¹Îº Î±Î¹
ĠÏĨÎ±Î½ÏĦÎ± ÏĥÏĦÎµÎ¯
ĠÏĢÎ±Î³Ïī ÏĦÏĮ
ÎŃÏĦÎ± Î¾Îµ
ĠÎ¼Î¬Î¶Îµ ÏĪÎµ
ĠÎ»Î±ÏĩÎ±Î½ ÏĮÎºÎ·
ĠÏĢÎµÏģÎ¯ÎµÏģ Î³Î¿
ĠÎ¼Î¬Î³ÎµÎ¹ ÏģÎ±
ĠÎµÏħÏĩÎ±ÏģÎ¯ ÏĥÏĦÎ·
ĠÎ½ÏĮÎ¼Î¹ Î¶Îµ
ĠÎµÎ½Î¸Î¿ÏħÏĥÎ¹Î± ÏĥÎ¼ÏĮ
ĠÏĢÎ±ÏģÎ±ÎºÎ¬ Î»ÎµÏĥÎµ
ĠÏĢÎ±Î½ÎŃÎ¼Î¿ÏģÏĨ Î¿
ĠÏĢÎ¿ÏģÏĦÎ¿ÎºÎ± Î»Î¯
ĠÎµÏĢÎ¹ÏĥÎºÎµ ÏĨ
ĠÎ¾ÎµÎºÎ¿ÏħÏģÎ± ÏĥÏĦÎµÎ¯
ĠÎµÏĢÎ¹ÏĥÎº ÎŃÏĢ
ĠÏĥÎ±Î»Î¹Î³ÎºÎ¬ ÏģÎ¹
ĠÏĩÎ¯ Î»Î¹Î±
ĠÎ³Î»ÎŃÎ½ ÏĦÎ¹
ĠÎ»Î¹Î²Î¬ Î´Î¹
ĠÎľÎ¹Î»ÏĦÎ¹Î¬ Î´Î·ÏĤ
ĠÎ¶Î¿Ïį Î³Îº
ĠÎķÏģ Î¼Î¹
ĠÏģÎ±Î² Î´Î¯
ÏĦÎµÏħÎ¸ÎµÎ¯ Î±Î½
ĠÎ¸Î»Î¯ ÏĪÎ·
ĠÎĵÎ¿Ïħ Î¯ÏĦÎ»Î¹Î½
ĠÎļÎ¿Î½ÏĦÎ¿ÏģÎµ Î²Î¹Î¸Î¿Ïį
ĠÎµÏģÏīÏĦÎ® ÏĥÎµÎ¹ÏĤ
ĠÎĵÎ¿ÏħÎ¯ÏĦÎ»Î¹Î½ Î³Îº
Î¹ Î³Î¬
ÏĦ ÏģÎ¹Î¬
Ïģ ÏĦÎ¿
Î¿Ï Į
Ïĥ ÂµÎŃÎ½Î¿
Î¯ ÏĥÏĦÎ·ÎºÎ±Î½
Î¿Ïħ ÏĥÏĮ
Î¿Ïħ Î³ÎŃÎ½
ÏĢ ÏģÎ¿Ïĥ
Î¼ Î¼ÎŃÎ½Î±
ĠÏĥ ÏĨ
ĠÎ± ÏĥÏĩÎ·
ĠÎ± ÏģÎ¬ÏĩÎ½Î·
Î³ ÎºÎ¹Î±
Î³ Î½Ïİ
Î³ Î±Î¹Î½Î±Î½
Ïħ Î´ÏģÏĮ
ĠÎµ ÏĩÎ¸
ĠÎŃ ÎºÎ±
ĠÏĦÎ· Î»ÎŃÏĨÏīÎ½Î¿
Î¸ Ïį
Î¸ ÎµÏĤ
ĠÎ³ Î»Î¯
ĠÎ³ ÎŃÏģÎ¹
ĠÎ³ ÏįÏģÎ¿
ÏĦÎ± Î¾Ïį
Ïİ Î¸Î·ÎºÎ±Î½
Ïį ÏĥÎ·
Ïį Î¼Î±ÏĦÎ±
Ïį ÏĦÎ·ÎºÎ±Î½
ĠÏĥÏĦ Î®
ĠÏĥÏĦ ÎŃÎ»
ÏĦÎµ ÏģÎ¬
ÏĦÎµ Î»ÎµÎ¯
ĠÏĨ ÏģÎŃ
ÏĦÎ¹ Î³
ĠÎ¼Îµ ÏĦÎŃ
Î² Î³Î±
ĠÎºÎ± Î¼Î¬
ĠÎºÎ± Î¼ÏĢ
ĠÎºÎ± ÎºÎ¿Ïį
ĠÎºÎ± ÎºÎ®
Î»Î± Î³Î¹Î¬
Î»Î± ÏĢÎ»Î±
ĠÏĩ ÏģÎ¹ÏĥÏĦÎ¿ÏħÎ³ÎµÎ½Î½Î¹Î¬
ĠÏĢÎ¿Ïħ Î»Î¹ÏİÎ½
ĠÎ¬ ÏģÎ±Î³Îµ
Î»Î¬ Î½Îµ
Î¬Î½ Î¿ÏĤ
ĠÎ¤ ÎµÎ»Î¹ÎºÎ¬
ÏĮÎ½ Ïħ
ĠÎ¼ÏĢ ÎŃ
ÏģÏī Î¼Î±
ĠÎľ ÏĢÎ®ÎºÎµ
ÏĢÎ± ÏĤ
ÏĢÎ± ÏģÎ¬
ĠÂµ Î·Î½
ĠÂµ ÏĮÎ»Î¹ÏĤ
ÏĦÎ¿ Î¼Î¼Ïį
Î¤ Îĳ
ĠÎł Î¿Î»Ïį
ĠÏĢÎ¬ ÏģÎµÎ¹ÏĤ
Î½Î· Î¸ÎµÎ¯
ÏģÏİ ÏĦÎ·
Î´Î± ÏĤ
ÎŃÎ» Î¿ÏĤ
Î½Î¿ Î¹Î±
ĠÏĩÎ± ÏģÎ¹
ĠÏħ ÏĨÎ¬Î½
Î¿ÏĢ Î¿Î¯
Îĳ Î³Î±ÏĢÎ·
ÏĦÎ¹Î± Î³
ĠÎºÏĮ Î»
ĠÎ±Î³ ÎºÎ±
Î¿Ïĥ ÏĩÎ¿
ĠÏĢÎ±ÏģÎ± Î¾ÎµÎ½
ĠÎºÎ¿ ÎºÎºÎ¹
ÎŃÏĥ Î±Î¹
ĠÎºÎ±ÏĦÎ± ÏĢÎ»Î·Îº
ĠÏĢÏģÎ¹ Î³ÎºÎ¯ÏĢÎ¹
ĠÏĢÎ¿ Î´Î¹Î¬
ĠÎĿ ÏĦÎ¿ÏħÎ²Î¿ÏħÏģÎ½
ĠÎ´Î¹Î± Î»ÎŃ
ÎĪ ÏĨÏĦÎ±
Î¹ÎºÎ¬ ÎºÎ¹Î±
ĠÎ¯ ÏĥÎ±
Î¿Ïĩ Î±
Î¿Ïĩ ÏİÏģÎ±
ĠÎ³Î¹ ÏĮÏĤ
ĠÏĢÏģÏĮ Î»Î±Î²Îµ
ÏĦÏħ ÏĢÏī
ĠÏģÏİ ÏĦÎ·ÏĥÎ±Î½
ĠÎ±ÎºÎ¿Ïį Î³Î¿Î½ÏĦÎ±Î½
ĠÏĢÎŃ Î¸
Î½Î¬ ÎºÎ¹Î±
ĠÎ¡ Î¯Î½Î±
ĠÎ¡ Î¿ÏħÏĥÏĮ
ĠÎŃÎ´ ÏīÏĥÎ±Î½
ĠÏĢÎµÎ¹ ÏģÎ±
ÎŃÏĪ ÎµÎ¹ÏĤ
ĠÎ»Ïį ÎºÎ¿
ĠÎ»Îµ ÏĨÏĦÎ¬
ĠÎ´Î¹ ÏĥÏĦÎ±
ĠÎ´Î¹ ÎŃÎº
ĠÎ³Î¯Î½ Î¿Î½ÏĦÎ±Î¹
ĠÎºÎ¬ÏĢÎ¿Î¹ ÎµÏĤ
Î¾Î¹ Î¿ÏĤ
ĠÎ¬Î½Î¿Î¹ Î¾Î·
ĠÎ½ÏįÏĩ ÏĦÎ±ÏĤ
Î»Î±Î¹ Î½
ĠÎŃÏģÎ¸ ÎµÎ¹ÏĤ
ĠÏĢÏģÎ±Î³Î¼Î± ÏĦÎ¿ÏĢÎ¿Î¹
ĠÎŃÏĢÎµ ÏĨÏĦÎ±Î½
ĠÎ»Î¬ Î¼ÏĢ
ĠÎ±ÏĢÎ± ÏĦÎµ
ĠÏĩÏİ ÏģÎµÏĤ
ĠÎ¶Îµ ÏĥÏĦÎ®
ĠÎºÏįÏģÎ¹ Î¿
ĠÏĨÎŃÏģ Î½ÎµÎ¹
Î¸ÎµÎ¹ Î¬
ĠÎŃÏĨÎµ ÏģÎ±Î½
ĠÎ±Î³Î¬ÏĢÎ· ÏĤ
ĠÏĥÏī ÏģÏĮ
ĠÎ¼Î¿Î½ Î¬ÏĩÎ±
ĠÎºÎ¿Î¹ÏĦÎ¬ ÏĩÏĦÎ·ÎºÎ±Î½
Î»ÏīÎ½ Î±Î½
ĠÎ¬Î³ Î³Îµ
ĠÎ³ÎŃ ÏģÎ¿
ĠÎºÎ±Î¹Î½Î¿Ïį ÏģÎ¹Î¿
ĠÎ½ÎŃ Î¿ÏĤ
ĠÎ²Î¿Î·Î¸Î® ÏĥÎ¿ÏħÎ½
ĠÎ²ÏģÎŃ Î¸Î·ÎºÎ±Î½
ĠÎºÏį Î¼Î±ÏĦÎ±
ĠÏĢÎ»Î± ÏĦÎµÎ¯Î±
ÎļÎ¬ Î¸Îµ
ĠÏĥÎºÎ¹ ÎŃÏĤ
ĠÎĺÎµ ÏĮ
ĠÎºÎ¿ÏħÏģÎ± Î¼ÏĢÎ¹
ĠÏĢÏģÎ¿ÏĥÏĢÎ¬ Î¸ÎµÎ¹Î±
ĠÎ´Î¹Î±ÏĨÎ¿ÏģÎµ ÏĦÎ¹ÎºÎ¬
ĠÏĥÎºÎ¬ Î»Î±
ĠÎľÏĢÎ¿Ïģ ÎµÎ¯
ĠÏĥÏħÎ½ÎŃÎ² Î±Î¹Î½Îµ
ĠÎ¼Î±ÎºÏģÎ¹ Î½ÏĮ
ÏĨÏī Î½Î±
ĠÎŃÏģÏĩ Î¿Î½ÏĦÎ±Î½
ĠÎ±ÏħÏĦÎ¿ÎºÎ¯Î½Î· ÏĦÎ¿
ĠÏĩÏĦÎ± ÏĢÏĮÎ´Î¹
ĠÎ´ÏħÏĥÎºÎ¿Î» Î¯Î±
ĠÎ³ÎµÎ¼Î¯ ÏĥÎµÎ¹
ĠÎ½ÏĦÏģÎ¿ÏĢ Î®
ĠÎ¼Ïī ÏģÏĮ
ĠÏĥÎ¹Î´Îµ ÏģÎŃÎ½
ĠÎ´ÎµÎ¯ÏĩÎ½ Î¿Î½ÏĦÎ±ÏĤ
ĠÎ±Î³ÏĮÏģÎ± ÏĥÎµ
ĠÎºÎ±ÏģÎŃ ÎºÎ»Î±
ĠÎºÎ±Î¸ÏģÎŃÏĨ ÏĦÎ·
ĠÎ´Î¯ÏĩÏĦÏħ Î±
ĠÎ£ÏīÏĦÎ® ÏģÎ·ÏĤ
ĠÏĦÎ¶Î¯ÏĦÎ¶ Î¹ÎºÎ±ÏĤ
ĠÎºÎ· ÏĢÎ¿Ïħ
ĠÎ³Î¹Î±ÏĦ ÏģÏĮÏĤ
ĠÎļÎ¹Î½ÎŃ Î¶
ĠÎĸÏī Î·
ĠÎºÎ¿Î»Î¿Îº ÏħÎ¸
ĠÏĥÎºÎ·Î½ Î®
Î¿Î¹ÎºÎ¿ Î³ÎŃÎ½
ĠÏĢÎ±Î»Î¹ÎºÎ¬ ÏģÎ¹
ĠÎ²Î±ÏĦÏģÎ± Ïĩ
ĠÎ¸ÏģÏĮÎ½ Î¿Ïħ
ĠÎķÏģÎ¼Î¹ ÏĮÎ½Î·
Î¿ÏħÎ³ÎŃÎ½ Î½ÏīÎ½
Î»Î±ÏĢÎ»Î± ÏĥÎ¹Î±
ÏĦÎ¿Î¼Î¼Ïį ÏģÎ¹Î±
Ġ T
Î¿ Î¼ÏĢÎ¬
Î¹ Î¿Î½
Î½ Î¿Î½
Î¬ ÏĨ
Ïĥ Î¸Î·
ÏĮ Î·
ÏĮ Î³Î·
Î¼ ÎŃ
Î¼ Î¿Î¯
Ïħ ÏģÎ¿
ĠÎ½ Î±Î½
ĠÎ½ ÏĮÏĥÏĦÎ¹
ĠÎ½ Î¯ÎºÎ·
Î¸ ÏģÎ±
Ïį Î³
ĠÎ¿ Îº
ĠÏĮ Î»Î¿ÏĤ
ĠÎ±ÏĢ ÎŃÏģ
ÏĦÎ¹ ÎºÎŃÏĤ
ĠÎ¼Îµ Î»Î¿
Î² Î±Î¹
ÏģÎ¬ ÎºÎ¿
ĠÎºÎ± Î»Î¿Ïį
Î¿Î½ ÏĦÎµÏĤ
Î»Î± Ïį
Î»Î¹ Î³
Î»Î¬ ÏĤ
ÏģÏĮ ÏĢÎ¿ÏħÎ»Î¿
ÎŃÎ½ Î¹
Î¬Î½ Î¿Î¹
ÎºÎ¹ Î¿Ïį
ĠÎ¸Î± Ïģ
Î»Î· ÏĥÎ¯Î±ÏĥÎµ
Î¯Î½ Î¿ÏħÎ¼Îµ
ĠÎĳ ÏĢÎ¿
ĠÏĢÎ¿Î» Î»Î±ÏĢÎ»Î±ÏĥÎ¹Î±
ĠÎľ ÏĢÎŃ
ĠÎľ ÏĢÏģÎ¿ÏĥÏĦÎ¬
Î³Î¬ ÎºÎ¹
ÏīÎ½ Î±Î½
ÏīÎ½ ÏĥÏĦÎ±Î½
ĠÎķ Î»ÎŃÎ½
ÎºÎ¬ ÏģÎ¿Î½Î±
ĠÎł ÏģÎ¯Î³ÎºÎ¹ÏĢÎ±
ÏĮÏĥ Î·
Îľ ÎŃÏĩÏģÎ¹
Î´Î¹ ÏĮ
Îļ Î±Î½
Î¶Îµ ÏĥÎ±Î¹
ĠÎŃÏĩ Î±
ĠÏĥÏĦÎ± ÏĨÏį
âĢĻ ,
Î»Î® Î½Î·
ÎºÎ¿Ïħ Î´Î¯ÏĦÏĥÎ±
Îł Î¿Î»Ïį
ĠÎ¼ÎµÎ³Î¬ Î»ÏīÎ½Îµ
ĠÎ¾Îµ ÏĩÎ½
ĠÎ¼ÏĮÎ½ Î¿Î¹
ĠÎºÎ±ÏĦÎ± ÎºÏĮÎºÎºÎ¹
ĠÎĿ ÎŃÎ»Î»Î·
ĠÎ´Î¹Î± ÏĥÎºÎŃÎ´Î±
ĠÂµÎµ ÏĦÎ¬
ĠÎ³Ïħ ÏģÎ½
ÏĥÏĦÎ± Î¼Î¬
ĠÎ¶Ïī Î³ÏģÎ±ÏĨÎ¹
ÏĦÏģÎµ Î¾Îµ
ÏĥÏĦÎ· Î¼Î±
ĠÎ¬Î»Î»Î¿ ÏĦÎµ
ĠÏģÏİ ÏĦÎ·ÏĥÎ±
ĠÎĽ Îµ
ĠÎĽ Î¬Î¶Î±
ĠÏĨÏī ÏĦÎµÎ¹
ĠÎ¼ÏĢÎ± Î¿Î¼ÏĢÎ¬
ĠÎ´Ïī Î¼Î¬ÏĦÎ¹Î±
ĠÎµÏħÏĩ ÎŃÏĤ
ĠÎºÎ¿Ïģ Î¿ÏĬ
ĠÎºÏģÎ± ÏĦÎ¿ÏįÏĥÎ±Î½
ĠÎ¦ Î¹
Î¸Î± Î¼Î®
ĠÎ´ÏħÎ½Î± ÏĦÏĮÎ½
ĠÎ¼Î¹ Î»Î®
ĠÎ¬Î½Î¿Î¹ Î¾Î±Î½
Î»Î±Î¹ ÏĢÏī
Î²Î¹ Î¿Ïį
ĠÎ¾ÎŃÏģ Î¿ÏħÎ½
ĠÏĦÏģÎ¹ Î³ÏįÏģÏī
ĠÏĥÎºÎµ ÏĢ
ĠÎ±Îµ ÏĦÏĮ
ĠÏĨÏĮ ÏģÎµÏĥÎµ
ĠÎ´Î¹Î¬ ÏĨÎ¿ÏģÎ±
ĠÎ¶Î· ÏĦÎ¿ÏįÏĥÎµ
ĠÎ»Î¬ Âµ
ĠÏĨÎ±Î½ Î¿ÎºÏĮ
Î¶Î¹ ÏģÏĮÏĢÎ¿ÏħÎ»Î¿
ĠÎºÏģÏį ÏĨÏĦÎ·ÎºÎµ
ĠÎŀ Îµ
ĠÎ¼ÎµÎ³Î±Î» ÏİÏĥÎµÎ¹
ĠÎºÎ¿ÏĢ Î¬
ĠÏĢÎµÏĦÎ¬ ÎµÎ¹
ĠÏĢÎµÏģÏĢÎ± ÏĦÎ¬ÎµÎ¹
ĠÏĩÎµÎ¹ ÏģÏĮ
ĠÏĩÎµÎ¹ ÏģÎ¿Îº
ĠÏĨÎ¹ Î»Î¯
ĠÎ²Îµ Î¶Î¹ÏģÏĮÏĢÎ¿ÏħÎ»Î¿
ĠÎ¬Î³ Î½Ïī
Î´ÏĮÎ½ Î¹Î±
ĠÎŃÏĥ Î²
ĠÏĨÏīÎ½Î¬ Î¶Î¿Î½ÏĦÎ±ÏĤ
ĠÎ±Î´ÎµÏģÏĨ ÎŃÏĤ
ĠÎ¼Î¿Î½Î± Ïĩ
Î³ÏģÎ¬ ÏĨÎ¹
ĠÂµÎ¹Îº ÏģÎ®
ĠÏĩÏĮ ÏģÎµÏħÎ±Î½
ĠÎ³ÏģÎ± ÏĨ
ĠÎ¬ÏĥÏĩÎ· Î¼Î±
ĠÏĢÎ¿Î½Î· ÏģÎ®
ĠÎ±ÏģÎŃ ÏĥÎ¿ÏħÎ½
ĠÎ´Î¹Î±ÏĨÎ¿ÏģÎµ ÏĦÎ¹ÎºÏĮ
ĠÏĩÎµ Î»
ĠÏħÏĢÎŃÏģÎ¿Ïĩ Î±
ĠÎ±Î³ÎºÎ¬ Î¸Î¹Î±
ĠÎµÎºÎ± ÏĦÏĮ
ÏĢÏģÎ¬ ÏĥÎ¹
ĠÎ»Î±ÏĩÎ±Î½ Î¹ÎºÎ¬
ĠÎ±Î³Î±ÏĢÎ¬ ÎµÎ¹
ĠÎ±ÎºÎ¿Ïħ Î³ÏĮÏĦÎ±Î½
ĠÎºÎ¹Î½ Î´ÏħÎ½Îµ
ĠÏĢÎ±ÏģÏĮ Î»Î¿
ĠÏĢÎ¹ÏĥÏĦ ÎŃÏĪÎµÎ¹
ĠÎ¾ÏħÏĢ Î½Î®ÏĥÎµÎ¹
ĠÏĢÏģÏĮÏĥÎµ Î¾Îµ
ĠÏĢÎŃÏģ Î´Î¹ÎºÎ±
ĠÏĢÎ±ÏģÎ±ÎºÎ¿Î» Î¿ÏħÎ¸Î¿ÏįÏĥÎµ
ĠÏĨÏĦÎ¹Î¬ÏĩÎ½ ÎµÎ¹
ĠÏĩÏģÎµÎ¹Î± Î¶ÏĮÏĦÎ±Î½
ĠÏĢÎ±ÏģÎ· Î³Î¿Ïģ
ĠÎºÎ¿ÏħÎ´ Î¿ÏħÎ½
ĠÏĥÏħÎ³Î³ Î½ÏİÎ¼Î·
ĠÏĩÏĦÏħÏĢ Î¿ÏįÏĥÎµ
ĠÏĢÎ»Î¿ Î¯Î¿
ĠÏĦÏģÏĮÎ¼Î± Î¾Îµ
Î²Î»Îµ ÏĢÎµ
ĠÎºÏĮÎºÎ¿ ÏģÎ±ÏĤ
ĠÎ±Âµ ÎŃÏĥÏīÏĤ
ĠÎĪÏĢ ÏģÎµÏĢÎµ
ĠÎ´Î¹ÏĢ Î»Î±Î½
ĠÎ±ÏĮÏģÎ± ÏĦÎ±
ĠÎºÎ¿Ïĩ Ïį
ĠÏģÏħ Î¬ÎºÎ¹
ĠÏĨÎ¿ÏįÏģ Î½Î¿
ĠÎĵÎ±Î»Î¬ ÏĦÎµÎ¹Î±
ĠÎ³ÎŃÎ½ Î½Î·ÏĥÎµ
ĠÎµÎ³ ÎºÎ±ÏĦÎ±
ĠÏĩÎ±ÏģÎ¹ ÏĦÏī
ĠÏħÏĨÎ¬Î½ ÏĦÏģÎ±
ĠÎ¼ÎµÎ»Î¿ Î¼Î±
ĠÎ¼ÏĢÎ±Î¿Î¼ÏĢÎ¬ Î¼ÏĢ
" ."
Î¹ Î´Î±
Î½ ÎµÎ¹ÏĤ
ÏĦ Î¿Î½ÏĦÎ±Î½
Ïĥ Î¼ÏĮÏĤ
Î¯ Î¶Î¿Î½ÏĦÎ±ÏĤ
ĠÎº ÎµÎ½
ĠÎº ÎµÎ¯
Î¿Ïħ Î¿Ïħ
Î¿Ïħ ÏĥÎ¯Î±
ÏĢ ÎµÎ¹ÏĤ
ÏĢ Î¬Î½ÏĦÎ·ÏĥÎµ
Îº ÏĦÎ¹ÎºÏĮ
ĠÏĢ ÏģÎ¯Î³ÎºÎ¹
ÏĮ ÏĦÎ±
ĠÏĥ Î¬Î»
ĠÎ± ÏĥÏĩÎ¿Î»
Ïĩ ÏĦÎ¯
ĠÎ½ ÏĦÏį
Î´ ÏĮ
Î¸ ÎµÎ½
ÏģÎ± Î¾Îµ
Ïİ ÏģÎ·ÏĥÎµ
ĠÎµÎ¯ ÏĢÎµÏĤ
ĠÎ¿ Î¼Î¬Î´Î±
ÏĦÎ¹ ÎºÎ¿Ïį
ĠÎ² Ïģ
ĠÎºÎ± ÏĦÎ·
ĠÎºÎ± Î»Îµ
ĠÎºÎ± Î¼Î®
ĠÎºÎ± ÏĦÎµÏħÎ¸ÎµÎ¯Î±Î½
ĠÎ® ÏĥÎ¿ÏħÎ½
ĠÎ¼Î± Î¸Î®
ĠÎ¤ Î¶Î¯Î½Î±
Î¼Îµ Î³Î¬
ÎºÎ± Î»Î¿
ĠÎļ ÏīÎ½ÏĥÏĦÎ±Î½
Î¾Îµ Î½Î±
ÎºÎ¬ Î»Î¹Î±
ÏĢÎ¹ ÏĥÎµ
ĠÎł ÏģÎ±Î³Î¼Î±ÏĦÎ¹ÎºÎ¬
ĠÎ²Î± ÏģÎµ
ÏģÏĩ Î·ÏĤ
ĠÏĢÎ¬ Î³ÎºÎ¿
ÏģÏİ ÏĦÎ±
ÏģÏİ Î½ÎµÎ¹
ĠÎ£ ÏĦÏģÎ¬
ĠÎ¬Î» Î»ÏīÏĥÏĦÎµ
ĠÏĥÎ¿Ïħ ÏĢÎ¹Î¬
Îĳ ÏĢ
ĠÎŃÏĨ Î¸Î±
Î»ÎŃ Îº
ĠÎ²Î±ÏĥÎ¹ Î»Î¹ÎºÏĮ
ĠÎ¾Îµ ÏģÎ¬
ĠÎºÎ±Î¸ Î¯
ĠÎºÎ±Î¸ Î¯ÏĥÎµÎ¹
ĠÎĵ ÎºÎ±ÏģÏĮ
Î£ ÏĦÎ·
ĠÎ¼Î¹ÎºÏģÏĮ ÏĦÎµÏģÎ·
ĠÏĥÏħÎ½ Î½Îµ
ĠÎºÎ¿ ÏģÎ¬ÎºÎ¹
ĠÎºÎ¿ ÏĦÎ¿ÏĢ
ĠÎºÎ¿ ÏĦÎ¿ÏįÎ»Î±
Î»Î¯ Î³Î¿
ĠÎ³Îµ ÏģÎ¬
ĠÏĢÏģÎ¿Ïĥ ÏĢÎ±
ĠÎ§ Î»ÏĮ
ĠÏĨÎ± Ïģ
ĠÏĨÎ± ÏĥÎ±
ĠÎ»ÎŃ ÏĦÎµ
ĠÎ»ÎŃ Î¾ÎµÎ¹ÏĤ
ÎĿ Îĳ
Î´Ïħ Î½Î±
Î³Î¹Î± ÏĦÎ¯
ĠÎ±ÎºÎ¿Ïį Ïī
ĠÎ±ÎºÎ¿Ïį ÏĥÎ¿ÏħÎ½
ÏĨÎµ ÏģÎ±Î½
ĠÎ¸ÎŃÎ» Î¿ÏħÎ¼Îµ
ĠÎ¡ Ïī
ĠÏĥÏħÎ¼ Î¼Î±Î¸Î·
ĠÎ»Î± ÏĩÏĦÎ±
ĠÎ±Îº Î¯Î½Î·
ĠÎºÎ¿Ïģ Î´
ĠÎ²Î»ÎŃ ÏĢÎµÏĦÎµ
ÏģÎ¿Ïħ ÏĢÎ¿
ĠÏĢÏģÎ¿ Î·Î³Î¿Ïį
ĠÎºÎ±Î»ÏįÏĦÎµ ÏģÎ¿ÏĤ
Î¸Î± Î¯Î½ÎµÎ¹
ĠÎ¶Î® ÏĦÎ·ÏĥÎ±Î½
ÎĻ Îļ
ÎĻ Îĳ
ĠÎ¸Ïħ Î¼
ĠÏĩÏģÏħÏĥ ÏĮÏĥÎº
ĠÎ³Î¬ ÏĦÎ¿
ĠÎ³Î¬ Î¼Î¿
ĠÎºÎµÏĨÎ¬ Î»Î¹Î±
ÏĨÏħ Î»
ÏĥÏĦÎ® ÏģÎ¹Î¿
ĠÎĳÏĢÏĮ Î»Î»Ïī
ĠÎµÎº Î½ÎµÏħ
ĠÎŃÏĢÎ±Î¹ ÏģÎ½Î±Î½
ĠÏĦÏĮ ÏĥÎµÏĤ
Î¼Î¹Î¬ ÏĤ
ĠÏĥÎºÎ¿ ÏĦÏİÏĥÎµÎ¹
ĠÎºÏģÎµ Î²Î±
ĠÏĥÏī ÏĥÏĦÏĮ
ĠÎ¼Î¿Î½ Î¬
ÎĴ Î»ÎŃ
ĠÏĢÎ¹Î¬ ÏĦÎ¿
ĠÎºÎ¿Î¹ÏĦÎ¬ Î¶ÎµÎ¹
ÏĥÎ¿Ïħ ÂµÎµ
ĠÎ±ÎºÎ¿Î» Î¿ÏħÎ¸
ĠÏĦÎµÎ»ÎµÎ¯ ÏīÏĤ
ĠÏĢÎ·Î³Î± Î¯Î½Î¿ÏħÎ½
ĠÎ®ÏģÎ¸ Î±
ĠÎŃÏĨÎ± Î³Î±Î½
ĠÎĳÏĢ Î¬Î½ÏĦÎ·ÏĥÎµ
ĠÎŃÎ´Î¹ Ïī
ĠÎºÎ±ÏĦÏĥ Î¹ÎºÎ¬ÎºÎ¹Î±
ÎŁÎ¥ Î£
ĠÏĥÏĦÎŃ Î³Î·
ĠÎ²ÏģÎ± Î´Î¹Î¬
ĠÎµÏį ÎºÎ¿Î»Î¿
ĠÎµÏħÏĦÏħÏĩÎ¹ ÏĥÎ¼ÎŃÎ½Î¿ÏĤ
ĠÏĩÎ±Î¹ ÏģÎµ
ĠÎ§ÏģÎ¹ÏĥÏĦ Î¿ÏħÎ³ÎŃÎ½Î½ÏīÎ½
ĠÎĶÎ¹ Î´Ïİ
ĠÏĥÏĩÎŃ Î´Î¹Î±
ĠÏĨÏħÎ»Î± ÎºÎ¹
ĠÎ±ÏģÎ¹ Î¸
ĠÎºÎ¬Î¼ÏĢ Î¹Î±
ĠÏĦÎ±Ïĩ ÏħÎ´ÏģÏĮ
ĠÎºÎ±ÏĦÏĥÎ¹Îº Î¬ÎºÎ¹
Î¿ÏĥÏĦÎ¬ Î¸Î·ÎºÎµ
ĠÏĩÎµÎ¹Î¼ÏİÎ½Î± ÏĤ
ĠÎ±Î½Ïħ ÏĢÎ¿Î¼Î¿Î½
ĠÎ¼ÏĢÎµ ÏģÎ´Îµ
ĠÎ³ÎµÏī Î³ÏģÎ¬ÏĨÎ¿ÏĤ
ĠÏĥÏĦÎ±Î¸ Î¼ÏĮ
ĠÎ¬Î¼Î± Î¾Î±
ĠÏĥÏĢÎ¬ ÏĥÎµÎ¹
Î»ÎºÎ· ÏĪÎ±
ĠÎ±Î½Î±ÎºÎ± Î»Ïį
ĠÎĨÎ½ Î¸ÏģÏī
ĠÎ´Î¿Ïį Î»ÎµÏħÎµ
ĠÎ¸Î·ÏĥÎ±Ïħ ÏģÏĮ
ĠÎ»Î¿ Î³Î®ÏĤ
ĠÏĢÎŃÏĨ ÏĦÎµÎ¹
ĠÎ¼Î±Î³Î± Î¶Î¯
ĠÎºÎµÎ»Î¬ ÏģÎ¹
ĠÎ²Î¬Ïģ ÎºÎ±
ĠÏĩÏĦÏħÏĢÎ¬ ÎµÎ¹
ĠÏĢÎ¿ÏĦÎ® ÏģÎ¹
ĠÏĦÏĥÎ¯ Ïģ
ĠÏĩÎ¿ÏģÎ¿ÏĢ Î·Î´
ĠÏĦÏģÎ¬ Î²Î·Î¾Îµ
Î´ÎŃÏģ Î±Î¹Î¿
ĠÎĽÎ¿ÏħÎºÎ¬ ÏĤ
ĠÏĢÎµÏģÎ¹ÏĢÎŃ ÏĦÎµÎ¹
ĠÎķÏħÏģÏħÏĥÎ¸ ÎŃÎ±ÏĤ
ĠÎºÎµÏģ Î´Î¯
ĠÎ¼Î±ÏģÎ³Î±ÏģÎ¹ ÏĦÎ¬ÏģÎ¹Î±
ĠÏĥÏĨÎ¹ ÏĩÏĦÎ¬
ĠÎ»Î¬Î¼ ÏĪÎ·
ĠÎ´Î±ÏĥÎºÎ¬ Î»Î±
Î±Î³Î¿ ÏģÎ¬ÎºÎ¹
ĠÎºÎ¿ÏĦÎ¿ÏĢ Î¿ÏħÎ»Î¬ÎºÎ¹
Î¿ Î¹Î±
Î½ ÏįÏĩÏĦÎ±
ÏĦ ÏĤ
ÏĦ ÏĥÏī
ÏĦ ÏģÎ¹Î±
Ïģ Îº
Ïĥ Î¬Î½
Ïĥ ÏĥÎ¹
Ïĥ Î¿ÏįÏĥÎµ
Ïĥ Î¼Î¿Ïħ
Ïĥ ÏĦÎ¹ÎºÏĮÏĤ
Ïĥ ÂµÎŃÎ½Î±
Î¯ Î¶ÎµÏĦÎ±Î¹
ÏĢ ÏģÎ¿
Îº ÎºÎ¿Ïį
Îº ÏģÎ¹Î²
Îº Î¿ÏĢÎ¿Î¹
ĠÎ¼ Î¿
ĠÏĥ ÏĨÏħ
ĠÎ± ÏĦ
ĠÎ± ÏģÎ¬
ĠÎ± Î³Îµ
ĠÎ± Î¾Î¯Î±
Ïī Î¼ÎŃÎ½Î¿ÏĤ
Ïħ ÏĥÏĦÏħÏĩ
Ïĩ ÏīÏĤ
Î´ Î¿ÏĤ
Î´ ÎŃÏĩÏĦÎ·ÎºÎµ
ĠÎ´ Î¯Î½ÎµÎ¹
ĠÎ´ ÎŃÏĥÎµÎ¹
ĠÎ³ ÏģÏį
Ïİ ÏĥÎ¿ÏħÎ½
ĠÎ±ÏĢ Î»ÏİÏĤ
ĠÏĨ Î»ÏĮ
ĠÏĨ ÏĦÎ¹Î±Î³
ĠÎ¼Îµ Î»Ïī
ĠÎ² Î¿Ïĥ
ĠÎºÎ± ÎºÎ¬
ĠÎºÎ± ÎºÎ¿
Î¼Î± ÏĤ
Î¼Î± ÏĥÏĦÎ±Î½
ĠÎ· ÏģÎµ
Î¿Ïģ Î´
ĠÎ® ÏĩÎ¿ÏĤ
ÎŃÎ½ Î¹Î¿
Î¬Î½ Î¿
ÏĥÎ± ÏĥÏĦÎµ
Î¹Îº ÏģÏĮ
ĠÏĢÎ± Î³ÎºÎ¬
Î¯Î½ Îµ
ĠÎ¼ÎŃ ÏĦÏī
ĠÎ¼ÏĢ Î¿ÏħÎ½
ĠÎ¼ÏĢ Î¹Î¶
ÎºÎ± ÏĦÎµ
ĠÎĳ Ïħ
ĠÎĳ Î¼Î±
ĠÏĢÎµ Ïį
ĠÎļ Î¿Ïħ
ĠÂµ Ïħ
ĠÎķ ÏĢÎ¹
ĠÎķ Î»ÏĢÎ¯Î´Î±
Î³Î± Î¼Îµ
ĠÎł Î¬Î½ÏĦÎ±
Î¸Îµ ÏĥÎ·
ĠÏĢÎ¬ ÏģÎµ
ÏģÎ® Î¸Î·ÎºÎµ
Îľ ÏĢÏģÎ¬Î²Î¿
ĠÎ£ Î®
Î¼ÏĢ ÏĦÎ¹
ĠÏĩÎ± Î¼Î·
Î¿ÏĢ Î»Î±Î³Î¹Î¬
Î´Îµ ÎºÎ±
Î´Îµ ÏģÏĨ
ĠÎĶ ÏĮÎ³Î·
Î»ÎŃ ÏĪÎµÎ¹
ĠÎ²Î±ÏĥÎ¹ Î»ÎµÎ¯
ÎºÎ¿Ïį ÏģÎ¹
ĠÎĮ ÏĢÎ¿Î¹Î¿ÏĤ
ĠÎ¾Îµ Ïĩ
ÎºÎ¿ Î²Îµ
ĠÎºÎ¿Ïħ ÏĦÎ±
ĠÎºÏĮ ÏĢÎ¿
ĠÎĺ Î±Î½Î±ÏĥÎ¬
Î£ Îº
ÏįÏģÎ¹ Î¶Î±Î½
Î¿Ïĥ Ïħ
ĠÎ±Ïģ Î³Î±Î»ÎµÎ¹
ĠÏĢÎµÏģÎ¹ Î´ÎŃÏģÎ±Î¹Î¿
ĠÏĩÏī ÏģÎ¹Î¬
ÏĥÎ¼ÎŃÎ½ Î¿ÏħÏĤ
ĠÎ³Îµ ÂµÎ¬
ĠÎ³Îµ Î³Î¿Î½
ĠÎµÎ½ ÏĦÎ¬Î¾ÎµÎ¹
ÏģÎ¹Î¬ ÏĤ
Î¬Ïĥ Î¼Î±ÏĦÎ±
ĠÎ±Î½Î± Î³Î½Ïī
ĠÎ±Î½Î± ÏģÏīÏĦÎ¹
ĠÎĴ Î¿
ĠÎĿ Îµ
ĠÎ´Î¹Î± ÎºÏģÎ¯
ĠÎºÎ±ÏĦÎ¬ Î»Î±Î²Î±
Î¶Î±Î½ Îµ
ÏİÎ½Î± ÏĤ
ĠÏĨÎ¯ Î»Î·ÏĥÎµ
ĠÏĮÎ¼Î¿ÏģÏĨ Î¿ÏĤ
ĠÎµÎ¾ Î·Î³Î®
ĠÎ²ÏģÎ¬ ÏĩÎ¹Î±
ĠÏĨÏī ÏĦÎ¹
ĠÎ¼Î· ÏĦÏģÎ¹Î¬
ĠÎ»Î± ÎºÎºÎ¿Ïį
ĠÏĩÏģÏĮÎ½ Î¿ÏĤ
ĠÎ»Ïį ÏĢÎ·
ĠÎºÎ¿Ïģ Î¼ÏĮ
ĠÏį ÏĨÎ±
ĠÎºÏģÎ± ÏĦÎ®
ĠÎ´ÏģÏĮ Î¼Î¿ÏĤ
ĠÎ¦ ÏİÎ½Î±Î¾Îµ
ĠÎºÎ±Î»ÏįÏĦÎµ ÏģÎ·
ĠÎ¼ÎµÏĦÎ± ÏĨÎŃÏģ
ĠÎ¶Î® ÏĥÎµÎ¹
ĠÂµÎ± ÎºÏģÎ¹Î¬
ĠÎ¶Ïİ ÏīÎ½
ĠÏĢÎ· Î³Î®
ĠÎ´Î¹Î¬ ÏĨÎ¿Ïģ
ĠÎ´Î¹Î¬ Î´ÏģÎ¿
ĠÏĪÎ¬ ÏģÎ¹
ĠÎ¶Î· ÏĦÎ¹
ĠÎºÏĮÎºÎºÎ¹ Î½ÎµÏĤ
ĠÎ±ÏģÎºÎµ ÏĦÎŃÏĤ
ĠÎºÎ¿ÏħÎ½ ÎŃÎ»Î¹
ĠÎºÎ±ÏĦÎ¬ÏĨÎµ ÏģÎ±Î½
ĠÎ¼Î·ÏĦÎŃÏģÎ± ÏĤ
ĠÏĩÏİÏģÎ± ÏĤ
ÏĥÏħ Î½ÎŃÏĩ
ĠÎ´ÎµÎ¯ ÏĦÎµ
ĠÎ²Î¿ÏħÎ½ Î¿Ïį
ĠÎ¼Î¿Î¹ ÏģÎ±
ĠÎ¬Î»Î¿ Î³ÏĮ
ĠÏĨÎµÎ³ Î³Î±
ĠÎ²Î±Î¸ Ïį
ÎļÎ¬ ÏĢÎ¿Î¹Î±
ĠÏĦÏģÎ¯ ÏĦÎ¿
ĠÎ³Î½Ïİ ÏģÎ¹Î¶Îµ
ĠÏĥÏĦÏģÎ±ÏĦÎ¹Ïİ ÏĦÎµÏĤ
ĠÎºÎ±ÏĦÎµ ÏħÎ¸ÏįÎ½Î¸Î·ÎºÎµ
ĠÏĩÎ±ÏģÎ¿ÏįÎ¼ÎµÎ½ Î¿
ĠÏĢÎ»Î±Î½Î® ÏĦÎ·ÏĤ
ĠÎºÎ±ÏģÎ¬ Î²Î¹Î±
ĠÎºÎ¿ÏħÎ²ÎŃÎ½ ÏĦÎ¹Î±
ĠÎĺÎŃÎ» ÎµÎ¹ÏĤ
ĠÏĥÎºÎ¿Ïħ ÏĢÎ¯
ĠÎ²Î¹Î± ÏĥÏĦÎ¹ÎºÎ¬
ĠÏĢÏģÎ¬ÏĥÎ¹ Î½Î±
ĠÎ£Î¿ÎºÎ¿ÏĨ Î»Î®
ĠÏĢÎµÏģÎ¬ ÏĥÎ¿ÏħÎ½
ĠÎļÎ¿Î¹ ÂµÎ¯
ĠÎ½Î¿Î¹ Î¬Î¶ÎµÎ¹
ĠÎµÏħÏĩÎ±ÏģÎ¹ÏĥÏĦÎ· Î¼ÎŃÎ½Î¿ÏĤ
ĠÏĦÎ±Î¾Î¹ Î´
ĠÎ§ÏģÏħÏĥÎ± Î»
ĠÎ±ÏħÏĦÎ¿ÎºÎ¯Î½Î· ÏĦÎ±
ĠÏĥÏħÎ¼ÏĢ Î»Î®ÏģÏīÏĥÎµ
ĠÏĥÎºÎŃ ÏĢÎ±
ĠÏĨÏįÎ»Î± ÎºÎ±ÏĤ
ĠÎ¾ÏįÎ»Î¹ Î½Î¿
ĠÎ²Î±ÏģÎŃ Î»Î¹
ÎºÎ¿Ïĥ Î¹
ĠÎ´ÎµÎ»ÏĨÎ¹ Î½Î¬ÎºÎ¹
ĠÏĨÏģÎ¬ Î¿Ïħ
ĠÏĢÎµÎ¸Î¬Î½ ÎµÎ¹
ĠÎ±ÏĢÎ¿ÎºÎ¿Î¹ Î¼Î®Î¸Î·ÎºÎµ
ĠÎ£ÏīÏĦÎ¯Î³ ÏģÎ·ÏĤ
ĠÎµÎ»ÎŃ ÏĨÎ±Î½
ĠÏĢÎµÎ¹Î½Î¬ ÎµÎ¹
ĠÏĥÏĦÏģÎ±ÏĦÎ¹Ïī ÏĦÎ¬ÎºÎ¹
ĠÎ¼ÏħÏģÎ¼Î® Î³ÎºÎ¹Î±
ĠÎŃÎ»ÎµÎ¹ ÏĢÎµ
âĢ´ .
ĠÏĢÏģÎ¹Î³ÎºÎ¹ÏĢÏĮ ÏĢÎ¿ÏħÎ»Î±
ĠÏĢÎµÏģÎ¯ÏĢ ÏĦÏīÏĥÎ·
ĠÏĩÏģÏī Î¼Î±ÏĦÎ¹
ĠÎ±ÏĢÏĮÏĨÎ± ÏĥÎ·
ĠÎ±ÏĢÎ¿Î¼Î±ÎºÏģÏį Î½
ĠÏĢÎ±ÏĢÎ± Î³Î¬
ĠÏĨÏģÎ¬Ïĩ ÏĦÎ·
ĠÎ»Î±ÏĩÎ±Î½ÏĮÎºÎ· ÏĢÎ¿
ĠÏĥÏĦÎ±ÏĨÏį Î»Î¹Î±
ĠÏĨÎ±ÏĥÎ± ÏģÎ¯Î±
Ġ M
ĠÎ ıÏĥÏĢÎ¿Ïħ
Î½ Î¿ÏįÏĥÎµ
ÏĦ Î¿ÏħÎ½
Ïģ Î³Î·
ĠÏĦ Ïį
Î¬ ÏģÎ¹Î±
Î¯ Î»Î·
Î¯ ÏģÎ¹Î±
Î¯ Î´ÎµÏĤ
ĠÎº ÏĦÎ®
ĠÎº Î¿Ïĥ
ĠÎº Î¿ÏįÎ½Î¹Î±
ĠÏĢ ÏģÎ¿ÏĨ
ĠÏĢ Î¿ÏģÏĦÎ¿
ÏĮ ÏĥÎ±
ÏĮ Î»Ïħ
Î¼ Î¿Ïĥ
ĠÏĥ ÏİÏĥÎµÎ¹
Î³ Î¿ÏħÏĤ
Ïī ÏĥÎ±
Ïħ ÏĥÎµ
ÎµÎ¹ Î´
ĠÎµ ÏĥÎ¬
Ïĩ ÏģÎ¿Î½Î±
Î® Î¸Î·ÎºÎ±Î½
ĠÎŃ ÏĥÏī
Î´ ÏģÎ¿ÏĤ
ÏģÎ± Î¼Î¯
ĠÎ³ ÎŃÎ»Î±
ĠÎ³ Î·ÏĤ
ĠÎ³ Î»Ïį
ÏĥÎµ Î½
ÏģÎ¹ ÏĮ
ĠÎ±ÏĢ ÎŃ
ĠÎ±ÏĢ Î»Ïİ
ÏĦÎ¹ Î½ÏĮ
Î² ÏĮ
Î¶ Î¬ÎºÎ¹
ĠÎºÎ± Î»Î·
ĠÎºÎ± ÏģÏħ
ĠÎºÎ± Î¼Î¹
ĠÎºÎ± ÎºÎ¹Î¬
ÎµÎ½ ÏĦÎ¹Î¬
Î¿Î¹ Î½Î¯
ÎµÎ¯ ÏĦÎ±Î¹
ÎµÎ¯ ÏĩÎ±Î½
Âµ Î¿ÏĤ
ÏģÏĮ ÏĥÎµ
ĠÎ³Î¹Î± ÏĦÏģÏĮ
ĠÏĢÎ± Ïģ
ĠÏĢÎ± Ïĩ
ĠÏĢÎ± ÏĦÏģÎ¯
ÏģÎ¯ ÎµÏĤ
ÏģÎ¯ Î¶Î¿ÏħÎ½
Î»Î¿ Î³
ĠÎºÎ¬ ÏĦÎ¿Î¹
ÏĮÎ½ Î¿ÏĤ
ĠÎ¼ÏĢ ÏĮÏĦÎµÏĤ
ÏģÏī ÏĦÎ¬
ĠÏĢÎ¿Î» Îµ
ĠÏĢÎµ Î»Ïİ
ĠÏĦÎ¹ Î¼Î®
ÏĢÎ± ÏĢÎ¿
ÏĪ Î¿ÏħÎ¼Îµ
Î¸Î· ÎºÎµÏĤ
ĠÎºÎ¹ Î½Î®ÏĥÎµÎ¹ÏĤ
Î³Î± ÏĢ
ÏĢÎ¹ Î¿
ÏĢÎ¹ ÏĥÏĦ
Îľ Î¬
ĠÎ£ Î±ÏĤ
Î¼ÏĢ ÏĮ
Î¼ÏĢ Î±Î½
ĠÏĥÏĦÎ± Ïħ
ĠÏħ ÏĢÎ¬
ĠÎ¼Î¬ Î½Î±
ĠÏĪ Î¯
ĠÏĪ ÏħÏĩ
Îł Î¿Ïį
ĠÎ¼ÎµÎ³Î¬ Î»ÏīÏĥÎµ
ĠÏĨÎ¿ Î²Î¹
ĠÏİ Î¼Î¿
ĠÎ±Ïģ ÏĥÎµÎ½
ĠÏĢÎµÏģÎ¹ ÏĨ
Î¿ÏĨ ÏĮ
ĠÏĥÏħÎ½ ÏĦÎ±Î³Î®
Î»Î¯ Î¶ÎµÎ¹
Î¼ÎµÎ½ Î¿ÏĤ
Î¼ÎµÎ½ ÎµÏĤ
ĠÎ¬ÏģÏĩ Î¿Î½ÏĦÎ±ÏĤ
ĠÎµÎ½ Ïħ
ĠÎµÎ½ ÏĦÏħÏĢÏī
ĠÎ±Î½Î± ÎºÎ¬Î»Ïħ
ĠÏĢÎ¿ Î»Î¹
ĠÎºÎ¿Î¹ Î¼Î®Î¸Î·ÎºÎµ
ÎĪ ÏĢÎµÎ¹ÏĦÎ±
ĠÎ±ÏĨ ÏĦÎ¹Î¬
ĠÏĨÎ¯ Î´Î¹Î±
ĠÎ»ÎŃ Î¼Îµ
ĠÎĨ Î³Î¹Î¿
ĠÎĨ Î»Î»ÏīÏĥÏĦÎµ
Î¿ÏįÎ»Î± ÏĤ
ÏĥÏĦÎ· ÏĤ
ĠÏĢÎ±ÏģÎ¬ Î¾ÎµÎ½Î±
Î¼ÏĮ ÏĢÎ±ÏĢÎ¿
ÏĨÎµ ÏĦÎ±Î¹
Î¹ÎºÏĮ Î½Î±
ÏħÏĦÏĮ ÏĩÏģÎ¿Î½Î±
ÏĥÎ¯Î± ÏĤ
ĠÏĨÏī ÏĦÎ¯
ĠÎ¼ÏĢÎ± Î¼ÏĢ
ĠÏĥÏħÎ¼ ÏĨÏīÎ½
ĠÏĥÏħÎ¼ ÏĨÏİÎ½Î·ÏĥÎµ
ÏĥÏį ÏĩÎ±
ĠÏĩÏģÏĮÎ½ Î¿Ïħ
ĠÏĢÎµÎ¹ Î½Î±
Îĵ ÎµÎ¹Î±
ĠÏĥÎ¹ Î³Î¿Ïħ
Î¸Î¹ Î¶Îµ
ĠÎ´ÏģÏĮ Î¼Î¿Ïħ
ĠÏĢÏģÎ¿ Î²Î±
ĠÎ´Î¹ Ïİ
ĠÎºÎ¿Î¯ÏĦÎ± Î¶Î±Î½
ĠÎ¤Î¹ ÏĤ
ĠÎ»ÏĮ ÏĨÎ¿
ÏįÎ½ ÏĦÎ¿Î¼Î±
ĠÏĦÏģÎ¹ Î³Ïħ
ÏĦÎ¿Ïį ÏĥÎ±
ĠÏĨÎ±Î½ ÏĦÎ¬
ĠÏħÏĢ Î¿ÏĪ
ĠÏĦÏĮ ÏĢÎ¿
ĠÏĦÏĥ Î¿ÏĢ
ĠÎºÎ±ÏĦÎŃ Î»Î·
ĠÏĦÎŃÎ» ÎµÎ¹
ĠÎ´Î¬ ÏĥÎ·
Îŀ Îµ
ĠÎºÎ¿Î» Î»Î·
ĠÎºÎ»ÎµÎ¹ Î´Î¯
ĠÎºÎ¿Î¹ÏĦÎ¬ Î¶Î¿Î½ÏĦÎ±ÏĤ
ĠÎ²Îµ Î»Î±Î½
ĠÎ³ÎŃ Î»Î¹Î¿
ĠÎºÎ±Î¹Î½Î¿Ïį Ïģ
ÏĦÎŃÎ» ÎµÎ¹
Î¼Î¼ Î¼
ĠÎŃÏĨÏĦÎ¹Î± Î¾Î±Î½
ĠÏĢÎ»Î¿Ïį ÏĥÎ¹Î±
ĠÎ´ÏįÎ½Î± ÂµÎ·
ĠÎ³Î½Ïİ ÏģÎ¹
Î»Î»Î· Î½
ĠÏĥÏĦÎŃ Îº
ĠÎľÎ¬ Î»Î¹ÏĥÏĦÎ±
ĠÏĥÎ¿Î²Î± ÏģÎ¬
ÏĦÎµÎ» ÏİÏĤ
ĠÎĶÎ¹ ÏĮÎ½Ïħ
ÎłÎŃÏģÎ± ÏĥÎµ
ĠÏĥÏħÎ³ ÏĩÏī
ĠÎµÎ»Î± ÏĨÎ¹
ĠÎµÎºÎ± ÏĦÎ¿Î¼Î¼ÏįÏģÎ¹Î±
ÎĳÏħÏĦ ÏĮÏĤ
ĠÎ¿Ïģ ÏĨÎ±Î½
ĠÎ© ÏĥÏĦÏĮÏĥÎ¿
ÎµÏħ Î¸ÏħÎ½
ĠÏĥÏĦÎ¿Î»Î¯ Î´Î¹Î±
ĠÎ½Î¿Î¹ ÎºÎ¿
ĠÎºÎ±Î¸Î· Î¼ÎµÏģÎ¹
ĠÎ»Î±Î¼ÏĢÎµ ÏģÎ¬
ĠÎ»Î±Î¼ÏĢÎµ ÏģÏĮ
ĠÏĩÏĦÎ± ÏĢÎ¿
ĠÎ¬Î½Îµ Î¼Î¿ÏĤ
ĠÎºÏĮÏģÎ± ÎºÎ±ÏĤ
ĠÎ¸Ïį Î¼ÏīÏĥÎµ
ĠÏĨÎ¿Î²Î¬ Î¼Î±Î¹
ĠÏĩÏģÎ¿Î½ ÏİÎ½
ĠÏĥÎ¿Ïį ÏģÎ¿ÏħÏĢÎ¿
ĠÏħÎ³ ÏģÏĮ
ĠÏĢÎ¹ÏĥÏĦÎµÏį Ïī
ĠÎ±ÏĢÎ¿Ïĩ Î±Î¹ÏģÎµ
ĠÎ¸Î¬ Î¼
ĠÎŁÏģÏĨ ÎŃÎ±
ĠÎĨÎ³Î³Îµ Î»Î¿ÏĤ
ĠÏĥÎºÎ±Î½ÏĦÎ¶ÏĮÏĩÎ¿Î¹ ÏģÎ¿ÏĤ
ĠÏĥÏįÎ¼ Î²Î¿Ïħ
ĠÎºÎŃÏģÎ± ÏĦÎ±
ĠÏĢÎ»ÎµÏħ ÏģÎ¬
ĠÎµÎ½Î´Î¹Î±ÏĨÎŃÏģ Î¿Î½
ĠÏĥÏħÎ¼ÏĢÎµÏģÎ¹ ÏĨÎ¿ÏģÎ¬
ĠÎ±ÏĥÏĦÏħ Î½Î¿
ĠÎ¼ÏĢÎ¬ Î»ÎµÏĤ
ÎĺÎŃÎ» Ïī
ĠÎºÎ¿Î½ÏĦ Î¿ÏĥÏĦÎ¬Î¸Î·ÎºÎµ
ĠÎļÎ±ÏĦÎ¬ Î»Î±Î²Îµ
ĠÏĢÎ±ÏĢÎ¿ÏħÏĦÏĥ Î®ÏĤ
ĠÎ¸ÏħÎ¼Î¯ Î¶ÎµÎ¹
ĠÏĦÏĥÎµ ÎºÎ¿ÏįÏģÎ¹
ÏĥÏĢÎ¹ Î¸Î±Î¼Î®
ĠÎļÎ¿Î½ÏĦÎ¿ÏģÎµÎ²Î¹Î¸Î¿Ïį Î»Î·ÏĤ
ĠÎ±ÏĥÏĩÎ· Î¼ÏĮÏĢÎ±ÏĢÎ¿
ĠÎ±ÏĢÎŃÏģ Î±Î½
ĠÎķÎ»ÎŃÎ½ Î·
ĠÎ³ÏģÎ±ÏĨ ÎµÎ¯Î¿
ĠÎ¼ÎµÎ»Î¿Î¼Î± ÎºÎ¬ÏģÎ¿Î½Î±
ĠÎ§Î»ÏĮ Î·
ĠÏĩÏģÏħÏĥÏĮÏĥÎº Î¿Î½Î·
ÏħÏĥÏĦÏħÏĩ ÏİÏĤ
ĠÎ²Î±ÏĥÎ¹Î»ÎµÎ¯ Î¿Ïħ
; âĢ
c k
o l
Î± Ïģ
Î± Î»Î»Î¬
ÏĦ Î¿ÏįÎ¼Îµ
Ïģ Î¿ÏįÎ½
Î» Î¿ÏĨ
Ïĥ ÏĥÎµ
Ïĥ ÂµÎ±
Ïĥ ÂµÎŃÎ½Î¿ÏĤ
Î· Î¼ÎŃÎ½Î¿ÏĤ
Î¯ Î¶Î¿ÏħÎ½
ĠÎº Î¹Î±
ĠÎº Î¯Î½Î·ÏĥÎ·
ÏĮ Î¼ÏīÏĤ
ĠÎ¼ Î¿ÏģÏĨÎ®
ĠÎ¼ Î¿Î»Ïħ
ĠÎ± Î·Î´
Î±Î½ Î¸
ĠÎµ ÏģÏī
ĠÎµ ÏģÏİ
Ïĩ Î¿Î»
ĠÎ½ Î¿Ïħ
ĠÎ½ Ïį
ĠÎŃ ÏĥÏĢ
Î¸ ÏīÏĤ
ĠÎ´ Î¿Îº
ÏģÎ± Ïİ
ÏģÎ± Î¶Îµ
ĠÎ³ ÏĮÎ½Î±
ÏĦÎ± Ïĩ
ÏĨ ÏĦÎ¹Î±
ĠÏĥÏĦ ÏģÏİ
ÏģÎ¹ ÎµÏĤ
ÏģÎ¹ ÎºÏĮ
ĠÎµÎ¯ ÏĦÎµ
ĠÎµÎ¯ ÏĩÎµÏĤ
ĠÎ¿ ÏĢÏĮÏĦÎµ
ÏĦÎµ ÏħÎµ
ĠÏĮ ÏĢÎ¿ÏĦÎµ
ĠÎ±ÏĢ Î¬Î½Ïī
ĠÎ±ÏĢ ÎŃÎº
ĠÏĨ ÎŃ
ĠÏĦÎ± Îº
Î² Ïī
Î¶ Ïħ
ÏģÎ¬ ÏĨÎ·
ĠÎºÎ± ÏĢÎµ
Î¿Î½ Î¿
ĠÏĩ ÏģÏħ
Î¾ Î®
Î»Î¹ Î¿ÏĤ
ĠÎ¸ ÏģÏĮÎ½Î¿
ĠÎ¬ Ïĩ
ĠÎ¬ ÏĦÎ±Îº
Î»Î¬ Î´ÎµÏĤ
Î»Î¬ Î¼Î²
ĠÎ» Î¿Î³
Î¿Ïģ Î¯
ĠÎ® ÏģÎµÎ¼Î±
ĠÎ¸Î± ÏħÎ¼Î±
ÏĥÏĦ ÏģÏī
ÏĥÏĦ ÏĮÏĤ
ÏģÎµ ÏħÎµ
ĠÎ¤ ÎŃÎ»Î¿ÏĤ
Î¯Î½ Î¿Î½ÏĦÎ±Î½
ÏĮÎ½ ÏĦÎ¹
ÏģÏī Î½Îµ
ÏģÏī Î¼ÎŃÎ½Î¿
ĠÎĳ Î»Î±Î½
ĠÎĳ ÏħÎ³Îµ
ĠÎĳ ÏģÎ¹ÏĥÏĦÎ¿
ĠÎĳ Î»ÎºÎ·ÏĪÎ±
ĠÎļ Î¿
ĠÎ±ÏħÏĦ Î¿Ïį
ĠÏĥÎµ Î²Î±
ĠÎ±Î½ ÏĮÎ·
Î¼ÎŃÎ½ Î¿ÏħÏĤ
ĠÂµ ÎŃ
ÏĢÎ¿ Î´Î±
ĠÎķ Î½ÏĦÎ¬Î¾ÎµÎ¹
ĠÎķ Î¼ÎµÎ¯ÏĤ
Î½Î· ÏĤ
Îľ ÏĢÎŃ
Îľ Î®ÏĢÏīÏĤ
ĠÎ£ ÏĮ
ĠÎ£ Î·Îº
Îļ ÎĻ
ĠÏĥÎº ÏĮÎ½Î·
ÏİÎ½ Î¹Î±
ÏĦÎ® ÏģÎ¹Î¿
Î½Î¿ Î®
ĠÏĩÎ± ÏĬ
ĠÏĩÎ± ÏĥÎ¼Î¿Ïħ
Î¿ÏĢ Îµ
Îĳ ÎºÎ¿Ïį
ĠÎĪ Îº
ĠÎĪ ÎºÎ±Î½Îµ
Î´Îµ Ïħ
ĠÎĶ Î¹Î±
ĠÎ¬Î½ ÏĦÏģÎµÏĤ
ĠÎ¾Îµ ÏĢÎµ
ĠÎºÎ±Î¸ Î¬
ĠÎºÎ±Î¸ Ïħ
ĠÏĢÏĮ Î»ÎµÎ¹ÏĤ
ĠÏĢÏĮ ÏģÏĦÎµÏĤ
Î¿Ïĥ Îº
ĠÎ±Ïģ Î½Î®Î¸Î·ÎºÎµ
ĠÎ±Ïģ ÎºÎ¿ÏħÎ´Î¯ÏĦÏĥÎ±
ĠÏĢÎµÏģÎ¹ Î¿ÏĩÎ®
Î»Î¯ Î´Î¹
ĠÎ¬ÏģÏĩ Î¿Î½ÏĦÎµÏĤ
ĠÎ½Îµ Ïħ
ĠÎºÎ±ÏĦÎ± ÏĨ
ĠÎ±Î½Î± ÎºÎ¿
ĠÎ±Î½Î± ÏĨÏİÎ½Î·ÏĥÎµ
ĠÎ±Î½Î± Î³Î½Ïİ
ĠÎĴ Î¿ÏħÎ½
ĠÎºÎ¿Î¹ Î¼
ÎĪ Î½Î±ÏĤ
ĠÎºÎ±Î½ Î±
Î¸ÎµÎ¯ ÏĦÎµ
ĠÎ¹ ÏĢ
ĠÎ³Ïħ Î¬Î»Î¹
ÂµÎ± ÏĥÏĦÎµ
ĠÎºÎ±Î» Î¿ÏĥÏįÎ½Î·
ĠÎĨ Î³Î¹Î¿ÏĤ
ĠÏĢÎ¯ Î½Î±
ĠÎľÎ± Î¶Î¯
ĠÎ²ÏģÎ¬ Î´Î¹Î±
ĠÎ´Î¯ ÎºÎ±Î¹
Î¿Î³ ÏģÎ±
ĠÎ¼ÎµÏĦÎ¬ Î¾Î¹
ĠÏĨÏī Î»Î¹ÎŃÏĤ
ĠÎ¼ÏĢÎ± Î»ÏĮÎ½Î¹
ĠÏĥÏħÎ¼ Î²Î¿Ïį
ĠÎľÎµ ÏģÎ¹
Î¾Î±Î½ Î±
Îĵ Î¹Ïİ
ĠÎ¬ÎºÎ¿Ïħ ÏĥÎ±
ĠÏĥÎ± ÎºÎ¹Î¬
ĠÎ¬Î»Î»Î± Î¾Îµ
ĠÎ³Î¯Î½ Î¿Î½ÏĦÎ±Î½
ĠÎºÎ¿Î¯ÏĦÎ± Î¾Î±Î½
ĠÎĳÎ½ ÏĦÎ¹Î³
ÎĻ Îĵ
ĠÎŃÎ²Î± Î¶Îµ
ĠÎ»Î¿Ïħ Î»Î¿Ïħ
ĠÏĦÏģÎ± Î²
ĠÎºÎ¿ÏģÎ¹ ÏĦÏĥÎ¹
ĠÏĢÎµÏģÎ½ Î¬
ĠÏĢÎµÏģÎ½ Î¿ÏįÎ½
ĠÂµÎ± ÂµÎ¬
ÏģÎ¿ÏĨ Î®ÏĤ
ĠÎ½ÏįÏĩ ÏĦÏīÏĥÎµ
ĠÎ´Ïİ ÏĥÎµÎ¹ÏĤ
ĠÎºÎ® ÏĢÎ¿ÏĤ
ÏĦÎ¿Ïį Î»ÎµÏĤ
ĠÎºÎ»Î± Î¯
ĠÎŃÏĢÎµ ÏĥÎ±Î½
ĠÏĥÏĢÎ¹ ÏĦÎ¬ÎºÎ¹Î±
ĠÎ¸ÎŃ Î»Î·ÏĥÎµ
ĠÎĻ Î½
ĠÎĻ Î¿ÏģÎ´
ĠÎ±ÏĢÎ± ÏĥÏĩÎ¿Î»
ĠÎ¬ÏĨ Î·ÏĥÎ±Î½
ĠÎ£ÏĦÎ± ÏįÏģÎ¿ÏĤ
ĠÎ´ÏīÎ¼Î¬ÏĦÎ¹ ÏĮ
ĠÎºÏģÎµ Î¼Î¬
ĠÏĨÏĦÎ¬ Î½ÎµÎ¹
ĠÎ¸Îµ Ïī
ĠÎ¸Îµ ÏģÎ±
ĠÎ¸Îµ ÏĮÏĤ
ĠÎºÎ¿ÏħÎ½ Î¹
ĠÏĢÎ»Î¬ Î¹
ĠÏĨÎ¹ Î»
ÎĨ ÎºÎ¿Ïħ
ĠÎŃÎ²Î³Î± Î¶Îµ
ĠÎ³ÎµÎ½ Î½Î®Î¸Î·ÎºÎµ
ĠÎ³ÏħÏģÎ¯ ÏĥÏī
Î¯Î³Î¿Ïħ ÏģÎ±
ĠÎ´ÎµÎ¯ Î¾ÎµÎ¹
ĠÏĢÏħ ÏģÎ±Î¼Î¯
ĠÏĨÏīÎ½Î¬ Î¶Î¿ÏħÎ½
ĠÏĩÏģÎµÎ¹ Î¬ÏĥÏĦÎ·ÎºÎµ
ĠÎ±Î½ÎŃÎ² Î±Î¹Î½Îµ
ĠÎ±Î½ÎŃÎ² Î·ÎºÎ±Î½
ĠÎºÎ¿ÏħÎ² ÎµÎ½ÏĦÎ¹Î¬
ĠÎºÎ±ÏĦÎŃÎ² ÎµÎ¹
ĠÎµÏĢÎŃÏĥÏĦÏģÎµ ÏĨÎµ
ĠÏĢÎµÏģÎ¹Î¼ÎŃÎ½ Ïī
Î³ÏģÎ¬ ÏĨ
ĠÏĢÎ»Î·ÏĥÎ¯Î± Î¶Îµ
ĠÎĺÎµ Î¿Ïį
ĠÏĥÏĦÎ¿Î» Î®
ĠÏĦÏģÎ±Î³Î¿Ïħ Î´Î¬ÎµÎ¹
ĠÏĩÎ±Î¼Î¿Î³Îµ Î»Î±
ĠÎµÏĢÎ¹ÏĥÏĦ ÏģÎŃÏĪÎµÎ¹
ĠÏĩÎ±Î¹ ÏģÏĮÏĦÎ±Î½
ĠÏĪÎ¬ÏĩÎ½ Î¿ÏħÎ½
ĠÏĥÎ¿ÏĨ ÏĮÏĤ
ĠÎµÏĦÎ¿Î¹ Î¼Î±
ĠÏĢÎ±ÏģÎ¬Î¾ÎµÎ½ Î·
ÏĨÏİ Î½Î·ÏĥÎ±Î½
ĠÂµÏĢÎ¿Ïģ Î¿ÏįÏĥÎµ
ĠÎŃÏĪÎ± ÏĩÎ½Î±Î½
ĠÏĥÏĩÎ® Î¼Î±
ĠÎ³ÏįÏģÎ¹ Î¶Îµ
ĠÏĢÏģÎ¬ÏĥÎ¹ Î½Î¿
ĠÎĳÏĥÏĢÏģÎ±Î»Î¿Î³Î¿Î³Î¹ ÏĮ
ĠÏĥÏĦÎ±Î¼Î± ÏĦÎ®ÏĥÎµÎ¹
ĠÎ±Î³ÏģÎ¹ ÏĮ
ĠÎ¼Î¿Î¹Î¬ Î¶Î¿ÏħÎ½
ĠÎ¼Î·ÏĩÎ±Î½ Î®
ĠÏĢÎ±Î¯ÏģÎ½ ÎµÎ¹
ĠÎºÎ¿Î»ÏħÎ¼ÏĢ Î¿ÏįÏĥÎ±Î½
ĠÏĨÏįÏĥÎ· Î¾Îµ
ĠÎ¶ÎµÏħ Î³Î¬ÏģÎ¹Î±
ĠÎ»Î¹Î³ Î¿Ïĥ
Î»ÏįÏĦÎµ ÏģÎ±
ÎĴÎ± ÏĥÎ¹Î»Î¹Î¬
ĠÎµÎ¾Îµ ÏģÎµÏħ
ĠÎµÏĢÎ±Î½ ÎŃÎ»Î±Î²Îµ
ĠÎ¦Î± ÏģÎ±Ïİ
ĠÎ±ÏģÏĩÎ± Î¯Î±
ĠÏĥÏħÎ¼Î²Î¿Ïħ Î»Î®
ĠÎ³Î±Î»Î¬ Î¶Î¹Î±
ĠÏĩÎ¿ÏģÎµÏį Î¿ÏħÎ½
ĠÏĢÏħÎº Î½ÏĮ
ĠÎ¼Î¿Î½Î±Î´ Î¹ÎºÎ®
ĠÎŃÎ³ÏģÎ± ÏĨÎµ
ĠÎĳÎºÏĮ Î¼Î·
ĠÏĥÎºÎ±Ïģ ÏĨÎ±
ĠÏĥÏĦÎµÎ½Î¿ÏĩÏī ÏģÎ·
ĠÏĥÏĦÎ¬Î² Î»Î¿
ĠÂµÏĢÎ± ÂµÏĢÎ¬
ĠÎ³Î±Î»Î± ÏĦÎ¬ÎºÎ¹
ĠÎ±ÏĥÎ· Î¼ÎŃÎ½
ĠÎļÎ±Ïģ Î´Î¿ÏįÎ»Î±
ĠÏĩÎ±Î¹ÏģÎŃ ÏĦÎ·ÏĥÎµ
ĠÏĥÏĢÏĮ ÏģÎ¿ÏħÏĤ
ĠÎ¿Î´Î® Î³Î·ÏĥÎµ
ĠÏĩÎ¬Î¹Î´Îµ ÏĪÎµ
ĠÏħÏĢÎ¿ÏĥÏĩÎŃ Î¸Î·ÎºÎµ
ĠÎŃÎ´Îµ ÏĥÎµ
ĠÎ¬Î´ÎµÎ¹ Î¿
ĠÏĥÏĢÎ±Î¸ Î¯
ĠÎ¾ÎµÏĨÏį Î³ÎµÎ¹
ĠÎºÎ¿Î¹Î¼Î¬ ÏĦÎ±Î¹
ÎĽÎ¯ Î³Î¿
ĠÎ³ÎµÎ¯ÏĦÎ¿Î½ ÎµÏĤ
ĠÏĮÏĢÎ¿Î¹ Î¿Î½
ÂµÎµÎ¹ Î½Îµ
ĠÏĨÎ±ÏģÎ¼Î± ÎºÎ¿ÏĢÎ¿Î¹
ĠÎ¶ÏīÎ¿Î»Î¿Î³ Î¹ÎºÏĮ
ĠÎ¶Î¿ÏįÎ³Îº Î»Î±
ĠÎ¼ÏĢÎŃ ÎµÎµ
ĠÏĢÎŃÎ¸ Î±Î½Îµ
ĠÎ±ÏĢÎ±ÏĦÎµ ÏİÎ½ÎµÏĤ
ĠÏĢÎ¿Î»Î»Î±ÏĢÎ»Î±ÏĥÎ¹Î± ÏĥÎ¼ÏĮ
ĠÎľÏĢÎŃ ÏĦÏħ
ĠÏĩÎµÎ» ÏİÎ½Î±
ĠÎµÏĥÎ¬ ÏĤ
ĠÎµÎ½Ïħ Î´
ĠÎºÎ±Î¹Î½Î¿ÏįÏģ Î³Î¹Î±
ĠÎŃÏĥÏĢ ÏģÏī
Î»Î¬Î¼Î² Î±Î½Îµ
ĠÎĳÎ»Î±Î½ ÏĦÎ¯Î½
ĠÎĳÏģÎ¹ÏĥÏĦÎ¿ Î¼ÎŃÎ½Î·
ÎľÏĢÎŃ ÎµÎµ
Î¹ Î´Î¹Î¬
Îµ ÏħÏĦÏħÏĩ
Îµ ÏģÏīÏĦÎ®Î¸Î·ÎºÎµ
Î½ ÏĦÎµ
Î½ Î¯Î±
ÏĦ ÏİÎ½ÎµÎ¹
Ïģ ÏĨÎ¬ÎºÎ¹Î±
Î» Î¸Îµ
Ïĥ Î¼Î¿ÏįÏĤ
Î· ÏĥÎ±
Î¯ Î´Î¹Î±
ĠÎº ÎŃÏģ
ÏĢ Î¿ÏĨ
ĠÏĢ Î»Î®
ĠÏĢ Î»Î¿Ïħ
ÏĮ Î´Î¿
Î¼ Î¼ÎŃÎ½Î¿ÏĤ
Î¼ ÎŃÏĥÎ±
ÎŃ ÎºÎ±Î½Îµ
Î±Î¹ Î´Î¹Î¬
ĠÎ¼ ÏĮÎ½Î±
ĠÎ± Î»Î±
Î³ Î¿ÏħÎ¼Îµ
Î³ Î¹ÎºÏĮ
Î³ Î»Ïį
Î±Î½ Î±Î½
Ïħ ÏĢÎ®
Ïħ ÏĥÎ¹ÎºÎ¬
ĠÎµ ÏĨÎ±
Î¹Î± ÏĥÎ±Î½
Ïĩ ÏĦÏĮ
ĠÎ½ Î¹Îº
Î® ÏĥÎ¿ÏħÎ½
ĠÎŃ ÎºÎ±Î¹
ĠÏĦÎ¿Ïħ Ïģ
Î¸ Î¿ÏįÎ¼Îµ
Î¸ Î¬Î½Ïī
ĠÎ´ ÏĮ
ĠÎ´ Î±Î½
ĠÎ³ ÏīÎ½Î¯Î±
ĠÎ³ Î¿ÏįÏģ
Ïİ ÏĥÏī
ÏĨ Î·ÏĥÎµ
ÏĨ ÏħÎ³Îµ
ÏĨ Î¬ÏĥÎ¼Î±ÏĦÎ±
ĠÏĥÏĦ Î¿Î¹
ĠÏĥÏĦ Î¿Ïĥ
ĠÎµÎ¯ ÎºÎ¿ÏĥÎ¹
ÏĦÎµ ÏįÏĦÎ·ÎºÎµ
ĠÏĨ Î¸Î¹
ÏĦÎ¹ Î½
ĠÏĦÎ± Î»Î±Î¹ÏĢÏī
ĠÎ² ÏģÎ¿Î½
ĠÎºÎ± ÏģÎ¿
ĠÎºÎ± ÎºÎ¯Î±
Î¾ Î¬Î½Î·
ĠÏĢÎ¿Ïħ Î½
ÏĦÎ¬ Ïī
Î¼Î± Ïģ
ĠÎ¸ Î¬Î»Î±
Âµ Î¹Î±
ĠÎ¬ ÏĥÏĦÎµ
ĠÎ» Î¬Ïĥ
ĠÎ±ÏĢÏĮ Î»Ïħ
Î¿Ïģ Î³
Î¹Îº Î¿Î½
Î¹Îº ÏģÎ®
ÎºÎµ Î»Î±
ÏĥÎ¹ ÎŃÏĤ
ĠÏĢÎ± ÏĢÎ¬ÎºÎ¹Î±
ÏħÏĦ Î¿
ÏħÏĦ Î®
ÏģÎ¯ ÏĥÏī
ĠÎ¸Î± Î»Î±
ÏĥÏĦ Î¿Î»
ÏĥÏĦ Î¿ÏįÎ¼Îµ
Î»Î· ÏĦÏĮ
ÏģÎµ ÏĪÎµ
Î»Îµ Î³Îµ
Î·Î½ Î±Î½
ĠÎ¼ÎŃ ÏĦÏģÎ±
ÎºÎ± Î»Î±
ĠÎ±ÏħÏĦ Î¿ÎºÎ¹
ĠÎľ Î±ÏĤ
ĠÏĥÎµ Î»Î¯Î´Î±
ĠÂµ ÏĢÏģÎ¿ÏĥÏĦÎ¬
ÏĪ Î¹Î¬
ÏĢÎ¿ Î¯
ÎºÎ¬ ÏĦÏī
ĠÏĥÏħ Î»
ĠÏĥÏħ Âµ
Î¤ Î·ÏĤ
ĠÎł Î¿Î¹
ĠÎł Î¬Î½Ïī
Î»Î¹Î¬ ÏĤ
ÏģÎ· ÏĥÎ·
ÏĥÏĦÎµ ÏĤ
ÎŁ ÎĻ
ÏģÏİ ÏĥÏī
ĠÎ£ ÏĦÎ¿Î½
ĠÎ¬Î» Î»Î¿Ïħ
ĠÏĥÏĦÎ± Î³ÏĮÎ½ÎµÏĤ
ÏĦÎ±Î¹ Î±
ĠÏĢÎ±Î¹ Î´Î¹Î¿Ïį
ÏĢÎ¯ ÏĥÏĦ
Îĳ Î»Î®
Î´Îµ ÏįÎ¿ÏħÎ½
ÏģÏħ ÏĢ
Î²Î± Î¯
ĠÎºÎ¬Î½ Î¿Î½ÏĦÎ±ÏĤ
ĠÏĪ ÎŃÎ¼Î±ÏĦÎ±
Îķ Î½
Îķ ÏħÏĦÏħÏĩ
Î»ÎŃ Î±
ĠÎ²Î±ÏĥÎ¹ Î»Î¹ÎºÎ®
ĠÎ±Î»Î»Î¬ Î¶ÎµÎ¹
ÎºÎ¿Ïį ÏģÎ±
ĠÎ´Ïħ ÏĮ
ÏĢÎ¬ Î¸Î·ÏĥÎµ
Î¼Î· ÏĩÎ±Î½
ĠÎ´Îµ Î»ÏĨ
ĠÏĢÎ±ÏģÎ± Î¼Î¿Î½Î®
Î»Î¯ Î´ÎµÏĤ
ĠÏĦÎµ ÏĦÏģÎ¬
ĠÎ³Îµ Î»Î¿ÏįÏĥÎ±Î½
ĠÎ³Îµ ÏįÏĥÎ·
ĠÎºÏħ Î»Î¿ÏįÏĥÎ±Î½
ĠÎµÎ½ Î½Î¿
ĠÎµÎ½ ÏĦÎµÎ»ÏİÏĤ
Î¬Ïĥ Î¿ÏħÎ¼Îµ
ĠÏĢÎ¿ Î´Î±
ĠÎºÎ±ÏĦÎ¬ Î»ÎµÏħ
ÎĪ ÏĩÏī
Î³Î® Î¸Î·ÎºÎµ
ĠÎ³Ïħ Î¼
ÏģÏį ÏĥÎ·
ĠÎ¶Ïī Î·
ĠÎ²Î¬ Î¶ÎµÎ¹
ĠÎ±Î¼ Î¯Î»Î·
ĠÏĨÏį Î³ÎµÎ¹ÏĤ
ÏĦÏħ ÏĩÎµ
ĠÎµÎ¾ Î·
ĠÎµÎ¾ ÎŃÏĦÎ±
ÏĩÎ¹ Î¿Î½
ĠÎĽ Î¿Ïį
ĠÎĽ ÎµÏĤ
ĠÎļÎ± Î¸
ĠÎļÎ± Î»Î·
ĠÎ±ÏģÏĩ Î¿Î½
ĠÎ¡ Î¿
ĠÎ¡ ÏĮ
ĠÏĩÎ¬ Î¸Î·ÎºÎ±Î½
ĠÎ»Î± Î³ÏĮ
Î¹Ïĥ ÏĦÎ¬
ĠÎľÎµ Î»Ïī
ÎŃÏĪ Ïī
ÏĥÏĢ ÎŃÏģÎ±
ĠÎ»Î¹ Î³Î¬ÎºÎ¹
ĠÎ¼Î±Îº ÏģÏį
ĠÎºÎ±Ïģ ÏĢÎ¿Ïį
ĠÎºÎ±Ïģ Î´Î¿ÏįÎ»Î±
ĠÎ¼Î±Î¼Î¬ ÏĤ
ĠÎ´Î¹ ÎŃÏĦÎ±Î¾Îµ
ĠÎ¿ÏĢÎ¿ Î¯
ĠÏĥÏĦÎ¹Î³ ÂµÎ®
ĠÎ»ÏĮ Î³Î¿ÏĤ
ĠÎ¸Ïħ Î¼ÏĮÏĦÎ±Î½
ĠÏĥÎºÎŃÏĨ ÏĦÎµ
ĠÎ±Î½Î¸ÏģÏİ ÏĢÎ¿Ïħ
ĠÎ´Ïİ ÏĥÎ¿ÏħÎ½
ĠÎ´Ïİ Î´ÎµÎºÎ±
ĠÎ¯Î´Î¹ Î¿Î¹
Î²Î¹ Î²
ĠÏĦÏģÎ¹ Î±Î½ÏĦÎ±
ĠÏĥÎºÎµ ÏĢÎ¬
ĠÎ®Î¾Îµ ÏģÎ±
ÏĥÏĦÎ® ÏģÎ¹
ÏģÎ³ Î¯Î±
ÏģÎ³ Î¹Î¿
ĠÎŃÎ»Î± Î¼ÏĢÎµ
ĠÎļÎ¬ Î¸Î¹ÏĥÎµ
ÏĢÎ¬ÏģÏĩ ÎµÎ¹
ĠÎ¼Î±Î³ Î¹ÎºÎŃÏĤ
ĠÎ¸ÎŃ Î¼Î±
ĠÎ±Î´Îµ ÏģÏĨÎ¬ÎºÎ¹Î±
ĠÎ±ÏĢÎ± Î»ÏĮ
Î³Î³ Ïħ
ĠÏĦÏĥ Î¬Î½ÏĦÎ±
ĠÎ±ÏĨÎ® ÏĥÎ¿ÏħÎ¼Îµ
ĠÎ£ÏĦÎ± ÏįÏģÎ¿
ÏĦÏģÏī Î½
ÎºÎ¿Î» Î¿Ïį
ÎŃÏĢ Î±Î¹
Îŀ ÎŃÏģÎµÎ¹ÏĤ
ÏĥÏĦÏģÎ¿ ÎĵÎ¹Ïİ
ĠÎºÎ¿Î¹ÏĦÎ¬ Î¾ÎµÎ¹
ĠÎ³ÏħÏģÎ¯ ÏĥÎ¿ÏħÎ½
ĠÏģÎ¯ ÏĩÎ½
ĠÎŃÏĥ ÏĢÎ±ÏĥÎµ
ĠÎ²Î¿Î·Î¸Î® ÏĥÏī
ÎķÎºÎµÎ¯ Î½Î¿ÏĤ
ĠÏĢÎŃÏĦÎ± Î¾Î±Î½
ĠÏĥÎºÎ± Î¼
ĠÏĨÏĦÏīÏĩ ÏĮÏĤ
Î¿ÏĢÎ¿Î¹ Î®ÏĥÎµÎ¹
ĠÎŃÏĦÎ¿Î¹ Î¼Î·
ÎºÏģÎ· ÏĦÎ¯Î±
ĠÎºÎ±ÏĦÎŃÎ² Î±Î¹Î½Îµ
ĠÎ³Î½Ïİ Î¼Î·
ĠÏĥÏĦÎµÎ½Î± ÏĩÏİ
ĠÏĦÎ¿Ïį ÏĦÎ¿
ĠÏĥÏĦÏģÎ±ÏĦÎ¹Ïİ ÏĦÎ·
ĠÏĦÏĥÎ± Î»Î±
ÏĮÏģÎ± ÏĥÎ·
ĠÎ¿Î´Î· Î³ÏĮÏĤ
ĠÎºÎ±Î¸Î± ÏģÏĮ
ÂµÎµÎ½ Î·
ĠÏħÏĢÎ¿ Î¼Î¿Î½Î®
ĠÎµÏĢÎ¹ÏĥÏĦ ÏģÎ¿ÏĨÎ®ÏĤ
ĠÎ»Î¯Î¼Î½Î· ÏĤ
ĠÏĩÎµ Î»Î¹
ĠÏĪÎ¬ÏĩÎ½ Î¿Î½ÏĦÎ±ÏĤ
ĠÎ´ÏħÏĥÏĦÏħÏĩ Î¹
ĠÎ±ÏĥÏĦÎµ Î¯Î¿
ÏĨÏĦÎ± ÏĥÏĢÎ¹Î¸Î±Î¼Î®
ĠÏĦÏģÎŃÏĩ Î¿ÏħÎ½
ĠÎ²ÏģÎ¯ÏĥÎº Î¿Î½ÏĦÎ±Î¹
ĠÎ¼Î¹Ïĥ ÏĮ
ĠÏĨÎ¿Ïħ ÏĥÎº
ĠÏĨÎ¿Ïħ ÏĥÏĦÎ¬
ÎºÎµÎ¹ ÏĦÎ±Î¹
ĠÏĦÎ±Ïĩ Ïį
ĠÎ¾ÎµÎºÎ¿Ïħ ÏģÎ¬
ĠÏĢÎ¿Î½ÏĦÎ¹ ÎºÎ¿Î¯
ĠÎłÎ¬ Î¼Îµ
ĠÎºÎ»ÎŃ ÏĨÏĦÎµÏĤ
ĠÏĥÎºÎ»Î· ÏģÎ¬
ĠÎŃÏĢÎ¹ Î½Îµ
ĠÎ±ÏĢÎ±Î½ ÏĦÎ¿ÏįÏĥÎµ
ĠÎļÏħ ÏģÎ¹Î¬
ĠÎ²Î¬Î» ÏĦÎ¿
ĠÏĢÎ±ÏģÎ¿Ïħ ÏĥÎ¹Î¬ÏĥÏĦÎ·ÎºÎµ
ĠÎ£Ïħ Î½ÎŃÏĩ
ĠÎ§ÏģÏħÏĥÎ± ÏĨ
ĠÏĥÎ¹Ïī ÏĢÎ®
ĠÏĩÎ¿Î½ÏĦ ÏģÏĮ
ĠÎ½ÎµÎ± ÏģÏĮÏĤ
ĠÏĥÏĦÎ±Î¸ Î¼Î¬
ĠÎ·Î»Î¹ ÎºÎ¯Î±
ĠÎ¤Î¯ Î³
ĠÎ¤Î¯ ÏĢÎ¿ÏĦÎ±
ĠÎ¶Î± ÏĩÎ±
ĠÎ¬ÏĢ Î»ÏīÏĥÎµ
ĠÎ¶ÎµÏĥÏĦÎ± ÏĥÎ¹Î¬
ĠÎµÏĢÎ¹ÎºÎ¯Î½Î´Ïħ Î½Î¿
ĠÏĢÎ¿Î»ÏįÏĩÏģÏī Î¼Î±
ĠÎµÎ¾Îµ ÏĦÎ¬
ĠÎ´Î¹ÎºÎ± ÏĥÏĦÎ®ÏĤ
ĠÏĩÏģÎ¿Î½ Î¹Î¬
ĠÎ³ÏħÎ± Î»Î¹Î¬
ĠÏĥÏħÎ½Î¿Î´ ÎµÎ¯Î±
Î¼ÎµÎ¯ Î½ÎµÎ¹
ĠÎµÎ»ÎµÏįÎ¸Îµ ÏģÎ¿
ĠÏĨÏģÏĮÎ½ ÏĦÎ¹Î¶Îµ
ĠÎĳÎ»ÎŃ Î¾Î±Î½
ĠÎµÎ¼ÏĢ ÏĮ
ĠÎ±ÏĢÎ¿Î³Î¿Î·ÏĦÎµÏħ Î¼ÎŃÎ½Î¿ÏĤ
ĠÎ²Î¿Î® Î¸Î·ÏĥÎµ
ĠÎ¼Î¿Î½Î±Î´ Î¹ÎºÏĮ
Î»Î¹ÏĦÎ¶ Î¬Î½ÎµÏĤ
ĠÎºÎ¯Î½Î´Ïħ Î½Î¿
ĠÎ´Î¹Î±ÏĥÎºÎµ Î´Î¬
ĠÎĺÏī Î¼Î¬ÏĤ
ĠÏĮÂµÎ¿ÏģÏĨ Î¿
ĠÎ·ÏĨÎ±Î¯ÏĥÏĦ ÎµÎ¹Î¿
ĠÎļÎ¿Ïģ ÏīÎ½
ĠÏĢÏģÎ¿Î² Î»Î®
ĠÏĥÎºÎ¿Ïģ ÏĢÎ¯
ĠÏĨÎ»Î¿Ïħ ÏģÎ¯
ĠÎºÎ±ÏģÏį Î´Î¹Î±
ĠÏĦÎ¿ÏĢÎ¿ Î¸Îµ
ĠÎºÏħÎ½Î® Î³Î¹
ĠÎ±Î½Î±ÏĥÏĦÎŃÎ½Î± Î¾Îµ
ĠÎ³ÎºÏģÎµ Î¼Î¯
ĠÏĢÏģÎ¹Î³ÎºÎ¯ÏĢÎ¹ ÏĥÏĥÎµÏĤ
ĠÎ´Î¹ÎŃÎº Î¿ÏĪÎµ
ĠÎºÎ¿ÏħÏģÎ±Î¼ÏĢÎ¹ ÎŃÎ´ÎµÏĤ
ĠÎ½Î¯ÎºÎ· ÏĥÎµ
ĠÎ¦Î¹ Î»Î±
ĠÎŃÏĥÎ² Î·ÏĥÎµ
ĠÎ´Î¹ÏĢÎ»Î±Î½ ÏĮ
ĠÎļÏīÎ½ÏĥÏĦÎ±Î½ ÏĦÎ¯Î½Î±
ĠÎ¡Ïī Î¾Î¬Î½Î·
ÎºÏģÎ¹Î² ÏİÏĤ
ĠÎĳÎ¼Î± Î»Î¯Î±
ĠÎ»Î±ÎºÎºÎ¿Ïį Î²ÎµÏĤ
ĠÎ´Î¹Î¬Î´ÏģÎ¿ Î¼Î¿
ĠÎºÎ±Î¼Î¹ Î½Î¬Î´Î±
ĠÏĢÎ±ÏĦÏģÎ¯ Î´Î±
ĠÎµÏģÏİ ÏĦÎ·ÏĥÎ·
ĠÎĳÎ½ÏĦÎ¹Î³ ÏĮÎ½Î·
ĠÎµÏĨÎ± Ïģ
ĠÎ¸Î¬Î»Î± ÏĥÏĥÎµÏĤ
ĠÏĦÏģÎ¹Î±Î½ÏĦÎ± ÏĨÏħÎ»
ÏĥÏĦÏģÎ¿ÎĵÎ¹Ïİ ÏģÎ³Î·
a i
g e
Î İÏĥÏĦÎµÏģÎ±
Ġ 5
Î¿ Î´Ïī
Î¹ ÎµÏĤ
Îµ ÏĦÎ¹ÎºÎ¬
ÏĦ Î¿Ïĩ
Ïģ ÎµÎ¯Î¿
ĠÏĦ ÏģÎ¿Ïĩ
Î¬ Î»Î»Î¿
Î» Î»Î¹
Î» Î»Î¹Î±
Î· ÏĥÎ¯Î±
Î¯ ÏĥÏĥÎ±
ÏĢ Î»Î¬
ÏĢ ÏģÎµ
Îº ÏīÎ½
Îº Î¿ÏįÏĥÎµ
Îº ÏĦÏħ
Îº Î¯ÏĦÏģÎ¹
Î¼ ÎŃÎ»
Î¼ Î¼ÎŃÎ½Î·
ĠÏĥ Î¯
ĠÎ± Î·
Î³ ÎŃ
Î³ Î¿Î¹
Î³ ÎµÎ¯
Ïī ÏĥÎ·
Ïħ ÏĮÏĦÎ±Î½
ĠÎµ ÏģÎ·
ĠÎµ Î»ÏĢÎ¯
ĠÎµ Î¹ÎºÏĮÎ½Î±
ĠÎ½ Î®
ĠÎ½ Î¹ÎºÎ®
ĠÎ½ Î¿ÏĥÎ¿
Î® ÏĥÎµÎ¹ÏĤ
ĠÎŃ ÎºÎ¿Î²Îµ
Î¸ Î·Î½
Î¸ ÏģÎ¿
Î¸ ÎµÎ¹ÏĤ
ĠÎ´ ÏģÎ¿
ÏģÎ± Î¯
ÏģÎ± ÏĦÎ¿ÏįÏĥÎµ
ĠÎ³ Ïį
Ïİ ÏģÎ·ÏĥÎ±Î½
ÏĨ Î¿Î³
ĠÏĥÏĦ ÏģÎ¿
ĠÎµÎ¯ Î´ÎµÏĤ
ĠÎ¿ ÏĢÏī
ĠÏĮ ÏĢÎ¿Î¹Î±
ĠÎ±ÏĢ Î»ÏĮ
ĠÏĨ Î¿Î¹
ĠÏĦÎ± ÎĲ
ĠÎ¼Îµ ÏĦ
ĠÎ¼Îµ Î»Î±Î³
Î² Î¬Î½Î¹
Î¶ Î¹Î¿
ĠÎºÎ± ÏĨÎµ
ĠÎºÎ± Î²Î¿Ïħ
ĠÎºÎ± ÎºÎ¿Î¯
ÎµÎ½ ÎŃÎ»Î±
Î»Î± Î³Îµ
Î»Î± Î¼Î²
ĠÏĩ ÏĦÎ¹
Î¾ ÏħÏĢ
Âµ Î¿Ïħ
Âµ Î¿Î³
ĠÎ¬ ÏģÏīÎ¼Î±
Î»Î¬ ÏĦÎ¹
Î»Î¬ ÏĩÎ¹
ĠÎ® ÏĩÎ¿
Î¹Îº Î¿Ïį
ÎºÎµ ÏĨ
ÏģÎ¯ ÏīÎ½
ÏģÎ¯ Î¶Ïī
ĠÎ¼Î± ÏĦÎ±Î¹
ĠÎ¼Î± ÏĩÎ±
ÏĢÎµ ÏģÎ¯
ÏĥÏĦ Î¿ÏħÏĤ
ĠÎ¾ ÎµÎ½
ĠÎ¾ ÎŃÏĥ
ÏĩÎµ ÏĥÎ±Î¹
Î»Î¿ ÏģÎ¹Î¬Î½
ĠÎĳ ÏĤ
ĠÏĢÎµ ÏģÎ·
ĠÏĢÎµ Î¸Î¬Î½Ïī
ĠÎļ ÎĳÎĻ
ĠÎ¼Î¿Ïħ ÏĥÎµ
Î½Îµ ÏĪÎµ
ĠÎľ ÎŃ
ĠÏĦÎ¹ Î½Î¬
Î³Îµ Î»Î¬
ĠÂµ Î¹
ÏĦÎ¿ Î½Î±
Î¤ ÎµÎ»Î¹ÎºÎ¬
ĠÎł ÏģÎ¿
Î¸Îµ Î»Î±
ÎŃÏģ Î·
ĠÏĢÎ¬ ÏĦÎ·ÏĥÎµ
ÎŁ ÏįÏĦÎµ
Îľ ÏĮÎ½Î¿
ĠÎ£ Î¿ÏĨ
ĠÏģ ÏħÎ¸
Î¶Îµ ÏĪÎµ
Î´Î± ÏģÎ¬ÎºÎ¿ÏĤ
ĠÏĩÎ± Î»Î¬ÎºÎ¹
ĠÏĩÎ± ÏģÎ±Îº
ĠÏħ Î¹Î¿
ĠÏħ ÏĨÎ¬ÏĥÎ¼Î±ÏĦÎ±
Î´Îµ Ïį
Î´Îµ ÏįÎµÎ¹
ĠÎ¼ÏĢÎ¿Ïģ ÎŃÏĥÎµÎ¹
ÎºÎ¿Ïħ ÎºÎ¿ÏħÎ²Î¬Î³Î¹Î±
ÏįÏĦÎµ ÏĤ
Îķ Îł
Îł ÏģÎ¹Î½
Î³Î¹ ÏĥÎ¼Î±
ÏĦÎŃ Î²
Î¼Î· Î¸ÎµÎ¯
Î£ Ïħ
Î£ Î¹Î³Î¬
ÏįÏģÎ¹ ÏĥÎ±Î½
ÏģÎ¿Ïį Î»Î±
ĠÎ¬ÏģÏĩ Î¹Î¶Îµ
ĠÎ³Îµ ÏģÎ¿
ĠÎµÎ½ ÏĦÎ¿Î»Î®
ĠÎºÎ±ÏĦÎ± ÏĢÏģÎ¬ÏĥÎ¹
ĠÎµÎ¯ÏĩÎ±Î½ Îµ
ÏĦÏĥ Î¬ÎºÎ¹Î±
ĠÎ´Î¹Î± ÎºÎ¿ÏĢ
ĠÎ´Î¹Î± Î¼Î¬Î½
ĠÎ´Î¹Î± Î´ÏģÎ¿Î¼Î®
ĠÎ´Î¹Î± ÏĢÎ¯ÏĥÏĦ
ĠÏĢÏģÎ¿Ïĥ Î³ÎµÎ¹
ÎĮ ÏĢÏīÏĤ
ĠÎķÎ¯ ÏĩÎ±
ÏģÎ±Î³ ÂµÎ±
ĠÎ§ ÏģÎ®
ĠÎºÎ±Î» Ïį
ĠÎºÎ±Î» Î¿ÏĥÏħ
ÎŃÏĨ Î±
ĠÎ¶Ïī Î³ÏģÎ¬ÏĨÎ¹
ĠÎ²Î¬ Î»Ïī
ÏģÎ¸ Î±Î½
ĠÎµÎ¾ Ïİ
ĠÎµÎ¾ ÏħÏĢ
Î¿Î¯ÏĦÎ± Î¾Îµ
ĠÏĥÎ· ÂµÎ±
Î»Ïħ Î½Îµ
ĠÏĢÎ¿Î½ Î¬ÎµÎ¹
ĠÎ´ÎŃÎ½ Î´ÏģÎ±
ĠÎ´Î¯ ÏĩÏīÏĤ
ĠÏĨÏī ÏĦÎ¿
ĠÏĩÎ¬ ÏģÏĦÎ·
ĠÎ¼ÏĢÎ± Î»
ĠÎ±Îº ÏģÎ¿
Î½ÏĮ ÏĢÏī
Îĵ ÏģÎ¬
Îĵ ÏįÏģÎ¹ÏĥÎµ
ĠÏĢÎ¹ ÏĦÏĥÎ¹
ĠÎ¼ÎµÏĦÎ± Î¾
ĠÎ¼ÎµÏĦÎ± Î¾Ïī
ÎļÎ± ÏĦÎ¬
ĠÎĳÎ½ ÏĦÏģÎŃ
ÏģÎ¹Ïĥ Î¼ÎŃÎ½Î±
ĠÎ¸Ïħ Î¼ÏĮ
ĠÎ±Î»Îµ ÏįÏģÎ¹
ĠÏĢÎ· Î³
ĠÏĢÎ¿Î¹ Î¿Î½
ĠÏĨÏĮ Î²Î¿ÏĤ
ÏĢÏī ÏĥÎ·
ÏĦÎµÎ¹ Î½Îµ
ÏĦÏį ÏĢÏīÏĥÎ·
ĠÎ¶Î· Î¼Î¹Î¬
ÏĥÎºÎµ ÏĨ
ĠÎµÏħÏĦÏħÏĩ ÏİÏĤ
ĠÏīÏģÎ± Î¯Î¿ÏĤ
ĠÎĳÏħÏĦ ÎŃÏĤ
Îŀ ÏįÏĢ
ĠÏĢÎµÏģÏĢÎ± ÏĦÎ¿ÏįÏĥÎ±Î½
ÎķÎ¯ ÏĥÎ±Î¹
ÎºÏģÏħ Î½
ĠÏĩÎµÎ¹ Âµ
Î¿ÏĪ Î¹
ĠÎ³ÎµÎ½ Î½Î®ÏĥÎµÎ¹
ĠÏĢÎ±ÏģÎ±Î¼ ÏħÎ¸
ĠÏĥÎ·Îº ÏīÎ¸ÎµÎ¯
ĠÏģÎ¯ Î¾ÎµÎ¹
ĠÎºÎ±Î¹Î½Î¿Ïį ÏģÎ³Î¹Î¿
ĠÎ½ÎŃ Î¿ÏħÏĤ
ĠÎ±Î´ÎµÏģÏĨ ÏĮÏĤ
ĠÎ´ÏģÎ¬ ÎºÎ¿Î¹
ĠÎ²ÏģÎŃ ÏĩÎµÎ¹
ĠÏĢÏį ÏģÎ³Î¿ÏĤ
ĠÏĥÎºÏħ Î»Î¯
ĠÏģÎ¬ ÏĨÎ¹
ĠÎµÏĢÎŃÏĥÏĦÏģÎµ ÏĪÎ±Î½
ĠÏĢÎµÏģÎ¹Î¼ÎŃÎ½ Î¿ÏħÎ¼Îµ
ÎºÎ¿ÏħÎ²Î¬ Î³Î¹Î¿ÏĤ
ĠÎ³Îº ÏģÎ¯
ĠÏĦÏħ Î»Î¯
ĠÎĳÏĥÏĢ ÏģÎ¿ÏįÎ»Î·ÏĤ
ĠÎ±Î½Îµ Î²Î±Î¯Î½ÎµÎ¹
ĠÎĵÎ¹ Ïİ
ĠÎ¼Î±Î¶Îµ ÏħÏĦÎµÎ¯
ĠÎ³Î½ÏīÏģÎ¯ ÏĥÎµÎ¹
ĠÏĦÎ¶ Î¬
ĠÎºÎ¿Ïį Î½Î·ÏĥÎµ
ĠÎºÎ¿Ïį ÏģÎ±ÏĥÎ·
ĠÏĥÏĢÎ·Î»Î¹Î¬ ÏĤ
ĠÎ¬Î¼ Î¼Î¿ÏĤ
ĠÏĩÎ±Î¼Î¿Î³Îµ Î»Î¿ÏįÏĥÎµ
ĠÏĢÎ¿Î½Î· ÏģÎ¬
ĠÎµÏħÏĦÏħÏĩÎ¹ ÏĥÎ¼ÎŃÎ½Î¿
ĠÏĦÏģÎŃÎ½ Î¿Ïħ
ĠÏĥÎ¿ÏĨ Î®
ĠÎ»ÎµÏħ ÎºÎ®
ĠÎ¾Î· Î¼ÎµÏģÏİÏĥÎµÎ¹
ĠÎ´ÏħÏĥÏĦÏħÏĩ Î¯Î±
ĠÎ®ÏĥÏħÏĩ Î¿
ĠÏĪÎ¹ Î¸Ïħ
ĠÎ±Î½Î¿Î¹Ïĩ ÏĦÎ®
ĠÂµÏĢÎ¿Ïģ ÎµÎ¯
ĠÎ¼Î¬Î¶Îµ ÏħÎµ
Î´ÏģÏĮ Î¼Î¹Î¿
ĠÏĢÎµÏģÎ¯ÎµÏģ Î³Î±
ĠÎ±Î³Î±ÏĢÎ¬ ÏĤ
ĠÎ²ÏĮÎ» ÏĦÎµÏĤ
ĠÏĥÎºÎ¹Î¿Ïħ ÏģÎ¬ÎºÎ¹Î±
ĠÏĥÎ¿ÎºÎ¿Î»Î¬ ÏĦÎ±ÏĤ
ĠÎ²Î® Î¼Î±
ĠÎºÎ»ÎŃ ÏĨ
ĠÎºÎ»ÎµÎ¯ ÏĥÎµÎ¹
ĠÎŃÎ²ÏģÎ¹Ïĥ ÎºÎ±Î½
ĠÎ¼Î±ÎºÏģÎ¹ Î½Î®
ĠÎŃÏĨÏĦÎ±Î½ Î±Î½
ĠÎ±Î½Ïħ ÏĢÏĮ
ĠÎºÏħÏģÎ¯ Î¿Ïħ
ĠÏĢÎ¿Î½ÏĦÎ¹ÎºÎ¬ ÎºÎ¹Î±
ĠÎºÎ¿Î»ÏħÎ¼ÏĢ Î¿ÏįÏĥÎµ
ĠÎŃÏģÏĩ Î¿Î½ÏĦÎ±Î¹
ĠÎ½ÎµÎ± ÏģÏĮ
ĠÏĢÏģÏĮÏĥÎµ ÏĩÎµ
ĠÏĥÎºÎŃ ÏĢÎ±ÏĥÎµ
ĠÎĪÏĩ ÎµÎ¹ÏĤ
ĠÎĪÏĩ Î¿ÏħÎ¼Îµ
ĠÎ±ÏħÏĦÎ¿ÎºÏģÎ¬ÏĦÎ¿ ÏģÎ±
ĠÎłÎ±ÏģÎ± Î¼
ĠÎ¶ÏīÎ½ÏĦÎ±Î½ ÏĮ
ĠÎ¥ ÏĢÎ®
Î±Î½ÏĮ ÏĢÎ¿ÏħÎ»Î¿
ĠÏĢÎ±ÏģÎ· Î³Î¿
ĠÏĨÏİ ÏĦÎ±
ĠÏĥÏħÎ³Î³ ÎµÎ½
ĠÎ¼Î±Î¶ÎµÏį ÏĦÎ·ÎºÎ±Î½
ĠÂµÎµÎ³Î¬ Î»Î·
ĠÏĨÎµÏį Î³ÎµÎ¹
ĠÎ¸ÏħÎ¼Î¬ ÏĥÎ±Î¹
ĠÎ¼ÎŃÎ½ ÎµÎ¹
ĠÎļÏĮ ÎºÎºÎ¹
ĠÎĵÎµ ÏģÎ¬ÎºÎ¹
Î´ÎŃÎ½ Î¹Î¿ÏĤ
ĠÎºÎ±ÏĦÎ±Î»Î±Î²Î± Î¯Î½Ïī
ĠÎ±Î³ÏģÏĮ ÏĦÎ·ÏĤ
ĠÎ±Î³Î³Îµ Î»Î¬ÎºÎ¹Î±
ĠÏĮÏĥ Î¿ÏħÏĤ
ĠÎĶÎ® Î¼Î¿ÏĤ
ĠÎ¼ÎµÎ³Î±Î»Ïİ ÏĥÎ¿ÏħÎ½
ÏĦÎ¹Îº Î¯Î½Î±
ĠÎ¬Î¸ Î»Î¿ÏĤ
ĠÎľÏĢÎ¹Î¶ ÎŃÎ»Î·ÏĤ
ĠÎĨÎ» Î»Î¿Î¹
ĠÎ±ÎºÎ¿Î»Î¿ÏħÎ¸Î® ÏĥÎµÎ¹
ĠÎ³Î»Î¹ ÏĥÏĦ
ĠÏĢÎ±ÏģÎ¬ÏĢÎ¿Î½ Î¿
ĠÏĦÏħÏĨÎ»Î¿ÏĢ ÏĮÎ½ÏĦÎ¹
ĠÎµÎ²Î´Î¿ Î¼Î¬Î´Î±
ĠÏĦÎ¿ÎºÎ¿ Î³Î»Ïį
ĠÎ±ÎµÏģÏĮÏĥÏĦÎ± ÏĦÎ¿
ĠÎ´Î¹ÎºÎ±Î¹ Î¿Î»Î¿Î³
ĠÎ³Î»Î¯ ÏĥÏĦ
ĠÎĿÏĦÎ¿ÏħÎ²Î¿ÏħÏģÎ½ Î¬ÏĤ
ĠÎ´Î¹ÏĥÏĦÎ± ÎºÏĦÎ¹ÎºÎ¬
ĠÎĸÏīÎ· ÏģÎ¿ÏįÎ»Î·ÏĤ
ĠÎºÎ¿Î»Î¿ÎºÏħÎ¸ Î¬ÎºÎ¹Î±
Î¿Î¹ÎºÎ¿Î³ÎŃÎ½ ÎµÎ¹Î±
ÏįÎ³ Î´Î±
ĠÎ¿Îº ÏĦÏİ
ĠÎºÎ¿ÏĢÎ¬ Î´Î¹
ĠÏĦÎ±ÏĩÏħÎ´ÏģÏĮ Î¼Î¿ÏĤ
ĠÏĦÏĥÎ¯Ïģ ÎºÎ¿
ĠÏĢÎ±Î³ÎºÎ¬ ÎºÎ¹
ĠÎ§ÏģÏħÏĥÎ±Î» ÎŃÎ½Î±
ĠÏĦÏĥÎ¿ÏĢ Î±Î½ÏĮÏĢÎ¿ÏħÎ»Î¿
ÎĳÎ»Î® Î¸ÎµÎ¹Î±
ĠÏĢÎ¿Î´Î± ÏģÎ¬ÎºÎ¹Î±
ĠÎ¡ÏĮ ÎºÏħ
ĠÏĥÏĦÎµÎ½Î±ÏĩÏİ ÏģÎ¹Î±
ĠÏĨÎ¿ÏħÏĥÏĦÎ¬ Î½Î¹
Î»Î¬ÏĩÎ¹ ÏĥÏĦÎ¿Î½
Î½ÏĮÏĢÏī ÏģÎ¿
ĠÏĦÏħÏĨÎ»Î¿ÏĢÏĮÎ½ÏĦÎ¹ ÎºÎ±ÏĤ
) .
; âĢĿ
n i
o s
Î Ĭ
Î ıÏĥÏĢÎ¿Ïħ
Ġ E
Î± ÏĥÎ·
Î¹ Î¿Ïħ
Î¹ Î»Î¿Î½
Î½ Î¹Î¿
ÏĦ Î¿ÏįÏĤ
Ïģ Î¼Î·
ĠÏĦ Î±Î¹
Î¬ Î³Î¿ÏĤ
Î» Î»Î¹Î¬
Î» Î»ÏĮ
Ïĥ Î¼Î¬
Ïĥ ÏĥÎ¿
Ïĥ Î´Î®ÏĢÎ¿ÏĦÎµ
Î· Î³Î·
Î¯ Ïĩ
Î¯ ÎºÎ¿ÏĤ
Î¯ Î¶Î¿Î½ÏĦÎ±Î½
ĠÎº Î»Ïİ
ĠÏĢ Î¯Î½Î¿ÏħÎ½
ĠÏĢ Î½Î¯
Î¼ ÎµÎ¹ÏĤ
Î¼ ÎŃÏģ
Î¼ Î¿ÏĥÏįÎ½Î·
ĠÎ¼ Î¿Î»Ïį
ĠÎ¼ Î¿ÏĥÏĩÎ¿
ĠÏĥ ÎµÎ½ÏĦ
ĠÎ± Î¼ÏĢ
ĠÎ± ÏĩÎ½
ĠÎ± ÏĦÎµÎ»ÎµÎ¯
ĠÎ± ÏĥÏĦÎ±Î¼Î¬
Ïī Î¼ÎŃÎ½Î±
Ïī Î¼ÎŃÎ½Î·
Ïī Î¸Î±Î½
Ïħ ÏĢÏĮ
ĠÎµ ÏĨÏĦÎ¬
ĠÎµ Î»Î»Î·Î½
Ïĩ ÎµÎ¹ÏĤ
ĠÎŃ ÂµÎµÎ¹Î½Îµ
Î´ ÎŃÏĩ
Î´ Î¿Ïĩ
ĠÏĦÎ· Î½Î±
ÏģÎ± ÎºÎ¿Ïħ
ĠÎ³ Î¿Ïį
ĠÎ³ ÎŃÎ½Î¹Î±
Ïİ ÏĦÎ·ÏĤ
ÏĨ Î¿ÏħÏĤ
ÏĨ ÏīÎ½Î¯Î±
Î½Î± Î³
ÏģÎ¹ ÏĤ
ÏģÎ¹ Î½ÏĮ
ĠÎ¿ ÏģÎ¸
ĠÎ¿ ÏģÎ¯Î¶
ÏĦÎµ Ïģ
ÏĦÎµ ÏĪÎµ
ĠÎ±ÏĢ Î¯ÏĥÏĦÎµ
ÏĦÎ¹ Î½Î¬
ÏģÎ¬ Î³
ĠÎ² ÎŃÎ²Î±Î¹
Î¼Î± ÏĦÎ¯
Âµ Î¯Î±
Âµ Î¿ÏħÏĤ
ĠÎ» ÏħÏĩ
ĠÎ· Î»Î¹Î¿
Î¿Ïģ Î¸Ïİ
ĠÎ® ÏģÏī
ĠÎ® Î¼Î±ÏĥÏĦÎ±Î½
ÎŃÎ½ ÏĦÏģÎ¿
ĠÏĢÎ± ÏĦÎ¬
ĠÎ¼Î± Î¸Î·
ĠÎ¼Î± ÏĦÎ¬ÎºÎ¹Î±
ÏģÎµ ÏĢ
ÏģÎµ ÏįÏĦÎ·ÎºÎµ
Î¹Î¬ ÏĥÏĦÎ·ÎºÎµ
Î»Îµ ÏĢ
âĢ ľ
ĠÎºÎ¬ Î½Î±
ĠÎºÎ¬ ÏĥÏĦ
ĠÎ¼ÏĢ Î¬Î½Î¹Î¿
ÏģÏī Î¸ÎµÎ¯
ĠÎĳ Î³Î¬ÏĢÎ·
ĠÎĳ Î¸Î·Î½
ĠÏĢÎ¿Î» ÎŃ
ĠÏĢÎµ Î»Î¬
ĠÏĢÎµ Î¶Î¿
ĠÎľ Ïħ
ÏĢÎ± Î¯
ĠÂµ ÏĢ
ĠÎķ ÏĨÏĦÎ±ÏĥÏĢÎ¹Î¸Î±Î¼Î®
ÎºÎ¬ ÏģÎ¹
ĠÎºÎ¹ ÏĮÏĥ
ĠÎºÎ¹ Î½Î·
Î³Î± ÏĤ
Î³Î± ÏĢÎ¬
ĠÎł ÎµÏĤ
ĠÎł Î¿ÏįÎ»Î¹Î±
ÎŃÏģ ÏĦÎ±
ÏĮÏĥ ÏĢÎ¹
ÏģÎŃ ÏĪÎ¿ÏħÎ½
ÏģÏĩ Î¹ÏĥÎ±Î½
ĠÏĢÎ¬ Î¸ÎµÎ¹
Î´Î¹ Î¿Îº
ĠÎ£ ÏįÎ½ÏĦÎ¿Î¼Î±
ÏĮÏĦÎµ ÏģÎ·
ÏħÏĩ ÏĦÎ±
Îļ Î¿Î¹
ĠÏģ Î¿Î´Î¿
ĠÎŁ Ïħ
Î¶Îµ ÏħÎµ
Î¼ÏĢ Î¿Ïį
ĠÏĥÏĦÎ± Î¸ÎµÎ¯
ÏİÎ½ Ïī
ĠÏĩÎ± Î¶
ĠÏĩÎ± ÏĦÎ¯
Îĳ Î¼ÎŃÏĥÏīÏĤ
ĠÎĪ Î½Î¹
Î´Îµ ÏħÎµ
Î²Î± Î¶Îµ
ĠÎ¼Î¬ Î¸Î·Î¼Î±
ĠÎĶ ÏģÎ±ÎºÎ¿Ïħ
Î»ÎµÎ¹ Î¬
Îķ Î»Î¬ÏĦÎµ
Î»ÎŃ Î¿Î½
ÏĢÎ¿Ïħ Î»Î¿ÏĤ
Îł ÏĮÏĥÎ¿
Îł ÏģÎ±Î³Î¼Î±ÏĦÎ¹ÎºÎ¬
ÏĢÎ¬ ÏĦÎ·ÏĥÎµ
ĠÎĮ Î»Î·
ĠÎĮ ÂµÏīÏĤ
ĠÎ¬Î½ Î´ÏģÎ±
ĠÎ¾Îµ ÏĩÏİ
ĠÎ¾Îµ ÎºÎ¹Î½
ĠÎ¾Îµ ÎºÎ»ÎµÎ¯
ĠÎºÏĮ ÏĪÎµÎ¹
ĠÎ´Îµ Ïĩ
ĠÎ´Îµ ÎºÎ¬
Î£ ÏĦÎ¿Î½
Î¿ÏĨ Î±
ĠÎºÎ¿ Îº
Î¼Î® ÏĥÎµÎ¹
ĠÎµÎ½ ÏĦÏįÏĢÏīÏĥÎ·
ĠÎ½Îµ Îº
ĠÎ²Î±ÏĥÎ¹Î»Î¹Î¬ Î´ÎµÏĤ
ÏĢÎ¿Ïį Î´Î±
ÏĩÎ½ ÎµÏĤ
ÏĦÏĥ Î¿
ĠÎĴ Î¬Î¹
ĠÏĢÎ¿ ÏĦÎ¯
ĠÎĿ ÏĮ
ĠÎºÎ¿Î¹ ÏĦÏİÎ½ÏĦÎ±ÏĤ
ĠÎºÎ±Î½ Î¬
ĠÎ±ÏĢÎ¿ Î¼ÎµÎ¯Î½ÎµÎ¹
ĠÎ¹ ÏĥÏĩ
ĠÂµÎµ ÏĦÎ±
ĠÂµÎµ Î³Î±
ĠÎ³Ïħ ÏģÎ½Î¿ÏįÏĥÎµ
ĠÏĨÎ¯ Î»
ÎŃÏĨ Îµ
ĠÎŃÎ² Î³Î±Î¹Î½Î±Î½
ĠÏĦÎ¯ Î½Î±
ĠÎ²Î¬ ÏĥÎ±Î½
ĠÎ²Î¬ ÏģÎ¿ÏĤ
ÏĥÏĦÎ· ÎºÎ±
ĠÎºÎµ ÏģÎ±
ĠÏĢÎ±ÏģÎ¬ Î´ÎµÎ¹
ĠÏĢÏģÏĮ ÏĥÏĦÎ±
ĠÏĢÏģÏĮ ÎºÎµÎ¹ÏĦÎ±Î¹
ĠÏĨÏį Î³Î¿ÏħÎ¼Îµ
Î¼Î¹ ÏĥÏĦ
ĠÎµÎ¾ Î®ÏĤ
ÏĨÎ¬ Î»Î¹
ÏĦÎ¿Ïħ ÎºÎ¹Î¬
ĠÎĽ ÎŃ
ĠÎ±ÎºÎ¿Ïį ÏĤ
ÎĶ Î·
ĠÏĩÎ¬ ÏģÎ¹ÏĥÎµ
Î¹Ïĥ ÂµÎŃÎ½Î¿
ĠÎ±Îº ÏĦÎ®
ĠÎºÏĮÏĥ ÂµÎ¿
ĠÎ®Î¸Îµ Î»ÎµÏĤ
ĠÎµÏħÏĩ Î¬
ĠÎ»Î¹ Î¿Î½ÏĦÎ±
ĠÏĢÏģÎ¬ Î¾Î·
ĠÏĢÏģÎ¬ Î¾ÎµÎ¹ÏĤ
ĠÎºÎ¿Ïģ Î¼Î¯
ĠÏĢÎ¹ ÎµÎ¯
ĠÎ´ÏģÏĮ ÂµÎ¿
ĠÎ¾Î±Î½Î± Î²
ĠÎ¾Î±Î½Î± ÎºÎ¿Ïį
ĠÏĢÏģÎ¿ ÏĦÎµ
ĠÏĢÏģÎ¿ ÏĦÎ¹
ĠÎ´Î¹ Î·Î³
ÎļÎ± Î»ÏİÏĤ
ĠÎ¶Î® ÏĥÎ¿ÏħÎ½
ĠÎ»ÏĮ ÏĨÎ¿Ïħ
Î¾Î¹ Î»Î¬
ĠÏĨÏħ ÏĥÎ¿ÏįÏĥÎµ
ĠÎ¼Î¹ Î»Î¿ÏįÏĥÎ±Î½
ĠÏĩÎ±ÏģÎ¬ ÏĤ
ÏģÎ¿ÏĨ ÎŃÏĤ
ĠÎ½ÏįÏĩ Î¹Î±
ÏĥÏĦÎµÎ¯ ÏĤ
ĠÎ¼ÏĢÎ¿ÏģÎµÎ¯ ÏĦÎµ
ÏĢÎ¿Ïģ ÏĦÎ±
ĠÎļÎ¬ ÏĦÏī
ÏĢÎ¬ÏģÏĩ Î¿ÏħÎ½
ÏħÎ¸ Î¿Ïį
ĠÎ±ÏĢÎ¿Îº ÏĦÎ®ÏĥÎ¿ÏħÎ½
ĠÎµÎº ÎºÎ»Î·
ÏĥÎºÎµ ÏĪÎ·
ĠÏĨÎ±Î½ ÎµÎ¯
ĠÏĥÏĦÎµ ÏģÎ¹Î¬
ĠÏĩÎ¿Ïģ ÏĦÎ±
ĠÏĦÏĮ Î»
ĠÏĢÎ±ÏĢÏĢÎ¿Ïį Î»Î·ÏĤ
ĠÎ¿ÏħÏģÎ±Î½ Î¿Ïį
Î¼Ïī Î½Îµ
ĠÎ±ÏĨÎ® ÏĥÏī
ĠÎłÎ± Ïį
ĠÎ±Î³Î±ÏĢ Î¿ÏįÎ½
ÎŃÏĢ ÎµÏĤ
ĠÎ±Î³Î±ÏĢÎ· Î¼ÎŃÎ½Î¿Î¹
ĠÎŃÏĨÎµ ÏģÎ±
ĠÎºÎ¿ÏĢ ÎŃÎ»ÎµÏĤ
ĠÏĥÏī ÏĥÏĦÎ¬
ĠÏĦÏģÎ¿ Î¼Î±
ĠÎºÏħÏģ ÎºÎ¿Ïħ
ĠÎºÏħÎ½Î· Î³Î¬
ĠÎ³ÏħÏģÎ¯ ÏĥÎµÎ¹ÏĤ
ĠÎ²Îµ Î²Î±Î¹
ĠÎ´ÎµÎ¯ Î¾Ïī
ÏĦÏģÎ¹ ÎºÎ®
ĠÎ½ÎŃ Î¿Î¹
Î¸Î¬ Î½Î±
ĠÎ±Î´ÎµÏģÏĨ ÏĮ
ĠÎ¾ÏįÏĢ Î½Î·ÏĥÎ±Î½
ÏģÎ¹Î½ Î¹Î¬
ĠÎ´Î± ÏĩÏĦÏħ
ĠÏĨÏĦÏīÏĩ Î®
ĠÏĦÎµÎ»ÎµÎ¯ ÏīÏĥÎ±Î½
ĠÏģÎ¬ Î¼
ĠÎºÎ±ÏĦÎŃÎ² Î·ÎºÎ±Î½
ĠÎ¼Î±Î½ ÏĦÎ±
ĠÎ±Î½Î¿Î¯ Î³ÎµÎ¹
ĠÏĢÎµÏģÎ¹Î¼ÎŃÎ½ Î¿Î½ÏĦÎ±ÏĤ
ĠÏĦÏĮÏĥ Î¿Î¹
ĠÎ¼Î±Ïį ÏģÎ·
ĠÎ¼ÎµÎ³Î±Î»ÏįÏĦÎµ ÏģÎ¿ÏĤ
ĠÎ³Îº ÏģÎ¹
ĠÎ³Îº ÏģÎ¯Î½Î¹Î±
ĠÎ³Î½Ïİ ÏģÎ¹ÏĥÎµ
ĠÎ²Î³Î¬ Î¶ÎµÎ¹
ĠÎłÎµ ÏģÎ¹
Î»ÎŃÎ½ Î¹Î±
ĠÎ±Î½ÏĦÎ¹ Î´
ĠÎµÎ»Î¬ ÏĦÎµ
ĠÏĮÎ½ÎµÎ¹ ÏģÎ¬
ĠÏĥÏħÎ½ÎµÏĩ Î¯ÏĥÎµÎ¹
ĠÎ±Î¹ ÏĦÎ¯Î±
ĠÎ¿Î»ÏĮÎºÎ»Î· ÏģÎ±
ĠÏĢÎ¯ÏĥÏĦÎµ ÏĪÎµ
ĠÎľÎ¬ Î¾Î¹
ĠÎ»ÏħÏĢÎ· Î¼ÎŃÎ½Î¿ÏĤ
ĠÎ»ÏħÏĢÎ· Î¼ÎŃÎ½Î·
ĠÎºÎ±Î¸Î± ÏģÎ¬
ÎļÎ±Î»Î· ÏĥÏĢÎŃÏģÎ±
ĠÏĦÎ¬ ÏĨÎ¿
ĠÎ´ÏįÏĥÎºÎ¿Î» Î·
ĠÏĥÏħÎ½Î±Î½ ÏĦÎ®
ÏģÏİÎ½ Î¿ÏħÎ½
ĠÏĪÎ¬ÏĩÎ½ ÎµÎ¹
ĠÎ¾Î· Î¼ÎŃÏģÏī
ĠÎ¾Î· Î¼ÎŃÏģÏīÏĥÎµ
ĠÎºÏħÏģÎ¬ ÎºÎ¿ÏħÎºÎ¿ÏħÎ²Î¬Î³Î¹Î±
ĠÎ±Î½Î±ÏĢ ÏĦÎ®ÏģÎ±
ĠÎµÎºÎ± ÏĦ
ĠÎ·ÏĥÏħÏĩ Î¬
ÎłÎ± ÏģÎ±
ĠÎ±ÏĥÏĦÎµ Î¯Î±
ĠÎ²ÏģÎ¯ÏĥÎº ÎµÎ¹
ĠÎ²ÏģÎ¯ÏĥÎº Î¿Î½ÏĦÎ±Î½
ĠÎ½ÏĮÎ¼Î¹ Î¶Î±Î½
ĠÎ±Î½ÏĦÎ± ÏĢÎ¬Î½ÏĦÎ·ÏĥÎµ
ĠÎ±Î³ÏģÎ¹ Î¿Î³
ĠÎ´Î¿ÎºÎ¹Î¼Î¬ ÏĥÎµÎ¹
ĠÎĵÎ± Î»Î®Î½Î·
ĠÎ½ÏħÏĩ ÏĦÎµ
ĠÎ½ÏħÏĩ ÏĦÏİÏĥÎµÎ¹
ĠÎŃÏĢÎ¹ Î±Î½Îµ
ĠÏĥÏħÎ³Îº ÎµÎ½ÏĦ
ĠÏĩÎ¹Î¿Î½ Î¬Î½Î¸ÏģÏī
ĠÏĢÎ»Î¿ÏįÏĥÎ¹ Î¿
ĠÏĢÎµÏĦÎ±Î»Î¿Ïį Î´ÎµÏĤ
ĠÎ²Î¬Î» ÎµÎ¹ÏĤ
ĠÏĢÎ¿ÏĦÎ¬ Î¼Î¹Î±
ĠÎ¼Î¹Î»Î¬ Î½Îµ
ÎłÎ® Î³Îµ
ÎłÎ® Î³Î±Î¹Î½Îµ
ĠÎ£Îº ÎŃÏĨÏĦÎ·ÎºÎµ
ĠÎķÏħÏĦÏħÏĩ Î¯Î±
ĠÎ±Ïĥ ÏĨÎ±
ĠÎ´Î¹Î¬Î²Î± ÏĥÎµ
ĠÎ´Î¹Î¬Î²Î± Î¶Îµ
Î±Î±Î±Î± Î±Î±Î±Î±
ĠÏĥÏĢÎ¿Ïħ Î´Î±
ĠÏĨÏĦÎ¹Î¬ÏĩÎ½ Î¿ÏħÎ½
ĠÎºÎ¿ÏħÏģÎ¬ Î³Î¹Î¿
;" "
ĠÎ¸Î±ÏįÎ¼Î± Î¶Î±Î½
ĠÏĨÎ¿Î²Î¬ ÏĦÎ±Î¹
ĠÎºÎ¿ÏħÎ´ Î¿ÏįÎ½Î¹
ĠÎŃÎºÏĢÎ»Î·Îº ÏĦÎ¿ÏĤ
ĠÎŃÎ¼Î¿Î¹Î± Î¶Î±Î½
ĠÏĥÎ±Î»Î¹Î³ÎºÎ¬ ÏģÎ¹Î±
ĠÎ¾ÎµÎºÎ¹ Î½Î®
ĠÏĨÏģÎ¬ ÏĥÎ·
ĠÎĵÎµ Ïī
ĠÎ´Î¬ÏĥÎºÎ± Î»Î¿ÏĤ
ĠÎ´Î·Î¼Î¹ Î¿ÏħÏģ
ĠÏĦÏĥÎ¹ Î¼ÏĢ
ĠÏħÎ³ ÎµÎ¯Î±
ĠÏĢÎ¿ÏĦÎ® ÏģÎ¹Î±
ĠÎ£ÏīÏĦÎ¯Î³ ÏģÎ·
ĠÏĥÎºÏĮ Ïģ
ĠÎ±Î¾Î¯ Î¶ÎµÎ¹
ĠÏĢÏĮÎ»Îµ Î¼Î¿
ĠÏĦÏģÎ±Î³Î¿ÏħÎ´ Î¿ÏįÏĥÎµ
ÎľÏĢÎ¿Ïģ ÎµÎ¯
ĠÎ¹Î´Î¹Î±Î¯ ÏĦÎµÏģÎ±
ĠÏĢÎ¿Ïģ ÎµÎ¯Î±
ĠÏĢÎ±ÏģÎ±ÏĦÎ· ÏģÎ¿ÏįÏĥÎµ
ĠÎ´Î¬ÏĩÏĦÏħ Î»Î±
ĠÎ±ÏĥÏĦÏģÎ± ÏĢÎ®
ĠÎ»ÎµÎ¯ ÏĢÎµÎ¹
ĠÎłÎ¡ ÎĻÎĵ
ĠÏĥÏħÎ½Î· Î¸
ĠÏĥÏĦÏģÎ¹ ÏĨÎ¿Î³
ĠÎ¿Î½ÏĮ Î¼Î±ÏĦÎ±
ĠÏĥÏħÎ»Î»Î¿ Î³Î¹
ĠÎĳÎ¸Î® Î½Î±
ĠÎĴÎ¹ ÏģÎ³Î¹
ĠÎºÎ±ÏĦÎ¬Î»Î»Î· Î»Î·
ĠÎµÎ³Î³ Î¿Î½
ĠÎ²ÏģÏİ Î¼Î¹Îº
ĠÏĩÏħ Î»ÏĮ
ĠÎ±Î»Î»Î± Î³Î®
ĠÏįÏĪ Î¹Î»Î¿Î½
ĠÎĳÏĢÎ¿ÏĨÎ¬ÏĥÎ¹ ÏĥÎµ
ĠÎ³ÎŃÏģÎ¹ ÎºÎ¿
ĠÏĩÎµÎ¹ÏģÎ¿Îº ÏģÎ¿
ĠÏĢÏģÎ¿ÏĥÏĢÎ± Î¸Î®
ĠÏĥÏĨÏħ ÏģÎ¯
ĠÎ´Î¹Î¬ÏĨÎ¿Ïģ ÎµÏĤ
ĠÏĥÎºÎ¿ÏħÏĢÎ¯ Î´Î¹Î±
ĠÎļÎ¿Î¹ÂµÎ¯ ÏĥÎ·ÏĤ
ĠÎºÎ±ÏģÏħ Î´Î¹Î¬
ĠÎºÎ¬ÏĦÎ¿Î¹ ÎºÎ¿Î¹
ĠÏĢÏģÎ¿Î²Î± ÏĦÎ¬ÎºÎ¹Î±
ĠÎ±Î·Î´ ÏĮÎ½Î¹
ĠÏĩÏģÏħ ÏĥÎ¿
ĠÎ¬ÏĦÎ±Îº ÏĦÎ¿
ÎļÎĻ Îł
ĠÏĨÎ¹Î» ÎµÎ½Î¬
ĠÎµÎ¾ÎµÏģÎµÏħ Î½Î·
ÏĮÎ´Î¿ Î¾
ĠÏĥÏħÎ» Î»ÎŃÎº
ĠÎļÏħÏģÎ¹Î¬ ÎºÎ¿ÏĤ
ÎķÎł ÎķÎĻ
ĠÎºÎ±Î»Î¿ÏĥÏħ Î½Î¬
ĠÎ¿ÏģÎ¯Î¶ Î¿Î½ÏĦÎ±
ĠÎ·Î»Î¹Î¿ Î²Î±
ĠÎºÎ¹ÏĮÏĥ ÎºÎ¹
ĠÎĶÏģÎ±ÎºÎ¿Ïħ Î¼ÎŃÎ»
ĠÎ¾ÎµÎºÎ»ÎµÎ¯ Î´ÏīÏĥÎµ
ĠÎłÎ¡ÎĻÎĵ ÎļÎĻÎł
c o
g m
Î ¨
Î ı
Ġ A
Ġ ge
Î¿ Î¼Îµ
Î¿ Î³Î¹
ÏĦ ÏģÏİ
ÏĦ ÏĮÏĦÎµ
ÏĦ ÏįÏĩ
ĠÏĦ Î®ÏĤ
Î¬ ÏģÏĩÎ¹ÏĥÎµ
Î» Î»Îµ
Î» ÏİÎ½ÎµÎ¹
Ïĥ ÂµÎŃÎ½Î·
Î· Î¼ÎŃÏģÎ±
ĠÎº Î¯Î½
ĠÎº Î»Î±Î¹
Î¿Ïħ ÏģÎ³
ÏĢ Ïħ
Îº ÏĦÎ¹
Îº ÏģÎ¯Î¸Î·ÎºÎµ
ĠÏĢ Î»Îµ
ĠÏĢ Î½Îµ
ÏĮ ÏĦÎ·
ÏĮ Î¼Î¿ÏħÎ½
Î¼ ÏĮÏĥ
ÎŃ ÏĦÏģÎ·
ĠÏĥ Î²Î®
ĠÎ± Î´ÏħÎ½Î±
Ïħ Î»Î±
ĠÎµ Î¹Îº
ĠÎµ ÏģÎ®
Ïĩ Î½Î±
Ïĩ Î¿ÏħÎ½
ĠÏĦÎ¿ Îº
ĠÏĦÎ¿ Î¼Îµ
ĠÎŃ Î»Î¹
Î´ ÎŃ
Î¸ Î¹Î¬
Î¿Ïį Î´Î±
ĠÎ´ Î¯Î½Ïī
ÏĦÎ± ÏĥÏĢ
ÏĦÎ± ÎºÏĮÏĥÎ¹Î±
Ïİ ÏĦÎ±
Ïİ Î»Î·
ĠÏĥÏĦ ÏĮÎ»Î¹
ÏģÎ¹ ÏĦÏĥÎ¬ÎºÎ¹
ĠÎ±ÏĢ ÎµÎ¹
ĠÏĨ Î»Î¹ÏĦÎ¶
ÏĦÎ¹ ÏİÎ½
ĠÏĦÎ± Î¯ÏģÎ¹
ĠÏĦÎ± ÏħÏĦÏĮÏĩÏģÎ¿Î½Î±
ĠÎ¼Îµ Î»Î¹ÏĥÏĥ
Î¶ Î¹Î¬
ĠÎºÎ± Î¼Î±
Î¿Î½ Î¬
Î¾ ÎŃ
ĠÏĢÎ¿Ïħ Î³ÎºÎ¯
Î¿Î¹ Î½Î¹Î¬
ÏĦÎ¬ Î¸Î·ÎºÎµ
ÏĦÎ· Î¾Îµ
Î»Î¹ ÎµÏĤ
ĠÎ¸ ÎµÎ¯
ĠÎ¸ Î¬Î½Î±
Âµ ÏĢ
ÏģÏĮ Î»Î±
ĠÏĢÎ± Î»
ÏĥÏĦ Î¿Î¹
ĠÎ¤ ÎŁÎ¥Î£
Î»Îµ Îº
Î¼Îµ ÏĦÎ±Î¾Ïį
Î¯Î½ Î¹Î±
Î¯Î½ ÏīÏĥÎµ
ÏģÎ¿ Î´Î¯
ĠÎºÎ¬ Ïģ
ĠÎºÎ¬ Î»
ĠÎºÎ¬ Î¼ÏĢÎ¿
ÏĮÎ½ Î¹ÏĥÎµ
ĠÎ¼ÏĢ Î¬Î»Î±
ÏģÏī ÏĥÎµ
ĠÎĳ ÏħÎ³
ĠÎļ ÏħÏĢ
ĠÎļ Î¯Î½Î±
Î½Îµ ÏĦÎµ
ĠÎ±ÏħÏĦ Î¯
ĠÎľ Î¯Î½Ïī
ĠÎľ ÏĮÎ»Ïħ
ĠÎľ ÎµÎ½ÎŃÎ»Î±
ĠÎ±Î½ Î¹
ĠÎ±Î½ ÏĦÎ¬
Î¼ÎŃÎ½ Îµ
Î³Îµ ÏĦÎµ
ĠÎ¶ Î¬ÏĩÎ±
Î¼Î¬ ÏĦÎµÏĤ
ĠÎķ Î½
ĠÎķ ÏĢÎ¯
ĠÎķ Î½Ïİ
ĠÎķ ÏĥÎµÎ¯ÏĤ
ÎºÎ¬ ÎºÎ¹Î±
Î¤ Î·
ĠÎł Î±Î½
ĠÎł Î¿Ïį
ĠÎł ÏģÏī
ĠÎł ÏĮÏĦÎµ
ÎŃÏģ Î½Î±
ĠÏĢÎ¿Î»Ïį ÏĤ
ÏģÎ· Î¼Î±
ÏģÎ® ÎºÎµ
ÏĥÏĦÎµ Î»
ÏĥÏĦÎµ Î¯Î±
ÏģÏİ ÏĥÎµÎ¹ÏĤ
ĠÎ£ ÏĦÎµ
ĠÏģ Î¿Î»ÏĮ
ĠÎŁ ÏģÎ¯ÏĥÏĦÎµ
ĠÎ¼Î¹Îº ÏģÎ¿Ïĥ
ĠÎ±Î» Ïħ
ĠÎ±Î» Î»Îµ
ÏİÎ½ Î¿Î½ÏĦÎ±ÏĤ
ĠÏĢÎ±Î¹ ÏĩÎ½
ĠÏĢÎ® ÏģÎ±
ĠÏĢÎ® Î³Î±
Îĳ ÏĥÏĦÏģÎŃÎ½
Îĳ ÎºÏģÎ¹Î²ÏİÏĤ
Î´Îµ ÏĪÎµ
ÏģÏħ Î¬
ĠÎµÎºÎµÎ¯ Î½Î¿Î½
Î»Î® Î»Î¿ÏħÏĤ
ĠÏĪ Î®
ĠÏĪ ÎµÏį
Î»ÏĮ ÏĢÏģÎµ
Îł Î¬ÎµÎ¹
ĠÎĵ Î»Î±Ïį
ĠÏĢÏĮ ÏĥÎ±
ĠÎ´Îµ Ïħ
ĠÎ±Ïģ ÎºÎµÎ¯
ĠÏĢÎµÏģÎ¹ ÏĢÎ¿Î¹
ĠÏĢÎµÏģÎ¹ Î³ÏģÎ¬
ĠÎ±Ïħ Î»Î¹
ĠÏĢÎ±ÏģÎ± Î»Î¯Î±
Î¼Î® Î¸Î·ÎºÎ±Î½
ĠÎºÎ±ÏĦÎ± ÏĥÎºÎµ
ĠÎ±Î½Î± ÏĥÏĦÎ±
ĠÎ±Î½Î± Î»Î¬Î²
ÏĦÏĥ Î¿Ïħ
ĠÎ´Î¹Î± ÏĦÎ¬
ĠÎ´Î¹Î± ÏĥÏĩ
ĠÎºÎ±ÏĦÎ¬ ÏĥÏĦÎ·Î¼Î±
ĠÎºÎ±Î»Î¬ Î¸Î¹
ĠÏĢÏģÎ¿Ïĥ ÏĦÎ¬
Î´Î¯ ÎµÏĤ
ĠÎ¾Î±Î½ Î±ÏĨ
ÏģÎ¹Î± ÎºÎ®
ĠÎ±ÏĢÎ¿ Î»Î¬Î¼Î²Î±Î½Îµ
Î¿Î½ÏĦÎ¬ Î´ÎµÏĤ
ĠÏĨÎ± Î»Î±Î¹Î½
ĠÎī ÏģÎ¸Îµ
ĠÎī Î¾ÎµÏģÎµ
ÎĿ Î¿Î¼Î¯Î¶Ïī
ÎĿ Î¯ÎºÎ¿ÏĤ
ĠÎĨ ÏĥÎµ
ĠÎ³Î¹ Î±Î½Î±
ÏģÎ±Î½ ÏĮ
ĠÎ²Î¬ Î¶Î¿ÏħÎ½
ÏĢÎ® ÎºÎ±Î½
ĠÎºÎµ ÏģÎ¬
ĠÏĨÏīÎ½ Î¿ÏįÎ»Î±
ĠÏĢÏģÏĮ ÏĦÎµÎ¹Î½Îµ
Î¼Î¹ Î¶Îµ
ĠÎµÎ¾ Ïī
ÏĨÎ¬ Î´ÎµÏĤ
Î¼ÏĮ Î½Î±
ĠÎ±Î³Î± ÏĢÎ®ÏĥÎµÎ¹
ĠÎ±ÎºÎ¿Ïį ÏĥÏī
ĠÎŃÎ»Îµ Î³Î±
ÎĶ Î¹Î¿Î½
ĠÎļÎ± ÏģÎ¬
Î´Î· ÏĥÎµ
Î´Î· ÏĥÎ·
ĠÎľÎ± ÏģÎ¹
ĠÎľÎ± ÏĥÏĦÏģÎ¿ÎĵÎ¹ÏİÏģÎ³Î·
ĠÎ´Î¯ ÏĪÎ±
Î¸Î® ÎºÎ±Î¼Îµ
ĠÎ±Îº ÏĦÎ¯Î½ÎµÏĤ
ĠÎŃÎ´ ÏīÏĥÎ±
ĠÏĢÎµÎ¹ ÏĥÎ¼Î±
ĠÏĢÏģÏİ ÏĦÎµÏĤ
ĠÎ¼Î±Îº ÏģÏħÎ¬
ĠÏī ÎºÎµ
ĠÎ¼Ïħ ÏĦÎµÏģÏĮ
ĠÏĨÎ¿Ïģ ÎŃÏĥÎµÎ¹
ĠÏĨÎ¿Ïģ ÎŃÎ¼Î±ÏĦÎ±
ĠÎ¼ÏĢÎ¿ÏģÎ¿ÏįÏĥÎµ ÏĤ
Î¸Î¹ ÏĥÎ¼ÎŃÎ½Î·
ĠÎ¦ Î¿Ïį
ĠÎ¦ Î»Î¿ÏģÎ¹Î¬Î½
ĠÏĥÎ± Î»ÏĮÎ½Î¹
ÏĦÏģÎ¿ Î¯
ĠÎ¾Î±Î½Î± Îº
ĠÎ¾Î±Î½Î± ÏģÏİÏĦÎ·ÏĥÎµ
ĠÏĢÏģÎ¿ ÎºÎ±
ĠÎ´Î¹ ÎµÏħÎ¸ÏħÎ½
ÏĨÎ±Î½ Î¯ÏĥÏĦÎ·ÎºÎµ
ĠÏĨÎ¬ Î¼Îµ
Î¤Î¹ ÏĤ
Î¯Î¿Ïħ ÏģÎµ
ĠÏĦÏģÎ± Î²Î®
ĠÏĨÏħ ÏĥÎ¬
ĠÏĪÎ· Î»ÏĮÏĤ
ĠÎĴÎ± Î»ÎŃ
ĠÏĢÎ»Î· ÏģÎ¿ÏĨ
ĠÏĢÎ»Î· Î³Ïī
ĠÎ´Ïİ Î¸Îµ
ĠÎŃÏģÎ¸ Ïī
ĠÏĢÏģÎ±Î³Î¼Î± ÏĦÎ¹ÎºÎ®
ĠÏĢÎ±Î¯ Î¾Ïī
ĠÏĢÎ±Î¯ Î¾Î¿ÏħÎ½
ĠÎ¾Ïį Î»Î¿
Î¶Î± Î¼Îµ
ĠÎµÏĢ Î¿ÏĩÎ®
ĠÏĨÏĮ ÏģÎ±
ÎºÎ¯Î½ Î¿
ĠÎ±ÏĢÎ¿ÏĨÎ¬ÏĥÎ¹ ÏĥÎ±
ÎµÏį ÎµÎ¹
ĠÏĨÎ±Î½ Îµ
ĠÏħÏĢ Î¿Ïĩ
ÏĢÎ»Î· ÎºÏĦÎ¹ÎºÎ¬
ĠÎĻ Î¿Ïħ
ĠÏĩÏİ Î¸Î·ÎºÎµ
ĠÎ¶Îµ ÏĥÏĦÎ¬
ĠÏĦÏĥ Î¬Î¹
ĠÏĦÏĥ ÎŃÏĢÎµÏĤ
ĠÎºÎ±ÏĦÎŃ Î²Î±ÏĥÎµ
ĠÎ¿ÏħÏģÎ±Î½ ÏĮÏĤ
ĠÎ±ÏĨÎ® ÏĥÎµÎ¹ÏĤ
ĠÎłÎ± ÏģÎ¬
ĠÏĨÏĦÎ¹Î¬ Î¾Î¿ÏħÎ½
ĠÎºÎ»ÎµÎ¹ Î´Î¹Î¬
ĠÏĥÏī ÏĥÏĦÎ®
ĠÏĨÎ¿Î² Î®Î¸Î·ÎºÎµ
ĠÏĢÎµÏĦÎ¬ Î¾ÎµÎ¹
ĠÎ±Î³ÎºÎ±Î»Î¹Î¬ ÏĥÎµÎ¹
Î§ Î±
Î§ ÏīÏģÎ¯ÏĤ
ĠÏĨÎ¹ Î»Î¿
ĠÎºÏħÏģ ÎĶÎ¹Î¿Î½
ĠÎ²Îµ Î»Î¿Ïį
ĠÎ²ÏĮ Î»Î¿
ĠÎ´ÎµÎ¯ ÏĢ
ĠÎ»ÎµÏĢ ÏĦÎ¿
ĠÎ¬Î³ Î³Î¹
ĠÎ³Î¿Ïħ Ïģ
ĠÏĢÎ±ÏģÎŃ ÏĥÏħ
ĠÏĩÏĦÏħ ÏĢÎ®
ÏģÎ¹Î½ ÏĮÏĤ
ĠÏĢÏį Î»Î·
ĠÏĨÏĦÏīÏĩ ÏĮ
ĠÎ¼Î¬Î³Î¹ÏĥÏĥÎ± ÏĤ
ĠÏĥÎ¯Î³Î¿Ïħ ÏģÎ·
ĠÎ¼Î¹ÎºÏģÎ¿Ïį ÏĤ
ĠÎ¼Î¹ÎºÏģÎ¿Ïį Î»Î·ÏĤ
ĠÏĢÎ±Î½ÏĦÏģÎµ ÏįÏĦÎ·ÎºÎµ
ÏĦÏįÏĢÎ· ÏĥÎµ
ĠÏĢÎ»Î·ÏĥÎ¯Î± ÏĥÎ±Î½
ÏģÎµÏħ ÏĮÏĦÎ±Î½
ĠÂµÎ¹Îº ÏģÏĮÏĤ
ÏĬ Î´
ĠÏĦÏģÎ±Î³Î¿Ïħ Î´Î¹
ĠÏĦÎ¿ÏĢ Î¿ÏħÎ»Î¬ÎºÎ¹
ĠÎ±Î¹ Ïĩ
ĠÏĩÏģÎµÎ¹Î¬ Î¶Î¿Î½ÏĦÎ±Î¹
ĠÎºÎ¿Î¹Î¼Î· Î¸Î¿ÏįÎ½
ĠÏĥÏĦÎŃ Î¼Î¼Î±
ĠÎ³Î¿Ïģ Î³ÏĮÎ½ÎµÏĤ
ĠÏĦÏģÎµ Î»Î¬
ĠÎ³ÏģÎ± Î¯Î±
ĠÎ¬ÏĥÏĩÎ· Î¼Î·
ĠÎµÏħÏĦÏħÏĩÎ¹ ÏĥÎ¼ÎŃÎ½Î¿Î¹
ĠÏħÏĢÎ¿ Î¼Î¿Î½
ĠÎŃÎ¶ Î·ÏĥÎµ
Î½Î¯ ÎºÎ·
ĠÏĪÎ¬ÏĩÎ½ ÎµÎ¹ÏĤ
ĠÎ¾ÏīÏĦÎ¹ÎºÎ¬ ÎºÎ¹Î±
ĠÎºÏģÎŃ Î¼Î±
ÏĨÎ® ÏĥÏĦÎµ
ĠÎĽÎ¿Ïħ ÎºÏģÎ·ÏĦÎ¯Î±
ĠÎ¼Î¬Î¸ ÎµÎ¹ÏĤ
ĠÏĥÏĦÎµÎ½ ÏĮ
ÎłÎ± ÏĢÏĢÎ¿Ïį
ĠÏĨÎ±Î½ÏĦÎ± Ïĩ
ÏĥÏĮ ÏĢÎ¿ÏħÎ»Î¿ÏĤ
Î¸Î±Î½ ÏĮÏĦÎ±Î½
ĠÏĢÎ¬Ïģ Î¿ÏħÎ¼Îµ
ĠÎ¿Î¹ÎºÎ¿Î³ÎŃÎ½ÎµÎ¹ Î±ÏĤ
ĠÏĥÎ¿ÎºÎ¿Î»Î¬ ÏĦÎµÏĤ
Î¿Î»Î¿ Î³Î¹
ĠÎ±ÎºÎ¿Ïħ Î¼ÏĢ
ĠÏĥÎºÎ»Î· ÏģÏĮ
Î´Ïį Î½Îµ
ĠÎļÏħ ÏģÎ¹Î±ÎºÎ®
ĠÏĩÎ¹Î¿Î½ Î¹Î¿Ïį
ĠÏĦÎ±Î¾Î¹ Î´Î¹
ĠÎ¼ÎŃÎ»Î¹ ÏĥÏĥÎµÏĤ
ĠÏĢÎ±ÏģÎ±ÎºÎ¬ ÏĦÏī
ĠÎ³ÎµÎ»Î¬ ÏĥÎµÎ¹
ĠÎ¿Î»Î¿ Î¼ÏĮÎ½Î±
ĠÎ¬Î½Îµ Î¼Î¿
ÎºÎ±ÏĦÎ¬ Î»Î±Î²Îµ
ĠÏĥÏħÎ½Î® Î¸Î¹Î¶Îµ
ĠÏĢÎµÏģÎ®ÏĨÎ±Î½ Î±
ĠÏĥÏĢÎ¿Ïħ Î´Î¬
ĠÏĢÏģÎ¹Î³ÎºÎ¹ ÏĢ
ĠÎŃÎ¾ÏħÏĢ Î½Î¿
ĠÎ±ÏĢÎ¿Î¼Î± ÎºÏģÏħÎ½
ĠÎĨÎ½ Î½Î±
ĠÎ±ÎºÎ¿Î»Î¿Ïį Î¸Î·ÏĥÎ±Î½
ĠÎ¿Î´Î·Î³ Î¿ÏįÏĥÎµ
ĠÎ¿Î´Î·Î³ Î¯ÎµÏĤ
ĠÎ¼Î±Ïģ ÎºÎ®
ĠÎºÏģÏħÏĨ ÏĦÏĮ
ĠÎºÏģÏħÏĨ ÏĦÎµÎ¯
ĠÏĢÎŃÏĨ ÏĦÎ¿ÏħÎ½
ĠÏĢÏģÎ¿ÏĩÏī ÏģÎ¿ÏįÏĥÎµ
ĠÏĢÎ»Î·ÏĥÎ¹Î¬ ÏĥÎµÎ¹
ĠÏĢÎ»Î·ÏĥÎ¹Î¬ Î¶ÎµÎ¹
ĠÎºÎ±ÏģÎŃ ÎºÎ»ÎµÏĤ
ĠÎ³Î±Î»Î¬ Î¶Î¹Î¿
ĠÎ£ÏīÏĦÎ® ÏģÎ·
ĠÎĳÏĨ ÏģÎ¹ÎºÎ®
ĠÎĳÏĨ ÏģÎ¿Î´Î¯
ĠÏĦÎ¹Î¼Ïī ÏģÎ¯Î±
ĠÎ±Î½Î¸ÏģÏī ÏĢÎ¿ÏĨ
ĠÎºÏĮÎºÎ¿ ÏģÎ±
ĠÎµÏħÎ³ÎµÎ½ Î¹ÎºÎ¬
ĠÏĥÏĦÎµÎ¯ Î»ÎµÎ¹
ĠÎĳÎºÏĮ Î¼Î±
ĠÏĦÎ±Î¾Î¯Î´Îµ ÏħÎµ
ĠÎ±Î½Î®ÏĥÏħÏĩ Î¿ÏĤ
ÏģÎ³Î¿Ïħ ÏĥÏĮÏĢÎ¿ÏħÎ»Î¿ÏĤ
ĠÎ¼ÏħÏģÎ¼Î® Î³ÎºÎ¹
:âĢ ľ
ĠÏĨÎ¿Ïį ÏĦÎµÏģ
ĠÎŁÏģÏĨ ÎŃÎ±ÏĤ
ÎłÎ¬ Î¼Îµ
ÎºÎ¿Î¼ ÎµÎ¯Î¿
ĠÎŃÎ½Î¿Î¹ ÏīÏĥÎµ
ĠÎĺÏī Î¼Î¬
ĠÎ³ÎŃÎ¼Î¹ ÏĥÎ±Î½
ĠÎ³ÎŃÎ¼Î¹ Î¶Îµ
ĠÎ±Î¹ÏĥÎ¸Î¬Î½ Î¸Î·ÎºÎµ
ĠÎµÏĦÎ¿Î¯ Î¼Î±ÏĥÎµ
ĠÎ´Î¿ÏħÎ»ÎµÏį ÎµÎ¹
ĠÎľÏĢÎ¹Î¶ ÎŃÎ»Î·
ĠÎ¾ÎŃÏĨ ÏīÏĦÎ¿
ĠÎľÎ¬Ïģ Î»Î±
ĠÎºÎµÏĨÎ± Î»Î¬ÎºÎ¹
ĠÎ±Î½Î¸ÏģÏİÏĢÎ¹ Î½Î·
ĠÎ½ÏĦÎ¿ÏħÎ»Î¬ ÏĢÎ¹
ĠÎ¼ÎµÏĦÎ±Î½ Î¹
ĠÎ¼Î¿ÏħÏģÎ¼Î¿Ïį ÏģÎ¹ÏĥÎµ
ĠÏĨÎ¿Î²Îµ ÏģÏĮ
Î¿ÏĥÏĦÎ± Î»
ĠÏĢÎ±Î½ÏĦÏģÎµÏħÏĦ Î¿ÏįÎ½
ĠÏĦÎ·Î»Îµ ÏĮÏģÎ±ÏĥÎ·
ĠÎ±ÏħÏĥÏĦÎ· ÏģÏĮ
ĠÎºÎ¿ÏģÏĮÎ¹Î´Îµ ÏħÎ±Î½
ĠÏĢÎŃÏĦÏģÎ¹ Î½Î¿
ĠÎ¼Î¿Î½ÏĮ ÎºÎµ
ĠÎµÏħÏĩÎ±ÏģÎ¯ÏĥÏĦÎ· ÏĥÎ·
ĠÏĥÏĦÎ® Î¸Î¿ÏĤ
ĠÎ¬Î³Î³Îµ Î»Î¿ÏĤ
ĠÎļÎ¹Î½ÎŃÎ¶ Î¿ÏĤ
ĠÎ¾ÎµÏĩÎ½ Î¬ÏĤ
ĠÎĽÎ¬Î¶Î± ÏģÎ¿ÏĤ
ĠÎºÎ¿ÏĩÏį Î»Î¹
ĠÎĳÏĢÏĮÎ»Î»Ïī Î½Î±
ĠÎ±Î½ÏħÏĢÎ¿Î¼Î¿Î½ Î·ÏĥÎ¯Î±
ĠÏĢÎµÏģÎ¹ÏĢÎŃÏĦÎµÎ¹ ÎµÏĤ
ĠÎ±Î³Îµ Î»Î¬Î´Î±
ĠÎ¼ÏĢÎ¹Î¶ ÎŃÎ»Î¹Î±
ĠÎĳÏħ Î³Î¿Ïħ
ĠÎĶÏĮÎ³Î· ÏĤ
ĠÎºÏĦÎ® Î¼Î±
ĠÏĥÏĦÎ±Ïħ ÏģÏĮ
ĠÎ½Î¿Î¹ÎºÎ¿ ÎºÏħ
ĠÏĩÏĦÎ±ÏĢÎ¿ Î´Î¬ÎºÎ¹Î±
ck gm
ol os
ĠÎ´Î¿Îº Î¯
ĠÎ±ÏĢÎŃÎº ÏĦÎ·ÏĥÎµ
ĠÎĳÎ»ÎºÎ·ÏĪÎ± ÏģÎ¿ÏįÎ»Î·ÏĤ
ĠÎºÎ±Î¸Î¬ ÏģÎ¹ÏĥÎµ
ĠÎ±Î½Î±ÎºÎ¿ Î¯Î½ÏīÏĥÎµ
ĠÎļÎ±ÏģÎ´Î¿ÏįÎ»Î± ÏĤ
ĠÎµÎ½ÏħÎ´ ÏģÎµÎ¯Î¿
ĠÎºÎ±ÏģÎ¿ ÏĦÎ¬ÎºÎ¹Î±
ÎķÏħÏĦÏħÏĩ ÏİÏĤ
ĠÏĦÎ±ÏĩÏį ÏĦÎ·ÏĦÎ±
ĠÎ¦Î¹Î»Î± ÏģÎ¬ÎºÎ¿ÏĤ
ai l
ĠÎ¿ÏĢÏī ÏĥÎ´Î®ÏĢÎ¿ÏĦÎµ
ĠÏĨÎ¿Î¹ ÏĦÎ·
ÂµÎ¿Î³ ÎŃÎ»Î±ÏĥÎµ
ĠÎ¼Î±ÏĦÎ±Î¹ ÏĮÎ´Î¿Î¾
ĠÎ¼Î±ÏĩÎ± Î¯ÏģÎ¹
ĠÏħÎ¹Î¿ Î¸Îµ
ÏĦÎŃÎ² Î·ÎºÎµ
ĠÎ´Î¹Î±ÎºÎ¿ÏĢ ÎŃÏĤ
ĠÏĥÏħÎ³Î³ÎµÎ½ ÎµÎ¯ÏĤ
ni ckgm
ĠÎºÎ¬ÏĥÏĦ ÏģÎ¿Ïħ
ĠÎĳÎ¸Î·Î½ Î¬
ĠÎ»Î¹Î¿Î½ÏĦÎ± ÏģÎ¹Î¿Ïį
ĠÎºÏħÏģÎºÎ¿Ïħ ÎºÎ¿ÏħÎ²Î¬Î³Î¹Î¿ÏĤ
ĠÏģÎ¬Î¼ ÏĨÎ¿ÏĤ
ĠÎ±Î³ÏģÎ¹Î¿Î³ Î¿Ïį
ĠÎĵÎµÏī ÏģÎ³Î¿ÏħÏĥÏĮÏĢÎ¿ÏħÎ»Î¿ÏĤ
co m
Ġge olos
ĠÎ¼Î¹ÎºÏģÎ¿Ïĥ ÎºÎ¿ÏĢ
nickgm ail
Ġgeolos nickgmail
" ;
) ,
; ;
Ġ W
ĠÎ Ħ
Î± ÎºÎ¿Ïį
Î¿ Î´Î·
Î¹ ÏĥÎ±
Î¹ Î¶ÏĮÏĦÎ±Î½
Îµ Î³Ïİ
Î½ ÏħÎ¼Î±
Î½ ÏĮÎ½ÏĦÎ¿ÏħÏĥÎ±Î½
Ïģ Î½Î±
Ïģ Î·Î½
Î» ÏĢ
Î» Î¼Î±
Î» ÎºÎ¹
Ïĥ ÎºÎ±ÏĤ
Î¯ Î»Î·ÏĥÎµ
ĠÎº Î»ÏĮ
ĠÎº ÎŃÏĨ
ĠÎº Î¯ÏĥÏĥÎ±
ÏĢ ÎµÎ½
ÏĢ ÎµÎ¯
ÏĢ ÏģÎ¿ÏĤ
ÏĢ Î¬Î½ÏĦÎ±
ÏĮ ÏĢÏīÏĤ
Î¼ ÎŃÏĤ
Î¼ ÏĮÎ½Î¿
Î¼ Î¹ÎºÎ±
ÎŃ ÏĦÏĥÎ¹
Î±Î¹ Î½Î±
ĠÎ¼ Î¬Î½
ĠÎ¼ ÏįÏģÎ¹Î¶Îµ
ĠÎ± Î¼Î¬
Ïī Î¼ÎŃÎ½Î¿
ĠÎµ ÏįÏĩ
ĠÎµ ÏħÎ¸
Ïĩ Î¿Ïģ
ĠÎ½ ÏĦÎ¿
ĠÎ½ ÏĦÏģÎŃ
ĠÎŃ Î»ÎºÎ·
Î´ Î¿Ïĥ
Î´ Î¹ÎºÎ¬
Î´ Î¹ÎºÏĮ
ĠÎ½Î± Ïħ
ĠÎ½Î± Î²
Î¸ ÎŃÎ»
ĠÎ´ ÏģÎ±
ĠÎ³ ÎŃÏĨ
ÏĨ Î±Î¹
ÏĨ ÏĦÎ·ÎºÎ±Î½
ÏģÎ¹ ÏĥÏĦÎµÎ¯
ĠÎµÎ¯ ÂµÎ±Î¹
ĠÏĨ Îµ
ĠÏĨ Î¸Î¬
ĠÏĨ ÎŃÏģÎµ
ĠÏĨ Î»Î¿Î³
ĠÏĦÎ± ÏģÎ¬
ĠÎ¼Îµ Î¸Ïħ
ĠÎ¼Îµ Î¯Î½Î¿ÏħÎ½
ĠÎ¼Îµ Î¯Î½ÎµÎ¹ÏĤ
Î² ÏĮÏĦÎ±Î½
ÏģÎ¬ Î»Î»Î¹Î±
ĠÎ² Î¿Ïį
ĠÎ² Î´Î¿
ĠÎ² Î³Ïī
ĠÎ² ÎŃÎ»Î·
ÎµÎ½ Îµ
ÎµÎ½ Î½Î¿
Î»Î± Î¯
Î»Î± ÏĪÎµ
Î»Î± ÏĩÏĦÎ¯
Î¾ ÏħÎ»Î¿ÎºÏĮ
ĠÏĢÎ¿Ïħ Î»Î¬
ÏĦÎ¬ Î¾ÏĦÎµ
Î»Î¹ ÏĮ
Î¼Î± Î¶Îµ
Âµ Î±Î½
Âµ Î¿Ïį
ĠÎ· Î¼Îµ
ÏģÏĮ Î½Î±
ÏģÏĮ Î½Î·
ĠÎ³Î¹Î± ÏĦÏģÎ¿Î¯
Î¬Î½ Î¿ÏħÎ½
ÎºÎµ ÏĦÎ±Î¹
ÎºÎµ ÏĨÎ¬Î»Î¹
ĠÏĥÏĦÎ¿ Î¯Ïĩ
ÏħÏĦ Î®ÏĤ
ĠÎ¼Î± Î¸Îµ
ÏĢÎµ ÏĦÎ±
ÏĢÎµ ÏĥÎµ
ĠÎ´ÎµÎ½ ÎµÎ¯ÏĩÎµ
ÏĥÏĦ Î¯
ĠÎ¤ Î¿Ïį
ÏĩÎµ ÏĦÎ±Î¹
Î»Îµ ÏĥÎ±Î½
Î»Îµ ÏĪÎ±Î½
Î¯Î½ Î¿ÏĤ
Î¯Î½ Î¿Î½ÏĦÎ±Î¹
ĠÎºÎ¬ ÏĦÎ±ÏĥÏĢ
ÎºÎ± ÏģÎ¿ÏĤ
ĠÎĳ Ïģ
ĠÎĳ Î¯
ĠÎĳ Î³
ĠÎĳ ÏįÏģÎ¹Î¿
ĠÎĳ ÏģÎ¯ÏīÎ½
ĠÎĳ Î³Î±ÏĢÎ¬
ĠÎļ Î¬Î½ÏĦÎµ
ÎºÏĮ Î¼Î·
ĠÏĥÎµ Ïģ
ĠÎ±Î½ ÏĦÎ·
ÏĢÎ± Ïģ
ĠÂµ ÎŃÏģÎµÏĤ
ĠÂµ Î¿Î½Î±
ÏĢÎ¿ Î½Î±
ĠÎķ Î¾
ÎºÎ¬ Î¸Î±
ÏĦÎ¿ Î¼Î±Î¹
ĠÏĥÏħ Ïģ
ĠÏĥÏħ Î³ÎºÎ¹
Î¤ Î¿Ïħ
ĠÎł Î»Î¿Ïį
ĠÎł Î»Î·ÏĥÎ¯Î±ÏĥÎµ
ĠÎ²Î± Î¸ÎµÎ¹Î¬
ÎºÎ±Î½ Î±
ÏģÏĩ Î±
ÏģÏĩ Î·
ĠÎ£ Î¯
ĠÎ£ ÎºÎµÏĨ
ĠÎ¬Î» Î»ÏīÎ½
ĠÎ±Î» Î¿Î¹
ĠÎ±Î» Î»Î®Î»Î¿ÏħÏĤ
ĠÏĩÎ± Î»Î¯
ĠÏĩÎ± ÏģÎŃÏĤ
ĠÏĩÎ± ÂµÎ¿
ĠÏħ Î»Î¹ÎºÎ¬
ÏĢÎ¯ ÏĦÎ¹
Îĳ ÏĢÎ¿
ĠÎĪ ÏĪÎ±
Î´Îµ Ïĩ
Î²Î± Î»Î±Î½
ÎºÎ¿Ïħ ÏĨÎ¹
ĠÏĪ ÎŃÎ»
ÏĢÏĮ ÏĦÎ±Î½
Îķ ÏħÏĩÎ±ÏģÎ¹ÏĥÏĦÏİ
ĠÎ±Î»Î»Î¬ Î¶Î¿ÏħÎ½
Îł Î¿Î»
Îł ÏīÏĤ
Îł ÏģÎ¿Ïĩ
Îł Î¿ÏĦÎŃ
ÎºÎ¿Ïį ÏĥÎ±Î½
ĠÎ¼ÎµÎ³Î¬ Î»ÏīÏĥÎ±Î½
ÏĦÎŃ ÏĪÎµÎ¹
ĠÎ¾Îµ ÏĢÏģÏĮ
ĠÎ¾Îµ ÎºÎ¿ÏįÏģÎ±
ĠÎºÎ¿Ïħ Ïģ
ĠÎºÎ¿Ïħ ÏĦÎ¹Î¬
ĠÎºÎ¿Ïħ ÏĦÎ¬ÎºÎ¹
Î¼Î· ÏĥÎ±Î½
ĠÎ±Î³ Î±Î½Î±
ĠÎĺ Î¿Î´Ïī
ÏĦÏĮ Î¼Î¿Ïħ
ĠÎ±Ïģ Î³Î®
ĠÏĢÎ±ÏģÎ± Î³Ïī
ĠÎºÎ¿ ÏĦÎ¿ÏįÎ»ÎµÏĤ
ĠÎºÎ¿ ÏģÎ¬Î»Î»Î¹Î±
ĠÏĦÎµ Î¼ÏĢ
ĠÎ³Îµ Î»Î±
ĠÎ³Îµ Î»Î¿ÏįÏĥÎµ
ĠÎ³Îµ Î»Î¬ÎµÎ¹
ĠÎºÏħ Î»Î¿ÏįÏĥÎµ
ĠÎºÎ±ÏĦÎ± ÏĢÎ¹
Î¬Ïĥ ÏĦÎ¹ÏĥÎµ
ĠÎ±Î½Î± ÏĥÏĦÎµ
ĠÏĨÎ¿ÏģÎ¬ ÎµÎ¹
ĠÎĿ ÏĦÎ¬Î½Î¹
ĠÎºÎ¿Î¹ Î»Î¯ÏĦÏĥÎ±
Î´Î¯ ÏĥÏĦÏģÎ±
ÏĢÎŃ ÏĥÏĦÏģÎµ
ĠÎ¹ Î´Î¹Î¿Îº
ĠÎķÎ¯ ÏĥÏĦÎµ
Î´Ïİ ÏĥÎµÎ¹
Î´Ïİ ÏĥÎµÎ¹ÏĤ
ÏĥÏĦÎ± Î¶Îµ
ĠÎºÎ±Î» Ïī
ĠÎºÎ±Î» ÎŃÏĤ
ĠÏĨÎ¯ Î»ÎµÏĤ
ĠÎµÏĢÎ¹ ÏĩÎµÎ¹
ĠÎµÏĢÎ¹ ÏĦÏħÏĩÎ¯Î±
ĠÎī Î¼Î¿ÏħÎ½
ĠÎī Î»Î¹Î¿ÏĤ
Î¿Ïĩ Î®ÏĤ
ĠÎĨ Î»Î»Î±
ÏĥÎº ÎµÏĤ
ĠÎŃÏĢ Î»Îµ
ĠÏĮÎ¼Î¿ÏģÏĨ ÎµÏĤ
ÏģÎ±Î½ Î¯Î¿
ĠÎ²Î¬ Î¸Î·
ĠÎ²Î¬ Î¶Î±
ĠÎºÎµ ÏģÎ¬ÎºÎ¹Î±
ĠÏĨÏį ÎºÎ¹Î±
ĠÎĽ ÏĮ
ĠÎ±ÎºÎ¿Ïį Î³ÎµÏĦÎ±Î¹
ÏĨÎµ Ïį
Î½Î¬ Î´ÎµÏĤ
ĠÎ´ÎŃÎ½ ÏĦÏģÏīÎ½
ĠÎ±ÏģÏĩ Î¹
ĠÎľÎ± Î»Î¬
ĠÏĩÎ¬ Î»ÎºÎ¹
ĠÏĥÏħÎ¼ ÏĨÏİÎ½Î·ÏĥÎ±Î½
Î¸Î® ÎºÎµÏĤ
ĠÎ»Î± ÏĩÏĦÎ¬
Î¹Ïĥ Î¼ÏĮ
ĠÏĥÏĩ Î·Î¼Î±
ĠÏĩÏģÏĮÎ½ ÏīÎ½
ĠÎľÎµ Î³Î¬
ĠÎ»Ïį ÎºÎ¿Î¹
ĠÏĢÎ¹ Î¬Î½ÎµÎ¹
ĠÎºÎ±Ïģ Î´Îµ
ĠÎºÏģÎ± ÏĦÎ¬ÎµÎ¹
ĠÏĥÏħÎ½ÎŃÏĩ Î¹Î¶Î±Î½
ĠÎ¼Ïħ Î»ÏīÎ½
ĠÎ¼Ïħ ÏĥÏĦÎ¹ÎºÎ¬
Î¹ÎºÎ® ÏĤ
ĠÎ¦ Î¯
ĠÏĥÎ± ÎºÎ¿ÏįÎ»Î±
ĠÎµÎ¼ ÏĨÎ¬Î½
ÎľÎ± Î¼Î¬
Î³ÏĮ ÏģÎ¹
ĠÏĢÏģÎ¿ Îµ
ĠÏĢÏģÎ¿ ÎµÎ¹Î´
ÏĩÏī ÏģÎ¯ÏĤ
ĠÎ³Î¯Î½ Î¿ÏħÎ¼Îµ
ĠÎºÎ¬ÏĢÎ¿Î¹ Î¿Ïħ
ĠÎ¼ÎµÏĦÎ± Î²Î³Î¬
ĠÎ´ÎµÎ¹ Î»Î¬
ĠÎ¸Ïħ ÂµÏī
ĠÎºÎ¿ÏģÎ¹ ÏĦÏĥÎ¬ÎºÎ¹Î±
ĠÎ·Î¼ÎŃÏģÎ± ÏĤ
ĠÏĪÎ· Î»
ĠÂµÎ± Î³Î¹ÎºÏĮ
ÎĽ Î¿Ïħ
ÎĽ ÎŃ
ĠÎŃÏģÎ¸ Î¿ÏħÎ¼Îµ
ĠÎ¼ÎµÎ³Î± Î»ÎµÎ¹
ĠÎ¼ÎµÎ³Î± Î»ÏĮÏĢÏģÎµ
ÂµÎµ Î½Î±
ĠÎŃÏĦÏģÎµ Î¼Îµ
ĠÎ³Î¿Î½ Î¹
ĠÏĥÎºÎµ ÏĢÎ±
ĠÏĥÎºÎµ ÏĢÎ®
ÏĩÎ¿ Î¼Î±Î¹
ÏģÎ³ Î¯
Î½Î¿Î¹ ÎµÏĤ
ĠÎĳÏĢÏĮ ÏĥÏĦÎ¿Î»
ĠÎ±ÏĢÎ¿Îº ÏĦÎ®ÏĥÎµÎ¹
ĠÎ¶Î· ÏĦÎ¿ÏįÏĥÎ±Î½
ĠÎ²Î±ÏĥÎ¯Î»Î¹ÏĥÏĥÎ± ÏĤ
ĠÏĨÎ±Î½ Î¬ÏģÎ¹
ĠÏĦÏģÏĮ Î¼Î¿
ĠÎºÎ±ÏĦÎ±Î»Î¬Î² Ïī
ĠÏĢÎ±Î¹Î´ Î¹ÎºÎ®
ĠÎºÏģÏį ÏĪÎµÎ¹
ĠÎĻ Î¬Î½Î¸Î·
ĠÎ±ÏĢÎ± ÏģÎ±Î¯
ĠÎ¬ÏĨ Î·Î½Î±Î½
ĠÏĢÎµÏģÎ¹ÏĥÏĥÏĮÏĦÎµ ÏģÎ¿Î¹
ĠÏĦÏĮ Î¾
ĠÎ¿Î»ÏĮ Î»ÎµÏħ
Î»Î»Î¿ Î¯
ÂµÎ¬ ÏĦÎ¹
ĠÎ±ÏĨÎ® Î½ÎµÎ¹
ĠÎ£ÏĦÎ± Î¼Î¬
ĠÎ£ÏĦÎ± Î»Î±ÏĩÏĦÎ¯
ĠÏĨÏĦÎ¬ ÏĥÎµÎ¹ÏĤ
ĠÏĨÏĦÎ¬ Î½Î¿ÏħÎ½
ĠÎºÎ¿ÏħÎ½ ÏİÎ½ÏĦÎ±ÏĤ
ĠÎ¼Î® Î»Î±
ĠÏĥÏįÎ½ ÏĦÏģÎ¿ÏĨ
ĠÎ¼Î¿Î½ Î¿
Î§ Î¬
ĠÏĨÎ¹ Î»Î±
ĠÎºÎ»Î¿Ïħ Î²Î¬ÎºÎ¹
ĠÎºÎ»Î¿Ïħ Î²Î¹Î¿Ïį
ĠÎ»Ïħ ÏĢÎ®
ÎĨ ÏģÏĩÎ¹ÏĥÎµ
ĠÏĢÎ¹Î¬ ÏĥÎ¿ÏħÎ½
ĠÏĢÎ¹Î¬ ÏĥÏĦÎ·ÎºÎµ
ĠÎºÏħÎ½Î· Î³Î¿Î¯
ĠÎ³ÎµÎ½ Î½Î·Î¸ÎµÎ¯
ĠÎ³Î½Ïī ÏĥÏĦÏĮ
ĠÏĢÎ±ÏģÎ±Î¼ ÏħÎ¸Î¹
ÏģÎŃÎ½ Î¹Î±
ÏĥÏħ Î½
Î»ÏīÎ½ ÏĮÏĦÎ±Î½
ĠÎŃÎ½Î¹ ÏīÎ¸Î±Î½
ĠÏĢÏħ ÏģÎµ
ĠÎ´Î· Î»Î·
ÎķÎºÎµÎ¯ Î½Î¿
ĠÎ²Î±ÏĥÎ¹Î»ÏĮ ÏĢÎ¿ÏħÎ»Î±
Î»ÎµÏį ÎµÎ¹
ĠÏĥÎºÎ± Î»Î¹
ĠÏĥÎºÎ± Î¸Î¬
ĠÏĢÏį ÏģÎ³Î¿Ïħ
ĠÎłÎ® Î³Î±Î¹Î½Îµ
ĠÏħÏĢÏĮÎ»Î¿Î¹ ÏĢÎ¿
ĠÏħÏĢÏĮÎ»Î¿Î¹ ÏĢÎ¿ÏħÏĤ
ĠÏģÎ¬ ÏĨÏĦÎµÏĤ
ĠÎ±Î½Î¿Î¯ Î¾Î¿ÏħÎ½
ĠÏģÏī ÏĦÎ¬
ĠÎ¼ÎµÎ³Î±Î»ÏįÏĦÎµ ÏģÎ±
ĠÎłÎµ ÏģÎ¯Î¼ÎµÎ½Îµ
ĠÏĦÏĥÎ± ÎºÎ¬Î»Î¹
ĠÎĳÏĥÏĢ ÏģÎ¿ÏįÎ»Î·
ĠÎĺÎµ Î¼Î¹ÏĥÏĦ
ĠÎ±Î½ÏĦÎ¹ ÎºÎµÎ¯
ĠÎµÎ»Î¬ ÏĩÎ¹
ĠÎºÎ¿ÏħÏģÎ± ÏĥÎ¼ÎŃÎ½Î¿ÏĤ
Î© ÏģÎ±Î¯Î±
ĠÎ¼ÏĢÎ¿Ïħ Î¼ÏĢÎ¿Ïį
ĠÎ³ÎŃÏģ Î¿Î½ÏĦÎ±
ĠÏĩÏĦÏįÏĢÎ· Î¼Î±
ĠÎ³ÏģÎ± Î¼
ĠÏĢÎ±ÏĢÎ¿Ïį ÏĦÏĥÎ¹
ĠÎµÏĢÎ¹ÏĥÏĦ ÏģÎ¿ÏĨÎ®
ĠÎ³Î¹Î¿Ïģ ÏĦÎ¬
ĠÏĥÏħÎ½Î±Î½ ÏĦÎ¿ÏįÏĥÎµ
ĠÎ³Î¿ÏħÏģÎ¿ÏħÎ½ Î¬ÎºÎ¹
Î¬Î» Î»Î¿Ïħ
ĠÎºÏģÎŃ Î¼
ĠÎºÎ¯ÏĦÏģÎ¹ Î½Î±
ĠÎºÎ¯ÏĦÏģÎ¹ Î½Î·
ĠÏĥÎ¿ÏĨ ÏĮ
ĠÎ´Î¹Îº ÎŃÏĤ
ĠÎ´Î¹Îº Î¿ÏįÏĤ
ĠÎ»ÎµÏħ ÎºÎ¬
ĠÎŃÏģÏĩÎµ ÏĥÎ±Î¹
ĠÏĥÏĢ Ïħ
ĠÏĥÏĢ ÏģÏİ
ĠÏĩÎ¬ÏģÎ· ÎºÎµ
ĠÏĩÎ¬ÏģÎ· ÎºÎ±Î½
Î¿Î»ÏĮ Î³Î·ÏĥÎµ
ĠÏĢÏģÏĮÏĥ ÏĨÎµÏģÎµ
ĠÎľÏĢÎ¿Ïģ ÎµÎ¯ÏĤ
ĠÎŃÎ¼Î± Î¸Î±Î½
ĠÎŃÎ½ ÏĦÎ¿Î½
ĠÎ¾ÎµÏĩÎ¬ ÏĥÎµÎ¹ÏĤ
ÏĢÎ±Î¹ Î´Î¹Î¬
ĠÎ±Î³ÏģÎ¹ Îµ
ĠÏĥÎºÎ»Î· ÏģÎ®
ĠÎ´Î¿ÎºÎ¹Î¼Î¬ ÏĥÏī
Î»ÏĢÎ¹ Î½Î¯ÎºÎ·
ĠÏĦÎŃÏĥÏĥÎµ ÏģÎ¹ÏĤ
ĠÏĢÎ±Î¯ÏģÎ½ Î¿ÏħÎ½
ĠÏĢÎ±ÏģÎ¿Ïħ ÏĥÎ¯Î±
ĠÎŃÏĨÎµÏģ Î½Î±Î½
ĠÎ³ÎµÏī ÏģÎ³ÏĮÏĤ
ĠÏĨÏģÎ¿Î½ÏĦÎ¯ Î¶ÎµÎ¹
ÎľÏĢÎ± Î¼ÏĢÎ¬
ĠÏĥÏħÎ½Î® Î»Î¸Îµ
ÎºÎ±Ïģ Î´Î¹Î¬
ĠÏĥÏĢÎ¿Ïħ ÏģÎ³Î¯
ĠÎ¼ÎµÏĦÎ±Î¼Î¿ÏģÏĨ ÏİÎ¸Î·ÎºÎµ
ĠÎºÏįÎº Î»Î¿
ĠÎŃÎ¾ÏħÏĢ Î½Î¿ÏĤ
ÎºÎ»ÎµÎ¹ ÏĥÎµ
ĠÎµÏģÎ³Î± ÏĥÏĦÎ®ÏģÎ¹
ĠÎµÏĦÎ¿Î¹Î¼Î¬ ÏĥÎµÎ¹
ĠÎµÎ¾Î± ÎºÎ¿Î»
ĠÎºÏħÎ½Î·Î³ Î¿ÏįÏĥÎµ
ĠÎµÏĢÎ±Î½ Î±
ĠÎºÎ»Ïī ÏĥÏĦÎ®
ĠÎłÏģÎ¿Ïĥ ÏĢÎ¬Î¸Î·ÏĥÎµ
ĠÏĥÎºÎ¿Ïį ÏĢÎ¹ÏĥÎµ
ĠÎ¾ÎµÎºÎ¹ Î½Î®ÏĥÎµÎ¹
ĠÎ¬ÏģÏģÏī ÏĥÏĦÎ¿
ÎºÎ¬Î½ Î¹ÎºÎ¿
ĠÎ¼ÎŃÎ½ Î¿ÏħÎ½
ĠÎĳÎ»ÎŃ Î¾Î¹Î¿ÏĤ
ĠÏĩÎ±Î¯ ÏģÎ¿
ĠÎºÎ±Î¸ÏģÎŃÏĨ ÏĦÎ·ÏĤ
ĠÏĦÎ¿Î» Î¼Î¿ÏįÏĥÎµ
ĠÎĶÎ· Î¼Î®
ĠÎĶÎ· Î»Î±Î´Î®
ĠÏĢÎ±ÏģÎ±ÏĢÎ¿Î½ Î¹
ĠÏĢÎ±ÏģÎ±ÏĢÎ¿Î½ Îµ
ĠÏĦÎ±Î¾Î¯Î´Îµ ÏĪÎµ
ĠÎµÎ»ÎŃ Î³
ĠÏĨÎ¿ÏħÎ½ ÏĦÎ¿ÏħÎºÎ¹Î¬
ÎľÏĢÎ¿Ïģ ÎµÎ¯ÏĤ
ÎļÎ¿Î¯ÏĦÎ± Î¾Îµ
ĠÎ³ÏģÎ®Î³Î¿Ïģ Î¿
ĠÏĥÏĦÎ¬Î² Î»Î¿ÏħÏĤ
:âĢ ĵ
ĠÏĢÏģÎ¿ÏĥÎŃ Î¾ÎµÎ¹
ĠÏĦÎ¯Î³ ÏģÎµÎ¹ÏĤ
ĠÎłÎ¿Î» Î»ÎŃÏĤ
ĠÏĢÎ®Î´Î· Î¾Îµ
ĠÎºÎ±ÏģÏĮ ÏĦÏĥÎ¹
Î¼ÏĢÎ¿Ïģ Î¿ÏįÏĥÎµ
ĠÎ·ÏĨÎ±Î¯ÏĥÏĦ ÎµÎ¹Î±
ĠÎ²Î¿Î·Î¸Î¬ ÎµÎ¹
ĠÎ±ÏĢÎ¿Ïĥ ÏĦÎ¿Î»Î®
Î¤Î¯ ÏĢÎ¿ÏĦÎ±
ĠÎ¿Î»ÏĮÎ³Ïħ ÏģÎ±
ĠÎ¿Î»ÏĮÎ³Ïħ ÏģÎ¬
ĠÏĨÏĦÎµÏģÎ¿Ïį Î³ÎµÏĤ
ĠÏĥÏĦÎµÎ½Î±ÏĩÏīÏģÎ¹ ÎŃÏĥÎ±Î¹
ĠÏĮÏģÎ¸ Î¹Î¿ÏĤ
ĠÎ»Î· ÏĥÏĦÎŃÏĤ
ĠÏĩÏĮÏģÎµ ÏĪÎ±Î½
ĠÏĥÎ² Î®ÏĥÎµÎ¹
Î¶Î® ÏĦÎ·ÏĥÎ·
ĠÎĳÎºÎ¿Ïį ÏĥÏĦÎ·ÎºÎµ
ĠÎŃÎºÏģÏħ ÏĪÎµ
ĠÎ»Î¹Î¼ Î½Î¿ÏįÎ»Î±
ÎĻÎ£ Î£
ĠÎłÎŃÏģÎ± ÏĥÎ±Î½
Î²Î³Î± Î»Îµ
ĠÏĩÏģÎ¹ÏĥÏĦÎ¿ÏħÎ³ÎµÎ½Î½Î¹Î¬ ÏĦÎ¹ÎºÎ¿
Î¿ÏĢÎ¿Î¯ Î·ÏĥÎµ
ĠÎłÏģÎ¯Î³ÎºÎ¹ÏĢÎ± ÏĤ
ÎļÎ±Î½ ÎµÎ¯ÏĤ
ĠÏĨÏīÏĦÎµÎ¹ Î½Î®
ĠÏĨÎ±Î½Î¿ÎºÏĮ ÏģÎ¿ÏĤ
ĠÏĩÎµÎ¹ÏģÏĮ ÏĦÎµÏģÎ¿
ĠÎºÎ¹Î½Î´ÏħÎ½Îµ ÏįÎµÎ¹
ĠÎºÎ¿ÏħÎ´Î¿ÏħÎ½ Î¬ÎºÎ¹
ĠÏĢÏģÎ¯Î³ÎºÎ¹ ÏĢÎµÏĤ
ÏĮÏĦÎ± ÏĦÎµ
ĠÏĥÎ¬Î» ÏĦÎ¿
ĠÎºÎ±Î¼Î® Î»Î±
ĠÏĥÏħÎ¼Î¼Î±Î¸Î· ÏĦÎŃÏĤ
ĠÎ¼Î¿ Î´Î¯ÏĥÏĦÏģÎ±
ĠÎ±ÏģÎ¬ ÏĩÎ½ÎµÏĤ
ĠÎķÏĢÎ¹ ÏĦÎŃÎ»Î¿ÏħÏĤ
ĠÎ£Î® Î¼ÎµÏģÎ±
ĠÏįÏĨÎ± ÏĥÎ¼Î±
ĠÏĨÎµÎ³Î³Î± ÏģÎ¹Î¿Ïį
ĠÏĢÎ±ÏĢÎ±Î³Î¬ Î»Î¿ÏĤ
ĠÎ³ÎŃÎ»Î± ÏĥÎ±Î½
ĠÎ±ÏģÏĥÎµÎ½ Î¹Îº
Î¿ÏĨÏĮ ÏģÎ¿
ĠÎµÎ½ÏĦÏħÏĢÏī ÏĥÎ¹Î±
ĠÏħÏĢÎ¿ÏĪ Î®
ĠÎºÎ±ÏĦÎŃÎ»Î· Î¾Îµ
ÎŀÎµ ÎºÎ¯Î½
ĠÎ±ÏĥÏĦÏħÎ½Î¿ Î¼Î¯Î±
ÏĨÏĦÎ¹Î± Î¾Î±Î½
ĠÏĨÎŃ ÏĦÎ¿ÏĤ
ĠÎºÎ±ÏĢÎµ ÏĦÎ¬Î½Î¹
ĠÏĥÎµÎ²Î± ÏĥÎ¼ÏĮ
ĠÎ£Î·Îº ÏİÎ¸Î·ÎºÎµ
ĠÎºÎ¿Î¹Î¼ ÏĮÎ½ÏĦÎ¿ÏħÏĥÎ±Î½
ĠÏĨÎ¸Î¹ Î½ÏĮÏĢÏīÏģÎ¿
ĠÎ±ÏħÏĦÎ¿ÎºÎ¹ Î½Î®
Î¼Î·ÏĩÎ±Î½ Î®
ĠÎµÎ¾ÎŃÏĦÎ± ÏĥÎµ
ĠÎĽÎ¿Ïį Î·ÏĤ
ĠÎ¡Î¿ Î¶
ĠÎºÎ±ÏģÏĢÎ¿Ïį ÏĤ
ĠÏĥÎºÎŃÏĨÏĦÎµ ÏĦÎ±Î¹
ÎºÎ¿Î»Î¿Ïį Î¸Î·ÏĥÎµ
ĠÏĩÎµÎ»Î¹ Î´ÏĮÎ½Î¹Î±
ĠÎļÎ¿ÏģÏīÎ½ Î¿Î³Î¹
ĠÏĢÏģÎ¿Î²Î»Î® Î¼Î±ÏĦÎ±
ĠÎ´Î¹Î±Î¼Î¬Î½ ÏĦÎ¹Î±
ĠÏĨÏīÏĦÎ¿ Î³ÏģÎ±ÏĨ
ÎŀÏįÏĢ Î½Î·ÏĥÎµ
ĠÎļÏĮÎºÎºÎ¹ Î½Î·
ĠÎ¼Î¿Î»Ïį Î²Î¹
ĠÎ±ÏĥÏĦÎ±Î¼Î¬ ÏĦÎ·ÏĦÎ±
ĠÎ³Î¿Ïį Î½Î±
ĠÎ´ÎµÎºÎ¬ Î´ÎµÏĤ
ĠÎ¹ÏĥÏĩ Ïħ
ĠÏĢÎ±ÏģÎ¬Î´ÎµÎ¹ Î³Î¼Î±
ĠÎĴÎ¹ÏģÎ³Î¹ Î½Î¯Î±
ĠÎłÎ¡ÎĻÎĵÎļÎĻÎł ÎĻÎ£Î£
ĠÎºÎ¯Î½ Î·ÏĥÎµ
ĠÎ¸Î¬Î½Î± ÏĦÎ¿
ĠÎ±Î»Ïħ ÏĥÎ¯
ĠÎĵÎ»Î±Ïį ÎºÎ¿ÏĤ
ĠÎļÎ±ÏģÎ¬ Î¼ÏĢÎ±
ĠÎĴÎ±Î»ÎŃ ÏģÎ¹Î¿ÏĤ
ĠÏħÏĢÎ¿Î¼Î¿Î½ ÎµÏĦÎ¹ÎºÎ¬
ĠÎºÎ»ÏĮ Î¿ÏħÎ½
ĠÎĳÎ³Î±ÏĢÎ¬ ÏĦÎµ
ĠÎĺÎµÎ¼Î¹ÏĥÏĦ Î¿Îº
; ...
e d
i k
Í ¾
Ġ H
ĠÎ İ
Î± Î³
Î± ÏĥÏĦ
Î¿ Î·
Î¹ ÏĥÎ¼ÎŃÎ½Î¿
Îµ Îº
Îµ ÏĥÎµ
Î½ ÎµÎ¯
Î½ Î¿ÏįÏĥÎ±Î½
ÏĦ ÏģÎ±Î³
Ïģ ÎºÎ±
Ïģ ÏĦÎ±ÏĤ
Ïģ Î»Î¹Î±
Ïģ Î¿Î»ÏĮ
ĠÏĦ Î¿Ïĩ
ĠÏĦ ÏĮÎ½Î¿
ĠÏĦ ÏħÏĩÎ±
Î» ÎµÎ¯ÏĤ
Ïĥ Î¼Î¿Ïį
Î· ÏĦÎ®ÏĤ
Î· Î´Î¬ÎµÎ¹
Î¯ ÏĥÎ¿ÏħÎ½
Î¯ Î¶Ïī
ĠÎº ÏĮÎ½
ĠÎº Î¿ÏĨ
ĠÎº Î¿ÏģÏĨÎ®
ĠÎº ÎŃÎ½ÏĦÏģÎ¿
ĠÎº Î»ÏĢ
Î¿Ïħ Î¸ÎµÎ¯
ÏĢ Î¿ÏħÎ½
ÏĢ Î»Î¿
ÏĢ ÏīÏĥÎµ
ÏĢ ÏģÎ±Î³Î¼Î±
ÏĢ ÎµÎ¯Î±
Îº ÏĦÎ¿
Îº ÏģÎ¹Î±
Îº Î»Ïī
Îº Î¯Î±ÏĤ
Î¼ ÏīÎ½
Î¼ Î¹ÎºÎ¬
Î¼ Î½ÎµÏĤ
Î¼ ÎŃÏĩÏģÎ¹
Î¼ ÏĨÎ±Î½Î¯ÏĥÏĦÎ·ÎºÎµ
ÎŃ Î¼Î±Î¹
Î±Î¹ ÏģÎŃ
ĠÏĥ ÏĨÎ±Î¯
ĠÏĥ ÏĢÎ¿ÏįÎ´Î±
ĠÎ± Î¸Ïİ
ĠÎ± ÎºÎ±ÏĦÎ¬
ĠÎ± ÏĦÏħÏĩÎ¯Î±
ĠÎ± Î¸Î¬Î½Î±
Î³ ÏīÏĥÎµ
Î³ Î»Ïħ
Ïī Î¸Î±
Ïħ ÏģÏİ
ĠÎºÎ±Î¹ ÎŃ
ĠÎºÎ±Î¹ ÏĦÎ±
ĠÎºÎ±Î¹ ÏĦÎ·Î½
Î¹Î± ÏĥÎ¼ÎŃÎ½Î·
Ïĩ ÎŃÏģÎ¹
ĠÎ½ Î¿ÏĥÏĦÎ±Î»
Î® Î¼Î·
Î® ÏĦÎµÏħ
ĠÎŃ ÏĦÏģÎ¹
ĠÎŃ ÂµÎ¿
ĠÎŃ Î¼ÎµÎ½Î±Î½
Î´ Î¿Î½
Î´ Î¹ÎºÎ®
Î´ ÏģÎ±ÏĤ
ĠÎ½Î± ÏħÎ±
ĠÏĦÎ¿Ïħ Î»Î¬ÏĩÎ¹ÏĥÏĦÎ¿Î½
Î¸ Î¿ÏħÎ½
Î¿Ïį Î»Î¹
Î¿Ïį Î»Î¿
Î¿Ïį ÏĥÎ±Î¼Îµ
ĠÎ´ Î¿
ĠÎ´ ÎµÏĤ
ĠÎ´ ÎŃÏĩ
ÏģÎ± Ïĩ
ÏģÎ± Î²
ĠÎ³ Î»Î¬
Ïį Î¸Ïħ
ÏĨ Î¯Î±
ÏĨ ÏĦÎ¯
ÏĨ Î¹Î¿
ÏĨ Î¬ÎºÎ¹
ÏĨ ÏĮÏģÎ±
ÏģÎ¹ Î½Î¬
ÏģÎ¹ ÏĥÎ¼ÎŃÎ½Î¿ÏĤ
ÏĦÎµ ÏģÎ¿ÏĤ
ĠÎ±ÏĢ Î±Î¹
ĠÎ±ÏĢ Î¿ÏĩÏī
ĠÎ±ÏĢ Î»ÏīÎ½ÏĮÏĦÎ±Î½
ĠÏĨ Î®Î¼Î·
ÏĦÎ¹ ÏĥÎ±Î½
ÏĦÎ¹ Î½Î¿
Î² Î»Î±
Î² Î»ÎŃ
ÏģÎ¬ ÏģÎ¹
ĠÎ² Î¿Î»
ĠÎ² ÏģÏįÏĥÎ·
ĠÎºÎ± Î²Î±
ĠÎºÎ± Î»Î±Î¼ÏĢ
Î¿Î½ Î¬ÏĩÎ±
Î»Î± Î²Î±Î¯Î½ÎµÎ¹
ĠÏĩ ÏīÎ½
Î¾ Î¹Î±
ÎµÎ¯ Î¿Ïħ
Î»Î¹ ÏĥÏĦÎµ
Î¼Î± Ïĩ
Âµ Î¹Î¶Îµ
ĠÎ¬ Î¾Î¹Î¿ÏĤ
ĠÎ» Î¹Î±
ĠÎ· Î»ÎµÎº
Î¿Ïģ Î¿ÏįÏĥÎµ
ÎºÎµ ÎºÏģÎ¹
ÏĥÎ¹ Î¿Ïį
ĠÏĥÏĦÎ¿ Î¼Î¬
ĠÏĢÎ± ÏģÎµ
ĠÏĢÎ± ÏĦÎ®ÏĥÎµÎ¹
ÏģÎ¯ ÏĥÎ¿ÏħÎ½
ĠÎ¼Î± Î¸Î±
ĠÎ¼Î± Î¾Î¹Î»Î¬
Î»Î· ÏĦÎ¬
ÏģÎµ ÏĥÎ·
ĠÎ¤ ÏģÎµ
ĠÎ¤ ÏģÎŃ
ĠÎ¼ÎŃ Î»Î»Î¿Î½
ÎºÎ± Î»Îµ
ÎºÎ± Î»Î¿ÏĤ
ÎºÎ± Î¸ÏİÏĤ
ĠÎĳ Î½Î¬
ĠÎĳ Î½Î¿Î¯
ĠÎļ ÏģÎ®
ĠÎļ ÏģÏį
Î½Îµ Î»
ĠÎľ ÏĢÏģÎ¬Î²Î¿
ÎºÏĮ Î¼Î±
ÏĢÎ± Ïħ
Î³Îµ Î»Î±
ĠÂµ Î®
ĠÂµ ÏĢÎ¬
ÏĪ ÎµÏĤ
ĠÎķ Ïĥ
ĠÎķ ÏĦÏĥÎ¹
ĠÎķ ÏĢÎµÎ¹Î´Î®
ÎºÎ¬ ÏĦÎ¹
ÎºÎ¬ Î¸Î¹ÏĥÎµ
Î³Î± Î¯Î½ÎµÎ¹
Î³Î± ÏģÎ¹Î¬
ÏĢÎ¹ Î±Î½
Î¤ ÎŁ
Î¤ Îķ
ĠÎł Î¬Î½
ĠÎł ÏģÎ¿Ïĩ
ĠÎł ÎĳÎĿ
ĠÎł ÏģÏİÏĦÎ·
ĠÎł ÏģÏĮÏĥÎµ
ÏģÎŃ Î¸Î·ÎºÎµ
ÏĦÎ¯ Î¿
ÏģÎ® ÏĥÏī
ÎŁ ÎĽ
Îľ Î¯Î±
Î´Î¹ Î¶Îµ
ĠÎ£ Î¹
ĠÎ£ ÏĦÎŃ
ĠÏģ Î¿ÏĩÎ±
ĠÏĥÎº Î¿Î¹Î½Î¯
ÏİÎ½ Î¹
Î¿ÏĢ Î±Î¹
Îĳ ÏĤ
Îĳ Îł
Îĳ ÎĽ
Îĳ ÏĨÎ®ÏĥÏĦÎµ
ĠÎĪ ÏĦÏģÎµ
ĠÎĪ Î½Î¿Î¹
Î¼Î¿ ÎºÏģÎ±
ĠÏĢÎ¬Î½ ÏĦÏīÎ½
Î»Î® ÏĥÎ¿ÏħÎ½
ÎºÎ¿Ïħ ÏĥÎµ
ĠÎĶ Ïİ
ÏĦÏī Î¼ÎµÏĦÎ±Î¾Ïį
Î»ÎµÎ¹ Î±
Î»ÎµÎ¹ Î¼Î¼Î±
ÏĢÎ· ÎºÎµ
Îł Ïī
Îł Î¿Î¹
Îł ÎµÏĤ
ĠÎ¼ÎµÎ³Î¬ Î»ÏīÎ½Î±Î½
ÏĢÎ¬ Î»Î¹
ÏĢÎ¬ Î¼Î±Î¹
ĠÎĮ Î»ÎµÏĤ
Î³Î¹ Î½Î±Î½
ĠÎ¾Îµ ÏĩÎ±
ĠÎ¾Îµ ÏĨÎ¿Ïģ
ĠÎºÎ±Î¸ ÏĮÎ½ÏĦÎ¿ÏħÏĥÎ±Î½
ĠÎĵ ÏįÏģÏī
ĠÎĵ ÎµÏģÎ¬
ĠÏĥÏĢÎ¯ ÏģÏĦÎ¿
ĠÎºÏĮ Îº
ĠÎºÏĮ Î²ÎµÎ¹
ĠÎ±Î³ Î½Î®
Î£ Î®
ÏįÏģÎ¹ Îµ
ĠÏĢÎµÏģÎ¹ Î²
ĠÏĢÎµÏģÎ¹ ÎµÏģ
ĠÎ±Ïħ Î³Î®
ĠÏĢÎ±ÏģÎ± ÏĢÎ¬Î½Ïī
ÏģÎ¿Ïį Î»Î¹Î±
ĠÏĥÏħÎ½ Î¬
ĠÏĥÏħÎ½ ÎŃÎ»
ĠÎºÎ¿ Î¼Î¼Î±
ĠÎ³Îµ Ïģ
ĠÎºÎ±ÏĦÎ± Ïģ
ĠÎºÎ±ÏĦÎ± ÏĢÎ»Î·ÎºÏĦÎ¹ÎºÎ¬
ĠÎ¼ÎŃÏģÎ± ÏĤ
ĠÎ±Î½Î± Î²
ĠÎ±Î½Î± ÏĥÎ·
ĠÎ±Î½Î± ÏĩÏİ
ÏĩÎ½ Î¿ÏĤ
Î»Î¿Ïį Î´Î¹Î±
ĠÏĨÎ¿ÏģÎ¬ Î´Î±
ĠÎĴ Î³Î®ÎºÎµ
ĠÎĿ Î¿Î¼Î¯Î¶Ïī
ĠÏĢÏģÎ¿Ïĥ Ïī
ĠÏĢÏģÎ¿Ïĥ ÏĨÎŃÏģ
ÎĪ ÏĦÏģÎµÎ¾Îµ
ÎĪ ÏĩÎµÎ¹ÏĤ
ĠÎºÎ±Î½ Î¿Î½
ĠÎºÎ±Î½ ÏĮÎ½ÎµÏĤ
ÏĪÎµ ÏĦÎµ
ĠÎķÎ¯ Î¼Î±ÏĥÏĦÎµ
Î¿Î½ÏĦÎ¬ ÏģÎ¹
ÂµÎ± Î³
ÏģÎµÎ¹ Î¬
ĠÎµÏĢÎ¹ ÏĦÏģÎŃ
ĠÎī Î¾Îµ
ĠÎ³Î¹ Î¿ÏįÏĤ
ĠÎ³Î¹ ÏİÏĦÎ±
ĠÎ¶Ïī Î¬ÎºÎ¹
ÏģÎ¯Î³ÎºÎ¹ ÏĢÎ¬
ĠÎŃÏĢ Î¹Î±ÏĥÎ±Î½
ÏģÎ±Î½ ÏĦÎ¯Î½Î±
ĠÏĢÎ±ÏģÎ¬ ÏĢÎ¿Î½Î±
ĠÎ±Î¼ Î¿Î¹
ĠÎ±Î¼ ÏįÎ³Î´Î±
ÎºÎ® Î½ÎµÏĤ
ÏĨÎ¬ Î»ÏīÏĥÎµ
ĠÎĽ Î¿Î¹ÏĢÏĮÎ½
ĠÎ¸ÎŃÎ» Î¿Î½ÏĦÎ±ÏĤ
ĠÏĢÎŃ ÏĥÎ¿ÏħÎ½
ĠÏĢÎ¿Î½ Î¿ÏįÏĥÎµ
ĠÎ´ÎŃÎ½ Î´ÏģÎ¿
ĠÎ±ÏģÏĩ Î¯Î¶ÎµÎ¹
Î¿Î³ ÏģÎ¬ÏĨÎ·
ĠÏĢÎ¹Î± ÏĦÎ¬ÎºÎ¹
ĠÏĩÎ¬ Î¶ÎµÏħÎµ
ĠÎŃÎº Î»Î±ÏĪÎµ
ÎŃÏĪ Î¿Ïħ
ĠÎ´Ïī Î¼Î±ÏĦÎ¯
ĠÎ»Î¹ Âµ
ĠÎºÏģÎ± ÏĦÎ®ÏĥÎ¿ÏħÎ½
ĠÎ¦ Î¿
ĠÎ¦ Ïī
ĠÎ¦ ÎµÏģ
ĠÎ±ÏĢÎ¿ÏĨ Ïį
Î³Î¿Ïħ Î»Î¬ÎºÎ¹Î±
ĠÏĢÏģÎ¿ ÎºÎµÎ¹
ÏĥÏĥ Î¬
ÏĥÏĥ Î¹Î±
ĠÎ´Î¹ Î·Î³Î·
ĠÎ¿ÏĢÎ¿ Î¯ÎµÏĤ
ÎļÎ± ÏĦÎ±
ÏģÎ¹Ïĥ Î¼Î±
ĠÎ¸Ïħ Âµ
ĠÏĥÎºÎŃÏĨ ÏĦÎ·ÎºÎ±
ĠÎ»Î¿Ïħ ÏģÎ¯
ĠÎ³ÏħÎ½Î±Î¯ ÎºÎµÏĤ
ĠÎ¼Î¹ Î±Î½
ĠÏĢÎ»Î· Î½
ĠÎ³Î¬ Î¼Î¿Ïħ
ĠÏĢÎ±Î¯ Î¾Î¿ÏħÎ¼Îµ
ĠÎ¶Ïİ Î½Î·
Îĺ Îµ
Î½Ïİ ÏĦÎ±
ÏĥÏĩ Î®
ĠÏĨÏĮ Ïģ
ÏĥÏĦÎ¹ ÎºÎŃÏĤ
ĠÎļÎ¬ ÏĢÎ¿Î¹Î¿ÏĤ
ĠÎ´Î¹Î¬ Î»ÎµÎ¹Î¼Î¼Î±
ÏģÎ¿Î½ Î¿
ÏģÎ¿Î½ Î¹Î¬ÏĤ
ĠÎ¶Î· ÏĦÎ®
ĠÎ¶Î· ÏĦÎ®ÏĥÏī
ĠÎ»Î¬ Î¸Î·
Î¼Î¿Î½ Î¿
Î¼Î¿Î½ Î¿Î´
ĠÎ¿Î¹Îº Î¿Î½Î¿
ÏĨÎ¿Ïģ Î¯Î¶ÎµÎ¹
ĠÏĦÏģÏĮ ÏĢÎ¿ÏĤ
ĠÎ¤ÏĮÏĦÎµ ÏĤ
ÏĩÎ½Î¯ Î´Î¹Î±
ĠÎºÎ±Î»ÏĮ ÎºÎ±Ïģ
ĠÎ³ÎµÎ¼Î¬ ÏĦÎµÏĤ
ĠÎ±Î´Îµ Î»
ĠÎ¿Î»ÏĮ Ïĩ
ĠÏĦÏĥ Î¬
ĠÎ±ÏĨÎ® Î½Î¿ÏħÎ¼Îµ
ĠÎłÎ± Î¼ÏĢÏĮ
ĠÎµÏħ Î³Î½Ïī
ĠÏĥÎºÎ¿ ÏĦÏİ
ĠÎºÏģÏħ ÏĪ
ĠÏĥÏĦÏĮ ÂµÎ±
ĠÏĥÏĦÏĮ ÏĩÎ¿
Îŀ ÎŃÏģÏī
ĠÎºÎ¿Î» Ïį
ĠÎ¼Î® Î½ÏħÎ¼Î±
Î¿Î´Î¿ Î¾Î¯Î±
ĠÏĥÏī Î»Î®
ĠÏĢÎµÏģÏĢÎ± ÏĦÎ®ÏĥÎµÎ¹
ĠÏĪÎ± ÏģÎ¬
ĠÏĪÎ± Î»Î¯Î´Î¹
ĠÏĢÎ»Î¬ ÏĥÎ¼Î±
Î±ÏĢ Î¬Î½ÏĦÎ·ÏĥÎµ
ĠÎ¼ÎµÏģÎ¹ ÎºÎ¿Î¯
ĠÎ¼ÎµÏģÎ¹ ÎºÎ¿ÏįÏĤ
Î²Î¿Ïħ Î½Î±
ĠÏĨÎ¹ Î»Î¹Î¬
ĠÎ»Ïħ Î³
ĠÎ½ÏĮ Î¼Î¿ÏĤ
ĠÏĥÎ·Îº ÏİÏĥÎµÎ¹
ĠÎ»ÎµÏĢ ÏĦÎ®
ÏĦÏģÎ¹ Î³Ïħ
ĠÎºÎ±Î¹Î½Î¿Ïį ÏģÎ³Î¹
ĠÎŃÏĥ ÏĨÎ¹
ĠÏĩÏĦÏħ ÏĢÎ®ÏĥÎµÎ¹
ĠÏĨÎ±Î¯Î½ Î¿Î½ÏĦÎ±Î¹
ĠÏĨÏĦÏīÏĩ Î¿Î¯
ĠÏĨÏĦÏīÏĩ Î¿ÏįÏĤ
ĠÎ¼Î¿ÏħÏĥ Î¹ÎºÏĮÏĤ
ĠÎ¼Î¿ÏħÏĥ Î¿ÏįÎ´Î±
ĠÎŃÏĦÎ¿Î¹ Î¼Î¿
ĠÏĦÎµÎ»ÎµÎ¯ ÏīÎ½Îµ
ĠÎŃÎ´ÎµÎ¹ ÏĩÎ½Î±Î½
ĠÏĢÎµÏģÎ¹Î¼ÎŃÎ½ Î¿ÏħÎ½
ĠÎ¼Î±Ïį ÏģÎµÏĤ
ÎļÎ¬ ÏĢÎ¿ÏĦÎµ
ĠÏĦÎ¿Ïį Î½ÎµÎ»
ĠÎĳÏĢ Î¿ÏĪÎ¹
ĠÏĦÎµÏģÎ¬ÏĥÏĦÎ¹ Î¿ÏĤ
ĠÏĦÎµÏģÎ¬ÏĥÏĦÎ¹ ÎµÏĤ
ĠÏĦÏĥÎ± ÎºÏī
ĠÏĥÏĦÎ¿Î» ÎŃÏĤ
ĠÏĮÎ½ÎµÎ¹ ÏģÏĮ
ĠÎĶÎµ Î»ÏĨÎ¹
ĠÏĦÎ¿ÏĢ Î±
ĠÏĦÎ¿ÏĢ Î¯Î¿
ĠÎºÎ±ÏĦÎµ Î²Î±
ĠÎºÎ±ÏĦÎµ Î²Î¬
ĠÏĥÏħÎ½ÎµÏĩ Î¯ÏĥÏĦÎ·ÎºÎµ
ĠÎ±Î¹ ÏĥÎ¹
ĠÎµÏĢÎ¯ ÏĥÎ·
ĠÎµÏĢÎ¯ ÏĥÎºÎµÏĪÎ·
ĠÎŃÏģÎ¹ Î¾Î±Î½
ĠÎ³Î½ÏīÏģÎ¯ ÏĥÏī
ĠÎ³Î½ÏīÏģÎ¯ Î¶Ïī
ĠÎµÎ¹ ÏĥÎ¹
ĠÎµÎ¯ÏĢÎ± Î¼Îµ
ĠÏĩÏģÎµÎ¹Î¬ Î¶Î¿Î¼Î±Î¹
ĠÎºÎ¿Î¹Î¼Î· Î¸Ïİ
ĠÎ¬Ïģ Î¼Îµ
ĠÏĢÎ¯ÏĥÏĦÎµ ÏħÎ±Î½
ĠÎ»ÏħÏĢÎ· Î¼ÎŃÎ½Î±
ĠÎ»ÏħÏĢÎ· Î¼ÎŃÎ½Î¿
ĠÎ²Î±ÏĥÎ¯Î»ÎµÎ¹ Î±
ĠÏĦÏģÎµ Î»Î±
ÎļÎ±Î»Î· Î½ÏįÏĩÏĦÎ±
ĠÎ¶ÏīÎ³ÏģÎ±ÏĨ Î¯ÏĥÎµÎ¹
ĠÏĥÎ¿Î²Î± ÏģÏĮÏĤ
Î¼ÏĢÎ± Î¼ÏĢÎ¬
ÂµÎµÎ½ Î¿
ÂµÎµÎ½ Î±Î½
ĠÏĦÏģÎ±Î³Î¿Ïį Î´Î¹Î±
ĠÎµÏĢÎ¹ÏĥÏĦ ÏģÎŃÏĨ
ĠÎ¼ÎµÏĥÎ· Î¼Îµ
ĠÎ¼ÎµÏĥÎ· Î¼ÎµÏģÎ¹
ĠÏħÏĢÎŃÏģÎ¿Ïĩ Î·
ĠÏĥÎºÎ¬ Î²ÎµÎ¹
ĠÎľÎ¹ Î½ÏİÏĦÎ±
ĠÎºÎ±ÏĦÎ±ÏĨÎŃÏģ Î¿ÏħÎ¼Îµ
ĠÎ¾ÏħÎ»Î¿ÎºÏĮ ÏĢÎ¿
ĠÏĥÏĢ Î¬Î½Î¹Î±
ĠÎ±ÏĢÎµ Î»ÏĢÎ¯
ĠÎ±Î½Î±ÏĢ Î¬Î½ÏĦÎµ
ĠÎ±Î½Î±ÏĢ Î½Î¿Î®
ĠÎ¼ÏĢÎ¹ÏĥÎºÏĮ ÏĦÎ¿
Ġ1 0
ĠÎŃÎ¾ Î¿Î´Î¿
ĠÎ³Î¯Î³Î±Î½ ÏĦÎ±
ĠÎ¼Ïį Î»Î¿
ĠÎĳÏĥÏĦÏģÎŃÎ½ Î¹Î¿
ĠÎĳÏĥÏĦÏģÎŃÎ½ Î¹Î¿Ïħ
ĠÎ© ÏĤ
ĠÎŃÎ½ ÏĦÎ¿Î¼Î±
ĠÏĥÎºÎ¿ÏĦÎµÎ¹ Î½Î¬
ĠÏĥÎºÎ¹Î¿Ïħ ÏģÎ¯Î½Î±
ÎµÏħ ÏĥÎµ
ĠÎºÎ¹Î½ Î´ÏįÎ½Îµ
ĠÎ´Î¹Î±Î²Î¬ ÏĥÎµÎ¹
ĠÎ´Î¹Î±Î²Î¬ Î¶ÎµÎ¹
ĠÎ±ÏĢÎ±Î½ ÏĦÎ®ÏĥÎµÎ¹
ĠÏĥÏħÎ³Îº ÏģÎ±
ÏĥÎºÎ¿ Î»Î±
ĠÏĢÎ±ÏģÏĮ ÏĦÎ¹
ĠÎºÏħÏģÎ¯ ÎµÏħÏĥÎµ
ĠÏħÏĢÎ·ÏģÎŃ ÏĦÎ·ÏĤ
ĠÎºÎ±Î¸Î· Î³Î·
ĠÏĢÎ±ÏģÎ¿Ïħ ÏĥÎ¹Î¬
ĠÎºÎ±Î· Î¼ÎŃÎ½Î·
Î´Î¿Ïħ Î»ÎµÎ¹Î¬
ĠÏĩÎ¿Î½ÏĦ ÏģÎ¬
ĠÏĥÏħÎ½Î® Î¸ÏīÏĤ
ĠÏĨÏįÎ»Î± ÎºÎ±
ĠÎ±Ïĥ Î¸ÎµÎ½
ÏĦÎµÏģÏĮ Î»ÎµÏĢ
ĠÏĩÏģÎ·ÏĥÎ¹ Î¼Îµ
ĠÎ·Î»Î¹ ÏĮÎ»Î¿Ïħ
ĠÎ¶Î± Î»Î¹
ĠÎ¼ÏħÏģÏī Î´Î¬
ĠÎ¾ÏįÎ»Î¹ Î½Î·
ĠÎ½ÏĦÏģÎ¿ÏĢ Î±
ĠÎ£Î¿Ïħ ÏĢÎ¹Î¬
ÎłÎµ ÏģÎ¯Î¼ÎµÎ½Îµ
ĠÎ¼ÎµÏĦÎ±Î¼Î¿ÏģÏĨ ÏīÎ¸ÎµÎ¯
ĠÎºÎ¿ÏħÏģÎ¬ ÏĥÏĦÎ·ÎºÎµ
ĠÎĴÎ¯ÎºÏĦÏī Ïģ
Î»ÏįÏĦÎµ ÏģÎ¿
ĠÎµÏĢÎ¹ÏĥÎºÎµ Ïħ
ĠÏĥÎ¹Î´Îµ ÏģÎ¬ÏĤ
ĠÎŃÎºÏĢÎ»Î·Îº ÏĦÎ·
ĠÏĨÏİ ÏĦÎ¹ÏĥÎµ
ĠÎ²Î±ÏģÎŃ Î»Î¹Î±
ĠÏĥÎ¬ ÎºÎ¿
ĠÏĨÎ¬ÏģÎ¼Î± ÎºÎ¿
ĠÏĦÏģÎ¿Î¼Îµ ÏģÎ®
ĠÏĥÎ¿Ïį ÏĢÎ±
ĠÎŃÏĢÎ± Î¸Îµ
ĠÎ¸ÏħÎ¼Î¬ ÏĦÎ±Î¹
ĠÎ¬ÏģÏģÏī ÏĥÏĦÎ¿ÏĤ
ĠÎµÎ»Î±ÏĨ ÏģÎ¬
ĠÎºÎ±ÏģÎ± Î¼
ĠÏĩÎ±Î¯ Ïģ
Î¿ÏĥÎ¿ Î´Î¿Ïį
ĠÎ´Î·Î¼Î¹ Î¿ÏįÏģ
ĠÎ´Î·Î¼Î¹ Î¿ÏħÏģÎ³
ĠÎµÎ¼ÏĢ ÏģÏĮÏĤ
ĠÎµÏħÎ³ÎµÎ½ Î¹ÎºÎ®
Î±ÏħÏĦ Î®
ĠÏĢÏĮÎ»Îµ Î¼Î¿ÏĤ
ĠÎ³Î±ÏĬ Î´Î±ÏģÎ¬ÎºÎ¿ÏĤ
ĠÎºÎ¬Î¼ÏĢÎ¿Ïĥ Î·
ĠÏĨÎ¿ÏħÎ½ ÏĦÏī
ĠÏĥÏĦÎ¿Î»Î¹ ÏĥÎ¼ÎŃÎ½Î±
ĠÎ±ÏģÏģÏİ ÏĥÏĦÎ¹Î±
ĠÏĦÏģÎ±ÏĢÎµ Î¶Î¬ÎºÎ¹
ĠÏĥÏĦÏģÎ±ÏĦÎ¹Ïī ÏĦÎ¬ÎºÎ¹Î±
ĠÎ¬Î½Î± ÏĪÎµ
ĠÎ±Î³Î³Îµ Î»Î¬ÎºÎ¹
ĠÏĦÎ¯Î³ ÏģÎ·
ĠÎºÎµÎ»Î± Î·Î´
ĠÎ¼Î¬Î³Î¿Ïħ Î»Î±
ĠÎ±ÏĥÏĦÏģÎ± ÏĨÏĦÎµ
ĠÎ±ÏĢÎ¿ÏĨÎ±ÏĥÎ¹ ÏĥÏĦÎ¹ÎºÎ¬
ĠÎłÎ¡ ÎķÎłÎķÎĻ
ĠÏĢÎ¿ÏĦÎ± Î¼Î¬ÎºÎ¹
ĠÎ±ÏĥÏĦÏħ Î½ÏĮ
ĠÎºÎ»ÎµÎ¹Î´Î± ÏģÎ¹Î¬
ĠÏĦÏħÏĩÎµ ÏģÏĮÏĤ
ĠÎ½ÏĦÏħ Î¼ÎŃÎ½Î¿ÏĤ
ĠÏĢÎ¿Î»ÏįÏĦÎ¹ Î¼Î±
ĠÎ¼Î±Î»Î± ÎºÎ¬
ĠÏĢÎµÏģÎ± ÏĥÏĦÎ¹
ĠÎłÎ¿ÏģÏĦÎ¿ÎºÎ± Î»Î¯Î±
Î¹Î¹Î¹Î¹Î¹Î¹Î¹Î¹ Î¹Î¹Î¹Î¹Î¹Î¹Î¹Î¹
ĠÎµÂµ ÎµÎ¯ÏĤ
ĠÎ¾ÎµÏĩÏīÏģÎ¹ÏĥÏĦ ÏĮ
ĠÎ¾ÎµÏĩÏīÏģÎ¹ÏĥÏĦ Î®
ĠÏĢÎµÏģÏĢÎ¬ ÏĦÎ·ÏĥÎµ
ĠÏĢÎ¹Îº ÏģÎ¬
ĠÎĳÎ¸Î® Î½Î±ÏĤ
ĠÏĩÎ±Î»Î¬ ÏĥÎµÎ¹
ĠÎºÎ¿ÏħÎ²Î¬ ÏģÎ¹
ĠÎ±Î´ÎµÎ»ÏĨ ÎŃÏĤ
ĠÏĩÏģÏħÏĥÎ±ÏĨ ÎŃÎ½Î¹Î±
ÎŃÎ³ Î³Î±
ĠÎµÏģÎ³Î¬ ÏĦÎµÏĤ
ĠÎ½Î¹ ÏĨÎ¬Î´ÎµÏĤ
ĠÎĳÎ» ÎºÎ¯Î½Î¿
ĠÎ´ÏħÎ½Î¬ Î¼ÎµÎ¹ÏĤ
ĠÎºÎ¿ÏģÏħÎ´Î± Î»Î»ÏĮ
ĠÎºÎ¿ÏģÏħÎ´Î± Î»Î»Î¿Î¯
ĠÎµÏħÏĩÎ±ÏģÎ¯ÏĥÏĦÎ· ÏĥÎ±Î½
ĠÎŃÎºÎ± ÏĦÏĥÎµ
ĠÏĨÏģÎŃ ÏĥÎºÎ¿
ĠÎ¼ÎµÏĦÎŃ ÏĨÎµÏģÎ±Î½
ĠÎºÎ±Î¼Î¬ ÏģÏīÎ½Îµ
ĠÎºÏĮÎ» ÏĢÎ±
ĠÎ´Î¹Î±Î»ÎŃ Î¾ÎµÎ¹
ÎĪÏĨÏĦÎ± ÏĥÎµ
ĠÏĥÎ¹Î´ÎµÏģÎŃÎ½ Î¹Î¿
ĠÎĳÏĢÎ¿ ÎºÏģÎ¯Î¸Î·ÎºÎµ
ĠÎ¶ÏīÎ³ÏģÎ±ÏĨÎ¹ ÎŃÏĤ
ĠÎµÎ³ÎºÎ±ÏĦÎ± Î»ÎµÎ¯
ĠÏĩÎ±ÏģÎ¹ÏĦÏī Î¼ÎŃÎ½Î¿
ĠÎ²Ïģ ÎµÎ¯ÏĦÎµ
ĠÎ¼Î±Î¸Î® Î¼Î±ÏĦÎ±
ĠÎŃÏĨÎ¸Î± ÏĥÎµ
ĠÏĨÎ±Ïģ Î¼Î¬ÎºÎ¹
ĠÎºÎ¿ÏģÎ´ ÎŃÎ»ÎµÏĤ
ÏĦÏĥÏī Î¼ÎŃÎ½Î¿ÏĤ
ĠÏĨÎ»ÏĮ Î³ÎµÏĤ
ĠÎ·ÏģÎµ Î¼Î¯Î±
ĠÂµÏħ Î±Î»ÏĮ
ĠÎĺÎ±Î½Î±ÏĥÎ¬ ÎºÎ·ÏĤ
ĠÎ³ÎµÎ³Î¿Î½ ÏĮÏĤ
ĠÎĴÎ¿ ÏģÎ¹Î¬ÏĤ
ĠÎ´Î¹Î±ÎºÏģÎ¯ Î½ÎµÎ¹
ĠÎ¶Î·ÏĦÎ¹ Î¬Î½Î¿ÏĤ
ĠÎŃÏĥÏī ÏĥÎµ
ĠÏħÏĢÎ¬ ÎºÎ¿Ïħ
ĠÏĪÎ¯ ÏĩÎ¿Ïħ
ĠÏĥÏĦÎŃÎº Î¿Î½ÏĦÎ±Î½
ĠÎµÎ»Î±ÏĨÎ¹ ÏİÎ½
ĠÏĥÏįÎ¼Î²Î¿Ïħ Î»Î¿ÏĤ
ĠÎºÎ±Î¸Ïħ ÏĥÏĦ
ĠÎºÎ±ÏĦÎ±ÏĨ ÎŃÏģÏī
ĠÎ´Î¯ÎºÎ±Î¹ Î¿ÏĤ
Î¿Î³ÏģÎ± ÏĨÎ¯Î±
ĠÎºÎ»Î±Î¯ Î³Î¿Î½ÏĦÎ±ÏĤ
ĠÎ´Î±Î½ ÎµÎ¯
ĠÎ¬ÏĥÏĦÎµ Î³Î¿ÏĤ
ĠÎ±ÏĢÏĮÎ»Ïħ ÏĦÎ·
Î¹ÎºÎ¿Î½ Î¿Î³ÏģÎ¬ÏĨÎ·
Î²Î±Î¯ ÏīÏĤ
ĠÎ´ÎµÎ»ÏĨ Î¯Î½Î¹Î±
ĠÎµÎ½Î½Î¿ ÎµÎ¯ÏĤ
ĠÎ§ÏģÏħÏĥÎ±ÏĨ Î®ÏĤ
ÏĦÎ¿Ïĩ ÏģÎ¿Î½Î¹Î¬ÏĤ
ĠÎ¼Î¿ÏħÏĥÎµ Î¯Î¿
ĠÎºÎ±Î»Ïį Î²Î±
ĠÎµÎ¾Ïİ ÏĢÎ¿ÏģÏĦÎ±
ĠÏĥÎ·ÂµÎ± ÏĥÎ¯Î±
ÎĵÏģÎ¬ ÏĨÎµÏĦÎ±Î¹
ĠÏĢÎ·Î³ Î¿ÏįÎ½Î¹
ĠÎºÎ»ÎŃÏĨ ÏĦÎ·ÏĤ
ĠÏĢÎ±ÏģÎ·Î³Î¿ ÏģÎ¹Î¬
ĠÎľÏħ ÎºÎ®Î½ÎµÏĤ
ĠÎµÏħÏĩÎ¬ ÏģÎ¹ÏĥÏĦÎ¿
ĠÏĦÏĮÎ» Î¼Î·ÏĥÎµ
ĠÎ¾Î·Î¼ÎŃÏģÏī Î¼Î±
ĠÎµÎºÎ±ÏĦ Î¿Î½ÏĦÎ¬Î´ÎµÏĤ
ĠÎºÎ»Î±Î¹ ÏĤ
ĠÎºÎ¬Ïģ Î²Î¿ÏħÎ½Î±
ĠÎºÎ¬Î» ÏĦÏĥÎµÏĤ
ĠÎļÏħÏĢ ÏģÎ±Î¯Î±
ĠÎľÎµÎ½ÎŃÎ»Î± Î¿ÏĤ
ĠÎ±Î»Î»Îµ ÏģÎ³Î¯Î±
ĠÎ´ÎµÏħ ÏĦÎµÏģÏĮÎ»ÎµÏĢ
ĠÏĨÎ¹Î»Î¿ Î¾ÎµÎ½
ĠÎ²ÎµÎ»Î¿Ïį Î´Î¹
ĠÎ»ÎµÏĢÏĦÎ¿ Î¼ÎŃÏģ
ĠÎ±ÏĢÎ¿Î¼Î±ÎºÏģÏħÎ½ Î¸ÎµÎ¯
ĠÎ±Î½Î¸ÏģÏīÏĢÎ¿ÏĨ Î¬Î³Î¿ÏĤ
ĠÎĳÏħÎ³Î¿Ïħ ÏĥÏĦÎ®ÏĤ
ĠÎºÎŃÏĨ Î¹
ĠÎ±Î¼Î¬ Î¾Î¹
ĠÏĥÏĦÎ¿Î¯Ïĩ Î·Î¼Î±
ĠÎ±Î»Î¿Î¹ ÏĨÎ®
ĠÎ±Î³Î±Î½Î± ÎºÏĦÎ¹
ĠÎ¹Î´Î¹Î¿Îº ÏĦÎ®
ĠÎ»Î±ÏĩÏĦÎ¬ ÏģÎ±
ĠÎ±ÏģÏĥÎµÎ½Î¹Îº Î¹Î¬
ĠÎ¡Î¿Î¶ ÎŃÎ½Î¹Î±
ĠÎłÎ¡ÎĻÎĵÎļÎĻÎłÎĻÎ£Î£ ÎķÎ£
ĠÏĥÏĨÎ±Î¯ ÏģÎ±
ĠÎŃÂµÎ¿ Î¹Î±
ĠÎºÎ±Î»Î±Î¼ÏĢ ÏĮ
ĠÎłÏģÏĮÏĥÎµ Î¾Îµ
ĠÎ´ÏīÎ¼Î±ÏĦÎ¯ Î¿Ïħ
ĠÎ¦ÎµÏģ ÏģÎ¬ÏģÎ¹
ĠÏĢÏģÎ¿ÎºÎµÎ¹ Î¼ÎŃÎ½Î¿Ïħ
Î¼Î¿Î½Î¿Î´ Î¬Ïĥ
ĠÎłÎ±Î¼ÏĢÏĮ ÏģÎ±ÏĤ
ĠÎĳÏĢÎ¿ÏĪÎ¹ Î»Ïī
Î¹ÎºÎ¿Î½Î¿Î³ÏģÎ¬ÏĨÎ· ÏĥÎ·
; âĢ¦
Ġ 8
ĠÎ ¨
Î± ÏĦÎ±
Î± Î»Îµ
Îµ ÏģÎŃ
Î½ ÎŃÏĤ
Î½ ÏİÏĥÎµÎ¹
ÏĦ ÏĦÎ±
ÏĦ ÏģÎ¿ÏĤ
ÏĦ Î¿Î½ÏĦÎ±ÏĤ
ÏĦ Î¶Î¯
ÏĦ ÏĥÎ¯
ÏĦ ÏģÎ¯Î±
Ïģ ÎµÎ¯ÏĤ
ĠÏĦ Ïī
ĠÏĦ ÎŃÎ½
ĠÏĦ Î¿ÏĨ
ĠÏĦ Î¶Î±
Î¬ Î¶Î¿ÏħÎ½
Î» ÏĦÎ¬
Î» ÏħÏĦ
Î» Î¿Ïĥ
Î» Î»Î¯Î±
Î» Î¿ÏĬ
Ïĥ ÎºÎ¿Ïħ
Ïĥ ÏĮÎ»Î¹
Ïĥ ÏĨÎ±
Î· Î³Î±
Î· Î¼ÎŃÎ½Î·
Î¯ ÎºÎ±
ĠÎº Ïī
ĠÎº Î¹Î¬
ĠÎº Î¿Î¯
Îº Î»Î¹
Îº Î¯Î½Î±
ĠÏĢ Î¯Î½ÎµÎ¹
ĠÏĢ ÏģÎ¿ÏĢ
ĠÏĢ Î»Ïį
ĠÏĢ Î»ÎŃÎ½
ĠÏĢ Î»Î®ÏģÏī
ÏĮ Î»Î¿Î¹
Î¼ ÏİÎ½
Î¼ Î¿ÏĩÏİÏģÎ±
ĠÏĥ ÏĮ
ĠÏĥ ÏĩÎ¹
ĠÏĥ Î¬ÏĥÏĦÎ¹ÏĥÎµ
ĠÎ± Î¾
ĠÎ± Î¼Î±
ĠÎ± Î´Î¹Î¬
ĠÎ± Î´Î¹Î±
ĠÎ± ÏĥÎ®
ĠÎ± ÏĥÏĩÎ®
Î³ Î»Î¹
Î³ Î¿Î½ÏĦÎ±Î¹
Î³ ÎºÎ±ÏĤ
Î³ ÎºÎµÎ»Î±
Î±Î½ Î¿Ïį
Ïī ÏģÎ¯
Ïħ Î¿
Ïħ Ïħ
Ïħ Î»Î·
Ïħ Î¼Î®Î¸Î·ÎºÎµ
ĠÎºÎ±Î¹ Î½Î±
ĠÎºÎ±Î¹ ÏĦÎ¿
ĠÎµ Î»Îµ
ĠÎµ Î½Îµ
ĠÎµ ÏįÏģÎ¹
Î¹Î± ÏĥÎ¼ÎŃÎ½Î¿ÏĤ
Ïĩ ÏĮ
Ïĩ Î¸Î·
Ïĩ ÏĦÎ®
ĠÎ½ Î¬
ĠÎ½ Ïħ
ĠÎ½ Î¿ÏįÎ¼Îµ
Î® Î¸Î·
Î® Î½ÏĦÎ±
ĠÏĦÎ¿ Î±Î³Î¿ÏģÎ¬ÎºÎ¹
ĠÏĦÎ¿ ÎºÎµÏĨÎ¬Î»Î¹
ĠÎŃ ÏģÏī
ĠÎŃ Î¾Î·
ĠÎ½Î± ÏĦÎ¿Î½
ĠÎ½Î± ÎºÎ±ÏĦÎ±
ĠÏĦÎ¿Ïħ ÎºÎ±Î¹
ĠÎ´ Î®
ĠÎ´ Î¯Î½Î¿ÏħÎ½
ĠÎ´ Î¯Î½ÎµÎ¹ÏĤ
ĠÎ´ Î¯Î½Î¿Î½ÏĦÎ±ÏĤ
ÏĦÎ± Ïģ
Ïİ Î½ÎµÏĦÎ±Î¹
Ïį Î¸Î¹
Ïį ÏĥÎ·ÏĤ
Ïį ÏĪÎ·
ÏĨ ÏģÎ±
Î½Î± Î³Îµ
ĠÎµÎ¯ Î´Î·ÏĥÎ·
ĠÎ¿ Î¼
ĠÎ¿ Ïį
ĠÏĮ ÏĩÎ¸Î·
ĠÎ±ÏĢ Î»Î®
ÏĦÎ¹ ÎºÎ·
ĠÏĦÎ± ÏįÏģÎ¿ÏĤ
ĠÏĦÎ± Î²Î¬Î½Î¹
ĠÎ¼Îµ ÏĥÎ¬Î½
Î² ÎŃ
Î² Ïİ
Î² ÏįÏģÎ¹
ĠÎ² Î»Î±
ĠÎ² ÏģÏĮ
ĠÎºÎ± ÏĦÎ¿Î¯
Î¿Î½ ÏĦÏħ
ÎµÎ½ Î¿ÏĨ
ĠÏĩ ÏĦÎ¯
ĠÏĩ Î»Ïī
ĠÏĩ Î¬Î»Î±
Î¾ Î¬
ÏĦÎ¬ Î¼ÏĢÏĦÎ¹
ÏĦÎ· Î´ÎµÏĤ
Î»Î¹ ÎŃ
Î¼Î± Î¼Î¬
Î¼Î± Î¶Î¯
ĠÎ¸ ÏģÎ±Î½Î¯Î¿
Âµ Âµ
Âµ ÂµÎ±
ĠÎ» ÎµÎ¹
ĠÎ» Î¿Ïį
Î¿Ïģ Î¸
Î¿Ïģ ÏģÎ¬
Î¬Î½ Î·ÏĤ
Î¹Îº ÏİÎ½
Î¹Îº Î¿Î¯
Î¹Îº Î¿ÏįÏĤ
ĠÏĥÏĦÎ¿ ÎŃÏĤ
ĠÏĢÎ± ÏĢÎ¯
ÏģÎ¯ Î¿Ïħ
ÏģÎ¯ Î´Î±
ÏģÎ¯ ÏĦÎµÏĤ
ĠÎ¼Î± ÏģÎ¼Î±
ĠÎ¼Î± ÏģÎ¿ÏįÎ»Î¹Î±
ÏĢÎµ ÏĦÎµÎ¹
Î»Î· ÏĥÎ·
Î¹Î¬ Î¿Ïħ
Î»Î¿ Î³Î±
Î¼Îµ ÏģÏİ
ĠÎºÎ¬ ÏĦ
ĠÎºÎ¬ ÏĥÏĦÏģÎ±
ĠÎ¼ÏĢ ÏģÎ¬
ÎºÎ± Î¼Ïī
ĠÏĢÎµ ÏĦÎµÎ¹
ĠÏĢÎµ ÏĦÎ¿ÏįÎ½
ĠÏĢÎµ Î¸Î±Î¯Î½ÎµÎ¹
ĠÎļ Î¿Î½ÏĦÎ¬
ĠÎ¼Î¿Ïħ ÏĥÏĦÎ¬
ĠÎľ Î±Î½
ÎºÏĮ ÏĤ
ÎºÏĮ ÏĥÏĦÏģÏī
Î³Îµ Î¸Î¿ÏĤ
ĠÂµ Î¯Î±
ĠÂµ Î¹Ïĥ
Î¼Î¬ ÎºÎ¹Î±
Î¼Î¬ Î³ÎµÎ¹
Î¼Î¬ Î¼ÎµÎ½Î·
ĠÎķ Î»ÎµÎ½
ÎºÎ¬ Î¼Î¹
Î¸Î· Î¼Î¬
Î¸Î· ÏĥÎ·
Î³Î¿ Î®ÏĦÎµÏħ
ĠÎł Î¹
Î¸Îµ ÏĦÎ±
ĠÎ²Î± ÏĥÎ±Î½
ĠÎ²Î± ÏĦÏĮÎ¼Î¿Ïħ
ÎŃÏģ ÎµÎ¹
ÏĮÏĥ Ïī
ÏģÎŃ Î¹
ÏģÏĩ ÏĮÏĦÎ±Î½
ÎŃÏģÎ± ÏĥÎ±
ÏģÎ· Î¼ÎŃÎ½Î±
ÎŁ Î£
ĠÎ£ Î±
ĠÎ£ Î¹Î´Îµ
ĠÎ£ Î¯Î³Î¿ÏħÏģÎ±
ĠÎ£ ÏĦÎ¬Î¸Î·ÎºÎµ
Îļ ÏįÏģÎ¹Îµ
ĠÏģ ÎµÏį
Î¶Îµ Ïį
Î¼ÏĢ Î¿Ïħ
Î¼ÏĢ Î¹Î¬
ĠÏĩÎ± Î¼ÎŃÎ½Î¿
ĠÏĩÎ± Î¼ÎŃÎ½Î·
ĠÏħ ÏĢÎ±
ĠÎĪ Î¼Î±
ĠÎĪ Î´ÏīÏĥÎµ
ĠÎĪ Î²Î±Î»Îµ
ĠÎĪ ÎºÎ±Î½Î±Î½
ĠÎĪ Î²Î³Î±Î»Îµ
Î²Î± ÏĥÎ±Î½
Î²Î± ÏĦÎ¹ÎºÎ¬
ÎºÎ¿Ïħ ÏģÎ±
ĠÎĶ ÏģÏĮ
ĠÎĶ Î¹Î¬
ÏĦÏī Î¸ÎµÎ¯
ĠÏĪ ÎŃ
ĠÏĪ ÏįÏĩ
Îķ ÏĦÏĥÎ¹
Îķ ÏĢÎµÎ¹Î´Î®
ĠÎ»Î¯ Âµ
Îł ÏģÎ¿Ïĥ
Îł Î»Î·ÏĥÎ¯Î±ÏĥÎµ
Îł Î¿Î¹Î±
Îł Î±Î¹Î´Î¹Î¬
ÎºÎ¿Ïį Î»Î¹
ÎºÎ¿Ïį ÏĨÎ¹
ÏĢÎ¬ ÎµÎ¹
Î³Î¹ Î¶Î±Î½
ĠÎ¾Îµ ÏĨ
ĠÎ¾Îµ Î¼Î¬
ĠÎ¾Îµ ÏĦÏģÎµ
ĠÎ¾Îµ Î³ÎµÎ»Î¬
ĠÎºÎ¿Ïħ ÏĨÎ¬
ĠÎĵ Î¬
ĠÏĥÏĢÎ¯ ÏģÏĦÎ±
ĠÎºÏĮ ÏĪÏī
ĠÎ±Î³ ÎŃÎ»Î±
ÏĦÏĮ ÏģÎ¸
ÏĦÏĮ ÏĢÎ¿ÏħÎ»Î±
ĠÎ´Îµ ÎºÎ±
Î£ Ïī
ÏĢÎ¿Î¹ Î¿
ĠÏĢÎµÏģÎ¹ Î¿ÏħÏĥÎ¯Î±
ĠÏĩÏī ÏģÎ±
ĠÏĢÎ±ÏģÎ± Î¼Îµ
ĠÎ¼Î¹ÎºÏģÏĮ ÏĦÎµÏģÎ¿
ĠÏĥÏħÎ½ Î¬Î½
ĠÏĥÏħÎ½ Î´Ïħ
Î»Î¯ Î¿Ïħ
Î¼ÎµÎ½ Î¿Î¹
ĠÎ³Îµ Î¼Î¹
ĠÎ³Îµ ÏįÎ¼Î±
ĠÎºÏħ ÏģÎ¹
ÎŃÏĥ Î¿ÏħÎ¼Îµ
Î¬Ïĥ ÏĦÎ·ÎºÎ±Î½
Î³Î· ÏĥÎ·
ÏĦÏĥ Î¹Îº
ĠÎĴ Îµ
ĠÎĴ Î¬
ĠÎĿ ÏĦÎ¯Î½
ĠÎ´Î¹Î± ÏĨÎ¿ÏģÎ¬
ĠÎ´Î¹Î± Î³ÏīÎ½
ĠÎºÎ±ÏĦÎ¬ ÏģÎ±
ÎĪ ÏĨÏħÎ³Îµ
ĠÎ¹ Î±
ĠÎ±ÏĨ ÎŃÎ½
Î»Î¿Ïħ Î²Î¯
Î³Î® ÎºÎ±Î½
ÂµÎ± ÏĦÎ¹
ĠÎºÎ±Î» Ïħ
ĠÎºÎ±Î» ÏİÏĤ
ĠÏĨÎ± ÎĲ
ĠÎ»ÎŃ Î³Î±Î½Îµ
ĠÎµÏĢÎ¹ Î»Î¿
ĠÎī ÏĢÎ¹Îµ
ĠÏĥÏĦÎ¹ Î»ÎŃ
ĠÎ¯ ÏĥÎ¹Î±
ĠÎ¯ ÏĩÎ½Î¿ÏĤ
Î¿Ïĩ Î¬Î»Î¹
ÏģÎ½ Î¿ÏįÏĥÎ±Î½
ĠÎºÎ¬Î¸Îµ ÏĥÎ±Î¹
ĠÎ³Î¹ Î½ÏĮÎ½ÏĦÎ¿ÏħÏĥÎ±Î½
Î»Ïī Î¼Î±
ÏģÏĮÎ½ Î¹Î±
ÏģÎ±Î½ ÏĦÎ±
ĠÏĢÎ±ÏģÎ¬ ÏĥÏĦÎ±ÏĥÎ·
Î²Îµ ÏĦÎ±Î¹
ĠÏĢÏģÏĮ Î²Î±
ĠÏĨÏį ÏĦÏģÏī
Î¼Î¹ ÎŃÏĤ
Î¼Î¹ Î¶Î±Î½
ĠÎ±ÏħÏĦÎ¬ ÎºÎ¹
ĠÎµÎ¾ Î·Î³
ĠÎµÎ¾ Î±Î¹ÏģÎµ
ÏĥÎ¿ Î¼Îµ
ĠÏĥÎ· Î¼Î¬
ĠÎĽ Î¯Î±
ĠÎ±ÎºÎ¿Ïį ÏĥÏĦÎ·ÎºÎ±Î½
ĠÎŃÎ»Îµ Î³ÎµÏĤ
ĠÎļÎ± Î»Î®
Î½Î® Î¸Î·ÎºÎ±Î½
Î´Î· ÏĥÎ±Î½
ĠÎľÎ± ÎºÎ¬ÏģÎ¹
ĠÏĢÎ±Î½ ÏĦÎµÎ»
ĠÏĢÎ±Î½ ÏįÏĪÎ·
ĠÏĩÎ¬ ÏĥÏī
ĠÎ¼ÏĢÎ± Î¿ÏįÎ»Î¿
ĠÏĥÏħÎ¼ ÏĢÎ±Î¸
ĠÏĥÏħÎ¼ ÏĨÏīÎ½Î¯Î±
ĠÎ»Î± ÏĮ
Î»ÎµÏħ Î¸
Îĵ Î¹
ÎŃÏĪ Î¿ÏħÎ¼Îµ
ĠÎºÎ¿Ïģ Î¿ÏįÎ»Î±
ĠÎºÎ±Ïģ ÏĨÏī
ĠÏī ÏģÎ±Î¹
ĠÎºÏģÎ± ÏĦÎ¬
Î½Î¹ ÏİÎ½
ÏĨÎ± Î³Îµ
ĠÎ¦ ÏĦÎ¬
ĠÎµÎ¼ ÏĢÎ¹
Î»ÎµÎ¯ Î±
ĠÎ²Î±ÏĥÎ¯ Î»Î¹ÏĥÏĥ
ĠÏĢÏģÎ¿ Î²Î»Î·
ĠÎ´Î¿Ïħ Î»ÎŃÏĪÎµÎ¹
ÎļÎ± Î»ÎŃ
ĠÎĳÎ½ ÏĦÎ¯
ÏģÎ¹Ïĥ Î¼ÏĮ
ĠÏĦÏģ ÏīÏĤ
ĠÏĦÏģÎ± Î²Î¬
ĠÏĢÎµÏģÎ½ Î¬ÎµÎ¹
ĠÏĢÎ»Î· Î¼Î¼
ĠÏĢÎ»Î· Î³ÎŃÏĤ
ĠÎ³Î¬ ÏĦÎµÏĤ
ĠÎ´Ïİ ÏĥÎµ
ĠÎ±Î»ÎµÏĢÎ¿Ïį Î´ÎµÏĤ
ĠÎ³Î»Ïħ ÎºÎ¿
ĠÏĦÏģÎ¹ Î¬Î½ÏĦÎ±
ĠÏĢÎ¿Î¹ Î¿Î¹
ĠÏĨÏĮ ÏģÎµÏĥÎ±Î½
ĠÏĥÏĢÎ¹ ÏĦÎ¹ÏİÎ½
ĠÏĪÎ¬ Î¸Î¹
ÏģÎ¿ÏħÎ½ Î¿
ÏĦÏį Î»Î¹
ĠÎµÎº Î´ÏģÎ¿Î¼Î®
ĠÏĨÎ±Î½ ÎµÏģÎ¬
ĠÏĦÏģÏĮ ÏĨÎ¹
ĠÏĩÎ¿Ïģ ÏĦÎ¬
ĠÏĩÎ¿Ïģ ÎŃÏĪÎµÎ¹
ÏĥÏĦÎ¬ ÏĥÎµÎ¹ÏĤ
ĠÎºÎ±ÏĦÎ±Î»Î¬Î² ÎµÎ¹ÏĤ
ĠÎºÎ±ÏĦÎ±Î»Î¬Î² Î±Î¹Î½Î±Î½
ĠÏĢÎ±Î¹Î´ Î¹ÎºÎ¬
ĠÏĢÎ±Î¹Î´ Î¹ÎºÏĮ
ĠÎºÏģÏį Î²
Î»Î»Î± Î³
ĠÏĢÎµÏģÎ¹ÏĥÏĥÏĮÏĦÎµ ÏģÎµÏĤ
ĠÏĦÏĮ ÏĢÎ¿ÏĤ
ÏĦÎ¿ÏĢ Î¿Î¯
ĠÎµÏħÏĦÏħÏĩ Î¹ÏĥÎ¼ÎŃÎ½Î±
ĠÎµÏĢÏĮ Î¼ÎµÎ½ÎµÏĤ
ĠÏĨÎŃÏģ Î¿ÏħÎ½
ĠÎŀ ÎŃÏģÏī
ĠÎŀ ÎµÎ½Î¿ÏĨ
ÏĦÏİ ÏģÎ¹Î¿ÏĤ
ĠÎ³ÏģÎ¬ ÏĪÎµÎ¹
ÏĦÏģÏī Î³Îµ
ĠÏĨÏĦÎ¹Î¬ Î¾Ïī
ĠÎ¸Îµ Î¬
ĠÎ¸Îµ Î¿Ïį
ĠÎĳÏħÏĦ Î¿Î¯
ĠÎ¬ÏĥÏĢ ÏģÎ·
Î±Î± Î±
ĠÏĪÎ± ÏģÎ¬ÏĤ
Î§ ÎĻ
ĠÎ¼Î±Î» ÏİÎ½Î¿ÏħÎ½
ĠÎºÎ±ÏĦÎ¬ÏĨÎµ ÏģÎ±
ĠÎºÎ±ÏĦÎ¬ÏĨÎµ ÏģÎµÏĤ
ĠÎºÎ±ÏĦÎ¬ÏĨÎµ ÏģÎ½Îµ
ÎĨ Î½Î¿Î¹
Îī ÏģÎ¸Îµ
ĠÎºÏħÎ½Î· Î³ÏĮ
ĠÎŃÎ²Î³Î± Î»Î±Î½
ĠÎ³ÎµÎ½ Î½Î¬
ĠÎ»Î¹Î¿Î½ÏĦÎ¬ ÏģÎ¹Î±
ĠÎ²ÏĮ Î»Î¿ÏĤ
ÏĥÎ¬ Î¼Î¹
ĠÎŃÎ½Î¹ ÏīÏĥÎ±Î½
ĠÏĩÏģÎ® ÏĥÎ¹
ĠÏĩÏģÎ® ÏĥÎ¹Î¼Î¿
ĠÎ³Î¿Ïħ Î»Î¹Î¬
ĠÏĥÎ·Î¼Î± Î¯Î±
ĠÏĦÏģÏİ Î³Î¿Î½ÏĦÎ±ÏĤ
ÏģÎ¹Î½ ÎŃÏĤ
Î¾Î± Î¼Îµ
ĠÏĨÏĦÏīÏĩ Î¹ÎºÏĮ
ÏĨÎ¬Î½ Î¹Î±
ĠÎŃÏĨÏĦÎ¹Î± ÏĩÎ½Î±Î½
ĠÎµÏħÏĩÎ±ÏģÎ¹ÏĥÏĦ Î®ÏĥÏī
ĠÏĢÎ·Î³Î± Î¯Î½Ïī
ĠÏĢÎ·Î³Î± Î¯Î½ÎµÎ¹ÏĤ
ĠÏħÏĢÏĮÎ»Î¿Î¹ ÏĢÎµÏĤ
ĠÏģÎ¬ ÏĩÎ·
ĠÎ¼Î±Î½ Î¯Î±
ĠÎ¼Î±Î½ ÏĦÎ®
ĠÏĥÏĦÎ¬ Ïĩ
ĠÏĦÏĮÏĥ Î¿ÏħÏĤ
ĠÏĢÎ»Î± ÏĦÏį
ĠÎ¼Î¹ÎºÏģÎ¿Ïį Î»Î±
ĠÏģÏī ÏĦÎ¿ÏįÏĥÎµ
ĠÎ¼ÎµÎ³Î±Î»ÏįÏĦÎµ ÏģÎµÏĤ
ĠÏĦÏģÎ¯ ÏĦÎ¿ÏĤ
ĠÎ³Î½Ïİ ÏģÎ¹ÏĥÎ±Î½
ĠÏĦÎ¿Ïį ÏĦÎ·
ĠÏĦÎ¿Ïį ÏģÏĦÎ±
ĠÏĦÎ¿Ïį Î²Î»Î±
ĠÎ²Î³Î¬ Î»Î¿ÏħÎ½
ĠÎĳÏĢ Î»Î¬
ĠÎłÎµ ÏģÎ¯
ĠÎłÎµ Î»Î±Î³
ĠÏĦÏĥÎ± ÎºÏİÎ½
ĠÏĦÏģÏį ÏĢÎµÏĤ
Î¦ ÏħÏĥÎ¹ÎºÎ¬
ĠÎŃÎ´Î¹ Î½Î±Î½
ĠÎºÎ¿ÏħÏģÎ± ÏĥÎ¼ÎŃÎ½Î¿
ĠÎŃÏģÎ¹ ÏĩÎ½Îµ
ĠÎ±Î½Î¿Î¹ Î¾Î¹Î¬
ĠÏĢÎ¿Î½ÏĦÎ¯ ÎºÎ±ÏģÎ¿ÏĤ
ĠÏĩÎ±ÏģÎ¿ÏįÎ¼ÎµÎ½ ÎµÏĤ
ĠÎ¿Î»ÏĮÎºÎ»Î· ÏģÎµÏĤ
ĠÎ³Î½ÏīÏģÎ¯ Î¶ÎµÎ¹
ĠÎµÎ¹ ÏģÏīÎ½
ĠÎ¼ÏĢÎ¿Ïħ ÎºÎ¬Î»Î¹Î±
ĠÏĢÎ±ÏģÎ±ÎºÎ± Î»Î¿ÏįÏĥÎµ
ĠÎµÎ¼ÏĨÎ±Î½ Î¯ÏĥÏĦÎ·ÎºÎ±Î½
ĠÏĥÏĦÎŃ ÎºÎµÏĦÎ±Î¹
ĠÎ²Î±ÏĥÎ¯Î»ÎµÎ¹ ÏĮ
ĠÎ²ÏģÎ± Î´Î¹
ĠÎ²ÏģÎ± ÏĩÎ½
ĠÎºÎ±Î¸Î± ÏģÎ®
ĠÏĦÏģÎµ Î¼Î¬Î¼ÎµÎ½Î·
ĠÏĢÏģÎ¿ÏĥÎµ ÏħÏĩÎ®
ĠÏĢÎ¿Î½Î· ÏģÏĮ
ĠÏĢÎ¿Î½Î· ÏģÎ¹Î¬
ĠÏĢÎ¿Î½Î· ÏģÏĮÏĤ
ĠÎ¸Î· ÏģÎ¯Î±
ĠÎ¶ÏīÎ³ÏģÎ±ÏĨ Î¯Î¶ÎµÎ¹
ÏĦÎµÎ» ÂµÏĢÎ¬
ĠÎĽÎ¯ Î¼Î½Î·
ÏģÎ³Î¿ Î¯
ĠÎµÏĢÎ¹ÏĥÏĦ ÏģÎŃ
ĠÎ³Î¹Î¿Ïģ ÏĦÎŃÏĤ
ĠÏĥÏħÎ½Î±Î½ ÏĦÎ®ÏĥÎµÎ¹
ĠÏĥÏħÎ½Î±Î½ ÏĦÎ®ÏĥÎµÎ¹ÏĤ
ĠÎĶÎ¹ ÎµÏģÏīÏĦÎ®Î¸Î·ÎºÎµ
ĠÏĦÎŃÏĦÎ¿Î¹ ÎµÏĤ
ĠÎ¾ÏħÎ»Î¿ÎºÏĮ ÏĢÎ¿Ïħ
ĠÏĥÏħÎ³ Î³ÏģÎ±ÏĨ
ĠÏĥÏĢ ÏģÎŃÎ¹
ĠÏĢÎ±Î½ÎŃ ÂµÎ¿ÏģÏĨ
ĠÏĥÎºÎ¿Ïħ Î»Î·
ÎłÎ± ÏĦÎŃÏģÎ±
ĠÏĢÎ±Î³Ïī Î¼ÎŃÎ½Î·
ĠÎ¼Î¬Î¶Îµ ÏĪÎ±Î½
ĠÎ²Î¹Î± ÏĥÏį
ĠÎºÎ¿Î»Ïħ Î¼ÏĢÎ¬
Î²Î¿Î» Î¿ÏįÏĥÎµ
ĠÎ¿Î¹ÎºÎ¿Î³ÎŃÎ½ÎµÎ¹ ÎµÏĤ
ĠÎŃÎ½ ÏĦÎ¿Î½Î±
ĠÎ¾ÎµÏĩÎ¬ ÏĥÏī
ĠÏĢÎ¿Î½ÏĦÎ¹ ÎºÎ¿
ĠÏĢÎ¿Î½ÏĦÎ¹ ÎºÎ¿ÏįÏĤ
ĠÎºÎ±ÏĦ Î¿ÏģÎ¸Ïİ
ĠÎ¼Î±ÎºÏģÎ¹ Î½Î¬
ĠÎ£ÏĦÎ±ÏĩÏĦÎ¿ÏĢÎ¿Ïį ÏĦÎ±ÏĤ
ĠÏħÏĢÎ¿Ïĥ ÏĩÎµ
ĠÏĥÏĦÎ¿Î»Î¯ Î´Î¹
Î³Î¿Î½ ÎµÎ¯ÏĤ
ĠÎ½ÏħÏĩ ÏĦÏİÎ½ÎµÎ¹
ĠÎµÎ½Î¸Î¿ÏħÏĥÎ¹Î± ÏĥÎ¼ÎŃÎ½Î¿ÏĤ
ĠÎ¼ÏĢÎµ Îº
ĠÎºÏħÏģÎ¯ ÏīÏĤ
ĠÎºÎ±Î¸Î· ÏĥÏįÏĩÎ±
ĠÎłÏģÎ¹Î³ÎºÎ¯ÏĢÎ¹ÏĥÏĥÎ± ÏĤ
ÎºÏģÎ¹ ÏĥÎ±Î½
ĠÎ±Î½Î·ÏĥÏħÏĩ ÎµÎ¯ÏĤ
ĠÎºÎ±Î· Î¼ÎŃÎ½Î¿
ÎłÎ® ÏģÎµ
ĠÎ§ÏģÏħÏĥ Î¿ÏįÎ»Î¹Î±
Î´Î¿Ïħ ÏĥÎ±
ĠÎ¾ÏħÏĢ Î½Î®
ĠÎ£Îº ÎŃÏĪÎ¿Ïħ
ĠÏħÏĢÎµ ÏįÎ¸Ïħ
ĠÎĴÎ±Î³Î³ ÎŃÎ»Î·
Î´Î¿Ïį Î»ÎµÏĤ
ĠÎ¿Î»Î¿ ÎŃÎ½Î±
ĠÎ¿Î»Î¿ ÎºÎ»Î·
ĠÎ²ÏħÎ¸ Î¿Ïį
ĠÏĢÎ±Î½ÎŃÎ¼Î¿ÏģÏĨ Î±
ĠÏĢÎŃÏģ Î´Î¹Îº
ĠÎ·Î»Î¹ ÎºÎ¹
ĠÏĢÎµÏģÎ®ÏĨÎ±Î½ Î·
ĠÏĢÎµÏģÎ®ÏĨÎ±Î½ Î¿ÏĤ
ĠÎĪÏĩ Î¿ÏħÎ½
ÎłÎµ ÏģÎ¯
ÂµÎ¿ÏģÏĨ Î¹Î¬
ĠÎ±Î´ÏįÎ½Î± ÏĦÎ¿
ĠÏĩÏģÎµÎ¹Î± ÏĥÏĦÎµÎ¯
ĠÎ¸Î·ÏĥÎ±Ïħ ÏģÎ¿ÏįÏĤ
ĠÎµÏĢÎ¹ÎºÎ¯Î½Î´Ïħ Î½Î±
ĠÎµÏĢÎ¹ÎºÎ¯Î½Î´Ïħ Î½Î¿Î¹
ĠÎ¸ÏĮÏģÏħ Î²Î¿ÏĤ
ĠÎ¼Î¿Î¯ÏģÎ± Î¶Îµ
ĠÎ´Î¹ÎºÎ± ÏĥÏĦÎ®ÏģÎ¹Î¿
ĠÏĦÏģÎ¿Î¼Îµ ÏģÏĮ
ĠÎŃÏĢÎ± ÏħÎ»Î·
ĠÎ¼Î±Î³Î± Î¶Î¹Î¬
ĠÎ¾ÎµÎºÎ¹ Î½Î¬
ĠÎ´ÎµÎ»ÏĨÎ¹ Î½Î¬ÎºÎ¹Î±
ĠÎ±ÏģÏĩÎ± Î¯Î¿
ĠÎŃÎ³ Î½Î¿Î¹ÎµÏĤ
ĠÎ¾Î± ÎºÎ¿Ïħ
ĠÎ¾ÎŃÏĩ Î±
ĠÎ¼Î¿ÏħÏģ Î¼Î¿Ïħ
ĠÎ½Î¹Ïİ Î¸ÎµÎ¹
Î¬Î½Î¸ÏģÏī ÏĢÎ¿Î¹
ĠÏĢÎµÎ¸Î¬Î½ ÎµÎ¹ÏĤ
ĠÏĢÏħÎº Î½Î¬
ĠÎ±ÏĢÎ¿Ïģ ÏģÎ¿ÏĨ
ĠÎĺÎ¬Î»Î±ÏĥÏĥÎ± ÏĤ
ĠÎ§Î¬ Î¼ÏĢÏĦÎ¹
ĠÎ³Î±ÏĬ Î´Î¿Ïħ
ĠÎºÎ¬Î¼ÏĢÎ¿Ïĥ ÎµÏĤ
ĠÎ¹Î´Î¹Î±Î¯ ÏĦÎµÏģÎ¿
ĠÏĨÏģÎ¿Ïħ ÏģÏĮÏĤ
ĠÎ¬Î½Î± ÏĪÎ±Î½
ĠÎ¬Î½ÏĦÎµ Î¾Îµ
ĠÎ¼Î±Î³ÎµÎ¹ ÏģÎ¹ÎºÎ®
ĠÏĢÎ®Î´Î· ÏĥÎµ
ÏĢÎ¿Î» Î»Î¬
ĠÎŃÎ½Î¿Î¹ ÏīÎ¸Îµ
ĠÎļÎ±Ïģ Î¼Îµ
ĠÏĥÎ¹ÏīÏĢÎ· Î»Î¬
ĠÏĥÎ¹ÏīÏĢÎ· Î»ÏĮÏĤ
ĠÏĢÏģÎ¹Î³ÎºÎ¹ÏĢÏĮ ÏĢÎ¿ÏħÎ»Î¿
ĠÎ¿Î´Î® Î³Î·ÏĥÎ±Î½
ĠÏĢÏģÎ¿Î² Î¿ÏĥÎº
ĠÎ¼Î±Î»Î± ÎºÏĮ
ĠÎľÎ¬Ïģ ÏĦÎ¹Î½
ĠÎ²Î±ÏģÏį ÏĤ
ĠÎ¼ÏĢÎ¿ÏģÎŃ ÏĥÏī
ĠÎºÎ±Î»Î»Î¹ ÏĥÏĦÎµÎ¯Î±
ĠÏĥÎ±ÎºÎ¯ Î´Î¹ÏĮ
ĠÏĦÏģÎ¿Î¼Î¬ ÏģÎ±
ĠÎ½ÏĦÎ¿ÏħÎ»Î¬ ÏĢÎ±
ĠÎ³Î¿ Î²Î¬ÎºÎ¹
ĠÏĨÎ»Î¿Ïħ ÏģÎ¹Î¬
ĠÂµÎ· ÏĦÎŃÏģÎ±
ĠÎłÏĮ Î»Î¿
ĠÏħÏĢÏĮÏĥ ÏĩÎµ
ĠÎºÎ±ÏĦÎ¿Î¹ ÎºÎ¿ÏįÏĥÎµ
ĠÎĴÎ¹ ÏĦÏİÏģÎ¹Î¿ÏĤ
ÎºÎŃ ÏĦÎ¿
ĠÎ¸ÎŃÎ± Î¼Î±
ĠÎ®ÏģÎµ Î¼Î·
ĠÎ±Î½Î±Î³ÎºÎ¬ ÏĥÏĦÎ·ÎºÎµ
ĠÎ±ÏĢÎ¿ÎºÎ± Î¼Ïī
ĠÎ¾Î±Î½Î±Î³ ÏįÏģÎ¹ÏĥÎµ
ĠÏĥÏĦÎŃÎ» Î½ÎµÎ¹
ĠÎ¼ÎµÏĦÎŃ ÏĨÎµÏģÎµ
ĠÎºÎ±ÏĦÎ±ÏĢÎ»Î·Îº ÏĦÎ¹ÎºÏĮ
ÎĪÏĨÏĦÎ± ÏĥÎ±Î½
ĠÎ²Î±ÏĦÏģÎ±Ïĩ Î¯Î½Î±
Î¬ÏĨ Î½Î¿Ïħ
ĠÎ³ÏħÏģÎ½ ÏİÎ½ÏĦÎ±ÏĤ
ĠÎ»Î¬Âµ ÏĪÎ·
ĠÎ¬Î³Î½Ïī ÏĥÏĦÎ¿
ĠÎºÎ±Î»Îµ ÏĥÎ¼ÎŃÎ½Î¿Î¹
ĠÎºÎ±Î»Îµ ÏĥÎ¼ÎŃÎ½Î¿ÏħÏĤ
Î¼ÎµÎ³Î¬ Î»Î·
ĠÎ£ÏĦÏģÎ¬ ÏĦÎ¿ÏĤ
ĠÎŃÏĨÎ¸Î± ÏĥÎ±Î½
ĠÏĢÏģÎ¿Î·Î³Î¿Ïį Î¼ÎµÎ½Î·
ĠÎ±Î½Î±ÎºÎ±Î»Ïį ÏĪÎµÎ¹
ĠÎ³ÏģÏį ÏĢÎ±ÏĤ
ĠÎ¼ÎŃÏĦÏī ÏĢÎ¿
ĠÎ¼ÎŃÏĦÏī ÏĢÏĮ
ĠÏĢÎµÏį ÎºÎ±
ĠÎ±Î½Î±ÏģÏīÏĦÎ¹ ÏĮÏĦÎ±Î½
ĠÎ±ÏĢÎ¿Î¼Î±ÎºÏģÏįÎ½ Î¸Î·ÎºÎµ
ĠÎºÎ±Î»Î· Î¼ÎŃÏģÎ¹
ĠÏĥÎ¹Î³Î¿Ïħ ÏģÎ¹Î¬
ĠÏĦÏģÎ¹Î³Ïħ ÏģÎ½Î¿ÏįÏĥÎµ
ÏĦÎŃÎ»ÎµÎ¹ Ïī
;âĢ ĵ
ĠÎ¼Î¿Î»Ïħ Î²
Î±Î½Î¸ ÏģÏİ
ĠÎĳÏħÎ³Îµ ÏģÎ¹Î½ÏĮÏĤ
ĠÎ£ÏĮ ÏĨÎ·
ĠÎ±Î½Î±Î³Î½Ïİ ÏģÎ¹ÏĥÎµ
ĠÎľÎµÏģÎ¹ ÎºÎ¿Î¯
ĠÎ¸ÎµÏģÎ± ÏĢÎµÎ¯Î±
ĠÎŃÏĥÏĢÏģÏī Î¾Îµ
ĠÎ±Î»Î± Î¶
ĠÎŃÎºÎ±Î¹ Î³Îµ
Î¼Î±Ïģ ÏĦÏħ
ĠÎľÎµÎ»Ïī Î´ÎŃÎ½Î¹Î¿ÏĤ
ÎŃÏĢÎ±Î¹ Î¶Î±Î½
ĠÏĥÏĦÎ±Î¸Î¼Î¬ ÏģÏĩÎ·ÏĤ
ÎºÎ¯ÏĦÏģÎ¹ Î½Î¿
ĠÏĥÎ¯ Î´Îµ
ĠÎ½Î¿ÏĥÎ¿ ÎºÎ¿Î¼ÎµÎ¯Î¿
ĠÎ¼ÎµÎ»Î±Î³ ÏĩÎ¿
ĠÎ´Î¹Î±ÏĢÎ¯ÏĥÏĦ ÏīÏĥÎµ
ĠÎ§ÏģÎ® ÏĥÏĦÎ¿ÏĤ
ĠÎµÎ¾ÏħÏĢ Î½Î¬Î´Î±
ĠÎĳÎ½ÏĦÏģÎŃ Î±ÏĤ
ĠÏĦÎ¶Î¬ Î¼Î¹
ĠÎłÎ±ÏģÎ±Î¼ ÏħÎ¸Î¿Ïį
ĠÎ³Î»Î¯ÏĥÏĦ ÏģÎ·ÏĥÎµ
ĠÎ±Î¼ÏĢ ÎŃÎ»Î¹
ĠÎ±ÏĦÎµÎ»ÎµÎ¯ Ïī
ÏģÎ¬Î³ Î¼Î±ÏĦÎ¹
ĠÏĢÎµÎ»Î¬ ÏĦÎµÏĤ
ĠÎķÏĨÏĦÎ±ÏĥÏĢÎ¹Î¸Î±Î¼Î® ÏĤ
ĠÂµÎµÏĦÎ± ÂµÎ¿ÏģÏĨ
ĠÏĨÎ¯Î» ÏĦÏģÎ¿
ĠÏĢÏģÏĮÏĥÏĦÎ± Î¾Îµ
ÎĶÎ· Î»Î±Î´Î®
ĠÏĥÏħÎ»Î»ÎŃÎº ÏĦÎ·ÏĤ
Îı ÏĥÏĦÎµ
ĠÏĢÎ»Îµ Î¾
ĠÏĢÎ½Îµ ÏįÎ¼Î±
ĠÎ¶Î¬ÏĩÎ± ÏģÎ·
ĠÏģÎ¿Î»ÏĮ Î¹
ĠÎ¦Î¿Ïį ÏĥÎºÎ±ÏĤ
ĠÏħÏĢÎ¿Ïĩ ÏģÎµ
ĠÎºÏħÏģÎĶÎ¹Î¿Î½ ÏįÏĥÎ·ÏĤ
ĠÎ´ÎµÎ¯ÏĢ Î½Î¿
ĠÏħÎ¹Î¿Î¸Îµ ÏĥÎ¯Î±
ĠÎ±Î³ÏģÎ¹Î¿Î³Î¿Ïį ÏģÎ¿ÏħÎ½Î¿
ĠÎ¼Î¬Î½ ÏĦÏģÎ±
ÏĩÎ¿Ïģ ÏĦÎ±
ĠÎ½ÏĦÎ¿ Î¼Î¬ÏĦÎµÏĤ
ĠÎŃÎ»ÎºÎ· Î¸ÏģÎ¿
ĠÎ³ÎŃÏĨ ÏħÏģÎ±
ĠÎ±Î½ÏĦÎ· Ïĩ
ĠÎłÎ»Î¿Ïį ÏĦÏī
ĠÎĺÎ¿Î´Ïī ÏģÎ®ÏĤ
ĠÎµÏĢÎ¹ÏĩÎµÎ¹ ÏģÎ·Î¼Î±
ĠÏĩÎ±Î¯ÏģÎ¿ Î¼Î±Î¹
ÎŀÎµÎºÎ¯Î½ Î·ÏĥÎ±Î½
ĠÎºÎ±ÏĢÎµÏĦÎ¬Î½Î¹ Î¿ÏĤ
ĠÎ±Î»ÏħÏĥÎ¯ Î´Î±
ĠÎĵÎµÏģÎ¬ ÎºÎ·ÏĤ
ĠÎµÏħÎ³Î½Ïī Î¼Î¿ÏĥÏįÎ½Î·
ĠÎ±ÏĥÏĩÎ® Î¼Î¹Î±
ĠÎ¼ÎµÏĥÎ¬Î½ ÏħÏĩÏĦÎ±
Î²ÏįÏģÎ¹ Î½
Î¼Î¬Î³ÎµÎ¹ ÏģÎ±ÏĤ
ĠÎķÎ»ÎµÎ½ Î¯ÏĦÏĥÎ±
ĠÎŀÎµÎ½Î¿ÏĨ ÏİÎ½
ÏĦÎµÎ»ÂµÏĢÎ¬ Ïģ
ĠÏĢÏģÎ¿Î²Î¿ÏĥÎº Î¯Î´Î±
! ",
! âĢĿ,
6 2
i a
i p
s t
Ġ 4
Ġ 7
Ġ o
ĠÎ ı
Î± Î´ÎµÏģÏĨ
Îµ ÏĢÎŃÏĥÏĦÏģÎµ
Î½ Î¿ÏĩÏī
ÏĦ ÏģÏħ
ÏĦ ÏĮÏĥÎ¿
ÏĦ ÏģÎµÎ¹ÏĤ
Ïģ Ïģ
Ïģ Î³ÏĮ
ĠÏĦ ÎµÎ½
ĠÏĦ Î¿ÏįÏĤ
ĠÏĦ ÏģÎ¿ÏĨÎŃÏĤ
Î¬ Ïī
Î¬ Î´Î±
Î» Î¸
Î» Î»Î¹ÎºÎ¬
Ïĥ ÂµÎŃÎ½
Ïĥ ÂµÎŃÎ½Î¿Î¹
Ïĥ ÏĨÎ¿ÏģÎ¯Î¶ÎµÎ¹
ÏĤ ÏĤ
Î· Î¼ÎŃÎ½Î±
Î· Î¸Ïİ
Î¯ Î³Î±ÏĤ
ĠÎº Î»ÏīÎ½
ĠÎº ÏĦÎ·Î¼Î±
Î¿Ïħ Î´
ÏĢ ÏģÎŃÏĢÎµÎ¹
ÏĢ Î»ÎŃÎ¿Î½
Îº Î½
ĠÏĢ ÏģÎ±
ĠÏĢ ÏĮÏĥ
ĠÏĢ Î»Ïħ
ĠÏĢ ÏģÎ±Î³ÂµÎ±
ÏĮ ÏģÏĦÎ±
Î¼ ÏĨÎ¹
Î¼ ÏĮÎ½Î¹
ÎŃ Î¸
ÎŃ ÏĥÏĦÎµ
ÎŃ Î´Î¹
ĠÏĥ ÏĢÎ±
ĠÏĥ ÏĢÎ¿
ĠÏĥ ÎŃÏģ
ĠÎ± ÏĩÎ¹
ĠÎ± ÏĥÏĢ
ĠÎ± ÏĥÏħ
ĠÎ± ÏĩÏİ
Î³ Î³ÎµÎ¹
Î³ ÏĮÎ½Î¹Î±
Ïī Î½Î±
Ïī Î¸Î¿ÏįÎ½
Ïī Î¼Î±ÏĦÎ¹
Ïħ Î³Î®
ÎµÎ¹ Î´Î·
ĠÎºÎ±Î¹ ÏĦÎ¿Ïħ
ĠÎµ ÏĥÏĦÎ¹Î±
Ïĩ Î¹Î¬
Ïĩ Î½Î·
ĠÎ½ ÏīÏģÎ¯
ĠÎŃ Î³Îº
ĠÎŃ ÏĢÎ±Î¸
ĠÎŃ Î½Î¿Î¹Î±
ĠÎŃ ÏĦÏħÏĩÎµ
ĠÎŃ ÏĥÏĦÎµÎ»
Î´ Î±Î½
Î´ ÏĮÏĤ
Î´ ÏģÎ¿Ïħ
ĠÎ½Î± ÏĢÎµ
ĠÎ½Î± ÎºÎ¿Î¹
ĠÏĦÎ¿Ïħ Î²
Î¸ ÏĮ
Î¿Ïį Î´ÎµÏĤ
ĠÎ³ Ïī
ĠÎ³ ÏģÎ·
Ïį ÏģÎµÏĤ
Ïį Î¸ÏħÎ½
Ïį Î³Î¹ÏĥÎ¼Î±
ÏĨ Î¸Î·ÎºÎµ
ÏĨ ÎŃÎ»Î·
ÏĨ ÏģÎ¿Î½ÏĦÎ¯
Î½Î± Î¯Î¿
ĠÏĥÏĦ ÏģÏīÎ¼ÎŃÎ½Î¿
ÏģÎ¹ Î¶
ÏģÎ¹ Î³ÎºÎ¯ÏĢÎ¹ÏĥÏĥÎ±
ĠÎµÎ¯ ÏĥÎ±ÏĥÏĦÎµ
ĠÎ¿ Î¼ÏĢ
ĠÎ¿ Î¼Î¬Î´ÎµÏĤ
ÏĦÎµ ÏįÎµÎ¹
ĠÏĮ Î½
ĠÏĮ ÏģÎ¿
ĠÏĮ Î»Î¿Ïħ
ĠÏĮ ÏĥÏĢ
ĠÏĮ ÏĥÎµÏĤ
ĠÎ±ÏĢ Î¿Î»Ïį
ĠÏĨ ÏįÏĦÎµ
ĠÏĨ ÏģÏį
ĠÏĨ ÏĦÏħ
ĠÏĨ Î¸Î¬Î½
ÏĦÎ¹ Î¶Î±Î½
ÏĦÎ¹ Î½Î®
ÏĦÎ¹ ÎºÎ¿ÏįÏĤ
ĠÏĦÎ± ÏĢÎµÎ¹
Î² ÏģÎ¬
Î² Î¿ÏħÏĤ
Î¶ Î¿Î½ÏĦÎ¬ÏĤ
ÏģÎ¬ ÏĥÎ¹
ĠÎ² Î»Î¬
ĠÎºÎ± Î²Î¬
ĠÎºÎ± ÏĦÏĥÎ±
ĠÎºÎ± ÏĥÏĦÎ±Î½
ĠÎºÎ± Î¼Ïİ
ĠÎºÎ± ÂµÎ¹
ĠÏĩ Î±Î½
ĠÏĩ Î¬Î½Î¹
ĠÏĩ Î¬Î½ÎµÎ¹
Î¼Î± ÏħÏģÎ¿
ĠÎ¸ ÎŃÎ»Î±
ĠÎ¸ ÎµÏģ
Âµ Î¿ÏħÎ½
Âµ ÎŃÏģÎ±
Âµ ÂµÎŃÎ½Î·
Î»Î¬ Î½
ÏģÏĮ ÏĥÎº
Î¿Î» Îµ
ÏĥÎ¹ Î»ÎŃ
ÏħÏĦ Î¿ÏįÎ½
ÏģÎ¯ Î½Î¹
ĠÎ¼Î± ÏģÎ±
ÏĢÎµ ÏģÎ±
ÏĥÏĦ Î¿Ïį
ÏĥÏĦ ÏģÎµÏĤ
Î»Î· ÏĥÎ¯Î±
ÏģÎµ ÏīÎ½
ĠÎ¾ ÎŃÎ½Î±
ĠÎ¤ ÏĮÏĥÎ±
ĠÎ¤ Î¿ÏĥÎ¿Î´Î¿Ïį
ÏĩÎµ Î´ÏĮÎ½
Î»Îµ ÎºÎ¯Î½
Î¼Îµ ÏĥÎ¬
Î¯Î½ Î¿
Î¯Î½ Î¿Î¹
Î¯Î½ ÎµÏĦÎ±Î¹
ÏģÎ¿ Î¶Ïħ
ĠÎ¼ÎŃ Î³ÎµÎ¸Î¿ÏĤ
ĠÎ¼ÏĢ ÏĮÎ»Î¹
ĠÎ¼ÏĢ ÏįÏģÎ±
ĠÎ¼ÏĢ ÎŃÏģÏĦÎ±
ÎºÎ± Î¸
ÎºÎ± ÏĦÎ¿Î¹
ÎºÎ± Î»Î¬ÎºÎ¹
ÎºÎ± Î¯ÏģÎ¹Î±
ÎºÎ± ÏģÏĩÎ±
ĠÎļ ÎŃÏģ
Î½Îµ Ïį
ĠÎ±ÏħÏĦ ÏİÎ½
ĠÎľ Î¹Îº
ĠÎľ ÏĢÎµ
ĠÎ±Î½ Î¬Î»Î±
ÏĢÎ± ÏĥÎ±Î½
ÏĢÎ± ÏĥÎ¼Î±
Î³Îµ Î»Î¿ÏįÏĥÎ±Î½
ĠÂµ ÏĮÎ½Î¿ÏĤ
ĠÂµ ÎŃÏģÎ·
ĠÂµ Î¯Î»Î·ÏĥÎµ
ÏĪ Î®
ĠÎ¶ Ïħ
ĠÎ¶ Î¿ÏįÎ¼Îµ
Î¼Î¬ ÏĦÎ±
Î¼Î¬ ÏģÎ¹
Î¼Î¬ ÏĦÏīÎ½
ĠÎķ ÎĻ
ĠÎķ Î»Î¬ÏĦÎµ
ÏĦÎ¿ Î¼Î¿Ïħ
ĠÏĥÏħ Î¶Î®ÏĦÎ·ÏĥÎ·
Î¤ Î¿ÏħÏĤ
Î¸Îµ ÏĦÎµ
ĠÎ²Î± ÏĦÎ¿Î¼Î¿Ïħ
ÏĮÏĥ Î¿Ïħ
ÏģÎŃ ÏĢ
ÎºÎ±Î½ ÎµÏĤ
ÏģÎ· Î³ÏĮ
ÏģÎ® ÏĥÎµÎ¹ÏĤ
Îľ Îĳ
Î´Î¹ ÏĮÏĦÎ·ÏĦÎ±
ÏģÏİ Î¼Î±ÏĦÎ±
ÏģÏİ Î¸Î·ÎºÎ±Î½
ĠÎ£ ÏĦÎ¹ÏĤ
ĠÏģ Î¹
ĠÎŁ ÏģÎŃ
ĠÎ¼Î¹Îº ÏģÎŃ
ÏĦÏĥÎ¹ Î¬
ĠÏĥÏĦÎ± ÂµÎ¬
ĠÏĥÏĦÎ± Î³ÏĮÎ½Î±
ÏĦÎ±Î¹ Î³Îµ
ĠÏĥÎ¿Ïħ ÏĥÎ¿Ïħ
ÏĦÎ® ÏģÎ¹Î±
ĠÏĩÎ± ÂµÎ¿Î³ÎŃÎ»Î±ÏĥÎµ
Î¿ÏĢ Î¯
ĠÎĪ ÏģÎ¹
ĠÎĪ Î»Î¹
ĠÎĪ Î³Î¹Î½Îµ
ĠÎ¼Î¬ ÏĥÎºÎ±
ĠÎ¼Î¬ Î¸Î·Î¼Î¬
Î¼Î¿ Î½Î±
Î¼Î¿ Î³ÎŃÎ»Î±ÏĥÎµ
ĠÎµÎºÎµÎ¯ Î½ÎµÏĤ
ĠÏĢÎ¬Î½ ÏĦÏīÏĤ
ĠÎ¼ÏĢÎ¿Ïģ Î¿ÏįÏĥÎ±Î¼Îµ
Î»Î® ÏĥÎµÎ¹ÏĤ
ÎºÎ¿Ïħ Î¬
ÎºÎ¿Ïħ Î²Î±
ÏįÏĦÎµ ÏģÎ±
ĠÎĶ Î¬
ĠÎĶ Ïį
ĠÎĶ ÏħÏĥÏĦÏħÏĩÏİÏĤ
Îķ Î¼ÎŃÎ½Î±
Îķ Î¹ÎºÎ¿Î½Î¿Î³ÏģÎ¬ÏĨÎ·ÏĥÎ·
ĠÎ»Î¯ ÏģÎµÏĤ
ĠÎ±Î»Î»Î¬ Î¾Ïī
Îł Î±Î½
ÎºÎ¿Ïį Î½
ĠÏĥÏĦÎ· Î½Î±
ĠÎ´Ïħ ÏĥÎ±
Î³Î¹ ÏĮ
ĠÎºÎ¿Ïħ Î¼ÏĢÎ¬
ĠÎĵ ÏģÎ®Î³Î¿ÏģÎ±
ĠÎºÏĮ ÏĪÎµÎ¹ÏĤ
ĠÏĢÏĮ ÏĥÎµÏĤ
ĠÎ±Î³ Î±Î½Î¬
ÏįÏģÎ¹ Î¿ÏĤ
Î¿Ïĥ Î¹
ĠÎ±Ïģ ÏģÏī
ĠÎ±Ïģ ÏĢÎ¬
ĠÎ±Ïģ Î»ÎµÎºÎ¯Î½
ĠÏĢÎµÏģÎ¹ ÏĢ
ĠÏĢÎµÏģÎ¹ ÏĥÏĦÎµ
ĠÏĢÎµÏģÎ¹ ÂµÎŃÎ½
ĠÏĢÎµÏģÎ¹ ÏĦÏģÎ¹Î³Ïħ
ĠÏĢÎ±ÏģÎ± Âµ
ÏģÎ¿Ïį ÏĥÎ±
ĠÏĥÏħÎ½ ÏĮ
ĠÏĥÏħÎ½ ÎµÎ¹Î´Î·
Î»Î¯ ÏĥÎµÎ¹
Î¼Î® Î¼Î±ÏĦÎ±
ĠÏĦÎµ ÏĩÎ½Î¯
ĠÎ³Îµ ÏģÎ¬ÏĥÎµÎ¹
ĠÎºÏħ Î»Î¹
ĠÎºÏħ ÏĢÎ±
ÎŃÏĥ ÏĦÎ·ÏĤ
ĠÎºÎ±ÏĦÎ± ÏĨÏį
Î¬Ïĥ ÏĢ
ĠÎ±Î½Î± ÏĨÎ¹
ĠÎ±Î½Î± Î¼Î¼ÎŃÎ½Î±
ĠÎ±Î½Î± ÎºÎ¿ÏħÏĨÎ¹
Î³Î±Î½ Î¬
ĠÎĴ ÏĮ
ĠÎĴ Î¬Î½Î±
ĠÎĿ ÎµÏģÎ¬
ĠÎ´Î¹Î± Î¼ÎŃÏģÎ¹
ĠÎ´Î¹Î± Î´ÏģÏĮ
ĠÎºÎ±ÏĦÎ¬ ÎºÎ¿ÏĢ
Î´Î¯ ÏĢÎ»Î±
ĠÎ¾Î±Î½ Î¸Î¬
ÎĪ ÏĢ
ĠÎ±ÏĢÎ¿ Î´ÎµÎ¯
ĠÎ±ÏĢÎ¿ Î»Î±Ïį
ĠÎ±ÏĢÎ¿ Î³Î¿Î®ÏĦÎµÏħ
ĠÎ¹ ÎµÏģÎŃ
ĠÎķÎ¯ ÏĢÎ±Î½
ÏĥÏĦÎ± ÏĥÎµ
Î²Î¬ ÎºÎ¹Î±
Î²Î¬ ÏĦÎµÏĤ
ÏĦÏģÎ± ÏĢÎŃ
ĠÏĨÎ¯ Î»Îµ
ĠÏĨÎ± ÏĥÏĮÎ»Î¹
ĠÎµÏĢÎ¹ Î²Î»Î·
ĠÎī ÏģÎ±
ĠÎī ÏģÎ¸Î±Î½
ĠÎ¯ Î¿Ïħ
ÎĿ ÎĳÎĻ
Î¿Ïĩ Ïİ
ĠÎĨ Î´Î·
ĠÎĨ ÏģÏĩÎ¹ÏĥÎ±Î½
ÎŃÏĨ ÏĦÎ±
ÎŃÏĨ ÏħÎ³Îµ
ÏĥÎº Î¯
Î»Ïī Î¼ÎŃÎ½Î±
Î´Ïħ Î¼Î±
ĠÏĦÎ¯ ÏĦ
ÏģÏĮÎ½ ÏīÏĤ
ÏģÎ±Î½ Î¯Î±
ĠÎ²Î¬ ÏĥÎ·
ÏģÎ¸ Î±
ĠÎ´Ïį ÏĥÎºÎ¿Î»Î±
ĠÎ±Î¼ ÏĨÎ¿Ïģ
ĠÏĢÏģÏĮ Î¸Ïħ
Î³ÎµÎ¹ Î¿
ĠÎ±ÏħÏĦÎ® ÏĤ
ĠÎĽ Ïħ
ĠÎĽ ÎµÎ¹
ĠÎļÎ± ÏĢÎµ
ĠÎļÎ± Î»ÏįÏĦÎµÏģÎ±
ĠÎļÎ± ÏĦÎŃÎ²Î·ÎºÎµ
ĠÎļÎ± Î¿ÏĢÎ¯
Î½Î¬ ÏģÎ¹
ĠÎ¼ÎµÏĦÎ¬ Î½Î¹
ĠÏĢÎ±Î½ Î¹Î¬
ĠÏĢÎ±Î½ Î·Î³
ĠÎ¼ÏĢÎ± ÏĥÏĦ
ĠÎ¼ÏĢÎ± Î¯Î½ÎµÎ¹
Î»Î±Î½ ÏĦÎ±
Î¸Î® Î¼Î±ÏĦÎ±
ÏģÏħÏĥ ÏĦÎ¬
Î¹Ïĥ Î¼ÏĮÏĤ
ĠÏĥÏĩ Î·
ĠÏĥÏĩ Î¿Î¹Î½Î¹Î¬
ĠÎ²Î¿ ÏĦÎ¬Î½Î¹
ĠÎµÏħÏĩ Î¬ÏģÎ¹
ĠÎ»Î¹ ÏİÎ½ÎµÎ¹
ĠÏĢÏģÎ¬ Î¼Î±
ĠÎ²Î»ÎŃ ÏĢÎ¿Ïħ
ĠÏī ÏĥÏĦÏĮÏĥÎ¿
ĠÎºÏģÎ± ÏħÎ³Î®
ĠÏĢÎµÏģÎ¯ ÏĢÎ±
ĠÏĢÎµÏģÎ¯ ÏĢÎ¿Ïħ
ĠÏĢÎµÏģÎ¯ ÂµÎµÎ½Îµ
ĠÏĨÎ¿Ïģ Îµ
ĠÏĨÎ¿Ïģ Î¿ÏįÏĥÎ±Î½
Î´Î¿ Î¼ÎµÎ½
ĠÎ¼Î±Î¼Î¬ Î´ÎµÏĤ
ĠÎ¦ Î¬
ĠÏĥÎ± ÏĥÏĦÎ¹
ĠÎ±ÏĢÎ¿ÏĨ Î¬
ÎľÎ± ÎĲÏĥÏĦÏģÎ¿
ĠÏĢÎŃÏģÎ± ÏĥÎ¼Î±
ĠÏĢÏģÎ¿ Î¿
ĠÎ´Î¹ ÏĪÎ¬
ĠÎ³Î¯Î½ ÎµÏĦÎµ
ĠÎŃÎ²Î± Î¶Î±Î½
ĠÏĥÎºÎŃÏĨ ÏĦÎ·ÎºÎ±Î½
ĠÎ³Î± Î»Î¿ÏĢÎ¿ÏįÎ»Î±
ĠÎ³Î± ÏįÎ³Î¹ÏĥÎ¼Î±
Î¯ÏĦ ÏĥÎµÏĤ
ĠÎ¼Î¹ÎºÏģÎ® ÏĤ
ÎµÏģ Î¼Î±Î½
ĠÏĪÎ· ÏĨÎ¯
ĠÎ¼Î¹ Î»Î¿Ïį
ĠÎ¬Î½Î¿Î¹ Î³Îµ
ĠÎ³Î¬ Î¹Î´Î±
ĠÂµÎ± Î»Î»Î¹Î¬
ÎĽ Î¬Î¶Î±
ĠÎ±Î»ÎµÏĢÎ¿Ïį ÏĤ
ĠÏĢÏģÎ±Î³Î¼Î± ÏĦÎ¹ÎºÏĮÏĤ
ÂµÎµ Î³Î¬
ÏĥÏĦÎµÎ¯ ÏĦÎµ
Î²Î¿ Î·
ĠÎ¯Î´Î¹ ÎµÏĤ
Îĺ Î±Î½Î±ÏĥÎ¬
ÏĨÏħ Î»Î±
ÏĨÏħ Î³Î±Î½
ÏĨÏħ Î»Î»Î¿
ĠÎ³Î¿Î½ Î¬
ĠÎ³ÏįÏģÏī Î³ÏįÏģÏī
ĠÎŃÎ»Î± Î¼
ÏĢÎ¿Ïģ ÏĦÎ¿
ĠÎ´Î¹Î¬ Î»Îµ
ĠÎ´Î¹Î¬ Î¸ÎµÏĥÎ·
ĠÎ¼Î±Î³ ÎµÎ¯Î±
ĠÎ¶Î· ÏĦÏİ
ĠÎ¶Î· ÏĦÎ®ÏĥÎµÎ¹ÏĤ
ÏĨÎ¿Ïģ Î·
ĠÎŃÎ²Î»Îµ ÏĢÎ±
ĠÎŃÎ²Î»Îµ ÏĢÎµÏĤ
ĠÏĥÏĦÎµ Î³
ĠÏĩÎ¿Ïģ Îµ
ĠÏħÏĢ Î½Ïī
ĠÏĩÎ¹ ÏĮÎ½Î¹Î±
ĠÎĻ Î´Î¿Î¼ÎµÎ½
ĠÏĦÎŃÎ» ÎµÎ¹Î±
ĠÎ´Î¬ Î³Îº
ÂµÎ¬ ÏĦÎ·ÏĤ
ĠÎ±ÏĨÎ® ÏĥÎ¿ÏħÎ½
ĠÎłÎ± ÏĢÎ¿Ïħ
ĠÎµÏħ Ïī
ĠÎŀ ÎŃÏģÎµÎ¹ÏĤ
ĠÎ¸Îµ ÏĮÏģÎ±
ĠÎ¼Î® Î½Î±
Î¥ ÏĢÎ¬ÏģÏĩÎ¿ÏħÎ½
ĠÎ¹ÏĥÏĦÎ¿ÏģÎ¯Î± ÏĤ
ĠÎºÎ»ÎµÎ¹ ÏĥÏĦÏĮ
ĠÎºÎ»ÎµÎ¹ Î´Î¿Ïį
ĠÏĨÎ¿Î² ÏĮÎ½ÏĦÎ¿ÏħÏĥÎ±Î½
ĠÏĨÎ¿Î² Î¿ÏįÎ½ÏĦÎ±Î¹
ĠÏĨÎ¿Î² Î¹ÏĥÎ¼ÎŃÎ½Î±
ĠÏĢÎµÏĦÎ¬ ÏĤ
ĠÏĢÎµÏĦÎ¬ Î½Îµ
ÎºÏģÏħ Î±
ĠÏĥÎºÏį Î»Î¿Ïħ
Î§ Î¼Î¼Î¼
ĠÎºÏħÏģ ÎĽÎ¬Î¶Î±
ÎĨ Î½ÏĦÎµ
Î¾ÎµÎ½ Î¿
ĠÎ½ÏĮ Î¼Î¹ÏĥÎµ
ÏĥÏĦÎ¿ ÏģÎ±ÏĤ
ĠÎµÎ¯Î´ Î¿ÏħÏĤ
ĠÏģÎ¯ Î¶Î±
ÏĥÎ¬ ÎºÎ±Î»Îµ
ĠÎ³Î¿Ïħ ÏģÎ»
ĠÏĢÏħ ÏģÎ¿
ĠÎ±Î½ÏĦÎ¯ ÎºÏģÎ¹ÏĥÎ±Î½
ĠÏĮÎ½Î¿ ÂµÎ±
Î¸Î¬ ÏģÎ±
ĠÎ²Î¿Î·Î¸Î® ÏĥÎ¿ÏħÎ¼Îµ
Î¯Î½Î± Î¼Îµ
ĠÎ²Î¹Î² Î»Î¹Î¿
ĠÏĦÏģÏİ Ïī
ĠÎ¾ÏįÏĢ Î½Î¹
ĠÏĥÎ·Î¼ ÎµÎ¯
ĠÎºÏį Î»Î·ÏĥÎµ
ĠÎ±Î½ÎŃÎ² ÎµÎ¹
ĠÎ±Î½ÎŃÎ² Î±Î¹Î½Î±Î½
ĠÏĥÎºÏħ Î¸ÏģÏī
ĠÏģÎ¬ ÏĨÎ¹Î±
ĠÎºÎ±ÏĦÎŃÎ² Î±Î¹Î½Î±Î½
ÎºÎ¿ÏħÎ²Î¬ Î³Î¹
ĠÏĢÎ»Î± Î³Î¹Î¬
ĠÏģÏī ÏĦÎ¬ÎµÎ¹
ĠÏĦÏħ Î»Î¹Î³
ĠÏĢÎ»Î·ÏĥÎ¯Î± Î¶Î±Î½
ĠÎ±Î½ÏĦÎ¹ Î»ÏĮ
ĠÎ¿Î´Î· Î³Î®ÏĥÎµÎ¹
ĠÎĴÎ±ÏĥÎ¯ Î»Î¹ÏĥÏĥÎ±
Î¿ÏħÎ¸ ÎµÎ½Î¬
ĠÎ±Î² Î¬Ïĥ
ĠÎ¼ÏĢÎ¿Ïħ ÎºÎ¹Î¬
ĠÎ»ÏħÏĢÎ· ÂµÎŃÎ½Î¿
ĠÎºÎ¿Ïį ÎºÎ»Î±
ĠÎºÎ¿Ïį ÎºÎ»ÎµÏĤ
ĠÏĢÎµÎ½ Î®Î½ÏĦÎ±
ĠÎ²ÏģÎ± Ïĩ
ĠÏĩÎ±Î¼Î¿Î³Îµ Î»Î¬
ĠÏĦÏģÎµ Î»Î®
ĠÎ±ÏģÎºÎ¿ÏįÎ´Î± ÏĤ
ĠÎ¸Î· Î»Ïħ
ĠÏħÏĢÎ¿ Î´ÎŃÏĩÏĦÎ·ÎºÎµ
ĠÎĽÎ¯ Î¶Î±
ĠÏĩÎ±Ïģ ÎµÎ¯
ĠÎ´Î¹Î±ÏĨÎ¿ÏģÎµ ÏĦÎ¹ÎºÎ®
ĠÏĥÏį Î¶Ïħ
ĠÏĩÎµ ÏģÎ¬ÎºÎ¹
ĠÏĩÎµ ÏģÎ¬ÎºÎ¹Î±
ĠÏĥÏĩÎŃ ÏĥÎ·
ĠÎºÏģÎŃ Î±ÏĦÎ±
ĠÏĥÎ¿ÏĨ Î¯Î±
ĠÏĥÎºÎ¬ Î»ÎµÏĤ
ĠÎ²ÏģÎ¿Ïĩ Î®ÏĤ
ĠÎºÎ±ÏĦÎ±ÏĨÎŃÏģ Î¿ÏħÎ½
ĠÏĥÏħÎ³ ÎºÎµÎºÏģÎ¹
ĠÏĦÏģÏħ ÏĢ
ĠÏĥÏĢ Î¬Î½Î¹Î¿
ĠÎºÏħÏģÎ¬ ÎľÎ±
ĠÎµÏĢÎ¹Îº ÏģÎ±ÏĦÎ¿ÏįÏĥÎµ
ĠÏĥÎ¿ÎºÎ¿ Î»Î±
ĠÎ²Î¿Ïħ ÏĦÎ¹Î¬
ĠÎ®ÏĥÏħÏĩ Î·
ĠÎ®ÏĥÏħÏĩ Î¿ÏĤ
ĠÏħÏĢÎ· ÏģÎµ
ÎłÎ± ÏģÎ¬
ĠÏĨÎ±Î½ÏĦÎ± ÏĥÎ¯Î±
ĠÎ±ÏĥÏĦÎµ ÏģÎ¿
Î¸Î±Î½ Î±Î½
ÏĨÏĦÎ± ÏĥÎµ
ĠÎ¿Ïģ Î³Î±Î½
ĠÎºÎ±ÏĢÎŃ Î»Î±
ĠÏĢÏģÎ¬ÏĥÎ¹ Î½Î·
ĠÎŃÎ¼Î± Î¸Î±
ĠÏĥÏĦÎ±Î¼Î± ÏĦÎ¿ÏįÏĥÎµ
ĠÏĢÎµÏģÎ¯ÎµÏģ Î³Î·
ĠÏĢÏģÎ¿Ïĩ ÏİÏģÎ·ÏĥÎµ
ĠÏĦÎ¿Î¯ ÏĩÎ¿ÏħÏĤ
ĠÎĳÎ»Î® Î¸ÎµÎ¹Î±
ĠÎ±ÏģÏĩÎ· Î³ÏĮ
ĠÎ²Î¿Î·Î¸ Î¿ÏįÏĤ
ĠÏĥÎºÎ¿ÏĦÎµÎ¹ Î½Î®
Î»Î¹ÎºÏĮ ÏĤ
Î¿Î»Î¿ Î³Î®ÏĥÎµÎ¹
ĠÎłÎ¬ Ïī
ĠÎłÎ¬ Î»Î¹
ĠÎ±ÎºÎ¿Ïħ ÏĥÏĦÎµÎ¯
ĠÎ¾Î¬ÏĢ Î»ÏīÏĥÎ±Î½
ĠÎ´Î¿ÎºÎ¹Î¼Î¬ ÏĥÎ¿ÏħÎ½
Î´Ïį Î½Î±
ĠÎ±ÏĢÎ±Î½ ÏĦÎ®ÏĥÎµÎ¹ÏĤ
ĠÎºÏħÏģÎ¯ ÎµÏĤ
ĠÎ±Î¹Ïĥ Î¸Î±Î½ÏĮÏĦÎ±Î½
ĠÎ±Î³Î¿ÏģÎ¬ ÏĥÎ¿ÏħÎ½
ĠÎ³ÎµÎ¹ÏĦÎ¿Î½ Î¹Î¬ÏĤ
ĠÏĩÎ¿ ÏģÏĮÏĤ
ĠÎµÏħÏĩÎ±ÏģÎ¹ÏĥÏĦÎ· Î¼ÎŃÎ½Î¿Î¹
ĠÎ¼ÏĢÏĮ ÏģÎµÏĥÎ±Î½
ĠÎ³ÎµÏī Î³ÏģÎ±ÏĨ
ĠÎ§ÏģÏħÏĥÎ± ÏĨÎ®
ĠÎ±Î»Î·Î¸Î¹ Î½Î¬
ĠÏĨÏģÎ¿Î½ÏĦÎ¯ Î´Î±
ĠÎ´ÏħÏĥÎºÎ¿Î» ÎµÏį
ĠÎ´ÏģÎ¿Ïĥ ÎµÏģÏĮ
ĠÎºÎ±ÏĨ ÎµÎ½
ĠÎºÎ¿ÏħÎ²Î± Î»ÏİÎ½ÏĦÎ±ÏĤ
ĠÏĢÎ±ÏģÎ±ÎºÎ¿Î» Î¿ÏħÎ¸Î®
ĠÎºÏįÎº Î½Î¿ÏĤ
ĠÎŃÎ¾ÏħÏĢ Î½Î·
ĠÎ¶ÏīÎ½ÏĦÎ±Î½ ÏĮÏĤ
ĠÎ±ÎµÏģÎ¿ÏĢÎ»Î¬ Î½Î±
ĠÎ³ÏīÎ½ Î¯ÏĦÏĥÎ±
Î¿ÏĨÎ¬ÏĥÎ¹ ÏĥÎµ
ĠÎŃÏĥÎºÎ± ÏĥÎµ
Î»ÏįÏĦÎµ ÏģÎ·
ĠÎ²ÏģÎ¿Ïį Î½Îµ
ĠÎ¾ÎµÎºÎ¿ÏħÏģÎ± ÏĥÏĦÎ¿ÏįÎ½
ĠÎ¼Î±Î¶ÎµÏį Î¿Î½ÏĦÎ±Î½
ĠÎ¿Î½ÎµÎ¹ ÏģÎµÏħÏĮÏĦÎ±Î½
ĠÎ³ÏħÎ± Î»Î¹ÏĥÏĦÎµ
ĠÎ¦Î± Î»Î±Î¹Î½
ĠÏĦÏģÎ¿Î¼Îµ ÏģÎ¬
ĠÏĨÎµÏį Î³Î¿ÏħÎ½
ĠÎ¸Î±ÏħÎ¼Î¬ ÏĥÎµÎ¹
ĠÎºÎµÎ»Î¬ Î·
ĠÎ¸ÏħÎ¼Î¬ Î¼Î±Î¹
ĠÎĸÎ® ÏĦÎ·ÏĥÎµ
ĠÎŃÎ³ Î½ÎµÏĪÎµ
ĠÎ¾Î± Î´ÎŃÏģ
ĠÏĩÎ±Î¯ ÏģÎµ
ĠÎµÎ½Î¿Ïĩ Î»Î·
ĠÎ´Î¬ÏĥÎºÎ± Î»ÏĮ
ĠÎĨÎºÎ¿Ïħ ÏĥÎ¿Î½
ĠÎ±Ïĩ ÏħÏģÏİ
ĠÎ±Î¾Î¯ Î¶Î¿ÏħÎ½
ĠÎŃÎ³ÏģÎ± ÏĪÎµ
ĠÎ¸ÏħÎ¼Ïī Î¼ÎŃÎ½Î±
ĠÎ¸ÏħÎ¼Ïī Î¼ÎŃÎ½Î·
ĠÏĦÏģÎ±Î³Î¿ÏħÎ´ Î¿ÏįÎ½
ĠÏĥÏĦÎµÎ½Î¿ÏĩÏī ÏģÎ¹
00 0
ĠÎºÎ±Î»ÎŃ ÏĥÎµÎ¹
ĠÏĥÏĦÎ¿Î»Î¹ ÏĥÎ¼ÎŃÎ½Î¿
ĠÏĢÎ±Î³ ÏİÎ½Î¹
ĠÎ²Î±ÏģÎ¹ ÏĮÏĦÎ±Î½
ĠÎĪÏĢ Î¹Î±ÏĥÎµ
ĠÎ±ÏģÏģÏİ ÏĥÏĦÎ·ÏĥÎµ
ĠÏĢÏģÎ¿ÏĥÎŃÏĩ ÎµÎ¹
ĠÏĦÏģÎ±ÏĢÎµ Î¶Î±
ĠÎºÎ¯Î½Î´Ïħ Î½Î¿ÏĤ
ĠÏĨÎ¿Ïį ÏģÎ½
ĠÎ¸Î»Î¹ Î¼Î¼ÎŃÎ½Î¿
ĠÎ¬Î½ÏĦÎµ ÏĩÎµ
ĠÎ´Î¬ÏĩÏĦÏħ Î»Î¿
ĠÏĮÏĥ Î¿Î¹
ĠÎºÎ±Î»Î± Î¼Î¬ÎºÎ¹
ĠÎºÎ±Î»Î± Î¼ÏĢÎ¿
ĠÎ¼Î¬Î³Î¿Ïħ Î»Î¿
ĠÏĥÏįÎ¼ ÏĨÏīÎ½Î±
ĠÎ±Î³Î³ ÎµÎ¯Î¿
ĠÏĢÎµÏģÎ¹ÏĢÎŃ ÏĦÎµÎ¹Î±
ĠÎºÎ»ÎµÎ¹Î´Î± ÏģÎ¬ÏĤ
ĠÎķÏħÏģÏħÏĥÎ¸ ÎŃÎ±
ĠÎ±ÏĢÎµÎ»ÏĢÎ¹ ÏĥÎ¯Î±
ĠÏĦÏģÎ¿Î¼Î±Î³ Î¼ÎŃÎ½Î±
ĠÏĢÏĮÎ½ Î¿ÏĤ
ĠÎĳÎ¹ Î³
ĠÏĥÏħÎ½Î· Î¸Î¹ÏĥÎ¼ÎŃÎ½Î·
ĠÎºÎ±Î»Î¿ÎºÎ±Î¹ ÏģÎ¹Î¿Ïį
ĠÎ´Î±Î³Îº ÏİÏĥÎµÎ¹
ÏĢÎŃÏģÎ± ÏĥÎµ
ĠÎµÎ½Î· Î¼ÎŃÏģÏīÏĥÎµ
ĠÎŃÎ´Îµ ÏĥÎ±Î½
ĠÎ¼ÎµÏĦÎ±Î½ Î¿
ĠÎºÎ±ÏĢ Î½ÏĮÏĤ
ÂµÎ¿Î½ Î®
ĠÏħÏĢÏĮÏĥ ÏĩÎ¿Î¼Î±Î¹
ĠÏĩÏĮÏģÎµ ÏĪÎµ
ÏĥÎºÏĮ Î»
ĠÏĥÎ² Ïİ
ĠÏĨÏĦÎ± Î¯ÎµÎ¹
ĠÎłÎµÏģ ÏĢÎ±
ĠÏĢÎ±ÏģÎ¬ÏĢÎ¿Î½ Î¬
ĠÎŃÎºÏģÏħ Î²Îµ
ĠÎ»Î¹Î¼ Î¬Î½Î¹
ĠÎ»ÎµÎ¼Î¿Î½ Î¹ÎŃÏĤ
ĠÏĦÏħÏĨÎ»Î¿ÏĢ Î¿Î½
ĠÎ±ÏħÏĥÏĦÎ· ÏģÎ¬
ĠÏįÏĪ Î¿ÏĤ
ĠÎ±ÎµÏģÏĮÏĥÏĦÎ± ÏĦÎ¿Ïħ
ĠÎĻÏĥÎ¯Î´Ïī ÏģÎ¿ÏĤ
ĠÎ³ÏģÎ¬ÏĨ ÎµÎ¹
ĠÎµÏĢÎ¹ÏĥÎºÎŃÏĢ ÏĦÎµÏĤ
Î¿ÏĮ Î¼Î¿ÏģÏĨÎ·
ĠÎºÎ±Î¼ÏĢ Î¯Î½Î±
ĠÎ±Î³ÎºÎ± Î»Î¯ÏĦÏĥÎ±
ĠÏĢÎ±ÏģÎ±Î¾ÎµÎ½ ÎµÏįÏĦÎ·ÎºÎµ
ĠÎºÎ¿ÎºÎºÎ¹ Î½
Î¬Î½Î¿Î¹ Î¾Îµ
ĠÎºÎ±ÏĦÎ±ÎºÏĮÎºÎºÎ¹ Î½Î¿
ĠÎ´Î¹Î±ÏĥÎºÎŃÎ´Î± Î¶Î±Î½
ĠÎĽÎµ Î¼Î¿Î½Î¿Î´Î¬Ïĥ
ĠÏĥÎºÎµÏĢ ÏĦÎ¹ÎºÏĮÏĤ
ĠÎ±ÎµÏĦÏĮ ÏĢÎ¿ÏħÎ»Î±
ĠÏĢÏģÎ¯Î³ÎºÎ¹ ÏĢÎ¬
ĠÎ½ÏĦÏį Î¸Î·ÎºÎµ
ĠÎºÎ±Î¼Î® Î»ÎµÏĤ
ĠÎºÎ¿ÏģÎ´ ÎŃÎ»Î±
ÎĻÎļ Îĳ
ĠÎµÎºÎ½ÎµÏħ ÏģÎ¹ÏĥÎ¼ÎŃÎ½Î¿ÏĤ
ĠÏĨÏħÎ»Î±ÎºÎ¹ ÏĥÎ¼ÎŃÎ½Î·
ĠÏĩÎ¿ÏģÎ¿ÏĢÎ·Î´ ÏİÎ½ÏĦÎ±ÏĤ
ÏģÎº ÎµÎ¹Î±
ĠÏĨÎ»ÏĮ Î³Î±
ĠÎ¼ÎµÎ»Ïī Î´Î¯Î±
ĠÎ±ÏģÎ³Î±Î»ÎµÎ¹ ÏĮ
ĠÎ³ÎµÎ³Î¿Î½ ÏĮÏĦÎ±
ĠÎĿÎµ ÏĨÎŃÎ»Î·
ĠÎµÎ¾Î·Î³Î® ÏĥÎµÎ¹
ĠÎ¼ÎµÏĦÎ±ÏĨÎŃÏģ ÎµÎ¹
ÏĥÏħÎ½ÎŃÏĩ ÎµÎ¹Î±
ĠÏĦÎ±Î¾Î¹Î´ ÎŃÏĪÎµÎ¹
ĠÏĥÎºÎŃÏĢÎ± Î¶Îµ
ĠÎµÎ»ÎŃÏĨÎ±Î½ ÏĦÎµÏĤ
ĠÎºÎ¿Ïĥ Î¼Î®Î¼Î±ÏĦÎ±
ĠÏĢÎ¿ÏģÏĦÎ¿ ÎºÎ±Î»Î¹Î¬
ĠÎ±ÏĢÎ»Ïİ Î¸Î·ÎºÎµ
ĠÏĢÎµÎ»Ïİ ÏģÎ¹Î±
ÏĢÎ¹ÏĥÏĦ Î¿ÏĥÏįÎ½Î·
ĠÏĢÎµÏģÎ¹ÏĨ ÏģÎ¿Î½
ĠÎ¼ÏĢÎ±Î¼ÏĢ Î¿ÏįÎ»Î±ÏĤ
ĠÎ²ÎµÎ»Î±Î½ Î¹Î´Î¹Î¬
ĠÎºÎ±Î¸Î·Î¼ÎµÏģÎ¹ Î½Î¬
ĠÎ¸Î¬Î¼ Î½Î¿ÏħÏĤ
ĠÎ±ÏĢÎŃÏģÎ±Î½ ÏĦÎ·
ĠÎ½Ïį ÏĨÎ·
ĠÂµÎŃ ÏĦÏģÎ±
ÏĢÎ¿Î´Î± ÏģÎ¿ÏįÏĥÎ±
ĠÎĴÎ¿ÏħÎ½ Î¿ÏĢÎ»Î±Î³Î¹Î¬
ĠÎºÎ±Î½Î± ÏĢÎŃ
ĠÏĢÎ¯Î½Î± ÎºÎ±
ĠÎºÎ¿ÏģÎ¹ÏĦÏĥÎ¹ Î¿Ïį
ĠÎºÎ¿ÏģÎ¹ÏĦÏĥÎ¹ ÏİÎ½
ĠÎĻÎ¿ÏģÎ´ Î¬Î½Î·
ĠÎĻÎ¿ÏģÎ´ Î¬Î½Î·ÏĤ
ĠÏĢÏħÏģÎ±Î¼Î¯ Î´Î±
ĠÎ±ÏĥÎ·Î¼ÎŃÎ½ Î¹Î¿
ĠÎĳÏģÎ¹ÏĥÏĦÎ¿Î¼ÎŃÎ½Î· ÏĤ
ĠÎºÎŃÏģ Î´Î¹
ÏħÏĢÎ® ÏģÏĩÎ±Î½
ĠÏĦÎ¿ÏħÏģ Î¼ÏĢ
ĠÎ»Î¬Ïĥ ÏĢÎ·
Î¹ÏĥÏĦÎ¬ Î½
ĠÎ¿ÏĢÎ¿Î¯ Î¿Î¹
ĠÎ£ÏħÎ½ÎŃÏĩ Î¹ÏĥÎµ
ĠÎĳÎ»ÎŃÎ¾Î±Î½ Î´ÏģÎ¿ÏĤ
ĠÎµÏĨÎ±Ïģ Î¼Î¿
ĠÎµÏģÎ· Î¼Î¯
ĠÏĩÏĦÎ¹ ÏĥÎ¼ÎŃÎ½Î¿
ĠÏĢÎµÏģÎ· ÏĨÎ¬Î½Î¹Î±
ĠÏģÏħÎ¸ Î¼ÏĮ
ĠÎ¼ÏĢÎ±Î» Îº
ĠÏĩÎµÎ¹Âµ ÏİÎ½Î±
ĠÎĵÎ¹Ïİ ÏģÎ³Î¿ÏĤ
ÎĬ ÏĥÏīÏĤ
ÏħÏĢÏĮ Î»Î¿Î¹
ĠÎ²ÎŃÎ²Î±Î¹ Î¿ÏĤ
ĠÏĢÎµÎ¶Î¿ Î´ÏģÏĮÎ¼Î¹Î¿
ÏĮÏĥÏĢÎ¹ ÏĦÎ¿
ĠÎĪÎ½Î¹ ÏīÎ¸Îµ
ĠÎºÎ¿Îº ÎºÎ¯Î½
ĠÏĢÏģÎ¿ÏĦÎµ Î¯Î½Ïī
ĠÎ·ÏĥÏħÏĩÎ¬ ÏĥÎµÎ¹
ĠÎµÎ¹Îº ÏĮÎ½ÎµÏĤ
ĠÏĦÎ¿Î¼Îµ ÏĥÎ·
ĠÏĢÎ±Î» ÏĦÏĮ
ĠÎ±Î½Î¹ ÏĪÎ¹Î¬
ĠÎķÏĢÎ¯ ÏĥÎ·ÏĤ
ĠÎºÎµÏģÎ¬ ÏĥÎ¹Î±
ĠÎ´Î¹ÎµÏħÎ¸ÏħÎ½ ÏĦÎ®ÏĤ
ĠÎłÎ±ÏģÎ¬ Î´ÎµÎ¹
ĠÏĥÏĢÎ¿ÏħÎ´Î¬ ÏĥÎµÎ¹
ĠÎ´Î¿ÎºÎ¯ Î¼Î±ÏĥÎµ
ĠÏĨÎ¿Î¹ÏĦÎ· ÏĦÎ®ÏĤ
ĠÎ¼Î±ÏĦÎ±Î¹ÏĮÎ´Î¿Î¾ Î¿ÏĤ
ĠW ik
ĠÏĨÎ»Î¿Î³ ÎŃÏģÎ±
ĠÎ²Î¿Ïį ÏĦÎ·Î¾Îµ
ĠÎļÎ¬Î½ÏĦÎµ Î»Îµ
ĠÎ±Î½Î±ÏĥÏĦÎµ Î½Î±Î³
ĠÎºÎ±Î»Ïī ÏĥÏĮ
ĠÏĥÏĩÎ·Î¼Î± ÏĦÎ¯
ĠÎºÎ±ÏģÎ´Îµ ÏģÎ¯
ĠÎ¦Î¯ Î»Î±Î½
ĠÎĳÏĢÏĮÏĥÏĦÎ¿Î» Î¿ÏĤ
ĠÎ»ÏħÏĢÎ® Î¸Î·ÎºÎµ
ĠÎ³ÏģÎ±Î¼ Î¼Î®
ĠÎºÏģÎŃÎ¼ Î¿Î½ÏĦÎ±Î½
ed ia
ĠÏĦÏħÏĩÎ± Î¯Î±
ĠÎ±Î¸Î¬Î½Î± ÏĦÎ·
ĠÎ½Î¿ÏĥÏĦÎ±Î» Î³
ĠÏĥÏĦÎ¿Î¼Î¬ ÏĩÎ¹
ĠÎļÏģÎ® ÏĦÎ·
ĠÂµÏĢÎ¬ Î»Î±
ĠÎłÎĳÎĿ Î¤Îĳ
ĠÏĢÎµÏģÎ¹Î² ÏĮÎ»Î¹
ĠÏĢÎµÏģÎ¹ÎµÏģ Î³Î¬
ĠÏĥÏħÎ½ÎŃÎ» Î¸ÎµÎ¹
ĠÎ±Î¼Î¿Î¹ Î²Î®
ĠÎ±Î¼ÏįÎ³Î´Î± Î»Î±
ĠÎ»Î¹Âµ Î½Î¿ÏįÎ»Î±
ĠÎºÏģÏħÏĪ ÏİÎ½Î±
ĠÏĥÏīÎ»Î® Î½Î±
ĠÎŃÏĥÏĨÎ¹ Î¾Îµ
ĠÎ±Î¹ÏĥÎ¹ Î¿Î´Î¿Î¾Î¯Î±
ĠÎ¼ÎµÏĥÎ·Î¼ÎµÏģÎ¹ Î±Î½ÏĮ
ĠÎºÎ±Î¸Î·Î³Î· ÏĦÎ®ÏĤ
ĠÏĪÎ¯ÏĩÎ¿Ïħ Î»Î±
ĠÎŃÂµÎ¿Î¹Î± Î¶Îµ
ĠÏĦÎ¶Î± ÎºÎ¹Î¿Ïį
ĠÎ¼Î¿ÏħÏĥÏĦÎ¬ ÎºÎ¹Î±
ĠÎ²Î±ÏĦÏĮÎ¼Î¿Ïħ ÏģÎ±
ĠÎ£Î¹Î´Îµ ÏģÎ¿Î¶Ïħ
ĠÎ»Î¯Âµ Î½Î·
ĠÎµÏĢÎ¹Î»Î¿ Î³Î®
ÏģÎ±Î½ÏĦÎ± ÏĢÎ¿Î´Î±ÏģÎ¿ÏįÏĥÎ±
Î»ÎµÏħÎ¸ ÎŃÏģÏī
ĠÎ²Î±ÏĥÎ¯Î»Î¹ÏĥÏĥ Î¬
ÏĦÎ¿ÏĢÎ¿Î¯ Î·ÏĥÎµ
ÎĨÎ½Î¿Î¹ Î¾Îµ
ĠÎµÎ¹ÏģÏīÎ½ Î¹ÎºÎ¬
ĠÎ²ÏģÎ±Î´Î¹ Î½ÏĮ
ĠÎ²Î¹Î±ÏĥÏį Î½Î·
ĠÏĢÎ¿Î½ÏĦÎ¹ÎºÎ¿ Î¿Î¹ÎºÎ¿Î³ÎŃÎ½ÎµÎ¹Î±
ĠÎļÎ±ÏģÎ¼Îµ Î»Î¯Î½Î±
ĠÏħÏĢÏĮÏĥÏĩÎµ ÏĥÎ·
ĠÎ±Î»Î±Î¶ Î¿Î½
ip edia
Î»Î¸ ÏĮÎ½
ĠÎºÏĦÎ·Î¼Î± ÏĦÎ¯Î±ÏĤ
ĠÎ½ÏīÏģÎ¯ ÏĦÎµÏģÎ±
ĠÎ³ÏģÎ· Î³Î¿
ĠÎ¿Î¼ÏĢ ÏģÎŃ
ĠÎºÎ±Î²Î¬ Î»Î±
ÎºÎ±ÏģÏĩÎ± ÏģÎ¯ÎµÏĤ
ĠÎļÎŃÏģ Î²Îµ
ĠÏĥÎ¿ÏħÏĥÎ¿Ïħ ÏģÎ¬
ĠÎ±Î³Î±Î½Î¬ Îº
ĠÎ±Î½Î±ÏĨÎ¹ Î»Î·ÏĦÎ¬
ĠÎ´Î¹Î±Î¼ÎŃÏģÎ¹ ÏĥÎ¼Î±
ĠÎ²Î¹Î²Î»Î¹Î¿ Î¸Î®ÎºÎ·
ĠWik ipedia
ĠÎ£Î¹Î´ÎµÏģÎ¿Î¶Ïħ Î¼ÏİÎ½
e n
v e
Î± Î¾
Î± Î»ÏĨ
Î¹ Îµ
Î¹ Ïī
Î¹ ÏĥÏĦ
Î¹ Î»Î¹Î¬Î´ÎµÏĤ
Î¹ Î³ÎºÎ¿
Î¹ ÏĦÏĤ
Î½ Î¿ÏĢ
Î½ Î¿ÏįÎ½
ÏĦ ÏİÏģÎ±
ÏĦ Î¿ÏĨ
Ïģ Î¼Î¬ÏĦÎ¹
ĠÏĦ ÎŃÏĩ
ĠÏĦ ÏģÎ±Î½
Î¬ ÏĦÎ·
Î» Î¿ÏħÎ¼Îµ
Î» Î»Î¿Ïħ
Î» ÎµÎ¯Î¿
Ïĥ Î¬ÎºÎ¹
Ïĥ ÏįÏĩ
Ïĥ Î¹ÎºÎ®
Ïĥ ÂµÏĮ
Î· ÏĦÎ®
Î· Î¼ÎŃÎ½Î¿
Î¯ ÏĥÎ±
Î¯ ÏģÎ½
Î¯ Î»Î¹Î±
Î¯ Î¶Î¿Î½ÏĦÎ±Î¹
ĠÎº ÏģÎ®
ĠÎº ÏĦÎ·Î½
ĠÎº Î¿ÏįÎ½Î¹
Î¿Ïħ Î»Î±
ÏĢ ÏĦÎµ
ÏĢ Î½Î¹
ÏĢ ÏģÎ±Î³Î¼Î±ÏĦÎ¹ÎºÎ¬
Îº ÏģÎµ
Îº ÏīÏĥÎµ
Îº Î»Î¿ÏħÎ²Î¯
ĠÏĢ ÏĦÎµ
ĠÏĢ ÏģÎ¯
ĠÏĢ ÏĮÏĥÎ·
ÏĮ ÏģÎ·
Î¼ Î¿ÏįÏĥÎ±Î½
Î¼ Î¿ÏįÎ½
ÎŃ Î¾
ÎŃ ÏĢÎµ
ÎŃ ÏĥÏĦ
ÎŃ Î³Î¹Î½Îµ
Î±Î¹ Î½Î¿
Î±Î¹ Î´Î¯
ĠÎ¼ Î½Î·
ĠÎ¼ Î¿ÏģÏĨ
ĠÏĥ Î¬Î½
ĠÏĥ ÎµÎ¹ÏĤ
ĠÎ± Î¯Î½Î¹
ĠÎ± Î»Î¬ÏĦÎ¹
ĠÎ± ÏĦÎŃÎ»ÎµÎ¹Ïī
Î³ ÎºÎ¿Ïħ
Î³ Î¿Î½ÏĦÎ¬ÏĤ
Î±Î½ Î®
Î±Î½ Î¿ÏįÏĤ
Î±Î½ Î¯Î»Î¹Î±
Ïī ÏĨÎ¿Ïģ
Ïħ ÏģÎ¿ÏĤ
Ïħ ÏģÎ¯Î¶ÎµÎ¹
ÎµÎ¹ Î´Î®
ĠÎµ ÏĨ
ĠÎµ ÏĢÎµ
ĠÎµ Î³Ïī
ĠÎµ Î³ÎºÎ±
Ïĩ Î»Î·
Ïĩ ÏģÎ¿Î½
Ïĩ ÏĦÏİ
Ïĩ ÏĦÎµÏģÏĮ
Î® Î²Î±
Î® Î¼Î±ÏĦÎ±
ĠÏĦÎ¿ Î½Î±
ĠÏĦÎ¿ ÎºÎ±
ĠÎŃ ÏģÎ±
ĠÎŃ Î½Ïī
ĠÎŃ Î¸Î±
ĠÎŃ ÏģÎ³Î¿
ĠÎŃ ÏĥÎºÏħ
ĠÎŃ ÂµÎµÎ½Îµ
Î´ Î¿Î¹
Î´ ÏİÏĤ
Î´ ÏģÎ¿Ïĥ
Î´ ÏįÎ½
Î´ ÎŃÏĪÎµÎ¹
ĠÎ½Î± ÎºÎ¬Î½
Î¸ ÎŃÏĤ
Î¿Ïį Î»Î·
Î¿Ïį ÏģÎ¹Î¶Îµ
ÏĦÎ± Î¾Î¯
ÏĦÎ± Î³ÎŃÏĤ
Ïİ ÏĦÎµÏĤ
Ïį Î¿Î½ÏĦÎ±Î½
Ïį ÏģÎ¿Ïħ
Ïį Î¸Î¹Î±
ÏĨ ÎŃ
Î½Î± ÏĩÏī
ĠÏĥÏĦ ÏģÎ¿Ïħ
ÏģÎ¹ ÎºÎ±
ÏģÎ¹ Î¿ÏħÏĤ
ÏģÎ¹ Î¶ÏĮÏĦÎ±Î½
ĠÎµÎ¯ Î½
ĠÎ¿ ÏĦÎ¹
ĠÎ¿ ÂµÎ¿ÏģÏĨÎ¹Î¬
ÏĦÎµ ÏįÎ¿ÏħÎ½
ĠÏĮ ÏĢÎ»Î±
ĠÎ±ÏĢ Î»ÏİÎ½
ĠÏĨ ÏĦÏİ
ÏĦÎ¹ ÎŃÏĤ
ÏĦÎ¹ ÏĥÏĥÎ±
ĠÏĦÎ± Î¼ÏĢ
ĠÏĦÎ± Î¯ÏģÎ¹Î±
ĠÎ¼Îµ ÏĤ
Î² Ïħ
Î² Î¿Î½ÏĦÎ±ÏĤ
ÏģÎ¬ ÏĨ
ĠÎ² Î±Î½Î¯Î»Î¹Î±
ĠÎºÎ± Âµ
ĠÎºÎ± ÏĥÎºÏĮÎ»
Î¿Î½ Î´
Î»Î± Î´Î¯
Î»Î± Î²ÎµÏĤ
ÏĦÎ¬ ÏģÎ±
ÎµÎ¯ Î´Îµ
ÎµÎ¯ Î½ÎµÎ¹
ÏĦÎ· ÏĦÎ±ÏĤ
ÏĦÎ· ÂµÎ±
ÏĦÎ· ÏĦÎµÏĤ
Î»Î¹ Î¿Ïħ
Î»Î¹ Î½Î±
Î»Î¹ ÎºÎ±
Î»Î¹ Î¶Îµ
Î¼Î± ÏĦÎ¿
ĠÎ¸ ÎŃÏģÎ¹
Âµ Î¹Îº
Âµ ÏĢÎ¹
ĠÎ¬ ÏĥÎµ
ĠÎ¬ Î³Î±
ĠÎ¬ ÏĨÎ±Î½
Î»Î¬ Î½Î¹
Î»Î¬ ÎºÎ·ÏĤ
ĠÏĦÎ·Î½ ÎºÎ±
ĠÎ±ÏĢÏĮ ÏģÎ·ÏĥÎµ
ĠÎ±ÏĢÏĮ Î³Î¿Î½
ĠÎ® ÏĥÎ±Î½
ĠÎ® ÏĩÎ¿ÏħÏĤ
ĠÎ³Î¹Î± ÏĦÏģÎŃ
ÎŃÎ½ ÏĦÏģÏī
Î¬Î½ Î¿Î½ÏĦÎ±ÏĤ
ÏĥÎ± ÏĤ
ÎºÎ¹ Î½Î®
ÏĥÎ¹ Î¿ÏĤ
ĠÏĢÎ± Î»Î±Î¹
ĠÏĢÎ± Î³ÏīÎ½
ÏģÎ¯ ÏĥÎ¹
ÏģÎ¯ ÎºÎ¹Î±
ÏģÎ¯ Î±ÏĤ
ÏģÎ¯ ÏĥÎº
ĠÎŃÎ½Î± ÎŃÎ½Î±
ÏĢÎµ ÏĦÏģÎµÏĤ
ĠÎ´ÎµÎ½ Î®
ÏĥÏĦ ÏİÎ½
ÏģÎµ ÏĦÎ¬
ÏģÎµ ÏĪÎ±Î½
ÏģÎµ ÏįÎ¿ÏħÎ½
ÏģÎµ ÏĨÏĦÎ¯
ĠÎ¤ ÏģÎ¿
ĠÎ¤ Î¶Î±
âĢ Ķ
Î¼Îµ ÏĦÎ±
ÏģÎ¿ ÎºÏĮ
ĠÎºÎ¬ ÎºÎ¿Ïħ
ĠÎºÎ¬ Î»Ïħ
ĠÎºÎ¬ Î¼ÎµÎ¹
ĠÎºÎ¬ ÏĥÏĦÎ±Î½
ĠÎºÎ¬ Î³ÎºÎµÎ»Î±
ÏĮÎ½ Î·ÏĤ
ĠÎ¼ÎŃ Ïĥ
ĠÎ¼ÎŃ ÏģÎ¼Î·
ĠÎ¼ÏĢ Ïī
ĠÎ¼ÏĢ Î¿Î³
ĠÎ¼ÏĢ Î¬Ïģ
ĠÎĳ ÏģÎ¹Î¬
ĠÏĢÎµ Î´Î¹Î¬
ĠÏĢÎµ Î¸Î±
ĠÏĢÎµ ÏĦÏģÎ¬
ĠÏĢÎµ ÏĦÏİÎ½ÏĦÎ±ÏĤ
ĠÏĢÎµ ÏĦÏįÏĩ
ĠÎļ Ïİ
ĠÎ¼Î¿Ïħ Î»Î¬
ĠÎľ Îĳ
ĠÎľ ÏĢÎµÎ½
ÏĢÎ± Î³Îµ
Î³Îµ ÏįÎ¼Î±ÏĦÎ±
ÏīÎ½ ÏĮÏĦÎ±Î½
ĠÂµ ÏĮÎ½Î·
Î¾Îµ ÏĦÎµ
ÏĪ Î¹
ÏĪ ÏĦÎµ
ÏĪ ÏħÏĩ
ĠÎ¶ Î¿ÏħÎ¼Îµ
Î¼Î¬ ÎµÎ¹
Î¼Î¬ Î³Î¿Ïħ
ĠÎķ ÏħÏĩÎ±ÏģÎ¹ÏĥÏĦÏİ
ĠÎķ Î»ÏĢÎ¹Î½Î¯ÎºÎ·
ÎºÎ¬ Î¼Î¹Î±
ÎºÎ¬ Î»ÎµÏĥÎµ
Î¸Î· ÏĥÎ±
Î¸Î· Î½Î±Î¯
ĠÎºÎ¹ ÏĦÏģÎ¹
Î³Î± ÏĦÎµ
Î³Î± ÏģÎ¹Î±
ÏĢÎ¹ Î¶Îµ
ĠÏĥÏħ Î¼ÏĢÎ¬
Î³Î¿ ÏģÎ±Î³
ĠÎł Î¹Î¿
ĠÎł Î¯ÏĥÏī
ĠÎł Î·Î³Î±
Î»Î¹Î¬ Î¶ÎµÎ¹
ÎŃÏģ Î¿ÏĤ
ÎŃÏģ ÏĦÎµÏĤ
ÎŃÏģ Î·ÏĤ
ÏģÎŃ ÏĥÎµÎ¹
ÎºÎµÎ¯ Î½Î·
ÏĦÎ¯ Î¼Î·
ÏĦÎ¯ Î½Î±ÏĤ
ĠÏĢÎ¬ Î³Î¿
ĠÏĢÎ¬ Î³Ïī
ĠÏĢÎ¬ Î³ÏīÏĥÎµ
ÎŁ ÎĿ
Îľ Î¼Î¼
Îľ ÏĢÎ®ÎºÎµ
ÏģÏİ Î¼Î±
ĠÎ£ ÎºÎ±Ïģ
ĠÎ£ Î¹Î³Î¬
ĠÎ£ ÏĩÎµÎ´ÏĮÎ½
ÏĮÏĦÎµ ÏģÎ¿ÏĤ
ĠÏģ ÎŃ
ĠÏģ Î¿ÏĩÎ¬Î»Î¹
ĠÏĥÎº ÏħÏĨ
Î¼ÏĢ Î®
Î¼ÏĢ ÏģÎ¿ÏĥÏĦÎ¬
ĠÎŃÏĩ Î¿ÏħÂµÎµ
ÏİÎ½ Î¿Î½ÏĦÎ±Î¹
ÎŃÎ» ÎµÎ¹Î±
ÏĦÎ® ÏģÎ±ÏĤ
ĠÏĩÎ± Î¼Î®
ĠÏĩÎ± ÂµÎ·
ĠÏħ Î³ÏģÎ±
Îĳ Î±
ĠÎĪ ÏĩÎµÏĦÎµ
ĠÎĪ ÏĢÎ±Î¹
ĠÎĪ ÏĢÎµÏĥÎµ
ĠÎ¼Î¬ ÏĦÎ±Î¹Î±
ĠÎ¼ÏĢÎ¿Ïģ ÏİÎ½ÏĦÎ±ÏĤ
ÎºÎ¿Ïħ Ïĩ
ĠÎĶ Î¯Î±
ĠÎĶ Î¬Ïĥ
ĠÏĪ Îµ
ĠÎĹ Î»Î¯Î±
ÏĢÏĮ Î´Î¹Î±
ĠÎŃÏĨ ÏĦÎ±Î¹Î³Îµ
Îķ ÎĿ
Îķ ÎĽ
Îķ ÎµÎµ
Î»ÎŃ Î¼Î±
ĠÎ²Î±ÏĥÎ¹ Î»ÎŃ
Î»ÏĮ Î½Î±
ĠÎ»Î¯ Î³Î¿ÏħÏĤ
ÏĩÎ±Î½ Î±
Îł ÏģÎ¿
Îł ÏģÎ¯Î³ÎºÎ¹ÏĢÎ¬
ÎºÎ¿Ïį Î»ÎµÏĤ
Î³Î¹ Î¿Ïį
ĠÎ¾Îµ ÏģÎ±
ĠÎºÎ±Î¸ Î¯ÏĥÏī
ÎºÎ¿ Î»Î¬
Î¶Î¯ Î½Î±ÏĤ
ÏĥÎ¯ Î»Î·
ÏĥÎ¯ Î´Î¹
ĠÎºÎ¿Ïħ ÏĦÎ¬
ĠÎºÎ¿Ïħ ÎºÎ¿ÏħÎ½
ĠÎºÎ¿Ïħ ÎºÎ¿ÏħÎ²Î¬Î³Î¹
ĠÎĵ Î¿Ïģ
ĠÎĵ ÎµÏģÎ¼Î±Î½
ĠÏĥÏĢÎ¯ Î¸ÎµÏĤ
ĠÎºÏĮ ÏĢÎ¿ÏĤ
ĠÎºÏĮ Î»Î»Î±
ĠÏĢÏĮ ÏģÏĦÎ±ÏĤ
Î¼Î· ÏĦÎ¹ÎºÎ®
ĠÎ±Î³ ÏİÎ½ÎµÏĤ
ĠÎĺ Î±Î½Î¬
ĠÎĺ Î®Î²Î±
ĠÎ´Îµ ÏĩÏĦÎµÎ¯
Î£ Î·Îº
Î£ Î¯Î³Î¿ÏħÏģÎ±
ĠÏİ Î¼Î¿ÏħÏĤ
Î¿Ïĥ ÏĩÎŃ
ĠÎ±Ïģ Î¿Ïħ
ĠÎ±Ïģ Î¼Î±
ĠÏĢÎµÏģÎ¹ Î²Î¬
ĠÏĢÎµÏģÎ¹ ÏĥÏĥÎµ
ĠÏĢÎµÏģÎ¹ Î¿ÏĩÎ®ÏĤ
ĠÎ±Ïħ Î»Î®ÏĤ
ĠÏĢÎ±ÏģÎ± Î¸Ïį
Î»Î¯ ÏĦÏĥÎµÏĤ
Î»Î¯ Î¼Î¿Î½Î¿
ÎŃÏĩ Î±
ÎŃÏĩ ÎµÎ¹ÏĤ
ĠÎ¼ÏĮÎ½ Î¹
ĠÎ³Îµ ÏģÏĮ
ĠÎ³Îµ Î»Î¿ÏįÎ½
ĠÎºÏħ ÏģÎ¿ÏįÎ»Î±
ĠÎµÎ½ ÏĦÎ¿ÏĢ
ĠÎµÎ½ ÏĦÎ¿Î»
ĠÎ½Îµ ÏģÎ¬ÎºÎ¹
ĠÎºÎ±ÏĦÎ± Îº
ĠÎºÎ±ÏĦÎ± Î»Î±Î²Î±Î¯Î½ÎµÎ¹
ĠÎ±Î½Î± Î¼
ĠÎ±Î½Î± ÏĪ
ĠÎ±Î½Î± Î³ÎºÎ±
ĠÎ±Î½Î± ÎºÎ¿ÏįÏĨÎ¹
Î³Î±Î½ Î¹ÏĥÏĦÎ¬Î½
ÏĩÎ½ ÎµÎ¹
ÏĦÏĥ Î¹ÎºÎ¿
ĠÎĴ ÎŃÎ²Î±Î¹Î±
ĠÎĴ Î³Î±Î¯Î½ÎµÎ¹
ĠÎĴ Î¿ÏģÏģÎ¬
ĠÎĿ Î¹ÎºÎ®
ĠÎĿ ÎŃÎ»Î¹
ÏĩÎ± ÏģÎ¿Ïį
ĠÎ´Î¹Î± Î²Îµ
ĠÎ´Î¹Î± Î¼Î±Î½
ĠÎ´Î¹Î± Î´Î¹ÎºÎ±
ĠÎ´Î¹Î± ÏĦÎ±Î³Î®
ĠÎ´Î¹Î± ÎºÏĮÏĥÎ¹Î±
ĠÎ´Î¹Î± Î¼Î±ÏģÏĦÏħ
ĠÎºÎ±ÏĦÎ¬ ÏĢÎ¹Îµ
ĠÎºÎ±ÏĦÎ¬ ÏĢÎ»Î·Îº
ĠÏĢÏģÎ¿Ïĥ ÏĢÎ¿Î¹
ÎĮ ÏĦÎ¹
ÎĮ ÂµÏīÏĤ
ÎĪ ÏĩÎµÎ¹
ÎĪ Î²Î±Î»Îµ
ĠÎ±ÏĢÎ¿ Î¶Î·
ĠÎ±ÏĢÎ¿ Î³Î¿Î·
ĠÎ±ÏĢÎ¿ Î³ÎµÏįÎ¼Î±ÏĦÎ±
ĠÎ±ÏĨ ÏģÏĮ
ĠÎķÎ¯ Î´Î±
ĠÂµÎµ Î»Ïī
ÏĥÏĦÎ± Î»
ÏĥÏĦÎ± ÏĦÎ¹ÎºÏĮ
ÏĥÏĦÎ± ÂµÎ¬
ÂµÎ± ÏĥÎµ
ÏİÎ½Î± Î¶Îµ
ĠÎ§ ÏģÏį
ĠÎ§ Î¹Î¿Î½
Î²Î¬ Î»
Î²Î¬ Î»Î¹
ĠÏĨÎ± ÎºÎµ
ĠÏĨÎ± ÎºÎŃÏĤ
ĠÎī Î¸ÎµÎ»Î±
ÎĿ ÎŁÎ¥ÎĿ
Î¿Ïĩ Î¿Î¹
ĠÎĨ ÏĦ
ĠÎĨ Ïģ
ĠÎĨ ÏģÎ±
ĠÎĨ Î³Î¹
ĠÎĨ Î»ÎºÎ·
ĠÎĨ ÏĨÎ·ÏĥÎµ
ÏģÎ½ Î¬
ÏģÎ½ Î¬ÎµÎ¹
ÎŃÏĨ ÏĦÎ¹Î±
ÏĥÎº ÎŃÏĨÏĦÎ·ÎºÎµ
ĠÎŃÎ² Î·
ÏĦÏģÎµ ÏħÎµ
ĠÎ²Î¬ Î»Îµ
ÏĥÏĦÎ· ÏĥÎ±Î½
ÏĢÎ® ÏģÎµ
ĠÎ±Î¼ ÎŃÏĦÏģÎ·
Î²Îµ ÏĦÎµ
ĠÏĢÏģÏĮ Îµ
ĠÏĢÏģÏĮ Î»Î±Î²Î±Î½
Î¼Î¹ Î¿ÏĤ
ÏĦÎ¿Ïħ ÏģÎ³
ÏĦÎ¿Ïħ Î¹ÏĦÏĤ
Î³ÎµÎ¹ Î¬
ĠÎĽ Î¹
ĠÎĽ Î¬
ĠÎ±ÎºÎ¿Ïį Î³Î¿Î½ÏĦÎ±ÏĤ
ĠÏĢÎŃ Î¼ÏĢ
ÎĶ Î¹
ÎĶ ÏħÏĥÏĦÏħÏĩÏİÏĤ
ĠÎļÎ± Î¼
ĠÏĢÎ¿Î½ ÏĦÎ¹ÎºÏĮ
ĠÎ±ÏģÏĩ Î±Î¹
ĠÎ¡ Î±Î»ÏĨ
ĠÏĥÏħÎ¼ ÏĨÎ¿ÏģÎ¬
ÏģÎ¹ÏĥÏĦ Î®
ĠÎ»Î± ÏĦÏģÎµ
ĠÎ»Î± Î¯Î¼Î±
Î¹Ïĥ ÂµÎŃÎ½Î·
ĠÎ±Îº ÏģÎ¹
ĠÎŃÎº Î»ÎµÏĪÎµ
ÎŃÎ² Î³Î±
ĠÏĥÏĩ Î¿Î¹Î½Î¯
ĠÎľÎµ ÏĦÎ±
ĠÎľÎµ Î»Î¹ÏĥÏĥ
ĠÏĢÏģÏİ ÏĦÎ¿Î¹
ĠÏĢÏģÏī ÏĦÏĮ
ĠÏĥÎ¹ Î³Î¿
ĠÎ»Î¹ ÏĩÎ¿Ïħ
ĠÎºÎ¿Ïģ ÏİÎ½Î±
ĠÏĢÎ¹ Ïī
ĠÏĢÎ¹ Î¬Î½Î¿
ĠÎºÎ±Ïģ Î´Î¹ÎŃÏĤ
ĠÎºÎ±Ïģ Î´Î¿ÏįÎ»ÎµÏĤ
ĠÏĢÎµÏģÎ¯ ÏĨÎ·
ĠÏĢÎµÏģÎ¯ Î¼ÎµÎ½Î±
ĠÎ¼Ïħ ÏĥÏĦÎ®ÏģÎ¹Î¿
ĠÏĨÎ¿Ïģ ÎŃ
ĠÏĨÎ¿Ïģ ÏİÎ½ÏĦÎ±ÏĤ
ĠÎ»Îµ ÏīÏĨÎ¿Ïģ
ĠÎ¦ Î±Î½ÏĦÎ¬
ĠÏĥÎ± Î»Î¬
Î´Î® ÏĥÎµÎ¹
ÏģÎ¿Ïĩ Î±
ĠÎ±Î³Î¿ ÏģÎ¹Î¿Ïį
ĠÎĳÎ½ ÎŃÎ²
ĠÎĳÎ½ ÎŃÏĥÏĦÎ·ÏĤ
ĠÎ¶Î® Î»ÎµÏħÎµ
ĠÎ¶Î® ÏĦÎ·ÏĥÎ±
ĠÎ¶Î® Î»ÎµÏħÎ±Î½
Î»Ïİ ÏĥÎ¿ÏħÎ½
ĠÎ¸Ïħ ÂµÏĮ
Î¼Î¿Ïħ Î½Î±
ĠÎ¹ÏĥÏĦ Î¿ÏįÏĤ
ÏĥÏħÏĩ Î±
ÎµÏģ Î³
ĠÏĨÏħ Î»Î»Ïī
ĠÏĪÎ· Î»Î®
ĠÎ³ÏħÎ½Î±Î¯ÎºÎ± ÏĦÎ¿Ïħ
ĠÎ¼Î¹ Î»Î¹Î¬
ĠÎ¼Î¹ ÏĥÎ¿
ÎľÎµ Î»Ïī
ĠÎ¬Î½Î¿Î¹ Î³Î¼Î±
ĠÏĢÎ±Î»Î¬ Î¼Î·
ĠÎ³Î¬ Î¼Î¿Î¹
ĠÂµÎ± Î¶Îµ
ĠÂµÎ± ÎºÏģÎ¹
ĠÎ±Î½Î¬ ÏĪÎµÎ¹
ÎĽ ÎµÏĤ
ĠÎ´Ïİ ÏĥÎ¿ÏħÎ¼Îµ
ĠÎ´Ïİ ÏĥÎµÏĦÎµ
ĠÎ¼ÎµÎ³Î± Î»Î¿ÏĢ
ĠÎºÎ® ÏĢÎ¿ÏħÏĤ
ĠÎ³Î»Ïħ ÎºÏį
Î²Î¿ Î¼Î±Î¹
ÏĨÏħ Î³ÎµÏĤ
ĠÏĢÏģÎ¬Î³ Î¼Î±ÏĦÎ¬
ÏĨÎ¿ Î¼Î·ÏĩÎ±Î½Î®
ÏĦÎ¿Ïį ÏģÎ±
ĠÏĢÎ¿Î¹ ÏĮÏĤ
ĠÎºÎ»Î± Î¯Î½Îµ
Î¶Ïī Î³ÏģÎ±ÏĨ
ÏĥÏĦÎ® ÏĥÎµÎ¹
ÏģÎ³ Î¿ÏħÏĤ
ÏĦÎ¶ Î¹
ÏĦÎ¶ Î¬
ĠÎ±Îµ ÏģÎ¿
ĠÎ±Îµ ÏĦÎ¯Î½Î±
ĠÏĥÏĢÎ¹ ÏĦÎ¹ÎºÏĮ
ĠÎ´Î¹Î¬ ÏģÎºÎµÎ¹Î±
ÏĦÏį Î¸Î·ÎºÎµ
ĠÎ¶Î· ÏĦÎ®ÏĥÎ¿ÏħÎ½
ĠÎµÎº ÏĦÎµ
ÏģÎ¿ÏĢ Î¿
ĠÏĨÎ±Î½ ÎŃÏģÏī
ĠÏĦÏģÏĮ Î¹ÎºÎ±
ĠÏĩÎ¿Ïģ ÎŃÏĪÎ¿ÏħÎ½
ĠÎŃÏĢÎ±Î¹ Î¾Î±Î½
ÏĥÏĥÏĮÏĦÎµ ÏģÎ¿
ĠÏħÏĢ Î¿Î»Î¿Î³
ĠÏħÏĢ Î¿Î»Î¿Î³Î¹
Î»Î»Î± ÎºÏĦÎ¹ÎºÏĮ
ĠÎ±ÏĢÎ± ÏģÎ·Î³ÏĮ
ĠÏĩÏİ Î¼Î±ÏĦÎ±
Î³Î³ ÏħÎ»Î¿
ĠÎµÏħÏĦÏħÏĩ Î¯Î±ÏĤ
ĠÎ±ÏĨÎ® Î½ÎµÎ¹ÏĤ
ĠÎłÎ± ÏģÎ¯ÏĥÎ¹
ĠÏĨÎŃÏģ Î½Î¿ÏħÎ½
ĠÎĸ Î¿ÏįÏĥÎµ
ĠÏĨÏĦÎ¬ ÏĥÎ¿ÏħÎ½
ĠÏĨÏĦÎ¹Î¬ Î¾Î¿ÏħÎ¼Îµ
ĠÎºÎ¿Î» Î»Î®ÏĥÎµÎ¹
Î¤ÏĮÏĦÎµ ÏĤ
ĠÎºÎ»ÎµÎ¹ ÏĥÏĦÎ¬
ĠÏĨÎ¿Î² Î®Î¸Î·ÎºÎ±Î½
ĠÏĢÎµÏģÏĢÎ± ÏĦÏİÎ½ÏĦÎ±ÏĤ
ĠÏĢÎµÏģÏĢÎ± ÏĦÎ¿ÏįÎ½
ĠÎ¼Î¿Î½ Î¿Î»ÏĮÎ³Î·ÏĥÎµ
ĠÏĦÏģÎ¿ ÂµÎ±Î³
Î§ ÏģÎ¹ÏĥÏĦ
ĠÎµÏĢÎŃ Î¼ÎµÎ½Îµ
ĠÎºÎ¬Î¸ Î¿Î½ÏĦÎ±Î¹
ĠÎºÎ±Î»Î¿ ÎºÎ±Î¯ÏģÎ¹Î±
ÎĨ Î»Î»ÏīÏĥÏĦÎµ
Îī Î¸ÎµÎ»Îµ
ÏĦÎµÏħ ÏĥÎµ
ĠÎľÎ¹Î± ÏĤ
ĠÏħÏĢÏĮ Î³ÎµÎ¹Î¿
ÎµÎ³ Î³Î±
ĠÎŃÎ²Î³Î± Î¶Î±Î½
ĠÎ³ÎµÎ½ ÎµÎ¹Î¬
ĠÎ¿Î¼Î¿ÏģÏĨ ÏĮÏĦÎµÏģÎ¿
ĠÎ²Îµ Î²Î±Î¯ÏīÏĤ
ĠÏĢÎ±ÏģÎ±Î¼ Î¹ÎºÏģÏĮ
ÏĥÏħ Î½Î±Î½
ÏģÎ¹Î¿ ÎºÎ±ÏģÏĩÎ±ÏģÎ¯ÎµÏĤ
ĠÏĦÏģÎ±ÏĢÎŃ Î¶Î¹Î±
ĠÏĩÏģÎ® ÂµÎ±ÏĦÎ±
ĠÎ¬Î³ ÏģÎ¹ÎµÏĤ
ĠÏĢÎ±ÏģÎŃ Î¼ÎµÎ¹Î½Îµ
ĠÏĥÎ·Î¼Î± Î¯Î½Î¿ÏħÎ½
ĠÏĨÏīÎ½Î¬ Î¾ÎµÎ¹
Î±Î¼ ÎŃÏĥÏīÏĤ
ĠÏĢÎµÎ¯ ÏģÎ±
ĠÎ´ÏģÎ¬ ÎºÎ¿Ïħ
ĠÏĦÎµÎ»ÎµÏħÏĦÎ± Î¯ÎµÏĤ
ĠÏĢÎŃÏĦÎ± Î»Î±
ĠÏĨÎµÎ³ Î³Î¬ÏģÎ¹Î±
ĠÎ±ÎºÎ¿Î» Î¿ÏħÎ¸ÎµÎ¯
ĠÏĨÏĦÏīÏĩ Î¹Î¬
ĠÏĢÏģÏĮÏĥÏī ÏĢÎ±
ĠÎ±Î¯ ÏĥÎ¸Î·
ĠÏħÏĢÏĮÎ»Î¿Î¹ ÏĢÎ¿Î¹
ÏĦÏģÎ¬ Î»Îµ
ÏĦÏģÎ¬ ÎºÎ·ÏĤ
ĠÎ¼Î±Î½ ÏĦÎ¯
ĠÎ±Î½Î¿Î¯ Î³Î¿Î½ÏĦÎ±ÏĤ
ĠÏĢÎ»Î± ÏĦÎ¹Î¬
ĠÏĢÎ»Î± ÎºÏĮÏĥÏĦÏģÏī
Î³Ïħ ÏģÎ¯ÏĥÎµÎ¹
ĠÏĢÎ±Î½ÏĦÏģÎµ ÏįÏĦÎ·ÎºÎ±Î½
ÎļÎ¬ ÏĦÎ¹
ÎļÎ¬ Î¸Î¹ÏĥÎµ
ĠÏģÏī ÏĦÎ®ÏĥÏī
ĠÏĥÎºÎ¯Î¿Ïħ ÏģÎµ
ĠÎ³Îº ÏģÎ¹Î½Î¹Î¬
ĠÏĦÏģÎ¯ ÏĩÎµÏĤ
Î¬Î½Î¹ Î¶Î±Î½
ÏģÎµÏħ ÏĦÎµÎ¯
ĠÎ²Î³Î¬ Î¶Î¿Î½ÏĦÎ±ÏĤ
ĠÂµÎ¹Îº ÏģÎ¬
ĠÎłÎµ ÏĦÏģÎ¬Î»Îµ
ĠÏĩÏģÏħÏĥÎ¬ ÏĨÎ¹Î±
ĠÏĦÏĥÎ± ÎºÎ¬Î»Î¹Î±
ÎºÎ¿Î¹ Î¼Î®Î¸Î·ÎºÎµ
ÏħÏĩÎ® Î¸Î·ÎºÎµ
ĠÎ±Î½ÏĦÎ¹ Î¼Îµ
ĠÎ±Î½ÏĦÎ¹ Î»Î®
ĠÏĦÏģÎ±Î³Î¿Ïħ Î´Î¬
ĠÏĦÎ¿ÏĢ Îµ
ĠÎ±Î½Îµ Î²Î±
ĠÎºÎ±ÏĦÎµ Î²ÎµÎ¯
ĠÎºÎ±ÏĦÎµ ÏįÎ¸ÏħÎ½
ĠÎºÎ¿ÏħÏģÎ± ÏĥÏĦÎµÎ¯
ĠÎºÎ¿ÏħÏģÎ± ÏĥÎ¼ÎŃÎ½Î·
ĠÎ±Î¹ ÏİÎ½Î¹Î±
ĠÎµÏĢÎ¯ ÏĦÎ·Î´ÎµÏĤ
ĠÎ¼Î±Î¶Îµ ÏįÎµÎ¹
ĠÎ¼Î±Î¶Îµ ÏįÎ¿ÏħÎ½
ĠÎµÎ¹ Î´Î¹Îº
ĠÎµÎ¹ ÏģÎ®Î½Î·
ĠÏĩÏģÎµÎ¹Î¬ Î¶Î¿Î½ÏĦÎ±Î½
ĠÎľÎ¬ Î»Î»Î¿Î½
ĠÎľÎ¬ ÏĦÎ±Î¹Î±
ĠÎľÎ¬ Î¹Î³ÎºÎ¿
ĠÏĩÏĦÏįÏĢÎ· ÏĥÎ±Î½
ĠÏĢÎ»ÎŃ ÎºÎµÎ¹
ĠÎ²ÏģÎ± Î²Îµ
ÎĳÎ½ ÏĦÎ¯Î¿
ĠÎºÎ±Î¸Î± ÏģÎ¯ÏĥÎµÎ¹
ĠÏĦÏģÎµ Î»ÏĮ
ĠÎ³ÏģÎ± Î¼Î¼Î±
ĠÏĥÎ¿Î²Î± ÏģÎ®
ĠÏħÏĢÎ¿ Î´ÎŃÏĩ
ĠÎĽÎ¯ Î»Î·
ĠÎºÎ¿ÏħÎ²ÎŃÎ½ ÏĦÎµÏĤ
Î¬ÏĢ Î»ÏīÏĥÎµ
ĠÎ¼Î¯ Î»Î¹Î±
ĠÎ¼Î¯ Î»Î·ÏĥÎ±Î½
ĠÏĨÏħÎ»Î± Îº
ĠÏĪÎ¬ÏĩÎ½ Ïī
ĠÎºÎ¯ÏĦÏģÎ¹ Î½ÎµÏĤ
ĠÏĥÎ¿ÏĨ Î¯
ĠÎľÎ¹ Î½
ĠÏĦÎµÎ»ÎµÎ¹ ÏİÎ½ÎµÎ¹
ĠÎºÎ±ÏĦÎ±ÏĨÎŃÏģ ÎµÎ¹ÏĤ
ĠÏĥÏħÎ³ ÏĩÏİ
ĠÏĥÏħÎ³ Î½ÏİÎ¼Î·
ĠÏĢÎ±Î½ÎŃ Î¼Î¿ÏģÏĨÎ·
ĠÎ±ÏģÎ¹ ÏĥÏĦÎµ
ĠÎ¼Î¬Î¸ Î¿ÏħÎ½
ĠÎ¼Î¬Î¸ Î¿ÏħÎ¼Îµ
ĠÎ¼Î¬Î¸ Î±Î¹Î½Îµ
ĠÏĪÏī Î¼Î¬ÎºÎ¹
Ġ1 5
Ġ1 8
ĠÏĥÏĦÎµÎ½ Î¿ÏĩÏİ
ĠÎŃÏĪÎ± Î¾Îµ
ĠÎ¼Î¿ÏħÏĥÎ¹ÎºÎ® ÏĤ
ĠÎ²ÏģÎ¯ÏĥÎº Î¿ÏħÎ½
ĠÎ¿Ïģ Î¼Î®
ĠÎ¼Î¹Ïĥ Î®
ĠÏĥÏĦÎ±Î¼Î± ÏĦÎ®ÏĥÎ¿ÏħÎ½
ÏĦÏģÎ¿ÏĢ Î®
ĠÏĨÎ¿Ïħ Ïģ
Î²Î¿Î» Î¯Î±
Î²Î¿Î» Î¿ÏįÏĥÎ±Î½
ĠÏĦÎ¿Î¯ ÏĩÎ¿Î¹
ĠÏĢÎ¿Î½ÏĦÎ¹ ÎºÎ¿Ïį
ĠÎ²Î¿Î·Î¸ ÏĮ
Î¿Î»Î¿ Î³Î®Î¸Î·ÎºÎµ
ĠÎºÎ»ÎŃ ÏĪÎµÎ¹
Î¼Î¹Îº ÏģÏĮ
ĠÏĩÎ±Î¼ÏĮÎ³Îµ Î»Î±
ĠÏĢÎµÏģÎ¬ ÏĥÎµÎ¹ÏĤ
ĠÏĢÎµÏģÎ¬ ÏĥÎ¿ÏħÎ¼Îµ
Î´Ïį Î¿
ĠÎºÎ¹Î½ Î´ÏįÎ½
ĠÏħÏĢÎ¿Ïĥ ÏĦÎ·
ĠÎºÎ»Î¬ Î¼Î±
ĠÎ½Î¿Î¹ Ïİ
ĠÎŃÏĢÎ¹ Î½Î±Î½
ĠÎļÏħ ÏģÎ¬
ĠÏĢÎ»Î¿ÏįÏĥÎ¹ Î¿Î¹
ĠÏĢÎ±Î¯ÏģÎ½ Î¿Î½ÏĦÎ±ÏĤ
ĠÎĵÎ· ÏģÏħ
ĠÎ±Î½Î·ÏĥÏħÏĩ Î¯Î±
ĠÎŃÏģÏĩ Î¿Î¼Î±Î¹
ĠÎºÎ±Î· Î¼ÎŃÎ½Î¿ÏĤ
ĠÎ¾Î±ÏĢ Î»ÏİÏĥÎµÎ¹
ĠÏĢÎ¹ÏĥÏĦ ÏĮÏĤ
Î³Î¿Î·ÏĦÎµÏħ Î¼ÎŃÎ½Î¿ÏĤ
ĠÎ±Î»Î·Î¸Î¹ Î½ÏĮ
ĠÎ»Î±Î¹ ÂµÏĮ
ĠÎ£Îº ÎŃÏĨ
ĠÏħÏĢÎµ Ïģ
ĠÏħÏĢÎµ ÏģÎ·
ĠÏħÏĢÎµ ÏģÎ®ÏĨÎ±Î½
ĠÏĨÏģÎ¿Î½ÏĦÎ¯ ÏĥÎµÎ¹
ÎľÏĢÎ± Î±ÂµÏĢÎ¿ÏįÏģ
ĠÎ¾ÎµÏĩÏī ÏģÎ¯Î¶ÎµÎ¹
ĠÎĸÎ±Î¼ Î¶Î±
ĠÎ±Ïĥ ÏĨÎ¬
ĠÎ´ÏģÎ¿Ïĥ ÎµÏģÎ¬
ĠÏĢÎµÏģÎ®ÏĨÎ±Î½ Î¿
ĠÎ±Î½ÎŃ Î¼Îµ
ĠÎºÎ¿ÏħÎ²Î± Î»Î¿ÏįÏĥÎµ
ĠÏĢÎ±ÏģÎ±ÎºÎ¿Î» Î¿ÏħÎ¸
ĠÎŃÎºÎ»Î±Î¹ Î³Î±Î½
ĠÎµÏħÏĩÎ® Î¸Î·ÎºÎµ
Î±Î±Î±Î± Î±
ĠÎµÎ»ÎµÏħÎ¸Îµ ÏģÏİÏĥÏī
ĠÎµÎ»ÎµÏħÎ¸Îµ ÏģÏīÎ¸ÎµÎ¯
ĠÎ¬ÏĢ Î»ÏīÎ½Îµ
ĠÎºÏįÎº Î½Î¿Î¹
ĠÎ¶ÏīÎ½ÏĦÎ±Î½ Î¬
ĠÎ»Î¹Î³ ÏĮÏĦÎµÏģÎ¿
ĠÎ³Î±ÏģÎ³Î± Î»Î·ÏĦÏĮ
ĠÎ³Î±ÏģÎ³Î± Î»Î¿ÏĬ
ĠÎ±Î´ÏįÎ½Î± ÏĦÎ¿Î½
ĠÎŃÏĥÎºÎ± Î²Îµ
ĠÎ´Î¿Ïį Î»ÎµÏħÎ±Î½
ĠÎ¸Î±ÏįÎ¼Î± Î¶Îµ
ĠÎŃÎºÏĢÎ»Î·Îº ÏĦÎ¿Î¹
Îĸ Î®
ĠÎ»Î¿ Î³Î±ÏģÎ¹Î±
ĠÏĢÎ¿Î»ÏįÏĩÏģÏī Î¼Î·
ĠÎ§Î± ÏĥÎ¬Î½
ÎĴÎ± ÏĥÎ¯Î»Î·
ĠÏĥÎ¬ Î»Î¹Î±
ĠÏĥÎ¬ ÎºÎ¿ÏħÏĤ
ÎºÏĮÎºÎºÎ¹ Î½Î¿
ĠÂµÎµÎ³Î¬ Î»Î±
ĠÎĨÎ½Î¿Î¹ Î¾Î·
ĠÏĦÏģÎ¿Î¼Îµ ÏģÏĮÏĤ
ĠÏĢÏģÎ¿ÏĩÏī ÏģÎ¬
ĠÏĢÎ»Î¿ ÎºÎ¬Î¼Î¹Î±
ĠÏĥÏħÎ¼Î²Î¿Ïħ Î»ÎŃÏĤ
ĠÎĸÎ® ÏĥÎ·
ĠÎĸÎ® ÏĥÎ·ÏĤ
ĠÎ¬ÏģÏģÏī ÏĥÏĦÎ·
ĠÎµÎ»Î±ÏĨ ÏģÎ¹Î¬
ĠÎºÎ¿Î½ ÏĦÏĮ
ĠÎºÎ±ÏģÎ± Î²Î¹Î¿Ïį
ĠÏĩÎ¯ Î»Î¹ÎµÏĤ
ĠÎļÏĮ Î³Î¹Î±
ĠÎ²Î¬Ïģ ÎºÎµÏĤ
ĠÎĽÎ± Î²ÏįÏģÎ¹Î½
Î·ÂµÎ®ÏĦ ÏģÎ·
ĠÎ±ÏģÏĩÎ¯ ÏĥÎ¿ÏħÎ½
ĠÏĥÎºÏĮ ÏĦÏīÏĥÎµ
Î¸ÎŃ ÏĦÎ·ÏĥÎµ
ĠÏĥÏĦÎµÎ¯ Î»Î¿ÏħÎ½
ĠÎ§Î¬ ÏģÎ·ÏĤ
ĠÎ¸ÏħÎ¼Ïī Î¼ÎŃÎ½Î¿
ĠÏĥÎºÎ±Ïģ ÏĨÎ¬Î»ÏīÏĥÎµ
ĠÏĦÏģÎ±Î³Î¿ÏħÎ´ Î¿ÏįÏĥÎ±Î½
ĠÎ±Î½Î®ÏĥÏħÏĩ Î¿Î¹
Î¿Î¿ Î¿Î¿
ĠÏĦÎ¶Î¯ÏĦÎ¶ Î¹ÎºÎ±
ĠÎ³Î»ÎŃÎ½ ÏĦÎ¹Î±
ĠÎ±ÏĢÎ¿Ïĩ Î±Î¹ÏģÎŃ
ĠÎ¾Î±ÏĨÎ½ Î¹Î¬ÏĥÏĦÎ·ÎºÎµ
ĠÎ¾Î±ÏĨÎ½ Î¹Î±ÏĥÎ¼ÎŃÎ½Î¿ÏĤ
ĠÎ²Î±ÏģÎ¹ Îµ
ĠÎ¹Î´Î¹Î±Î¯ ÏĦÎµÏģÎ·
ĠÏĢÎµÎ¹Î½Î¬ Ïī
ĠÎ³ÏģÎ®Î³Î¿Ïģ Î·
ĠÏĢÏħÎ³Î¿Î»Î±Î¼ÏĢ Î¯Î´ÎµÏĤ
ĠÏĦÎ¯Î³ ÏģÎ·ÏĤ
ĠÎºÎµÎ»Î± Î·
ĠÎ»Î¹Î²Î¬ Î´Î¹Î±
ĠÎ´Î¬ÏĩÏĦÏħ Î»Î¬
ĠÎľÎ¹Î»ÏĦÎ¹Î¬ Î´Î·
ĠÏĥÏħÎ¶Î· ÏĦÎ¿ÏįÏĥÎ±Î½
ĠÎłÎ¿Î» Î»Î¿Î¯
ĠÎ¼Î¬Î³Î¿Ïħ Î»Î¬
ĠÎļÎ¹Î½ÎŃ Î¶Î¿
ĠÎ±ÏĥÎ· ÂµÎŃÎ½
ĠÏĮÏģ Î¼Î·ÏĥÎµ
âĢ´ ,
ĠÎ±Î³Î³ ÎŃÎ»
ĠÏĢÎ¿ÏĦÎ± Î¼Î¿Ïį
ĠÎºÎ»ÎµÎ¹Î´Î± ÏģÎ¹ÎŃÏĤ
ĠÎµÏĦÎ¿Î¯ Î¼Î±
ÏģÎ¯ÏĥÏĦÎµ ÏĤ
ĠÎļÎ¿Ïģ Ïİ
ĠÏĢÏģÎ¿ÏĥÏĦÎ± ÏĦÎµÏį
ĠÎºÎµÏģ Î´Î¹
ĠÎ²Î¿Î·Î¸Î¬ ÏĤ
ĠÏĦÏģÎ¿Î¼Î±Î³ Î¼ÎŃÎ½Î·
ĠÎ¤Î· Î»ÎŃÎ¼Î±
ĠÎłÎ¿ÏģÏĦÎ¿ÎºÎ± Î»Î¯Î±ÏĤ
ĠÎ¼ÏĢÎ¿ÏģÎŃ ÏĥÎ¿ÏħÎ½
ĠÎ¼ÏĢÎ¿ÏģÎŃ ÏĥÎµÎ¹ÏĤ
ĠÎĨÎ» Î»Î¿ÏĤ
ĠÏĥÎ±ÎºÎ¯ Î´Î¹Î¿
ĠÎ¿Î½Î¿Î¼Î¬ Î¶Î¿ÏħÎ½
ĠÎ³Î¿ Î·
ÂµÎ¿Î½ Î¹Î¬ÏĤ
ĠÏĥÏħÎ»Î»Î¿ Î³
ĠÏĢÎµÏģÏĢÎ¬ ÏĦÎ·Î¼Î±
ÏĥÎºÏĮ ÏĦÎ±
ĠÏĥÏĢÎ±Î¸ Î¹Î¬
ĠÏĨÏĦÎ± Î¯
ĠÎĳÎºÎ¿Ïį ÏĥÏĦÎµ
ĠÏģÎ¿Ïħ Î¸Î¿ÏįÎ½
ĠÎ¾Î±ÏĢÎ»Ïī Î¼ÎŃÎ½Î¿
ĠÎ¾Î±ÏĢÎ»Ïī Î¼ÎŃÎ½Î¿ÏĤ
ĠÏĩÏģÏħÏĥÎ±ÏĨ Î¹ÎºÎ¬
ĠÎµÎ³Î³ ÏĮÎ½Î¹Î±
ĠÎµÎ²Î´Î¿ Î¼Î¬Î´ÎµÏĤ
ĠÎ½Î¹ ÏİÏĥÎµÎ¹
ĠÏĨÏħÏĦ ÏģÏİÎ½Î¿ÏħÎ½
ĠÎ²ÏģÏİ Î¼Î¹ÎºÎ±
ĠÎĳÎ» Î»Î¹ÏİÏĤ
ĠÎłÎŃÏģÎ± ÏĥÎµ
ĠÎ±Î½Î±Î³ÎºÎ¬ ÏĥÏĦÎ·ÎºÎ±Î½
ĠÎ¼Î±Î³ÎµÎ¯ ÏģÎµÏħÎµ
ĠÎĻÏĥÎ¯Î´Ïī ÏģÎ¿
ĠÎµÏĢÎ¹ÏĥÎºÎŃÏĢ ÏĦÎ¿Î½ÏĦÎ±Î½
ĠÎµÏĩÎ¸ ÎŃÏĤ
ĠÎºÎ±Î¼Î¬ ÏģÎ¹
ĠÎºÎ±ÎºÎ¿Ïį ÏģÎ³Î¿ÏĤ
ĠÎºÏĮÎ» ÏĢÎ¿
ĠÏĢÎ±ÏģÎ±Î¾ÎµÎ½ Îµ
ĠÎºÎ±ÏĦÎ±ÏĢÎ»Î·Îº ÏĦÎ¹ÎºÎ®
ĠÎĿÏĦÎ¿ÏħÎ²Î¿ÏħÏģÎ½ Î¬
ĠÏĢÎµÎ¹ÏģÎ± ÏĦÎ®ÏĤ
ĠÎ»Î¬Î¼ÏĢ ÎµÎ¹
ĠÎ¬Î³Î³Îµ Î»Î¿Î¹
ĠÏĥÎ¹Î´ÎµÏģÎŃÎ½ Î¹Î±
ĠÎºÎ·ÏĢÎ¿Ïħ ÏģÏĮ
ĠÎºÎ·ÏĢÎ¿Ïħ ÏģÏĮÏĤ
ĠÎ²Î±ÏĦÏģÎ±Ïĩ Î¬ÎºÎ¹
ÏĥÎ¸Î· ÏĦÎ±
ĠÎ½ÏĮÏĥÏĦÎ¹ Î¼Î¿
ĠÎºÎ±Î»Î¿Ïį Î´Î¹Î±
ĠÎ¸Î±Ïģ ÏģÎµÏĦÎ¬
ÎļÎ±Î½ ÎŃÎ½Î±ÏĤ
ĠÎŃÏĩÎ± ÏĥÎ±
ĠÎ¼Î¹Î»Î® ÏĥÏī
ĠÎ¼Î¹Î»Î® ÏĥÎ¿ÏħÎ½
ĠÎ»Î¬Âµ ÏĢÎµÎ¹
ĠÏĩÎµÎ¹ÏģÎ¿Îº ÏģÏĮ
ĠÎºÎ¿ÏĩÏį Î»Î¹Î±
ĠÎºÎµÎ½ ÏĦÎ·
ĠÎ¼Î±Î¸Î® Î¼Î±ÏĦÎ¬
ĠÎĳÏĢÏĮÎ»Î»Ïī Î½Î±ÏĤ
ĠÎºÏģÎµÎ²Î± ÏĦÎ¬ÎºÎ¹
ÎĴÎ»ÎŃ ÏĢÏī
ĠÎ±ÎºÎ¿Î»Î¿ÏħÎ¸ Î¿ÏįÏĥÎ±Î½
ĠÎŃÎ´Î¹Ïī Î¾Îµ
ĠÎŃÎ´Î¹Ïī ÏĩÎ½Îµ
ĠÎĨÎ½Î¸ÏģÏī ÏĢÎ¿ÏĤ
ĠÎ¼Î¿ Î²
ĠÎ±ÏĦ Î¼ÏĮÏĥ
ĠÎ¾ÎµÏĩ Ïį
Î£Îº Î¯Î¿ÏħÏģÎµ
ĠÎ³ÎµÂµÎ¬ ÏĦÎ·
ĠÎ³ÎµÂµÎ¬ ÏĦÎ¿
ĠÎºÏģÎ±ÏĦÎ® Î¸Î·ÎºÎµ
ĠÎ¼ÎµÏĦÎ±ÏĨÎŃÏģ Î¿ÏħÎ½
ĠÎ¶Î·ÏĦÎ¹ Î¬Î½Î¿
ĠÎºÎ¿ÏħÎ²ÎŃÎ½ÏĦÎ¹Î± Î¶Î±Î½
ĠÏĨÏģÎ¬Î¿Ïħ Î»Î±
ĠÏĨÏģÎ¬Î¿Ïħ Î»ÎµÏĤ
ĠÏĩÏģÏīÎ¼Î±ÏĦÎ¹ ÏĥÏĦÎ¬
ĠÎ±ÏĢÎŃ Î¾Ïī
Î³Î±ÏĢ Î¿ÏįÏĥÎµ
ĠÏħÏĢÎ¬ Î»Î»Î·
ĠÏĪÎ¯ Î¸Ïħ
ĠÏĢÎµÏģÎ¹ÏĨ ÏģÏĮÎ½Î·
ĠÎ±Î½Î±ÎºÎ¬Î»Ïħ ÏĪÎµ
ĠÎ¼ÏĢÎ±Î¼ÏĢ Î¿ÏįÎ»Î±
ĠÏĦÎŃÎ»ÎµÎ¹ ÏīÏĥÎµ
ĠÎ³Î½ÏİÏģÎ¹ ÏĥÎ±
ĠÏĥÏĦÎŃÎº Î¿Î½ÏĦÎ±Î¹
ĠÎµÎ»Î±ÏĨÎ¹ Î¿Ïį
ĠÎ¿ÏģÏĨÎ±Î½ Î®
ĠÎ±ÏĢÎŃÏģÎ±Î½ ÏĦÎ¿
ÏĩÎ¿Î» Î¯Î±
ĠÎ³ÏĮÎ½Î± ÏĦÎ±
ĠÎ¸Î±ÏħÎ¼Î± ÏĥÎ¼ÏĮ
Î´ÎµÏħ ÏĦÎ¹ÎºÎ¬
ĠÎ¾ÎµÏĢÎµ ÏģÎ¬ÏĥÎµÎ¹
Î¿ÏĥÎº ÏİÎ»Î·
ĠÎ½ÎµÏħ ÏģÎ¯Î±
ĠÎºÎ±Î½Î± ÏģÎ¯Î½Î¹Î±
ĠÎ¸ÎµÏī ÏģÎ¿ÏįÏĥÎµ
ĠÎ¸ÎµÏģÎ± ÏĢÎµ
ĠÎµÏĦÎ¿Î¹Î¼Î± Î¶ÏĮÏĦÎ±Î½
ĠÎ±Î³ÏģÎ¹ÏĮ ÏĩÎ¿ÏģÏĦÎ±
ĠÎ»Î¹Î³Î¿Ïĥ ÏĦÏĮ
ĠÏĥÎºÎ±ÏģÏĨÎ± Î»ÏİÎ½ÎµÎ¹
ĠÎ±ÏĥÎ·Î¼ÎŃÎ½ Î¹Î±
ĠÏĢÎ»Î¿Ïħ ÏĥÎ¹
ĠÎ³Î¿ÏįÏģ Î½Î±
ÏĢÎ¿Î¯ Î¸Î·ÏĥÎ·
ÎķÎ½ ÏĦÏīÎ¼ÎµÏĦÎ±Î¾Ïį
ĠÎºÎ±ÏĦÎ¬Î»ÎµÏħ ÎºÎ±
ĠÎ¶ÏīÎ· ÏģÎ¬
ĠÎ±Î¼Î¯Î»Î· ÏĦÎ¿ÏĤ
ĠÎļÎ±Î»Î· Î¼ÎŃÏģÎ±
ĠÏģÎ¯ÏĩÎ½ Î¿ÏħÎ½
ĠÎ¤Î¯Î³ ÏģÎµÏīÎ½
ĠÎ¶Î±ÏĩÎ± ÏģÏīÏĦÎ¬
ĠÎ±Î· ÏĦÏĮ
ĠÏĥÏĦÏģÎ¿ Î³Î³Ïħ
ĠÎºÎ±Î²Î¿Ïħ ÏģÎ¬ÎºÎ¹
ÏĢÎµÏģÎ¯ Î´ÏīÎ½
ĠÎľÎŃ Î»Î¿
ĠÎ£Î¿ÏĨ Î¯Î±
ĠÎºÎ±ÏĦÎ±ÏĢÏģÎ¬ÏĥÎ¹ Î½Î±
ĠÏĢÏģÎ¿ÏĥÎ³ÎµÎ¹ ÏİÎ¸Î·ÎºÎµ
ĠÎ¼ÎµÏĦÎ±Î¾ Î¿ÏĥÎºÏİÎ»Î·
ĠÎ¼ÎµÏĦÎ±Î¾Ïī ÏĦÏĮ
ĠÎ¥ÏĢÎ® ÏģÏĩÎµ
ĠÎ³Î»Î¹ÏĥÏĦ ÏģÎ¿ÏįÏĥÎ±Î½
ĠÏĦÎ¿ÎºÎ¿Î³Î»Ïį ÏĨÎ¿ÏĤ
ĠÎ´Î¹ÎºÎ±Î¹Î¿Î»Î¿Î³ Î¯Î±
ĠÏĥÎµÎ½ÏĦ ÏĮÎ½Î¹Î±
ĠÎµÎ»Î»Î·Î½ Î¹ÎºÎ¬
ĠÎ±ÏĢÎ¯ÏĥÏĦÎµ ÏħÏĦÎ¿
ĠÎ»ÏħÏĩ Î½Î¬ÏģÎ¹
ĠÎºÎ¬Î½Î± Î¼Îµ
ĠÏĢÎ¿Î»ÎŃ Î¼Î¿ÏħÏĤ
ĠÎŁÏħ ÏģÎ±Î½Î¯Î±
ĠÏĩÎ±ÏĦÎ¯ ÏģÎ¹Î±
ĠÏĦÎ¯Î½Î± Î¾Îµ
ĠÎ¾Î±Î½Î±ÎºÎ¿Ïį ÏĥÎµÎ¹
ĠÎµÎºÎºÎ»Î· ÏĥÎ¯Î±
ĠÎ²ÎµÎ²Î±Î¹ ÏĮÏĦÎ·ÏĦÎ±
ĠÎ±Î½ÏĦÎ¹Î´ ÏģÎ¬ÏĥÎµÎ¹
ĠÎľÎ¬Î¾Î¹ Î¼Îµ
ĠÎ²ÏģÏİÎ¼Î¹Îº Î¿
ĠÏĨÎ¹Î»ÎµÎ½Î¬ Î´ÎµÏĤ
ĠÎµÎ¾ÎµÏģÎµÏħÎ½Î· ÏĦÎ®ÏĤ
ĠÎ·Î»Î¹Î¿Î²Î± ÏĥÎ¹Î»ÎŃ
ĠÎµÏģÎ® Î¼Î¿Ïħ
ĠÎŃÎ»Î¹ ÏīÏĥÎµ
ĠÏĨÎ»Î¹ÏĦÎ¶ Î¬Î½Î¹
ĠÎĳÏħÎ³ ÎµÎ¯Î±
ĠÎľÎ¯Î½Ïī Î±
ĠÏĢÎ±Î¹ÏĩÎ½ Î¹
ĠÎ´Î¹Î±ÏĥÏĩ Î¯ÏĥÎµÎ¹
ĠÎľÎ±ÏģÎ¹ Î³Ïİ
ĠÏĨÏħÏĥÎ¬ ÎµÎ¹
ĠÏĢÎ»Î·Î³Ïī Î¼ÎŃÎ½Î¿
ĠÏĢÎ±ÏģÎŃÏĥÏħ ÏģÎµ
ĠÎĳÏĨÏģÎ¿Î´Î¯ ÏĦÎ·ÏĤ
ĠÎµÏħÎ¸ ÏįÏĤ
ÏĨÎ±Î¹ ÏģÎ±
Î¾ÏħÎ»Î¿ÎºÏĮ ÏĢÎ¿ÏĤ
ĠÎ·Î¼Îµ ÏģÎ¿Î»ÏĮ
ĠÎĳÏģ ÎºÎµÎ¯
ĠÎĳÎ³ ÏģÎ¹Î¿ÎºÎ±ÏģÏĩÎ±ÏģÎ¯ÎµÏĤ
ĠÏĥÏħÎ³ÎºÎ¹ Î½Î·
ĠÎ£ÎºÎµÏĨ ÏĦÏĮÏĦÎ±Î½
ĠÏĪÎŃÎ» Î»Î¹ÏĥÎµ
ĠÏĩÎ¬Î»ÎºÎ¹ Î½Î±
ĠÎ¼ÏħÎ»ÏīÎ½ Î¬
ĠÎ¼ÎµÎ³Î±Î»ÎµÎ¹ ÏĮÏĦÎ±ÏĦÎµ
ĠÎ±ÏĢÎ±ÏģÎ±Î¯ ÏĦÎ·ÏĦÎ±
ĠÏĦÏĮÎ¾ Î¿
ĠÎ¿Î»ÏĮÎ»ÎµÏħ ÎºÎ¿
ĠÏĨÎ¹Î»Î± ÏģÎ¬ÎºÎ¿
ĠÏĥÎºÎ±Î¸Î¬ ÏģÎ¹Î±
ĠÎ±ÏħÏĦÎ¿ÎºÎ¹Î½Î® ÏĦÎ¿Ïħ
ĠÎļÎ¿ÏģÏīÎ½Î¿Î³Î¹ ÏĮÏĤ
ĠÎĺÎµÎ¼Î¹ÏĥÏĦÎ¿Îº Î»Î®ÏĤ
ĠÎŃÏĦÏģÎ¹ ÏĪÎµ
ĠÎ·Î»ÎµÎº ÏĦ
ĠÏĢÎ±ÏģÎµ Î»Î¸ÏĮÎ½
ĠÎ¼Î±Î¸Î± Î¯Î½Ïī
ĠÂµÎ® Î»Î±
ĠÎłÎ¬Î½ ÏĦÏīÏĤ
ĠÎ£Î¹ Î»Î·
ĠÎºÏĮÎº ÎºÎ±Î»Î±
ĠÎºÎ¿Î¼Î¼Î± ÏĦÎ¬ÎºÎ¹Î±
ĠÎ³ÎµÏģ Î¿Î½ÏĦÎ¬
ĠÎ±ÏĢÎ¿ÏĨÏį Î³ÎµÎ¹
ÎĺÎµ ÎŃ
ĠÏĦÏĥÎ¬ ÎºÎ±Î»Î¿ÏĤ
ĠÎµÏĢÎ¹ÏĥÏĦÏģÎŃÏĨ ÎµÎ¹
ĠÎ¼ÎµÏĥÎ·Î¼Îµ ÏģÎ¹Î¿Ïį
ĠÎºÎ±ÏģÎ±Î¼ ÎŃÎ»ÎµÏĤ
Î±Î»Îµ ÏĢÎ¿Ïį
ĠÎ±ÏĥÎ® Î¼Î¹
ĠÎµÏįÏģÎ¹ ÏĥÎºÎµ
ĠÎŃÏģÏī ÏĦÎ±
ĠÎ¼ÏĢÏģÎ¬ Î²Î¿
ĠÎ¾ÎµÎ¼Î¬ ÎºÏģÏħ
ĠÎ³ÎµÎ¼Î¹ ÏĥÏĦÎ¬
ĠÏĥÎ·Î¼Î¬ Î´Î¹
ĠÏĢÏģÎ¿Î²Î»Î· Î¼Î±ÏĦÎ¹
ĠÏĦÏģÎ±Î²Î¬ ÎµÎ¹
ĠÏĪÎ¬Î¸Î¹ Î½Î¿
ĠÎ¼Î±Î½ÏĦÎ® Î»Î¹
ĠÎłÎµÎ»Î±Î³ Î¯ÏĦÏĥÎ±
ĠÎ²ÏģÎ±ÏĩÎ½ Î®
ĠÎ¼ÏĢÎµÎº ÏģÎ®ÏĤ
ĠÏĢÎŃÏģÎ´Î¹Îº ÎµÏĤ
ĠÎłÎ±ÏģÎ±Î¼ÏħÎ¸Î¿Ïį Î»Î·ÏĤ
ĠÏĢÎ»ÎµÎ¾ Î¿ÏįÎ´ÎµÏĤ
ĠÎµÏĢÎ¹ÏĩÎµÎ¹ÏģÎ·Î¼Î± ÏĦÎ¯Î±ÏĤ
ÎµÏĢÎŃÏĥÏĦÏģÎµ ÏĪÎµ
Î³Î³ÎµÎ¹ Î»Îµ
ĠÎµÏĥÏĦÎ¹Î± ÏĦÏĮ
ĠÎŃÎ½Î¿Î¹Î± Î¶Îµ
ĠÏĮÏĥÏĢ ÏģÎ¹Î±
ĠÎ±ÏĢÎ¿Î»Ïį ÏĦÏīÏĤ
ÏģÏĮÏĥÎº Î¿Î½Î·
ĠÎ¼ÏĢÏĮÎ»Î¹ ÎºÎ¿
ĠÎ¶Ïħ Î³Î±ÏģÎ¹Î¬
ĠÎķÎĻ ÎĿÎĳÎĻ
ÏģÎŃÏĢ ÎµÎ¹Î±
ĠÎºÏħÏĢÎ± ÏģÎ¯
ĠÎºÎ±ÏĦÎ±ÏĨÏį Î³Î¹Î¿
ĠÎĿÎµÏģÎ¬ Î¹Î´Î±
ĠÎ²Î»ÎŃÏĢÎ¿Ïħ Î¼Îµ
ĠÎºÎ»ÎµÎ¹Î´Î¿Ïį ÏĩÎ¿ÏĤ
ĠÎ¦Î±Î»Î±Î¹Î½ Î¿ÏĩÏİÏģÎ±
ĠÎ¾Î±Î´ÎŃÏģ ÏĨÎ·
ĠÏĦÏģÎ±ÏĢÎµÎ¶Î± ÏģÎ¯Î±
ĠÏĦÏħÏĨÎ»Î¿ÏĢÎ¿Î½ ÏĦÎ¹ÎºÎ¯Î½Î±
ĠÎµÏĨÎ±ÏģÎ¼Î¿ Î³Î®
ĠÎ³ÏģÎ·Î³Î¿ ÏģÏĮ
ĠÎºÏģÎ® Î½ÎµÏĤ
ĠÎºÎ¿ÏįÎ½Î¹ ÎµÏĤ
ĠÏĢÏģÎ¯ Î³ÎºÎ·
ĠÏĥÎ¬Î½ ÏĦÎ¿ÏħÎ¹ÏĦÏĤ
ĠÎ±Î¯Î½Î¹ Î³Î¼Î±
ĠÎ¿ÏĦÎ¹ Î´Î®ÏĢÎ¿ÏĦÎµ
ĠÎºÎ¬ÏĥÏĦÎ±Î½ Î±
ĠÎ¼ÏĢÎ¿Î³ Î¹Î¬
ĠÎ¼ÏĢÎ¬Ïģ Î¼ÏĢÎ±
ĠÎĳÏģÎ¹Î¬ Î´
Î³Î¿ÏģÎ±Î³ ÏģÎ®Î³Î¿ÏģÎ±
ĠÏħÎ³ÏģÎ± ÏĥÎ¯Î±
ĠÎºÎ¿ÏħÎºÎ¿ÏħÎ²Î¬Î³Î¹ ÎµÏĤ
ĠÎĺÎ±Î½Î¬ ÏĥÎ·ÏĤ
ĠÏĢÎ±ÏģÎ±Î¸Ïį ÏģÎ¿Ïħ
ĠÎµÎ½ÏĦÎ¿Î» ÎŃÏĤ
ĠÎĿÎ¹ÎºÎ® ÏĦÎ±ÏĤ
ĠÎ´Î¹Î±Î´Î¹ÎºÎ± ÏĥÎ¯Î±
ĠÎ§ÏģÏį ÏĥÎ±
ĠÎľÎµÎ»Î¹ÏĥÏĥ Î¬Î½Î¸Î·
ĠÎ»ÎµÏīÏĨÎ¿Ïģ ÎµÎ¯Î¿
ĠÎ±ÏĢÎ±ÏģÎ·Î³ÏĮ ÏģÎ·
ĠÎ³ÎµÎ½ÎµÎ¹Î¬ Î´Î±
ĠÎ±Î¯ÏĥÎ¸Î· ÏĥÎ·
ĠÎºÎ±ÏĦÎµÏįÎ¸ÏħÎ½ ÏĥÎ·
ĠÏĥÏĦÎµÎ½Î¿ÏĩÏİ ÏģÎ¹Î±
ĠÎ±ÏĦÎ¼ÏĮÏĥ ÏĨÎ±Î¹ÏģÎ±
1 0
1 2
1 8
: ...
D o
G u
a ve
i n
r Ã
Ã ¤
Ġ N
Ġ O
Ġ Do
Ġ Gu
Î± ÏĩÎ±
Î± ÏģÎ³Î¬
Î± Î³Î±ÏĢÎ·
Î¿ ÏĦÏģÎ¿ÏĨ
Î¹ ÏĥÎ¼ÎŃÎ½Î·
Î¹ ÏĥÎ¼ÎŃÎ½Î¿ÏĤ
Îµ Î´Ïİ
Îµ ÏĥÎ±Î¹
Îµ ÏģÎ¿Îº
Îµ ÏħÏĩÎ±ÏģÎ¹ÏĥÏĦÏİ
Îµ Î¼ÏĨÎ±Î½Î¯ÏĥÏĦÎ·ÎºÎµ
Î½ Î¿Î½ÏĦÎ±Î½
Î½ Î¿ÏįÏĤ
Î½ Î¯ÎµÏĤ
ÏĦ Î¿Ïģ
ÏĦ ÏģÎ¬ÎºÎ¹
ÏĦ Î¿Î½ÏĦÎ±Î¹
ÏĦ ÏģÎ¬ÎºÎ¹Î±
ÏĦ ÏģÎ·ÏĤ
ÏĦ ÏģÎ¹Î²
ÏĦ ÏįÏģÎ¹Î¿
Ïģ Î¸ÎµÎ¯
Ïģ Î¿Î»Î¿Î³
Î¿Ï İ
ĠÏĦ Î±Î½
Ïĥ Î¿Ïģ
Ïĥ ÎºÎ±Î½
Ïĥ Î¿ÏĢ
Ïĥ ÎºÎ¹Î±
Ïĥ Î¬ÎºÎ¹Î±
Ïĥ ÂµÎ±ÏĦÎ±
Ïĥ Î¼Î¿Î¯
Î· ÏĦÏİ
Î¯ Î¿ÏħÏĤ
Î¯ Î´Î¹
Î¯ ÏĦÎµÏĤ
ĠÎº ÎŃ
ĠÎº ÏģÎ¹
ĠÎº ÏģÏħÏĥÏĦÎ¬
Î¿Ïħ Î´Î¬ÎºÎ¹
Î¿Ïħ ÏģÎ±Î½ÏĮ
ÏĢ ÏģÏī
ÏĢ ÏĮÏĤ
ÏĢ Î½Î·ÏĥÎµ
ÏĢ ÏģÎ±Î³ÂµÎ±
ÏĢ ÏģÎ¹Î³ÎºÎ¯ÏĢÎ¹ÏĥÏĥÎ±
Îº ÏģÎ¬
Îº Î¿Ïģ
Îº Î¹Îº
Îº ÏģÎŃ
Îº Î¿ÏĨ
Îº ÏĦÎ¿ÏĤ
Îº ÏĦÎ¹ÎºÎ®
Îº ÏĦÎ·Î¼Î±
Îº Î¿Î¯ÏĦÎ±Î¾Îµ
ĠÏĢ Î¿Ïĥ
ÏĮ Î¿Ïħ
ÏĮ Î»Î¿
ÏĮ ÂµÏīÏĤ
Î¼ ÏĮÎ½
Î¼ ÏĥÏĦÎµ
Î¼ Î²Î±
Î¼ ÎµÎ¯Î¿
Î¼ Î²Î±Î¯Î½ÎµÎ¹
Î¼ ÏĮÎ½Î¹Î±
ÎŃ ÏĦÏģÎµ
ÎŃ Î¾ÏĦÎµ
ÎŃ ÏĦÎ¿Î¹Î±
ÎŃ Î»ÎµÎ³Îµ
Î±Î¹ Î±Î¹
Î±Î¹ ÏĦÎ¯Î±ÏĤ
ĠÎ¼ ÎµÎ¹ÏĤ
ĠÎ¼ ÏįÏģÎ¹ÏĥÎµ
ĠÏĥ Î¼Î®
ĠÏĥ Î¬Î»Î±
ĠÏĥ ÎŃÎ²
ĠÏĥ Î²Î·
ĠÏĥ ÏĨÎ¯
ĠÎ± ÎºÎ±ÏĦÎ±
ĠÎ± ÏĥÎºÎ¯
Î³ Î¼ÎŃÎ½Î±
Î³ Î¿ÏįÏĤ
Î³ ÏĮÎ½Î¹
Î³ ÏħÏĢ
Î³ Î¯Î³Î±Î½
Î±Î½ ÏĦÎ¯
Î±Î½ Î¿Î¯
Î±Î½ Î½Î¬
ÎµÎ¹ Î´Ïİ
ÎµÎ¹ Î½Î¬
ĠÎºÎ±Î¹ Ïĩ
ĠÎºÎ±Î¹ ÏģÎ¿ÏįÏĤ
ĠÎµ ÏĢÎ±
ĠÎµ ÂµÎ¬
ĠÎµ Î±ÏħÏĦ
ĠÎµ ÏĨÎµÏį
Î¹Î± ÎºÏĮ
Ïĩ ÎµÎ¹Î±
Ïĩ ÏģÏİÎ¼Î±
ĠÎ½ ÏĦÏģÎµ
ĠÎ½ Î¿Î½Î¬
Î® ÏģÎ¸Îµ
Î® ÏĥÎ¿ÏħÎ¼Îµ
ĠÏĦÎ¿ Î±
ĠÏĦÎ¿ Î»Î¹
ĠÎŃ ÏĥÎµ
ĠÎŃ Î½Îµ
ĠÎŃ Î»Ïħ
ĠÎŃ ÎºÎ±Î¼Îµ
ĠÎ½Î± ÏĮ
ĠÎ½Î± ÏĨ
ĠÎ½Î± Î¾Îµ
ĠÎ½Î± ÏĨÏį
ĠÎ½Î± ÏįÏĦÎµÏĤ
ĠÏĦÎ¿Ïħ ÏģÎ¯ÏĥÏĦÎµÏĤ
ĠÏĦÎ· Î³
Î¸ Î¬Î»Î±ÏĥÏĥÎ±
Î¸ ÏĮÏģÏħ
Î¿Ïį Î¿Ïħ
Î¿Ïį ÏģÎ¹
Î¿Ïį Î½Îµ
Î¿Ïį ÂµÎµ
Î¿Ïį ÏģÎ³Î±
ĠÎ´ ÏģÎµÏĢ
ĠÎ³ Î»Î±
ĠÎ³ ÏģÎ¯
ĠÎ³ Î¿ÏįÎ½Î¹
ÏĦÎ± Î³Îµ
ÏĦÎ± ÏĢÎ¬Î½ÏĦÎ·ÏĥÎµ
Ïİ ÏĥÎµÎ¹ÏĤ
Ïį Î»Î±
Ïį Î³Îµ
Ïį Î¶Î¹
Ïį ÎºÎ¿Î»Î¿
ÏĥÎµ ÏīÎ½
ÏĨ Î·ÏĤ
ĠÏĥÏĦ ÏģÎ¯
ĠÏĥÏĦ Î®ÏĥÎµÎ¹
ĠÏĥÏĦ Î¿ÏģÎ³
ÏģÎ¹ ÏĮÏĦÎ±Î½
ÏģÎ¹ ÏĥÏĦÎ±
ÏģÎ¹ Î½Î®
ÏģÎ¹ ÏĥÎµÏĤ
ÏģÎ¹ Î´Î¿ÏįÎ»Î±
ÏģÎ¹ ÏĥÏĦÎµÏģÎ¬
ĠÎµÎ¯ ÂµÎ±ÏĥÏĦÎµ
ĠÎ¿ Î³Î±
ĠÎ¿ Î»Î¿ÏĨ
ĠÎ¿ Î»Î¿Ïĥ
ÏĦÎµ Î¯Î½
ÏĦÎµ ÏģÎŃÏĤ
ĠÏĮ ÏĪÎ·
ĠÏĮ ÏĥÏĦÏģÎ±
ĠÏĨ ÏĦÎ±Î¹
ÏĦÎ¹ Î¿
ÏĦÎ¹ ÏĮÏĦÎ±Î½
ÏĦÎ¹ ÎºÏİÎ½
ĠÎ¼Îµ ÏģÏĮÎ½
ĠÎ¼Îµ Î»Î±Î½
ĠÎ¼Îµ Î¯Î½ÎµÏĦÎµ
Î² ÏģÎ±
Î² Î¿ÏįÎ½
Î² ÎµÎ¯Î¿
Î¶ Î¬
Î¶ Ïİ
Î¶ ÎŃÎ»Î¹Î±
ÏģÎ¬ Î½
ÏģÎ¬ ÏĥÎµÎ¹ÏĤ
ÏģÎ¬ ÏĥÏĦÎ·ÎºÎµ
ĠÎ² Ïħ
ĠÎ² Î»Î¬Î²
ĠÎºÎ± Î¯
ĠÎºÎ± ÎµÎ¯
ĠÎºÎ± ÏĦÏģÎ±
ĠÎºÎ± ÏħÏĦÏĮ
ĠÎºÎ± Î»Î®ÏĤ
ĠÎºÎ± Î¯ÎµÎ¹
ÏĦÎ±Î½ ÏĮÏĥÏĦÎ¹
ÎµÎ½ ÏĦÎ¬
ĠÏĩ Î®
ĠÏĩ ÎµÎ¹ÏĤ
ĠÏĩ ÏĦÏį
Î¾ ÏħÎ»Î¿
ĠÏĢÎ¿Ïħ ÏĢÎ¿Ïħ
ĠÏĢÎ¿Ïħ Î»Î¿ÏįÏĥÎµ
ĠÏĢÎ¿Ïħ ÎºÎ¬Î¼Î¹
ÎµÎ¯ Î±ÏĤ
ÎµÎ¯ ÏĥÎ±Î¹
ÏĦÎ· ÏģÎ¹Î±
ĠÎ¸ ÏģÏĮ
ĠÎ¸ ÏģÏħ
Âµ Î¿Î¹
Âµ ÎµÏĤ
Âµ ÏĢÎµ
Âµ ÎŃÏĥÏīÏĤ
Âµ ÎµÎ¯Î¿
Âµ Î¿Î½Î±
ĠÎ¬ Î¾Î¹
ĠÎ¬ ÏĦÎ¿Î¼Î±
ĠÎ¬ Î´Î¹Îº
Î»Î¬ Âµ
Î»Î¬ ÎºÎµ
ĠÏĦÎ·Î½ Î·Î¼ÎŃÏģÎ±
ĠÎ±ÏĢÏĮ ÏĦÎ¿Î½
ĠÎ±ÏĢÏĮ ÏĦÎ·Î½
ĠÎ±ÏĢÏĮ Î³Î½Ïī
ĠÎ±ÏĢÏĮ ÏĥÏĦÎ±ÏĥÎ·
ĠÎ±ÏĢÏĮ ÏģÎ·ÏĥÎ±Î½
ĠÎ· ÏģÏī
ĠÎ· ÏģÎŃ
ÏģÏĮ Î¼Î±
ÏģÏĮ ÏĢÎ¹
ĠÎ® ÏĦÎ±
ĠÎ® ÏĩÎ¿Î¹
ĠÎ® ÏĢÎ¹Î±Î½
ĠÎ³Î¹Î± ÏĦÏģÎµ
Î¿Î» Î¯
ÎºÎ¹ ÎŃÏĤ
ÎºÎµ Î»Î¿
ĠÏĢÎ± ÏĩÎ½Î¯
ĠÏĢÎ± ÏĩÎ¿Ïħ
ÏħÏĦ ÎŃÏģÎ·ÏĤ
ÏģÎ¯ Î¿
ÏģÎ¯ Î¶ÎµÏĦÎ±Î¹
ÏģÎ¯ ÏĥÎ¼Î±ÏĦÎ±
ĠÎ¼Î± Î³Îº
ĠÎ¼Î± ÏĥÏĦÎ¯
ĠÎ¸Î± Î»Î¬
ÏĢÎµ ÏģÎ¬
ÏĢÎµ ÏĦÎ±Î¹
ÏĢÎµ ÏĦÎµÏį
ÏĢÎµ ÏģÎ¯Î¼ÎµÎ½Îµ
ÏĥÏĦ ÏīÏĤ
ÏĥÏĦ Î¯Î±
Î»Î· Î¼Î±
ÏģÎµ ÏĩÎµ
Î¹Î¬ ÏĥÏĦÎ·ÎºÎ±Î½
ĠÎ¾ Î¬
ĠÎ¾ ÏĮ
ĠÎ¤ ÏĥÎ¹Î¬
Î»Îµ Î¼Î±
Î¯Î½ Î±Î½Îµ
ĠÎºÎ¬ Î¼Î±
ĠÎºÎ¬ Î»Îµ
ĠÎºÎ¬ ÏģÎ¿
ĠÎºÎ¬ ÏĪÎ±
ĠÎºÎ¬ Î²Î¿Ïħ
ĠÎºÎ¬ Î¼ÏĢÎ¹
ÏĮÎ½ ÎµÎ¹
ÏĮÎ½ ÏĦÎ±Î½
ĠÎ¼ÏĢ Î±Î½
ĠÎ¼ÏĢ ÏģÎ¿Ïĥ
ĠÎ¼ÏĢ Î»ÎŃ
ÏģÏī Î¼ÎŃÎ½Î±
ÎºÎ± ÏģÎµ
ÎºÎ± ÏĦÎŃ
ÎºÎ± Î¸Î±
ĠÎĳ ÏĥÎ·
ĠÎĳ Î¸Î·Î½Î±Î¯
ĠÎļ Î¿ÏħÎ½
ĠÎļ Î¯ÏĦÏģÎ¹
ĠÎ±ÏħÏĦ Î¿ÏĢÎµ
ĠÎľ Î¿Î¯
ĠÎľ ÏĢÎ±Î½
ĠÎľ ÏĢÎ®ÎºÎ±Î½
ÎºÏĮ Ïĥ
ÎºÏĮ ÏģÎ·
ĠÏĥÎµ Î»Î¯Î´ÎµÏĤ
ĠÎ±Î½ ÎŃÏĢ
Î³Îµ Î»Î¿ÏįÏĥÎµ
Î³Îµ Î»ÏİÎ½ÏĦÎ±ÏĤ
ĠÂµ ÏĢÏĮ
ÏĪ Î¿Ïħ
ĠÎ¶ ÎµÎ¹ÏĤ
ĠÎ¶ ÎŃÏĥÏĦ
Î¼Î¬ ÏĥÏĦÎ¿ÏģÎ±ÏĤ
ĠÎķ Î¬Î½
ÎºÎ¬ ÏĤ
ÎºÎ¬ Î¸Îµ
ÎºÎ¬ Î´Î±
ÎºÎ¬ ÏģÎµÎ¹
ĠÎºÎ¹ Î¸Î¬ÏģÎ±
Î¤ ÎĻ
ĠÎł Î±Î¹
ĠÎł Î¿Î½
ĠÎł ÏģÏĮ
ĠÎł Î¿Ïĥ
ĠÎł Î¬Î»
ĠÎł Î¬ÎµÎ¹
ĠÎł Î¯ÏĥÏĦÎµ
ĠÎ²Î± Î»
ĠÎ²Î± ÏĦÏģÎ¬
ĠÎ²Î± Î³ÏĮÎ½Î¹
ÏģÎŃ ÏĪÏī
ÏĦÎ¯ Î´Î±
Îľ Î±ÏĤ
Îľ ÏĢÏģÎ¿ÏĥÏĦÎ¬
Îľ Î¿ÏįÎ¿Ïħ
Î´Î¹ ÏĥÎ¼Î±
ÏĥÎ· ÏĥÎµ
ÏģÏİ Î¸Î·ÎºÎµ
ÏģÏİ ÏĢÎ·
Îļ Î¿Ïħ
Îļ ÏĮ
Îļ ÏģÎ±
Îļ Î¿ÏģÎ¯
ĠÏģ Î±ÏĢ
ĠÏģ Î¹Î¶
ĠÏģ ÏįÎ¶Î¹
ĠÎŁ Î½ÎµÎ¹
ĠÏĥÎº Î¿Î½
ĠÏĥÎº ÎŃÏĢ
Î¼ÏĢ ÏģÏĮÏĤ
ĠÎ¼Î¹Îº ÏģÎ¿Î¯
ĠÎŃÏĩ ÏīÏĥÎµ
ĠÏĥÏĦÎ± Î¸Îµ
ĠÏĥÏĦÎ± ÂµÎ±
ĠÎ±Î» Î¼Ïħ
ÏİÎ½ ÎµÎ¹ÏĤ
ÏİÎ½ Î¹ÏĥÎµ
ÏİÎ½ Î¿ÏħÎ¼Îµ
ÎŃÎ» ÏĨÎ¹
ÏĦÎ® Î¼Î±ÏĦÎ±
ÏĦÎ® Î¸Î·ÎºÎ±Î½
ĠÏĩÎ± Î¼ÏĥÏĦÎµ
ĠÏĢÎ® ÏģÎµÏĤ
ĠÏĢÎ® Î»Î¹Î½Î±
ĠÏħ Î³ÏģÎ¬
ĠÏħ Î»Î¹ÎºÏĮ
ÏĢÎ¯ ÏĥÏī
Îĳ Î½Î±
Îĳ Î£
Îĳ Î¶Î¬Ïģ
Îĳ ÎºÏĮÎ¼Î·
ĠÎĪ ÏĥÎºÏħÏĪÎµ
ĠÎĪ ÏĦÏģÎµÎ¾Îµ
ĠÎĪ Î²Î»ÎµÏĢÎµ
ĠÎĪ ÎºÎ»ÎµÎ¹ÏĥÎµ
Î²Î± ÏĥÎ¯
ĠÎ¼Î¬ Î³Îµ
ĠÎ¼Î¬ ÏĩÎ·
ĠÎºÎ¬Î½ Î±Î½Îµ
Î»Î® ÏĥÏī
Î´Î¹Î± ÏĨÎ¿ÏģÎµ
... "
ĠÎĶ Î¹Î¿
ĠÎĶ ÎŃÎ»ÏĨÎ¹
ÏĦÏī Î½Îµ
ĠÏĪ ÏĮ
ĠÏĪ ÏħÎ³
ĠÎ±ÏħÏĦÏĮ Î¼Î±ÏĦÎ±
ÏĢÏĮ Î¾ÏħÎ»Î¿
ĠÎŃÏĨ Ïħ
Îķ Î¥
Îķ Î¼ÎµÎ¯ÏĤ
Îķ ÏįÎºÎ¿Î»Î¿
ÏĢÎ· ÎºÎ±Î½
ÏĢÎ¿Ïħ Î»ÏĮ
ÏĢÎ¿Ïħ ÏģÎ³ÏĮÏĤ
Î»ÏĮ ÏģÎ¹
Î»ÏĮ Î¾ÎµÎ½
Î»ÏĮ ÏĢÎµÏĦÏģÎµÏĤ
ĠÎ»Î¯ Î³Î¿Î¹
ĠÎ»Î¯ Î¼Î½ÎµÏĤ
Îł ÎµÏģ
Îł Î¿ÏģÏĦÎ¿ÎºÎ±
Îł Î¬Î½ÏĦÎ±
Îł ÏģÏİÏĦÎ·
Îł ÏģÏİÏĦÎ±
ÏĢÎ¬ ÏģÎµÎ¹
ÏĢÎ¬ ÏĥÎ¼Î±ÏĦÎ±
Î³Î¹ ÎŃÏĤ
Î³Î¹ Î¶Îµ
ĠÎ¾Îµ Î½Î±
ĠÎ¾Îµ ÏģÏĮ
ĠÎ¾Îµ ÎºÎ¿Î»
ĠÎ¾Îµ ÎºÎ»ÎµÎ¹
ĠÎ¾Îµ ÏĩÎ½Î¬
ĠÎºÎ±Î¸ ÏģÎµÏĨÏĦÎ¯
ÏĥÎ¯ Î»ÎµÎ¼Î±
ĠÎºÎ¿Ïħ ÏĦÏĥÎ¿
ĠÎºÎ¿Ïħ Î¼ÏĢÎ¹Î¬
ĠÎĵ ÎµÎ½
ĠÎĵ Î·ÏĤ
ĠÎĵ Î¯Î³Î±ÏĤ
ĠÎºÏĮ ÎºÎ±Î»Î±
ĠÏĢÏĮ ÏĦÎ¹
Î¼Î· ÏĦÏģÎ¬ÎºÎ·ÏĤ
ĠÎ±Î³ ÏİÎ½Î±
ÏĦÏĮ Î½Î±
ĠÎ´Îµ Î¾Î¯
Î£ Î±
Î£ Î¿Ïħ
ÏĢÎ¿Î¹ Î¿Î½
ÏĢÎ¿Î¹ Î¿Î¹
ĠÎ±Ïģ Î¼Î¿
ĠÎ±Ïħ Î»ÎŃÏĤ
ĠÏĢÎ±ÏģÎ± ÏĥÏį
ĠÏĢÎ±ÏģÎ± ÏĢÎŃÏģÎ±
ĠÏĥÏħÎ½ ÏĦÏģÏĮ
ĠÏĥÏħÎ½ ÎµÎ½Î½Î¿
ĠÎºÎ¿ ÏĦÏĥ
ĠÎºÎ¿ Î»Î¹ÎŃ
Î»Î¯ Î¶Î¿ÏħÎ½
ÎŃÏĩ ÎµÎ¹
ĠÏĦÎµ Î»Îµ
ĠÎ¼ÏĮÎ½ ÎµÏĤ
ĠÎ¬ÏģÏĩ Î¹ÏĥÎ±
ĠÎºÏħ Îº
ĠÎ½Îµ ÏģÏİÎ½
ĠÎ½Îµ ÏģÎ±Î¹
ĠÎºÎ±ÏĦÎ± Î»Î®
ĠÎºÎ±ÏĦÎ± ÏĨÎ±
Î¬Ïĥ ÏĢÏģÎ¿
ĠÎ±Î½Î± Î¶Î·
ĠÎ±Î½Î± ÏĢÎ±Ïħ
Î³Î· ÏĦÏĮ
Î»Î¿Ïį Î´ÎµÏĤ
ĠÎĿ ÏĦÎ±Î½
ĠÎĿ ÎĳÎĻ
ĠÎĿ ÏĦÎµÎ»ÂµÏĢÎ¬Ïģ
ÏĩÎ± ÏģÏĦÎ±
ĠÎ´Î¹Î± Î»Ïį
ĠÎ´Î¹Î± ÏģÎº
ĠÎºÎ±Î»Î¬ Î¼Î¹Î±
ĠÎºÎ±Î»Î¬ ÎºÎ±Î»Î¬
ĠÎºÎ¿Î¹ Î½ÏīÎ½
ÎĮ Î»Î·
Î³Ïİ ÏĥÎµÎ¹
ÎĪ ÏĩÎµÏĦÎµ
ÎĪ ÏĨÎ±Î³Îµ
ĠÎ±ÏĢÎ¿ Î»Î±Î¼Î²
ĠÎ±ÏĨ ÏĮÏģÎ·
Î»Î¿Ïħ Î»Î¿ÏįÎ´Î¹Î±
ĠÎķÎ¯ ÏĥÎ±ÏĥÏĦÎµ
ĠÂµÎµ Î»Î¹ÏĦÎ¶Î¬Î½ÎµÏĤ
Î³Î® Î¹
ĠÎ³Ïħ Î¬Î»Î±
ÏĦÎ¹ÎºÏĮ ÏĦÎ·ÏĦÎ±
ĠÎ§ ÏĦÏįÏĢÎ·ÏĥÎµ
ĠÎºÎ±Î» Î¿Î½ÏĦÏħ
ĠÏĨÎ± ÎºÏĮ
ĠÎ»ÎŃ Î³Î¿Î½ÏĦÎ¬ÏĤ
ĠÎµÏĢÎ¹ Î¼ÎŃÎ½
ĠÎ¯ ÏĩÎ½Î·
Î¿Ïĩ Î¹
Î¿Ïĩ ÎŃÏĤ
ĠÎĨ ÎºÎ·
ĠÎĨ ÏĨÎ·
ĠÎĨ ÏģÎ±Î³Îµ
ÏģÎ½ Î¹
ÏĥÎº ÎŃÏĨ
ĠÎŃÏĢ Î»ÏħÎ½Îµ
ĠÎ±ÎºÏĮ ÂµÎ·
ĠÎŃÎ² Î´Î¿
ĠÎŃÎ² ÏģÎµÏĩÎµ
Î´Ïħ Î¿
ĠÎ²Î¬ Î¶Î¿
ĠÏĢÎ¯ ÏĢÎ±
ĠÏĢÎ¯ ÏĦÏĦÎ±
ÏģÎ¸ ÎµÏĤ
ĠÏĨÏį Î³Îµ
ÏĦÏħ Î»Î¯
ĠÎµÎ¾ Î¿ÏĩÎ®
Î»Ïħ ÏĢÎ·
Î±ÏĨ Î¿Ïį
ĠÎĽ ÎŃÎ½Îµ
ĠÎ±ÎºÎ¿Ïį Î½Îµ
ÏĨÎµ ÏģÏĮÏĦÎ±Î½
Î¼Î¯ Î½Î±
Î¼Î¯ ÎµÏĤ
ĠÎļÎ± Î¼Î¹Î¬
Î½Î® ÏĤ
ĠÏĢÎ¿Î½ Î¿ÏįÏĥÎ±Î½
ĠÎľÎ± Î¼Î¬
ĠÎľÎ± ÏģÎ¯Î±
ĠÎ²ÏģÎ¬ Î´Î¹
ĠÎ´Î¯ ÏĥÎºÎ¿
ĠÏĢÎ±Î½ Î¯
ĠÏĢÎ±Î½ ÏĦÎ¶
ĠÏĩÎ¬ Ïģ
ĠÏĩÎ¬ ÏĢÎ¹Î±
ĠÏĩÎ¬ ÏģÎ±Î¾Îµ
ĠÏĥÏħÎ¼ ÏĢÎ±
Î»Î±Î½ Îµ
ĠÎ»Î± Î¼ÏĢÎ¬
Î¹Ïĥ Î¼Î±
Î¹Ïĥ ÂµÎŃÎ½Î±
ĠÎ±Îº ÏĦÎ¯Î½Î±
Î½ÏĮ ÏĦÎ·ÏĦÎ±
ĠÎľÎµ Î³Î±Î»ÎµÎ¹
Î¾Î±Î½ Îµ
Î¾Î±Î½ Î¬
ĠÎ¼Î·Î½ ÏįÎ¼Î±ÏĦÎ±
ĠÎ¬ÎºÎ¿Ïħ Î³ÎµÏĤ
ÏĥÏĢ Î±Î½
ĠÏĢÏģÏī ÏĦÎ¿
ĠÎ²Î»ÎŃ ÏĨÎ±
ĠÎ²Î»ÎŃ ÂµÂµÎ±
ĠÏĢÎ¹ ÎµÎ¹ÏĤ
ĠÏĢÎ¹ ÏĥÏĦÎµ
ĠÏĢÎ¹ Î¿ÏĢ
ĠÏĢÎ¹ Î¬Î½Ïī
ÏģÎ¿Ïħ Î½Î±
ĠÎºÏģÎ± ÏĥÎ¿
ĠÎºÏģÎ± ÏħÎ³
ĠÎºÏģÎ± ÏĦÎ®ÏĥÏī
ĠÎ¼Ïħ ÏĦÎµÏģÎ®
ĠÎ¼Ïħ ÏĦÎµÏģÎ¬
ĠÎ¼Ïħ Î»ÏĮÏĢÎµÏĦÏģÎµÏĤ
ĠÏĨÎ¿Ïģ Ïİ
ĠÏĨÎ¿Ïģ ÏĦÏİ
Î´Î¿ ÏĦÎ¿
ĠÎ¼Î±Î¼Î¬ ÏĦÎ¿Ïħ
Î¸Î¹ ÎŃÏĤ
ĠÎ¦ Îµ
ĠÎ¦ ÏĮ
ĠÎ¦ Ïħ
ĠÎ¦ ÏħÏĥÎ¹ÎºÎ¬
ĠÏĥÎ± ÎºÎ¿ÏįÎ»ÎµÏĤ
ĠÎµÎ¼ ÏĢÎ¿
ĠÎµÎ¼ ÏĢÎ¹ÏĥÏĦÎ¿ÏĥÏįÎ½Î·
Î´Î® Î»Î±
ĠÏĢÎŃÏģÎ± ÏĦÎ±
ĠÎ¾Î±Î½Î± Î´Ïİ
ĠÏĢÏģÎ¿ Î¯ÎºÎ±
ĠÎ¿Ïħ ÏĥÎ¯Î±
ÏĥÏĥ ÏĥÏĥ
ÏĩÏī Î¼Î±
Î¸Î± Î»Î±
ĠÎ´Î¹ ÎµÏģÏīÏĦÎ®Î¸Î·ÎºÎµ
ĠÎ¬Î»Î»Î± Î¶Îµ
ĠÎ¼ÎµÏĦÎ± Î¾Î¹
ĠÎ¼ÎµÏĦÎ± Î¼ÏĨÎ¹
ĠÎ´Î¿Ïħ Î»ÎŃ
ÏĨÎ±Î½ Î¿ÏĤ
ÎļÎ± Î»Î®
ÎļÎ± Î»ÏĮ
ĠÏĨÎ¬ ÎºÎµÎ»Î¿
ĠÎĳÎ½ Î½Î¿ÏįÎ»Î±
ĠÎĳÎ½ ÏĦÎ±ÏĢÎ¬Î½ÏĦÎ·ÏĥÎµ
ÏģÎ¹Ïĥ ÎºÎµ
ĠÎ²ÏģÎ® ÎºÎµÏĤ
ĠÎ¶Î® ÏĥÎµÎ¹ÏĤ
Î¯Î¿Ïħ ÏģÎ¿ÏĤ
ĠÎ´ÏħÎ½Î± Î¼
ĠÎ´ÏħÎ½Î± ÏĦÏĮÏĦÎµ
ĠÎķÎºÎµÎ¯ Î½Î¿
ĠÎ³Î± ÏģÎ¯
ĠÎ³Î± Î»Î®Î½Î·
ĠÎ³Î± ÏģÎ¹Î´Î¿ÏįÎ»Î±
ĠÏĦÏģÎ± ÏħÎ¼Î±
ĠÏĨÏħ Î»Î»Î±
ĠÏĨÏħ Î»Î¬ÎµÎ¹
ĠÏĨÏħ ÏĥÎ®
ĠÏĨÏħ Î»Î¬Î½Îµ
ĠÏĪÎ· Î»ÎŃÏĤ
ĠÎ¼Î¹ Î»Î¿ÏįÎ½
Î³ÏģÎ± ÏĨÎ¿
Î³ÏģÎ± Î¼Î¼Î±
ĠÏĢÎ±Î»Î¬ ÏĦÎ¹Î±
ĠÂµÎ± ÏįÏģÎ±
ĠÎ±Î½Î¬ Î»Î¿Î³Î±
ĠÎ±Î½Î¬ Î¼ÎµÏĥÎ¬
Î»Î±Î¹ Î³Îµ
ĠÎ¾Î±Î½Î¬ Î²Î»ÎµÏĢÎµ
ĠÏĢÎ±Î¯ Î¶Î¿Î½ÏĦÎ±ÏĤ
ĠÏĢÎ±Î¯ Î¶Î±Î½Îµ
Î²Î¿ Î»Î¹Î¬
ĠÏĢÎ¿Î¹ ÏĮÎ½
ĠÎºÎ»Î± Î´Î¬ÎºÎ¹Î±
ĠÏĢÎ®Î³ ÎµÏĤ
ĠÏĢÎ®Î³ Î±Î¹Î½Î±
ĠÎŃÎ»Î± Î¼ÏĢÎ±Î½
ĠÎ±Îµ ÏģÎ¿Ïĥ
ÏĥÏĦÎ¹ ÎºÎ±
ÏĢÏī ÏĥÎ±Î½
ĠÎļÎ¬ ÏĢÎ¿ÏĦÎµ
ĠÎļÎ¬ Î¸Î¹ÏĥÎ±Î½
ĠÎ´Î¹Î¬ Î´Î¿Ïĩ
ĠÏĪÎ¬ Î¾ÎµÎ¹
ĠÏĪÎ¬ Î¾Î¿ÏħÎ½
ĠÎ±ÏĢÎ¿Îº ÏĦÎ®ÏĥÎµÎ¹ÏĤ
ĠÎŃÎ´ÏīÏĥÎµ ÏĤ
ĠÎ¶Î· ÏĦÎ¬ÏĤ
ĠÎµÎº Î´Î¹Îº
ÏģÎ¿ÏĢ Îµ
ĠÏĨÎ±Î½ ÎµÏģÏĮ
ĠÏħÏĢÎ® Ïģ
ĠÏħÏĢÎ® ÎºÎ¿
ĠÎºÏĮÎºÎºÎ¹ Î½ÏīÎ½
ĠÏĦÏģÏĮ ÂµÎ±
ĠÏĩÎ¿Ïģ Î¿Ïį
ÏĥÏĦÎ¬ Î¸Î·ÎºÎµ
ĠÏĦÏģÎŃ Î¾Î¹Î¼Î¿
ĠÏĩÎ±ÏģÎ¿Ïį ÂµÎµÎ½
ĠÏĩÎ±ÏģÎ¿Ïį ÂµÎµÎ½Î±
ĠÏĩÏīÏģÎ¹ Î¿ÏħÎ´Î¬ÎºÎ¹
ĠÎºÏģÏį Î¿ÏĤ
ĠÎºÏģÏį Î²ÎµÎ¹
ĠÎºÏģÏį Î²ÎµÏĦÎ±Î¹
Î¿Î³ÎŃÎ½ Î½Î·
ĠÎ¿Î»ÏĮ Î¹
ĠÎ±ÏģÎºÎµ ÏĦÎ¿Î¯
ĠÎºÎ±ÏĦÎŃ ÏĥÏĦÏģÎµ
ĠÎ´Î¬ ÎºÏģÎ¹Î±
ĠÏĩÎŃÏģÎ¹ ÏĩÎŃÏģÎ¹
ĠÎµÏħÏĦÏħÏĩ Î¹ÏĥÂµÎŃÎ½Î¿
ÂµÎ¬ ÏĦÎ¹Î±
ÏĢÎ±Î¸ Î¿ÏįÏĥÎµ
ĠÎ±ÏĨÎ® Î½Ïī
ĠÏĥÏĩÎ¿Î» Î®
ĠÏĥÏĩÎ¿Î» Î¯Î±
ĠÏĥÏĩÎ¿Î» ÎµÎ¯Î±
ĠÎłÎ± ÏģÏĮÎ»Î±
ĠÎ£ÏĦÎ± ÂµÎ¬ÏĦÎ·ÏĤ
ĠÎµÏĢÏĮ ÂµÎµÎ½Î·
ĠÎºÏģÎµ Î¼ÏĮÏĦÎ±Î½
ĠÎºÏģÎµ Î¼Î¼Ïį
ĠÎŀ Î±Î½Î±
Î±Î½ÏĦÎ¬ ÎºÎ¹Î±
ÎĵÎ¹Î± Î³Î¹Î¬
ĠÎ¼ÎµÎ³Î±Î» ÏĮÏĥÏī
ÎºÎ¿Î» Î¿ÏħÎ¸Î®
ÎŃÏĢ ÏģÎµÏĢÎµ
ÎŃÏĢ Î¹Î±ÏĥÎµ
ĠÎºÎ¿ÏħÎ½ Î¿ÏįÏĥÎµ
ĠÎºÎ¿ÏħÎ½ Î·Î¸ÎµÎ¯
ĠÎºÎ¿ÏĢ Îµ
ĠÎ¼Î® Î»Î¿
ĠÏĥÏī ÏĥÏĦÎŃÏĤ
ĠÏĥÎºÎµÏĨ ÏĦÏİ
ĠÏĢÎµÏģÏĢÎ± ÏĦÎ¬ÏĤ
ÎķÎ¯ Î¼Î±ÏĥÏĦÎµ
ĠÏĥÏįÎ½ Î¸Î·Î¼Î±
ĠÎ¼Î¿Î½ Î¿Î»Î¿Î³
Î¾Ïį ÏĢÎ½Î·ÏĥÎµ
ÎĴ ÎŃÎ²Î±Î¹Î±
ĠÏĦÏģÎ¿ Î¼Î¿ÎºÏģÎ±
ĠÏĥÎºÏį Î»Î¿Î¹
ĠÏĢÎ±ÏģÎ¬Î¸Ïħ ÏģÏĮ
ĠÏĨÎ¹ Î»Î¯Î±
ĠÎºÎ±ÏĦÎ¬ÏĨÎµ ÏģÎ½Î±Î½
Î¿ÏĪ Î¯Î±
ĠÏħÏĢÏĮ ÎºÎ»Î¹
ĠÎºÏħÎ½Î· Î³Î·ÏĦÏĮ
ĠÎ³ÎµÎ½ Î½Î®
ĠÎ³ÎµÎ½ Î½Î¹
ĠÎºÎ¿Î¹ÏĦÎ¬ ÎµÎ¹
ĠÎ²Îµ ÏģÎ¬Î½ÏĦÎ±
ĠÎ²ÏĮ Î±
ĠÎ²ÏĮ Î´Î¹Î±
ĠÏĢÎ±ÏģÎ±Î¼ ÎŃÏģÎ¹
ĠÎ´ÎµÎ¯ Î¾Î¿ÏħÎ½
ĠÏģÎ¯ Î¾ÎµÎ¹ÏĤ
ÏĥÎ¬ ÏĢÎ·
ĠÎ¬Î³ ÏĩÎ¿ÏĤ
ĠÎ²Î¿ÏħÎ½ Î¿ÏĢÎ»Î±Î³Î¹Î¬
ĠÏĢÎ±ÏģÎŃ Î¼ÎµÎ½Îµ
ĠÎ±Î½ÏĦÎ¯ Î´ÏģÎ±
ĠÏĮÎ½Î¿ ÂµÎ¬
ĠÏĨÏīÎ½Î¬ Î¾Ïī
Î¸Î¬ ÏģÎ¹ÏĥÎµ
ÏĦÎŃÎ» ÎµÏĤ
ĠÏĢÎµÎ¯ ÏģÎ±Î¾Îµ
ĠÏĢÎµÎ¯ ÏģÎ±Î¶Îµ
ĠÏĥÎºÎŃÏĪ Î·ÏĤ
ĠÏĨÎ±Î¯Î½ ÎµÏĦÎµ
ĠÎ¼Î¿Î½Î± Î´Î¹Îº
ĠÏĥÏĩÎµ Î´Î¹Î¬
ĠÎ¹Î´ ÏģÏİÏĦÎ±
ĠÏĦÏģÏİ Î¼Îµ
ĠÏĢÏį ÏģÎ³Î¿ÏħÏĤ
ĠÏĢÏģÏĮÏĥÏī ÏĢÎ¬
ĠÎµÏħÏĩÎ±ÏģÎ¹ÏĥÏĦ Î¿ÏįÎ¼Îµ
ĠÎ±Î½ÎŃÎ² Î¿ÏħÎ½
ĠÏģÎ¬ ÏĦÏĥÎ±
ĠÎ¼Î±Î½ Î¹
ĠÎ±Î½Î¿Î¯ Î³ÎµÎ¹ÏĤ
ĠÏĢÎµÏģÎ¹Î¼ÎŃÎ½ ÎµÎ¹ÏĤ
Î³Ïħ Î½Î¿
ĠÎŃÏĥÏĦ ÏģÎ¹
ĠÎ¼Î¹ÎºÏģÎ¿Ïį Î»Î¹
ĠÎ¼Î¹ÎºÏģÎ¿Ïį Î»Î·
ĠÏģÏī ÏĦÎ®ÏĥÎµÎ¹ÏĤ
ĠÏĥÎºÎ¯Î¿Ïħ ÏģÎ¿
ÎĲ Î¶Î±
ĠÎ²Î³Î¬ Î»ÎµÎ¹ÏĤ
ĠÎłÎµ ÏģÎ½Î¿ÏįÏĥÎµ
ĠÏĦÏģÏį ÏĢÏīÏĥÎµ
ÏĨÏį Î»Î±
Î¦ Î±
Î¦ ÏĦÎ¬
ÂµÎ® Î¸Î·ÎºÎµ
ĠÎļÎ±Î½ ÎŃÎ½Î±
ĠÎķÏħ ÏģÏİÏĢÎ·
Î»Î»Î· Î»Î±
ĠÏĢÏĮÏĦÎµ ÏĢÏĮÏĦÎµ
ĠÎ±Î½Îµ Î¼Î¿Ïĥ
ĠÎ¿Î´Î· Î³ÏĮ
ĠÎ¿Î´Î· Î³Î¿Î¯
ĠÎĵÎ¹ Î±Î½Î½Î¬
Î© Ïĩ
Î© ÎĿ
Î© ÏĥÏĦÏĮÏĥÎ¿
ĠÎ³Î½ÏīÏģÎ¯ Î¶ÎµÎ¹ÏĤ
ĠÎ¡Î¿Î´Î¿Î´Î±ÏĨÎ½Î¿ÏįÏĥÎ± ÏĤ
ĠÎ¼ÏĢÎ¿Ïħ ÎºÎ±Î»Î¬ÎºÎ¹
ĠÎ´ÎµÏįÏĦÎµ ÏģÎ¿ÏĤ
ĠÎ±ÏģÎºÎ¿Ïį Î´ÎµÏĤ
ĠÏĩÏģÎµÎ¹Î¬ Î¶ÎµÏĥÎ±Î¹
ÏģÏīÏĦÎ® Î¸Î·ÎºÎ±Î½
ĠÎµÎ¼ÏĨÎ±Î½ Î¹Î¶ÏĮÏĦÎ±Î½
Î³Î³Îµ Î»Î¯Î±
Î³Î³Îµ Î»Î¼Î±
ĠÏĢÎµÎ½ ÏĦÎ±
ĠÏĢÎµÎ½ ÏĦÎ±ÎºÏĮÏĥÎ¹Î±
ĠÎ²ÏģÎ± Î²ÎµÎ¯Î¿
ĠÎ²Î±ÏĥÎ¹Î»Î¿ÏĢÎ¿ÏįÎ»Î± ÏĤ
ĠÏĢÏģÎ¿ÏĥÏĢÎ¬ Î¸Î·ÏĥÎ±Î½
ĠÎ³ÏģÎ± ÏĥÎ¯Î´Î¹
ĠÏĦÏįÏĩ ÎµÎ¹
ĠÏĦÎ¬ ÏĩÎ±
ĠÏĥÏİ ÂµÎ±
ĠÎ³Î· ÏģÎ±Î¹
ÎºÎ±ÏĦÎ± ÏĨÎŃÏģ
ĠÏĦÏģÎ±Î³Î¿Ïį Î´Î·ÏĥÎ±Î½
ÏĦÏģÎŃ ÏĪÎµÎ¹
ĠÏĩÎ±Ïģ ÏĦÎ¬ÎºÎ¹
ĠÎ§ÏģÎ¹ÏĥÏĦ Î¿ÏħÎ³ÎµÎ½Î½Î¹Î¬
ÏģÏİÎ½ ÏĦÎ±ÏĤ
ÏģÏİÎ½ Î¿Î½ÏĦÎ±ÏĤ
Î¬Î» Î»ÎµÏĤ
Î¬Î» Î»ÏīÏĥÏĦÎµ
ĠÎ´Î¹Îº Î¹Î¬
ĠÎ´Î¿ÎºÎ¹ ÂµÎ¬
ĠÏĦÎµÎ»ÎµÎ¹ ÏİÎ½Î¿ÏħÎ½
ĠÏĦÎµÎ»ÎµÎ¹ ÏİÏĥÎ¿ÏħÎ½
ĠÎºÎ±ÏĦÎ±ÏĨÎŃÏģ Î½ÎµÎ¹
ÎºÏħ Î»Î±
ĠÏĦÏģÏħ Î³ÏĮÎ½Î¹Î±
ĠÏĥÏĢ Î¯Î½Î¿Î¹
ĠÎ±Î½Î±ÏĢ Î½ÎµÏį
ĠÎĽÎ¿Ïħ ÎºÎ¬Î½Î¹ÎºÎ¿
ĠÎ²Î¿Ïħ ÏĦÎ¿ÏįÏĥÎµ
ĠÏĥÎºÎ¿Ïħ ÏĢÏĮÎ¾ÏħÎ»Î¿
ĠÎ±Î½Î¿Î¹Ïĩ ÏĦÎ¬
ĠÏĥÎ®Îº ÏīÏĥÎ±Î½
Î¼ÏĢÎ¹ Î¶ÎŃÎ»Î¹Î±
ĠÎ±Î½Î® ÎºÎ¿ÏħÎ½
ĠÏĢÏģÏĮÏĥ ÏĨÏħÎ³ÎµÏĤ
ĠÎ³Î»ÏħÎºÏĮ Î»Î±
ÏĦÏģÏĮ Î²Î¹
Î²Î· Î¾Î±Î½
ĠÎľÏĢÎ¿Ïģ Ïİ
ĠÎľÏĢÎ¿Ïģ Î¿ÏįÏĥÎµ
ĠÎ¼Î¹Ïĥ Î¬
ĠÏĢÏģÎ¿Ïĩ ÏİÏģÎ·ÏĥÎ±Î½
ĠÎ© ÎºÎµ
ĠÎ© ÏģÎ±Î¯Î±
ĠÏĦÎ¿Î¯ ÏĩÎ¿ÏĤ
ĠÎ²Î¿Î·Î¸ Î¿ÏįÏĥÎ±Î½
ĠÏĥÎºÎ¿ÏĦÎµÎ¹ Î½Î¹Î¬
ĠÎºÎ»ÎµÎ¯ Î½ÎµÎ¹
ĠÎºÎ»ÎµÎ¯ Î½Î¿ÏħÎ½
Î¼Î¹Îº ÏģÎ®
ĠÎ±Î½ÏĦÎ± Î¼ÎµÎ¯
ĠÎ±Î½ÏĦÎ± Î»Î»Î±ÎºÏĦÎ¹ÎºÏĮ
ĠÏĢÎ±Î»Î¹ Î¿Î¯
ĠÏĢÎµÎ¹ÏģÎ¬ Î¾ÎµÎ¹
ĠÎļÎ¿Î¹ ÏĦÎ¬Î¾ÏĦÎµ
ĠÎĵÎ± Î»Î»Î¯Î±
ĠÎ´Î¹Î±Î²Î¬ ÏĦÎ·ÏĤ
ĠÎŃÏĢÎ¹ Î±Î½Î±Î½
ĠÎ¶ÏīÎ½ ÏĦÎ¬
ĠÏĥÏħÎ³Îº Î¯Î½Î·ÏĥÎ·
ĠÏĥÏħÎ³Îº ÎŃÎ½ÏĦÏģÏī
ĠÎĪÎ»Îµ Î³Îµ
ĠÏĢÎµÎ½ÏĦÎ¬ Î¼Î¿ÏģÏĨ
ĠÏĦÎŃÏĥÏĥÎµ ÏģÎµÏĤ
ĠÎ¼ÏĢÎµ Î»Î¬Î´ÎµÏĤ
ĠÎµÎ¯Î´Î± Î¼Îµ
ĠÏĢÎ±ÏģÏĮ Î¼Î¿Î¹Î±
ĠÏĢÎ±Î¯ÏģÎ½ ÎµÎ¹ÏĤ
ĠÎ¼Î¹Î»Î¬ Ïī
ĠÎ±Î½Î·ÏĥÏħÏĩ ÎµÎ¯ÏĦÎµ
ĠÎ¾ÏħÏĢ Î½Î¿ÏįÏĥÎµ
ĠÎ³ÎµÎ»Î¬ ÏĥÏī
ĠÎ¬Î½Îµ ÏĦÎ±
Î¿ÏĢÎ¬ ÏĦÎ¹Î±
ĠÎ³ÎµÎ¼Î¯ Î¶ÎµÎ¹
ĠÏĨÏįÎ»Î± Î³Îµ
ĠÎ±Î½ÎŃ Î¼Î¿Ïħ
ĠÎºÎ¿ÏħÎ²Î± Î»Î®ÏĥÎµÎ¹
ĠÎĵÎº Î»ÏĮÏģÎ¹
ĠÎĺÎ·Ïĥ ÎŃÎ±
ĠÎ±ÏĨÎµÎ½ ÏĦÎ¹ÎºÎ¯Î½Î±
ĠÎ¾ÏįÎ»Î¹ Î½Î±
ĠÎµÎ»ÎµÏħÎ¸Îµ ÏģÎ¯Î±
ÎłÎµ ÏģÎ¹
ĠÏĢÎ¿ÏģÏĦÎ¿ÎºÎ± Î»Î¬Î´Î±
ĠÎ¸Ïį Î¼ÏīÎ½Îµ
ĠÎ¸Ïį Î¼Î¹Î¶Îµ
ĠÎ±Î½Î±ÎºÎ± ÏĦÎµÏį
ĠÎ»Î¹Î³ ÏĮÏĥ
ĠÎ»Î¹Î³ Î¿ÏĥÏĦÎ¬
ĠÏĥÎºÎµÏĨÏĦÎµÎ¯ ÏĤ
ĠÎŃÏĥÎºÎ± ÏĪÎµ
ĠÎ¥ ÏĢÎ¬ÏģÏĩÎµÎ¹
ĠÎ¼Î±Ïģ ÏĦÏįÏģÎ¹Î¿
ĠÏĨÎ¿Î²Î¬ ÏĥÏĦÎµ
ĠÎ¶ÎµÏĥÏĦÎ± Î¸ÎµÎ¯
ĠÎºÏħÎ½Î·Î³ Î¿ÏįÏĥÎ±Î½
ĠÎ¸Î·ÏĥÎ±Ïħ ÏģÏĮÏĤ
Îĸ ÎŁÎ¥ÎĿ
ĠÎ²Î±ÏģÎŃ Î¸Î·ÎºÎµ
ĠÏĢÎ¿Î»ÏįÏĩÏģÏī Î¼Î¿
ÎĴÎ± ÏĥÎ¹
ĠÎ´ÎµÎ¯ÏĩÎ½ ÎµÎ¹
ĠÏĦÏģÏħÏĨÎµ ÏģÏĮ
ĠâĢ¦ âĢĿ
ĠÏĥÎ¬ ÎºÎ¿ÏĤ
ĠÎ´Î¹ÎºÎ± Î¯
ĠÎ¿Î½ÎµÎ¹ ÏģÎ¿ÏĢ
ĠÎ¿Î½ÎµÎ¹ ÏģÎµÏį
ĠÂµÎµÎ³Î¬ Î»Î¿
ĠÏĦÏĥÎ¿Ïħ ÏĢ
ĠÏĦÏĥÎ¿Ïħ Î»Î®
ĠÏĦÏĥÎ¿Ïħ ÏĩÏĦÎµÏģÏĮ
ĠÎ±Î³ÏĮÏģÎ± Î¶Îµ
Î¼Î¬Î½ ÏĦÎ¹
ĠÎµÎ»ÎµÏįÎ¸Îµ ÏģÎ¿ÏĤ
ĠÎŃÏĢÎ± ÏĪÎµ
ĠÏĦÏģÏĮÎ¼Î± Î¾Î±Î½
ĠÎµÎ»Î±ÏĨ Î¬ÎºÎ¹
ĠÎºÎ¿Î½ ÏĦÎ¹Î½ÏĮ
ĠÎŃÎ³ Î»Ïħ
ĠÏĨÏģÏĮÎ½ ÏĦÎ¹ÏĥÎµ
ĠÎ¾Î± Î´
ĠÎ¾Î± Î´ÎµÏģÏĨ
ĠÎĽÎ± Î¼Î¯Î±
Î¸Î¿Ïį Î½Îµ
Î¬Î½Î¸ÏģÏī ÏĢÎ¿ÏĤ
ĠÎĳÏĨ Î³Î±Î½Î¹ÏĥÏĦÎ¬Î½
ĠÏĦÎ¹Î¼Ïī ÏģÎ·
ĠÎ±Î½Î¸ÏģÏī ÏĢÎ¬ÎºÎ¹
ĠÎĶÎ· Î¼Î·ÏĦÏģÎ¬ÎºÎ·ÏĤ
ĠÏĢÎ±ÏģÎ±ÏĦÎ® ÏģÎ·ÏĥÎ±Î½
ĠÏĢÎ±ÏģÎ±ÏĢÎ¿Î½ ÎŃ
ĠÎĨÎºÎ¿Ïħ ÏĥÎ±
ĠÎ±ÏģÏĩÎ¯ ÏĥÎ±Î¼Îµ
ĠÎ²Î¿Î® Î¸Î·ÏĥÎ±Î½
ĠÏĢÎ¹ÏĥÏĦÎµÏį ÎµÎ¹ÏĤ
ĠÏĢÎ¹ÏĥÏĦÎµÏį Î¿Î½ÏĦÎ±ÏĤ
ĠÏĩÎ¿ÏģÎµÏį ÏĦÏģÎ¹Î±
ĠÎŃÎ¼ÏĢÎ¿Ïģ Î¿
ĠÏĥÏĦÎµÎ¯ Î»Ïī
ĠÏĩÎ¬Î½ Î¿Î½ÏĦÎ±Î½
ĠÏĩÎ¬Î½ ÎµÏĦÎ±Î¹
ĠÏģÏĮ Î´Î¹Î±
ĠÏĢÏĮÎ»Îµ Î¼Î¿Î¹
ĠÎ¸ÏħÎ¼Ïī Î¼ÎŃÎ½Î¿ÏĤ
ĠÏĩÎ¿ÏģÎ¿ÏĢ Î·Î´Î¬ÎµÎ¹
ĠÏĥÎºÎ±Ïģ ÏĨÎ¹
ĠÏĢÎ±Î½ÏĦÏģÎµÏħÏĦÎµÎ¯ ÏĤ
ĠÏĥÏĦÎµÎ½Î±ÏĩÏīÏģÎ· Î¼ÎŃÎ½Î¿ÏĤ
ĠÏĥÏĦÎµÎ½Î±ÏĩÏīÏģÎ· Î¼ÎŃÎ½Î·
ĠÏĦÏģÎ¬ Î²Î·Î¾Î±Î½
ĠÎ±ÏĢÎ¿Ïĩ ÏģÏİÏĥÎµÎ¹ÏĤ
ĠÏĨÎ¿ÏħÎ½ ÏĦÎ¿Ïį
ĠÏĢÏģÎ¿ÏĥÎŃÏĩ Ïī
ĠÏĢÏģÎ¿ÏĥÎŃÏĩ Î¿ÏħÎ½
ĠÎ³ÏģÎ®Î³Î¿Ïģ Î¿ÏĤ
Î±ÏĢÎ¿ ÎºÎ±
ĠÎºÎ¯Î½Î´Ïħ Î½Î¿Î¹
ĠÏĨÏģÎ¿Ïħ ÏģÎ¿Î¯
ĠÏĢÎ¿Î»Ïħ ÎºÎ±ÏĦÎ¿Î¹
ĠÎ±Î³ÏģÏĮ ÏĦÎ·
ĠÎ±Î³ÏģÏĮ ÎºÏĦÎ·Î¼Î±
ĠÏĢÏģÎ¿ÏĥÎŃ ÏĩÎµÏĦÎµ
ĠÎ¹ÎºÎ±Î½ ÏĮÏĤ
ĠÏĥÎºÎ±Î½ÏĦÎ¶ÏĮÏĩÎ¿Î¹ ÏģÎ¿
ÎłÎ¬ ÏģÎµ
ÎºÎ¿Î¼ Î¿Î¯
ĠÎ´Î¹Î±ÏĥÎºÎµ Î´Î±
ĠÎºÎ¿Ïĩ Ïħ
ĠÏĢÎ»ÎµÏħ ÏģÏĮ
ĠÎ»ÎµÎ¯ ÏĪÎµÎ¹
ĠÎ¼ÎµÎ³Î±Î»Ïİ ÏĥÏī
ĠÏĮÂµÎ¿ÏģÏĨ Î±
Ġ3 2
ĠK Î±Î¹
ĠÏĥÏĢÏĮ ÏģÎ¿Î¹
ĠÎ¾ÎŃÎ½ Î¿
ĠÎ¾ÎŃÎ½ Î·
ĠÏģÏħ Î¬ÎºÎ¹Î±
ĠÏĢÏģÎ¿ÏĥÏĦÎ± ÏĦÎŃÏĪÎµÎ¹
ĠÏĩÎ¬Î¹Î´Îµ ÏħÎµ
ĠÎ´Î¿ÏħÎ»ÎµÏį Î¿ÏħÎ½
ĠÎĳÎ¹ Î³Î±
ĠÏĢÎµÏģÎ± ÏĥÏĦÎ¹ÎºÏĮÏĤ
ĠÎºÎ±Î»Î»Î¹ ÎµÏģÎ³
ĠÏĦÏģÎ¿Î¼Î¬ Î¾ÎµÎ¹
ĠÏĥÏĦÎµÎ½Î±ÏĩÏīÏģÎ¹ ÏĮÏĦÎ±Î½
ĠÎ¼Î¿Ïį Î¿Ïħ
ĠÏĥÏĦÏģÎ¹ Î³Îº
ĠÏĮÏģÎ¸ Î¹Î±
ĠÎºÎ±ÏģÏį Î´Î¹
ĠÎ»Î· ÏĥÏĦÏİÎ½
ĠÎ±Î¾Î¹ ÏīÎ¼Î±
ĠÎ½Î¿ ÂµÎ¯
ĠÎ³Î»Î¹ ÏĦÏİÏĥÎµÎ¹
ĠÎºÎ±ÏĦÎ¬Î»Î»Î· Î»Î¿
ĠÎ»Î±Î¼ÏĢ ÏģÏĮ
ĠÎ¾Î±ÏĢÎ»Ïī Î¼ÎŃÎ½Î·
ÎµÎºÎµÎ¯ Î½Î¿ÏĤ
ĠÏĦÎ¿ÎºÎ¿ ÏģÎ¹ÏĦÏĥÎ¬ÎºÎ¹
ĠÎ®ÏģÎµ Î¼Î¿
ĠÎĴÎ»ÎŃ ÏĢÏī
ĠÎĴÎ»ÎŃ ÏĢÎµÏĦÎµ
ĠÎ±ÏĢÎ¿ÎºÎ± Î»Ïį
ĠÏĨÎ¿ÏģÏĦÏī Î¼ÎŃÎ½Î·
ĠÎ¾Î±Î½Î±Î³ Î¯Î½ÎµÎ¹
ĠÎ¼Î¿Î½ÏĮ ÏĦÎ¿Î½
ĠÎµÏĢÎ¹ÏĥÎºÎµÏĨ Î¸ÎµÎ¯
ĠÎµÏĢÎ¹ÏĥÎºÎµÏĨ ÏĦÎµÎ¯
ĠÏĨÏģÎŃ ÏĥÎºÎ¹Î±
ĠÎ±Î³ÎºÎ± Î»Î¹ÎŃÏĤ
ĠÏĢÏģÎ¹Î³ÎºÎ¯ÏĢÎ¹ ÏĥÏĥÎ¬
ĠÎ»Î¬Î¼ÏĢ Î¿ÏħÎ½
ĠÎºÎ·ÏĢÎ¿Ïħ ÏģÎ¿Ïį
ĠÎĸÏīÎ· ÏģÎ¿ÏįÎ»Î·
Î¿Î¹ÎºÎ¿Î³ÎŃÎ½ ÎµÎ¹Î¬
ĠT Î±
ĠÎ½ÏĮÏĥÏĦÎ¹ Î¼Î±
ĠÎ¸Î±Ïģ ÏģÏİ
ĠÎŃÏĩÎ± ÏĥÎµÏĤ
ĠÎĽÎµ ÏħÏĦÎŃÏģÎ·ÏĤ
ĠÏĨÏīÏĦÎµÎ¹ Î½ÏĮ
ĠÎºÎ¿ÏģÎ¿ÏĬ Î´ÎµÏħÏĦÎ¹ÎºÎ¬
ĠÏĢÎ±ÏģÎ·Î³Î¿Ïģ Î¿ÏįÏĥÎµ
ĠÏĢÎ±ÏģÎ·Î³Î¿Ïģ Î®ÏĥÎµÎ¹
ĠÎºÎ¿ÏħÎ´Î¿ÏħÎ½ Î¬ÎºÎ¹Î±
ĠÎºÎµÎ¯ Î½Î¿ÏĤ
ĠÎºÎ±ÏĦÎ· ÏĨÏĮ
ÎºÎ±Î»Î¿ ÎºÎ±Î¯ÏģÎ¹
ĠÎ»Î±ÏĩÏĦÎ± ÏģÎ¹ÏĥÏĦÎ¬
ĠÎ±ÎºÎ¯Î½Î· ÏĦÎ·
ĠÎ¸ÏħÎ¼ ÏİÏĥÎµÎ¹
ĠÎ±ÎºÎ¿Î»Î¿ÏħÎ¸ Î¯Î±
ĠÎ±ÏģÎ¹Î¸ Î¼ÏĮ
ĠÏĩÎ¿ÏģÎ¿ÏĢÎ·Î´ Î¿ÏįÏĥÎµ
ĠÏĨÏĦÎ¹Î±Î³ Î¼ÎŃÎ½Î¿
ĠÎ¼ÏĢÎ¹Î¶ ÎŃÎ»Î¹
ĠÎļÎ¿Ïħ ÏģÎ±
ĠÎĺÎ±Î½Î±ÏĥÎ¬ ÎºÎ·
ĠÎ±ÏģÎ³Î±Î»ÎµÎ¹ Î¿ÏįÏĤ
ĠÎµÎ¾Î·Î³Î® ÏĥÎµÎ¹ÏĤ
ĠÏĨÏīÏĦÎ¹ ÎŃÏĤ
ĠÎµÎ»ÎŃÏĨÎ±Î½ ÏĦÎ±
ĠÏĩÏģÏīÎ¼Î±ÏĦÎ¹ ÏĥÏĦÏĮ
ĠÏĦÏį ÏĪÎµÎ¹ÏĤ
ĠÏĢÎ¿ÏģÏĦÎ¿ ÎºÎ¬Î»Î¹
ĠÎ³Î»Ïį ÏĦÏīÏĥÎ±Î½
Î²ÏĮ Î»
ĠÏĢÎ±Ïĩ Ïį
ĠÏĢÎ±Ïĩ Î¹Î¬
ÎľÎ¬ Î»Î¹ÏĥÏĦÎ±
ÎľÎ¬ Î¶ÎµÏĪÎµ
ĠÏĪÏħÏĩ ÎŃÏĤ
ĠÏĨÎ¿Î²Î¹ ÏĥÎ¼ÎŃÎ½Î¿ÏĤ
ĠÏĢÎ¿Î»Î¹ ÏĦÎµÎ¯Î±
ĠÏĥÏħÎ¼ÏĨÏīÎ½ Î®ÏĥÎµÎ¹
ĠÎ²ÎµÎ»Î±Î½ Î¯Î´Î¹Î±
ĠÎ±ÏĢÎ¿ÏĩÎ±Î¹ÏģÎµ ÏĦÎ®ÏĥÎµÎ¹
ĠÏĥÏįÎ¼Î²Î¿Ïħ Î»Î¿Î¹
ĠÎ±ÏĥÏĦÏħÎ½Î¿ Î¼Î¹Îº
ÏģÎ¿ÏįÎ½ ÎµÏĤ
ĠÎºÎ¹Î± ÏħÏĦÏĮ
ĠÎµÏģÏī ÏĦÎµÏįÏĦÎ·ÎºÎµ
ĠÏĦÎ±Îº ÏĦÎ¿ÏĢÎ¿Î¹
ÏģÎ¬ÏĨÎ· ÎºÎ±Î½
ĠÎļÎ¿ ÏģÏĮÎ½Î±
ĠÂµÎŃ ÏĥÎ·
ĠÏĩÎ±ÏĥÎ¼Î¿Ïħ ÏģÎ·
ĠÎºÎ±Î¸Ïħ ÏĥÏĦÎµ
ĠÎ¹ÏĢ ÏĢ
Î¿Î³ÏģÎ± ÏĨÎ¿Î¼Î·ÏĩÎ±Î½Î®
ĠÎľÎµÏģÎ¹ ÎºÎŃÏĤ
ĠÏĦÏģÎ±Î² Î¿ÏįÏĥÎ±Î½
ĠÎ±ÏĢÎ±ÏĥÏĩÎ¿Î» Î·
ĠÎºÎ¿ÏħÎ½Î¹ ÎŃÏĦÎ±Î¹
ĠÎºÎ¿ÏħÎ²ÎµÎ½ÏĦÎ¹Î¬ Î¶ÎµÎ¹
ĠÏĩÎ±Î¼Î¿Î³ÎµÎ»Î± ÏĥÏĦÎ®
ĠÏĥÏĦÎµÎ½Î¿ÏĩÏīÏģÎ· Î¼ÎŃÎ½Î¿ÏĤ
ĠÏĨÎ±ÏģÎ¼Î±ÎºÎ¿ÏĢÎ¿Î¹ ÏĮ
ĠÏĥÏĦÎ¿Î¹ Ïĩ
ĠÎłÎ¿Î¹ ÏĮÏĤ
ĠÏĦÎµÏĦÏģÎ¬ Î´Î¹Î¿
ĠÎµÎ¾Î· Î¼ÎµÏģÏİÏĥÎµÎ¹
ÏĩÎ¹Î¿Î½ Î¯ÏĥÎµÎ¹
ĠÎļÎ±Î»Î· Î½ÏįÏĩÏĦÎ±
ĠÎľÎµÎ»Ïī Î´Î¿ÏįÎ»Î±
Î²Î¹Î² Î»Î¯Î¿
ĠÏĥÎºÎ±Î¼ Î½Î¯
ĠÏĦÏĥÎ±Î»Î± ÏĢÎµÏĦÎµÎ¹
ĠÎ´ÏħÏĥÏĦÏħÏĩÎ¹ ÏĥÎ¼ÎŃÎ½Î¿ÏĤ
ĠÎ¶Î±ÏĩÎ± ÏģÎ¿ÏĢ
ĠÎµÎ¾ÎµÏĦÎ¬ ÏĥÏī
ĠÎ³ÎºÏģÎµÎ¼Î¯ ÏĥÎµÎ¹
ĠÏĦÏģÎ¹Î±Î½ÏĦÎ±ÏĨÏħÎ» Î»Î¹ÎŃÏĤ
ĠÎ½Î® Î¼Î±
ĠÎ´ÏģÎ¿ Î¼
ĠÎºÎ±Î²Î¿Ïħ ÎºÎ¬ÎºÎ¹
ĠÎ¾ÎŃÏĥ ÏĢÎ±ÏĥÎµ
ÎŃÏģÎ· ÏĥÎ·
ĠÏĩÎ±ÏģÎ±Îº ÏĦÎ®ÏģÎ±
ĠÎ³ÎµÏģÎ¿ Î¼Î¬Î³ÎµÎ¹ÏģÎ±ÏĤ
ĠÎ¶ÏīÎ³ÏģÎ¬ÏĨÎ¹ Î¶Îµ
ĠÎ¼ÎµÏĦÎ±Î¾Ïī ÏĦÎ¬
ĠÎ³ÎºÏģÎ¯ Î¶Î¿
ĠÎ±Î½ÏħÏĢÏĮ ÏĨÎ¿ÏģÎ·
ĠÏĥÎµÎ½ÏĦ ÏĮÎ½Î¹
ĠÎ¿ÏģÎ¸ Î¬Î½Î¿Î¹
ĠÎ±ÏĢÎ¯ÏĥÏĦÎµ Ïħ
ĠÎ»ÏħÏĩ Î½Î±
ĠÎ®ÏģÏī ÎµÏĤ
ĠÏĢÎ±ÏĦÎ¬ ÏĦÎµÏĤ
ÏģÎµÏĢ ÏĦÎ¹ÎºÎŃÏĤ
ĠÏģÎ¿Î´Î¿ Î¼Î¬Î³Î¿Ïħ
ĠÏĩÎ±Î¶ ÏĮÏĤ
ĠÏĩÎ±ÏĦÎ¯ ÏģÎ¹
ĠÎ¾ÎµÎºÎ¹Î½ Î¿ÏįÏĥÎµ
ĠÎ²Î¬ÏĥÎ±Î½ Î¬
ĠÎ´Î¹Î·Î³ ÎµÎ¯ÏĦÎ±Î¹
ĠÏĦÏģÎ¿Î¼Î± ÎºÏĦÎ¹ÎºÏĮ
ĠÎ´Î±ÏĩÏĦÏħ Î»Î¯Î´Î¹
ĠÎľÎ¬Î¾Î¹ Î¼Î¿ÏĤ
ĠÏĩÎ¹Î¿Î½Î¬Î½Î¸ÏģÏī ÏĢÎ¿
ĠÏĩÎ¹Î¿Î½Î¬Î½Î¸ÏģÏī ÏĢÎ¿ÏĤ
ĠÏĥÏĢÎ¿ÏħÎ´Î± Î¯Î±
ĠÎ´Î·Î¼Î¹Î¿ÏħÏģ Î³Î®Î¸Î·ÎºÎµ
ĠÏĥÏħÎ½Î·Î¸ Î¯ÏĥÎµÎ¹
ĠÏĨÎ¹Î»ÎµÎ½Î¬ Î´Î±
ĠÎ·Î»Î¹Î¿Î²Î± ÏĥÎ¯Î»ÎµÎ¼Î±
ĠÎ±Î´ÏħÎ½Î± Î¼Î¯Î±
ĠÏĥÏĦÏĮÎ»Î¹ Î¶Îµ
ĠÎ¼ÎµÎ»Î¹ÏĥÏĥ Î¿Ïħ
ĠÎ±Î½ÏĦÎ¬ Î»Î»Î±
ĠÎłÏģÏī ÏĦÎ¿ÏĩÏģÎ¿Î½Î¹Î¬ÏĤ
ĠÎ£ÏĦÎµ ÎºÏĮÏĦÎ±Î½
ĠÎ±ÏħÎ»Î¹ ÎºÎ¿Î¯
ĠÎºÎ±ÏĦÎ±ÏĥÎºÎµ ÏħÎ±
ĠÎ±Î½Î±ÏĥÏĦÎ± ÏĦÏī
ĠÎ±Î½Î±Î»Î¬Î² ÎµÎ¹
ĠÎµÎ¾Ïī Î³Î®Î¹
ĠÏĦÏģÎ±Î²Î® Î¾ÎµÎ¹
ĠÎ¬Î³Î³Î¹ Î¾Îµ
ĠÏĨÎ±Î½ÏĦÎ±Ïĩ ÏĦÎµÏģÎ¬
ĠÏĦÎ±Î¾Î¹Î´Î¹ ÏİÏĦÎ·ÏĤ
ĠÎ¿Î»Î¿Î¼ÏĮÎ½Î± ÏĩÎ¿ÏĤ
ĠÎ¼Î±ÏģÎºÎ® ÏĥÎ¹Î¿
ĠÎ¼ÎµÏĦÎ±Î½Î¹ ÏİÏĥÎµÎ¹
ĠÎ½Î±Ïħ ÏĦÎ¹ÎºÏĮÏĤ
Î¸ÎŃÎ» Ïī
ĠÎ²Î´Î¿ Î¼Î¬Î´Î±
ĠÎĳÎ¯ Î³ÏħÏĢ
ĠÏĥÎµÏģ Î²Î¯
ĠÎ£Î¯ ÏĥÏħ
ĠÎ¾ÎµÏĢÏģÏĮ Î²Î±Î»Îµ
ĠÎºÎ¿ÏħÏģ ÏĦÎ¯Î½ÎµÏĤ
ĠÏĢÎ±ÏģÎ±Î³Ïī Î³Î®ÏĤ
ĠÎºÎ±ÏĦÎ±ÏĢÎ¹ ÎµÎ¯
ĠÎ±ÏģÏĩÎ¹ Î¼Î¬ÏĥÏĦÎ¿ÏģÎ±ÏĤ
ĠÎľÎ±Î»Î¬ Î¼Ïī
ĠÏĢÏģÎ¿Îµ ÏĦÎ¿Î¹
ĠÏĢÏģÎ¿ÎµÎ¹Î´ Î¿ÏĢÎ¿Î¹
ĠÎ³Î¿Î½Î¹ ÏİÎ½
ĠÎ£ÏĦÎ±Î»Î±ÏĩÏĦÎ¯ ÏĦÎ±ÏĤ
ĠÎ¼Î¿Î½Î¿ Î¼Î¹Î¬ÏĤ
Î§Î¬ ÏģÎ·
ĠÏĢÎ±ÏģÎ±Î¼ÏħÎ¸Î¹ ÏİÎ½
ĠÎ´Î·Î»Î· ÏĦÎ·ÏģÎ¹Î±
ĠÎ±Î½ÏĦÎ¹ÎºÎµÎ¯ Î¼ÎµÎ½Î¿
ĠÎ¼ÏĢÎ¿ÏħÎ¼ÏĢÎ¿Ïį ÎºÎ¹
ĠÏĥÏĢÏħ ÏģÎ¯
ĠÎ±Î³ÏģÎ¹Îµ Î¼ÎŃÎ½Î¿ÏĤ
ĠÏĥÏĢÎ¿ÏħÏģÎ³Î¯ ÏĦÎ¹
ĠÎĶÎ·Î¼Î® ÏĦÏģÎ·ÏĤ
ĠÏħÏĢÎ¿ÏĪÎ® ÏĨÎ¹
ĠÏĨÏīÏĦÎ¿Î³ÏģÎ±ÏĨ Î¯ÎµÏĤ
ÏĦÏģÎ±Î³ Î¿ÏħÎ´
ĠÏĥÏĢÎ¿ÏįÎ´Î± ÏĥÎµ
ĠÎ½Î±ÏħÎ± Î³ÏĮÏĤ
ĠÎ»Î¹Î± ÎºÎ¬Î´Î±
ĠÎ¼Î±Î¾Î¹Î»Î¬ ÏģÎ¹
ĠÎĳÎ½Î¬ Î¼ÎµÏĥÎ±
ĠÎķÏĥ ÏĢÎµÏģÎ¯Î´ÏīÎ½
ĠÎĪÏĦÏģÎµ ÏĩÎµ
ĠÎĪÎ½Î¿Î¹ ÏīÎ¸Îµ
ĠÎĶÏİ ÏĥÎµ
ĠÎ¾ÎµÏĨÎ¿Ïģ ÏĦÏīÎ¸ÎµÎ¯
Î£Î® Î¼ÎµÏģÎ±
ĠÎ´Î¹Î·Î³Î· Î¸ÎµÎ¯
ĠÎ±Î´ÎµÎ» ÏĨÎ®
ĠÎºÎ¿Î»Ïį Î¼ÏĢÎ·ÏĥÎµ
ĠÎĶÎµÎ»ÏĨÎ¹ Î½Î¹ÏİÎ½
ĠÎ±ÏĥÎ¸ÎµÎ½ Î¿ÏĨÏĮÏģÎ¿
ĠÏĩÏģÎ·ÏĥÎ¹Î¼Îµ ÏįÎµÎ¹
ĠÎ·Î»Î¹ÏĮÎ»Î¿Ïħ ÏĥÏĦÎ·
ĠÏĩÎ±Î¯Ïģ Î¿Î½ÏĦÎ±Î½
ĠÎĳÎ»ÎºÎ¯Î½Î¿ Î¿ÏĤ
ĠÎºÎ±Î¸ÏħÏĥÏĦ ÎŃÏģÎ·ÏĥÎ·
ĠÎ´Î±Î½ÎµÎ¯ ÏĥÎµÎ¹ÏĤ
ĠÎ´ÎµÏħÏĦÎµÏģÏĮÎ»ÎµÏĢ ÏĦÎ±
ĠÎ»ÎµÏĢÏĦÎ¿Î¼ÎŃÏģ ÎµÎ¹Î±
ĠÎĳÏĢÎ¿ÏĪÎ¹Î»Ïī ÏĦÎ®ÏĤ
ĠÏĦÎŃÎ½ ÏĦÏīÏĥÎµ
ĠÏĢÏģÎ¿ÏĢ ÏģÎ¿ÏĢ
Î³Î»Î¹ ÏĥÏĦ
ĠÎ´Î® Î¸ÎµÎ½
ĠÎ¿Ïį ÏģÎ»Î¹Î±
ĠÎºÎ±ÏĦÎ¿Î¯ ÎºÎ¿ÏħÏĤ
ĠÎºÎ¬ÏĦ ÏĥÎµÎ¹
ĠÎĶÏģÏĮ ÏĥÎ¿ÏĤ
ĠÏĪÏįÏĩ ÏģÎ±Î¹
ĠÎ¾ÎµÎ³ÎµÎ»Î¬ ÏĥÎµÎ¹
ĠÎĵÎ¬ ÏĦÎ¿ÏĤ
ĠÎ±Î³ÎŃÎ»Î± ÏĥÏĦÎ·
ĠÏĢÎ±ÏģÎ±Î¼Îµ Î»Î·
ĠÏĥÏħÎ½Î´Ïħ Î±
ĠÎºÏħÏģÎ¹ ÎµÏį
ĠÎ±ÏĨÎŃÎ½ ÏĦÎ·
ĠÏĥÏĦÎ¹Î»ÎŃ ÏĦÎ¿
ĠÎºÎ±ÏģÏĨÏī Î¼ÎŃÎ½Î±
ĠÏīÏģÎ±Î¹ ÏĮÏĦÎµÏģÎ¿
ĠÏĦÏģÏĮÏĨÎ¹ Î¼Î±
ĠÎ±Î½Î¿Î¹Î¾Î¹Î¬ ÏĦÎ¹ÎºÎ¿
ĠÏĥÏħÎ³Î³ÏģÎ±ÏĨ ÎŃÎ±ÏĤ
ĠÎºÎ¿Î»ÏħÎ¼ÏĢÎ¬ ÎµÎ¹
ĠÏħÏĢÎ¿ÏĥÏĩÎµ Î¸ÎµÎ¯
ĠÎºÎ±Î¸Î·ÏĥÏįÏĩÎ± ÏĥÎµ
ĠÏħÏĢÎµÏįÎ¸Ïħ Î½Î¿ÏĤ
ĠÎºÎ±Î»Î·Î¼ÎŃÏģÎ¹ ÏĥÎµ
Î±Î½Î¸ÏģÏİ ÏĢÎ¿ÏħÏĤ
st ave
ĠÎ±ÏĩÏİ ÏģÎ¹ÏĥÏĦ
ĠÎŃÏĢÎ±Î¸ ÎµÏĤ
ĠÏĨÏĦÏħ Î¬ÏģÎ¹
ĠÎºÎ±Î¼Ïİ Î¼Î±ÏĦÎ±
ĠÎ²Î±ÏĦÎ¿Î¼Î¿Ïħ ÏģÎ¹Î¬
ĠÎŁÏģÎŃ ÏĥÏĦÎ·ÏĤ
ĠÎĶÏį Î¿
ĠÎ´ÏħÏĥÎ± ÏģÎµ
ĠÎ±ÏģÎ»ÎµÎºÎ¯Î½ Î¿ÏĤ
ĠÏĥÏħÎ½ÎµÎ¹Î´Î· ÏĦÎ¿ÏĢÎ¿Î¯Î·ÏĥÎµ
ĠÏĦÎ¯ÏĦ Î»Î¿
ĠÎļÎ±ÏĢÎµ Î»Î¬ÏĤ
Î²Î¿Î· Î¸Î®
ĠÎ³Î¿Î½Î¬ ÏĦÎ¹ÏĥÎµ
ĠÎŃÎ»Î±Î¼ ÏĪÎµ
ĠÏĩÎ¿ÏģÎµ ÏħÏĦÎ®ÏĤ
ĠÏħÏĢÎ½Ïī ÏĦÎ¹ÎºÏĮ
ĠÎĻÎ´Î¿Î¼ÎµÎ½ ÎŃÎ±ÏĤ
ĠÎłÎ±ÏĢÎ¿Ïħ ÏĦÏĥÏīÎ¼ÎŃÎ½Î¿ÏĤ
ĠÎ¾ÏįÏĢÎ½Î¹ Î¿ÏĤ
ĠÎ±Î½ÏĦÎ¹Î»ÏĮ ÏĢÎµÏĤ
ĠÎ±Î²Î¬Ïĥ ÏĦÎ±Ïĩ
ĠÏĥÏħÎ³ÎºÎµÎºÏģÎ¹ Î¼ÎŃÎ½Î¿
ĠÎ±ÏĥÏĦÎµÏģÎ¿ ÎµÎ¹Î´Î®
ĠÏĢÎ±ÏģÎ±ÎºÎ¿Î»Î¿ÏħÎ¸Î® ÏĥÎµÎ¹
ĠÎ±ÏĩÏħÏģÏİ Î½Î±
ĠÎ¼ÎµÏĦÎ±Î½Î¿ Î®ÏĥÎµÎ¹ÏĤ
ĠÎłÎµÏģÏĢÎ± ÏĦÎ¿ÏįÏĥÎ±Î½
ĠÏĦÎ¿ÏħÏģÎ¼ÏĢ Î¬Î½Î¹
ĠÎºÎ¿ÎºÎºÎ¯Î½ Î¹ÏĥÎµ
ĠÎºÎ±Î»ÏīÏĥÏĮ ÏģÎ¹ÏĥÎµ
ĠÎºÎ±ÏģÎ´ÎµÏģÎ¯ Î½ÎµÏĤ
ĠÎļÎŃÏģÎ²Îµ ÏģÎ¿
ĠÏĥÎ¿ÏħÏĥÎ¿ÏħÏģÎ¬ Î´Î±
ĠÎºÏĦÎ·Î½ Î¯Î±
ĠÏĢÏĦÎµ ÏģÏį
ÎŃÎ¾ Î¿Î´Î¿
ĠÎµÎ³ÎºÎ± ÏĦÎŃÎ»ÎµÎ¹
ĠÏĦÎ±Î¼ÏĢ ÎŃÎ»Î±
ĠÎ±ÏĢÏĮÎ³Î¿Î½ Î¿ÏĤ
ĠÎ¼ÎŃÏģÎ¼Î· Î³ÎºÎ±ÏĤ
ĠÏĢÎµÏĦÏģÎ¬ Î´Î¹Î±
ĠÎ¼Î¿ÏħÎ»Î¬ ÏģÎ¹Î±
ĠÎĵÎµÏģÎ¼Î±Î½ Î¯Î±
ĠÏĢÎµÏģÎ¹Î²Î¬ Î»Î»Î¿Î½
ĠÏĨÎ±ÎºÎµ Î»Î¬ÎºÎ¹
Î¿ÏĩÎ¿Î¹ ÏģÎ¬ÎºÎ¹
ĠÎĨÎ»ÎºÎ· ÏĥÏĦÎ·ÏĤ
ĠÎŃÎ²Î· Î¾Îµ
ĠÎ±ÎºÏģÎ¹ Î²Î¬
ĠÏħÏĢÎµÏģÎ· ÏĨÎ¬Î½ÎµÎ¹Î±
ĠÎ±ÏĥÏĨÎ¬ Î»ÎµÎ¹Î±
ĠÎ»Î¿Î³Î±ÏģÎ¹Î± ÏĥÎ¼Î¿ÏįÏĤ
ĠÎ²Î±ÏģÎ¹Îµ ÏĥÏĦÎ·
ĠÎļÎ¿ÏģÏİ Î½Î·
ĠÎºÎµÏģÎ´Î¹ ÏĥÎ¼ÎŃÎ½Î¿Î¹
ĠÏģÎ¿ÏħÎ¸Î¿ÏįÎ½ Î¹Î±
ĠÏĪÎ¯Î¸Ïħ ÏģÎ¿ÏĤ
ĠÏĢÎµÏģÎ¹ÏĨÏģÏĮÎ½Î· ÏĥÎ·
ĠÎ¼ÎµÏĦÎ±Î¾Î¿ÏĥÎºÏİÎ»Î· ÎºÎ±
ĠÎ·Î»Î¹Î¿Î²Î±ÏĥÎ¹Î»ÎŃ Î¼Î±ÏĦÎ±
18 62
rÃ ©
ĠDo rÃ©
ĠGu stave
Î¿ÏĦÏģÎ¿ÏĨ ÎµÎ¯Î¿
ÏĥÎ¿ÏĢ ÎŃÎ»Î±
ÎµÎ¹Î´Ïİ Î½Î±
ĠÎµÂµÎ¬ ÏĤ
ĠÎµÏĨÎµÏį ÏģÎµÏĥÎ·
ĠÎ¿Î»Î¿Ïĥ ÏĦÏģÏĮ
ĠÏĨÏĦÎ±Î¹ ÏĤ
ĠÎ²Î»Î¬Î² Î·
ĠÎ¼Î±ÏĥÏĦÎ¯ Î³Î¹Î¿
ĠÎ¤ÏĥÎ¹Î¬ Î¿
ĠÎºÎ¬Î¼ÏĢÎ¹ ÎµÏĤ
ĠÎĳÏĥÎ· Î¼Î¯Î½Î±
ĠÎ±ÏħÏĦÎ¿ÏĢÎµ ÏĢÎ¿Î¯Î¸Î·ÏĥÎ·
ĠÎ¶ÎŃÏĥÏĦ Î±Î¹Î½Îµ
ĠÎłÎ¿Ïĥ ÎµÎ¹Î´ÏİÎ½Î±
ĠÎłÎ¬Î» Î¼Î±
ĠÏĩÎ±Î¼ÏĥÏĦÎµ ÏģÎ¬ÎºÎ¹
ĠÏĪÏħÎ³ ÎµÎ¯Î¿
ĠÎ´Î¹Î±ÏģÎº ÏİÏĤ
ĠÎ¼ÎµÏĦÎ±Î¾Î¹ Î¿Ïį
ĠÏĨÏħÎ»Î»Î± ÏģÎ¬ÎºÎ¹
ĠÏħÏĢÏĮÎºÎ»Î¹ ÏĥÎ·
ĠÎ±Î½ÎµÎ¼Î¿Ïĥ ÏĦÏģÏĮÎ²Î¹
ĠÎĵÎ¹Î±Î½Î½Î¬ ÎºÎ·ÏĤ
, "
. ,
6 12
a n
a s
Â ·
â Ħ
Ġ P
Î± Î¯
Î± ÏĥÏĦÎµ
Î± ÏħÏĦÎ¬
Î¹ ÏĥÏĦÎ¿ÏįÎ½
Îµ Î¾
Îµ ÏģÎ¬ÎºÎ¹
Îµ Î¾Î·
Îµ ÏĩÏĮ
Î½ Î¿Î½ÏĦÎ¬ÏĤ
Î½ Î¿Ïİ
ÏĦ Î»Î·
ÏĦ Î¿Ïĥ
ÏĦ ÏİÎ½Î±
ÏĦ ÎŃÏģÎµÏĤ
ÏĦ ÎŃÎ½Î¹
ÏĦ ÎŃÎ½Î¹Î¿
ÏĦ ÏģÏħÏĢ
Ïģ ÎµÎ½
Ïģ ÎºÎµ
Ïģ ÏĦÎ±Î¹
Ïģ ÏĦÏħ
Ïģ Î±Î¹Î½Îµ
Ïģ ÎµÎ¯ÏĦÎµ
ĠÏĦ ÎµÎ½ÏĦ
Î¬ ÏĩÎ½
Î¬ Î»Î»Î±
Î¬ ÎºÏģÎ¹
Î» ÏĮÎ½Î¹Î±
Î» ÏİÎ½Î¿ÏħÎ½
Ïĥ Ïİ
Ïĥ ÏĩÎµ
Ïĥ ÏĢÎ¬
Ïĥ ÏİÎ½ÏĦÎ±ÏĤ
Ïĥ ÎŃÎ»Î·
Ïĥ Î¸Î·Î¼Î±
Î· ÏĦÎ·
Î· ÏĦÏĮ
Î· Î¸Î¿ÏįÎ½
Î¯ Î»Î¹
Î¯ ÏĢÎ»Î±
Î¯ ÏĥÎ¹Î±
Î¯ ÏĥÎ¿Ïħ
ĠÎº ÏģÏĮ
ĠÎº Î»Îµ
Î¿Ïħ ÏĥÎ±
ÏĢ Ïİ
ÏĢ ÏĦÎ¿
ÏĢ Î»Î®
ÏĢ Î¿ÏįÏĥÎ±Î½
ÏĢ Î¿Î½ÏĦÎ±ÏĤ
ÏĢ ÏģÎ¿Ïĩ
ÏĢ Î»ÏīÏĥÎµ
ÏĢ ÏĦÏĮÏĦÎ±Î½
ÏĢ ÎŃÎ½ÏĦÎµ
ÏĢ ÏĦÎµÏģÎ¿
ÏĢ ÏģÏİÏĦÎ·
Îº ÏĦÎ·
Îº ÎµÎ¹ÏĤ
Îº ÎºÎ¿
Îº Î¬Î½ÎµÎ¹
ĠÏĢ Î¯Î½Ïī
ĠÏĢ Î½Î¿Î®
Î¼ Î·Î½
Î¼ Î¹ÎºÏĮ
Î¼ Î¼ÎŃÎ½Î¿Î¹
Î¼ Î¼ÎŃÎ½ÎµÏĤ
Î¼ ÏİÎ½ÎµÏĤ
ÎŃ Î»Îµ
ÎŃ Î²Î±
ÎŃ ÏĥÎµÎ¹ÏĤ
ÎŃ Î¾Ïī
ÎŃ Î³ÎºÎ¿
ÎŃ ÎºÎ±Î½Î±Î½
ÎŃ Î³Î¹Î½Î±Î½
ÎŃ ÏĪÎµÏĦÎµ
Î±Î¹ ÏģÏĮÏĦÎ±Î½
ĠÎ¼ ÏħÏĦ
ĠÎ¼ ÏįÏĦÎµÏĤ
ĠÏĥ Î±Î¹
ĠÏĥ ÎºÎ±Î»Î¹Î¬
ĠÏĥ ÏİÎ¸Î·ÎºÎµ
ĠÏĥ Î¿Î»Î¿
ĠÎ± Î´Î¹
ĠÎ± ÏģÏİÎ¼Î±ÏĦÎ±
Î³ ÏĮÎ½
Î³ Î¹ÏĥÎµ
Î³ Î¼ÏĮ
Î³ Î¿ÏįÎ¼Îµ
Î³ Î¯Î¶ÎµÎ¹
Î³ ÎµÎ¯ÏĦÎµ
Î³ ÏģÎ®Î³Î¿ÏģÎ±
Î³ ÏģÏħÏĢ
Ïī Î»Î¹Î¬
Ïī ÏĦÏĮ
Ïī ÂµÎ±
Ïī Î¼ÎŃÎ½Î¿Î¹
Ïī Î¸Ïİ
Ïħ Î½Î¿
Ïħ ÏĥÎºÎ¿Î»
ÎµÎ¹ ÎµÏĤ
ÎµÎ¹ ÏģÎŃÎ½Î¹Î±
ĠÎºÎ±Î¹ Î²
ĠÎºÎ±Î¹ ÏĦÎ¿Î½
ĠÎºÎ±Î¹ ÂµÎµ
ĠÎºÎ±Î¹ ÏĥÏĦÎ¿
ĠÎºÎ±Î¹ ÎºÎ¿Î¯ÏĦÎ±Î¾Îµ
ĠÎµ ÏĥÏī
ĠÎµ ÏĢÎ¬
ĠÎµ ÏģÎµÎ¹
ĠÎµ Î¹Ïĥ
ĠÎµ ÏĦÎ¿Ïį
ĠÎµ ÏģÎ³
ĠÎµ Î»Î¹ÎŃÏĤ
ĠÎµ ÏĦÏİÎ½
ĠÎµ Î»Î¹Î¬ÏĤ
ĠÎµ Î»ÎµÏħÎ¸ÎŃÏģÏī
Ïĩ ÏīÎ½
Ïĩ ÏģÏħ
Ïĩ Î¸Î·ÎºÎµ
Ïĩ ÏĮÏĦÎ±Î½
Ïĩ Î¿Î½ÏĦÎ±ÏĤ
Ïĩ ÏĦÎ¹ÎºÎ¬
Ïĩ Î¬Ïģ
Ïĩ ÏģÏĮÎ½Î¿
ĠÎ½ ÏĦÎµ
ĠÎ½ Î¿Ïĥ
ĠÏĦÎ¿ Î¹
ĠÎŃ ÏīÏĤ
ĠÎŃ ÏĪ
ĠÎŃ Î»Î¿Ïħ
ĠÎŃ Î¸Î¹
ĠÎŃ ÏģÎ³Î±
ĠÎŃ ÏĥÏħ
ĠÎŃ Î¼ÏĢÎ¿
ĠÎŃ ÏĥÏĦÎ±Î¶Îµ
Î´ ÏģÎµ
Î´ Î¬Ïĥ
Î´ Î¬ÏĥÎ¿ÏħÎ¼Îµ
ĠÎ½Î± ÏĥÏħ
ĠÏĦÎ¿Ïħ ÏĢÎ±
Î¸ Î¬ÎºÎ¹
Î¸ Î¿Î½ÏĦÎ±Î½
Î¸ ÏįÏģÎ¹ÏĥÎµ
Î¸ Î¬Ïģ
Î¿Ïį ÏĢÎ¹Î±
Î¿Ïį ÎºÎ»ÎµÏĤ
ĠÎ´ Î¿Î½ÏĦÎ¬
ÏģÎ± Î»
ÏģÎ± Î¯Î½ÎµÎ¹
ÏģÎ± ÏĥÎ¯Î±
ÏģÎ± Î¯Î¿ÏĤ
ÏģÎ± Î¼Î¬Î´Î±
ĠÎ³ ÎºÎ±
ĠÎ³ Î»ÏħÏĦ
ÏĦÎ± ÏģÏĦÎ·
Ïİ Î´Î·ÏĤ
Ïį Î¼
ÏĥÎµ ÏĨ
ÏĥÎµ ÏħÏĦÏħÏĩ
ÏĨ ÏģÎ¬
ÏĨ ÏĦÎµÎ¯
ÏĨ ÎŃÏģÎµ
Î½Î± Îº
Î½Î± Î¼Îµ
ĠÏĥÏĦ ÎµÎ½Î¬
ĠÏĥÏĦ ÏģÎµÎ¯
ĠÏĥÏĦ ÎŃÏģÎ½Î±
ÏģÎ¹ ÏĥÏĥÎ±
ÏģÎ¹ Î¿ÏįÎ»Î±
ÏģÎ¹ ÏĥÎ¼ÎŃÎ½Î·
ĠÎ¿ ÏĢ
ĠÎ¿ ÏģÎ¹ÏĥÎ¼ÎŃÎ½Î±
ĠÎ¿ Î½ÎµÎ¯
ĠÎ¿ ÏĩÏĦÏİ
ĠÎ¿ Î¾ÏħÎ»Î¿ÎºÏĮÏĢÎ¿ÏĤ
ĠÎ¿ Î»Î¬ÎºÎµ
ÏĦÎµ Î»ÎµÎ¹
ÏĦÎµ Î¯Î±ÏĤ
ĠÏĮ Î±ÏĥÎ·
ĠÏĮ ÏĢÎ»Î¿
ĠÎ±ÏĢ Î»ÏİÏĥÎµÎ¹
ĠÎ±ÏĢ Î¿ÏħÏĥÎ¯Î±
ĠÎ±ÏĢ ÎŃÏĨÎµ
ĠÏĨ ÏģÎµ
ĠÏĨ Î»ÎŃ
ĠÏĨ ÎµÏģ
ÏĦÎ¹ Î´Î±
ÏĦÎ¹ ÏĥÎ¼ÏĮ
ÏĦÎ¹ Î¼Ïİ
ÏĦÎ¹ Î¸ÎŃ
ÏĦÎ¹ ÎŃÎ³ÎºÎ¿
ĠÏĦÎ± ÏĨ
ĠÏĦÎ± ÎºÎ±
ĠÏĦÎ± ÏģÎ±Î³
ĠÏĦÎ± ÏįÏģÎ¿
ĠÎ¼Îµ Ïģ
ĠÎ¼Îµ Î¯
ĠÎ¼Îµ Î¶
ĠÎ¼Îµ ÏĦÎ·Î½
ĠÎ¼Îµ ÏĦÏģÎ¬
ĠÎ¼Îµ Î¼Î¹Î¬ÏĤ
Î¶ ÏĮ
Î¶ ÏĮÎ½
Î¶ Î·ÏĥÎ±Î½
Î¶ ÏĮÎ¼Î±ÏĥÏĦÎµ
Î¶ ÏĮÎ¼Î¿ÏħÎ½
ÏģÎ¬ ÏĦÎ·ÏĥÎµ
ÏģÎ¬ Î¾Ïī
ÏģÎ¬ ÏĥÏĦÎ·ÎºÎ±Î½
ĠÎ² Î¿ÏįÏģ
ĠÎ² ÏħÎ¸Î¹
ĠÎºÎ± ÏĦÎ±Î½
ĠÎºÎ± ÏħÏĩ
ĠÎºÎ± Î²Î³Î¬
ĠÎºÎ± ÏģÎ±Î½ÏĦÎ¯Î½Î±
ĠÎºÎ± ÏĦÏĮÏģÎ¸
Î¿Î½ ÏĮ
ÎµÎ½ ÏĦÏĮÎ½Î±
Î»Î± ÏĨ
Î»Î± Âµ
ĠÏĩ Î¸ÎµÏĤ
ĠÏĢÎ¿Ïħ Î»Î®ÏĥÎµÎ¹
ÏĦÎ¬ ÏĦÎµ
ÎµÎ¯ Î¼Î±Î¹
ÏĦÎ· Î¸ÎµÎ¯
ÏĦÎ· ÎºÎµÏĤ
Î»Î¹ Ïİ
ĠÎ¸ ÏģÎ·Î½
ĠÎ¸ ÏģÎµÏĢÏĦÎ¹ÎºÎŃÏĤ
Âµ Î±ÏĤ
Âµ Î·ÏĥÎµ
Âµ Î¿ÏįÏĤ
Âµ ÏĮÎ½Î¿
Âµ ÂµÎŃÎ½Î¿
Âµ Î¹ÎºÏģÏĮ
ĠÎ¬ Î½Î·
Î»Î¬ Î²Î±
Î»Î¬ Î¸Î·ÎºÎµ
ĠÎ» ÎµÎ¯Î±
ĠÎ» Î·Ïĥ
ĠÏĦÎ·Î½ ÏĢÏĮ
ĠÎ±ÏĢÏĮ Î»Î±
ĠÎ±ÏĢÏĮ ÏĦÎ·
ĠÎ· Î¸
ĠÎ· ÎºÎ±
ĠÎ· Î»Î¹Î±
ĠÎ· ÏĥÏįÏĩÎ±
ĠÏĦÎ·ÏĤ Î±
ĠÏĦÎ·ÏĤ ÎºÎ±ÏģÎ´Î¹Î¬
ÏģÏĮ Ïĥ
ÏģÏĮ Î»Î¿
ÏģÏĮ ÎºÎµÎ¹
Î¿Ïģ Î³Î®
ĠÎ³Î¹Î± ÏĢÎ¯
ÎŃÎ½ ÏĦÎ±
Î¬Î½ Î¿Ïħ
Î¬Î½ ÏĦÎ¿
Î¬Î½ Î¹ÏĥÎµ
ÏĥÎ± ÂµÎµ
Î¿Î» ÎŃ
ÎºÎµ Ïģ
ĠÏĢÎ± ÏģÎ¿Î¹
ĠÏĢÎ± Î»Î¹ÎŃÏĤ
ĠÏĢÎ± ÎºÎŃÏĦÎ¿
ĠÏĢÎ± ÏĦÎ·ÂµÎ±
ÏħÏĦ Î¿ÏįÎ¼Îµ
ÏģÎ¯ ÏĥÎµÎ¹ÏĤ
ÏģÎ¯ ÏĥÏĦÎ·ÎºÎµ
ÏģÎ¯ ÎºÎ¿ÏĤ
ÏģÎ¯ ÏĦÏĥÎ±
ĠÎ¼Î± ÏĥÎ¿Ïħ
ÏĢÎµ Ïģ
ĠÎ´ÎµÎ½ ÎµÎ¯Î½Î±Î¹
ÏĥÏĦ Î¿Ïħ
ÏĥÏĦ Î¿Î¯
Î¹Î¬ ÏĥÎµÎ¹
ĠÎ¾ Î¹
ĠÎ¾ Ïħ
ĠÎ¾ ÎŃÏĢ
ĠÎ¾ ÎµÎ½Î¬
ĠÎ¾ ÏħÎ»Î±
ĠÎ¤ Îĳ
ĠÎ¤ Î¡
ĠÎ¤ ÎŃÏĦÎ¿Î¹Î±
Î»Îµ Î»ÎµÎ¹
Î»Î¿ ÂµÎ±
Î»Î¿ Î¼Î¿Î½
âĢ ĵ
Î¼Îµ ÏģÎ¿
ÏģÎ¿ ÎºÎ±Î¼Ïī
ĠÎºÎ¬ Î¼Ïī
ĠÎºÎ¬ ÏĦÏĥÎµ
ĠÎºÎ¬ Î»ÎµÏĥÎ±Î½
ÏĮÎ½ ÏĦÎ±
ÏĮÎ½ Î¿Î¹
ĠÎ¼ÎŃ Î»Î¿ÏĤ
ĠÎ¼ÎŃ Î´Î¿ÏħÏĥÎ±
ĠÎ¼ÏĢ ÎµÎ¹ÏĤ
ĠÎ¼ÏĢ Î»Î¿Ïį
ĠÎ¼ÏĢ ÎµÎ¯ÏĦÎµ
ÏģÏī ÏĦÎ·
ÏģÏī Î¸Î¿ÏįÎ½
ÎºÎ± ÏĦÏĥÎµ
ÎºÎ± Î´ÏĮ
ĠÎĳ Îĵ
ĠÎĳ ÏĮÏģÎ±
ĠÎĳ Î³Î¹Î¿
ĠÎĳ Î³ÏĮÏģÎ¹
ĠÎĳ ÎºÎ¿Î»Î¿ÏįÎ¸Î·ÏĥÎµ
ĠÎĳ ÏģÎ±Î²
ĠÏĢÎ¿Î» Î»ÏİÎ½
ĠÏĢÎµ Î»Î±
ĠÎļ Î¯
ĠÎļ Î¿Î½
ĠÎļ Î¿Ïĥ
ĠÎļ Î»Ïī
ĠÎļ Î¹ÎºÏĮ
ĠÎļ ÏģÎ±ÏĦÎ¿ÏįÏĥÎµ
ĠÎľ Î¿Î¹
ĠÎľ Î¹ÎºÏģÎ®
ĠÎľ Î¿Î½Î¬ÏĩÎ±
ÎºÏĮ ÏĥÎ¹
ÎºÏĮ ÂµÎ±
ÎºÏĮ Î¼Î¿ÏĤ
ĠÏĦÎ¹ Î¼Ïİ
ĠÏĦÎ¹ Î¼ÏĮÎ½Î¹
ĠÎ±Î½ Î¬Ïĥ
ĠÎ±Î½ ÏĦÏģÏĮ
ĠÎ±Î½ Î¿Î·
Î½Î±Î¹ Ïĥ
ÏĢÎ± ÏĢÏĢÎ¿Ïį
ĠÂµ ÏĢÎµÎ¹
ĠÂµ ÏĢÎ®ÎºÎµ
ÏĪ ÏĮ
ÏĪ Î·ÏĤ
ĠÎ¶ Ïį
ĠÎ¶ ÎŃÎ²
ĠÎ¶ ÏħÎ³
ÏĢÎ¿ Î¼Î±Î¹
ÏĢÎ¿ Î´ÎµÏĤ
Î¼Î¬ Î»Î¹ÏĥÏĦÎ±
ĠÎķ Î¼ÎŃÎ½Î±
ĠÎķ ÏĥÎŃÎ½Î±
ÎºÎ¬ ÏĢÎ¿Î¹Î±
ĠÎ¼Î¹Î± Î¼ÎµÎ³Î¬Î»Î·
ĠÎºÎ¹ Î¼Ïī
ÏĦÎ¿ Î¾Îµ
ÏĦÎ¿ ÂµÎ±
Î³Î± Î»Î±
ÏĢÎ¹ ÏĦÎŃÎ»Î¿ÏħÏĤ
Î¤ ÏĮÏĥÎ¿
ĠÎł ÎŃ
ĠÎł Î¿ÏģÏĦÎ¿
ĠÎł ÏģÏİÏĦÎ±
ĠÎł Î¿Î¹Î±
ĠÎł Î±Î¹Î´Î¹Î¬
ĠÎł Î¿ÏħÎ¸ÎµÎ½Î¬
Î¸Îµ ÏģÎ¯Î½Î±
ĠÎ²Î± Ïĥ
ĠÎ²Î± Î»Îµ
ĠÎ²Î± Î»Î±Î½
ÏģÎŃ Î±ÏĤ
ÎŃÏģÎ± ÂµÎµ
ÎŃÏģÎ± ÏĥÎ¼Î±
ÏģÎ· ÏĥÏĦÎ±
ÏģÎ· Î¼ÎŃÎ½Î¿ÏĤ
ÏģÎ· Î¾Î·
ÏĦÎ¯ Î¶Î¿ÏħÎ½
ĠÏĢÎ¬ ÏĪÎµÎ¹
ÏģÎ® ÏĥÎ¿ÏħÎ½
ÏģÎ® ÏĥÎµÏĦÎµ
ÏĥÏĦÎµ ÎºÎµ
ÏĥÏĦÎµ Î½Î±ÏĩÏī
Î½Î· ÏĥÎ±
ÎŁ Ïħ
ÎŁ ÎŁ
ÎŁ Î¡
Îľ Î¹
Îľ Îķ
Î´Î¹ ÏĥÎµ
ÏģÏİ ÏĦÎ±ÏĤ
ÏģÏİ ÏĥÎ¿ÏħÎ½
ĠÎ£ Î·
ĠÎ£ ÎŃÏģ
ĠÎ£ ÏĦÎ¿ÏħÏĤ
ĠÎ£ ÏĦÎ¹Îº
ĠÎ£ Î¤ÎŁ
ĠÎ¿Î¹ Î¬Î½Î¸ÏģÏīÏĢÎ¿Î¹
Îļ Ïħ
Îļ Î¬Î½Îµ
ĠÏģ Î¿Îº
ĠÎŁ ÏĢÏĮÏĦÎµ
ĠÎŁ Î§ÎĻ
Î¶Îµ ÏĥÏĦÎµ
Î¼ÏĢ ÏĮÏģÎ±
ĠÎŃÏĩ Î±Î½Îµ
ĠÎŃÏĩ Î¸ÏģÎ±
ĠÏĥÏĦÎ± ÏĨÏħ
ĠÎ±Î» Î»ÏĮ
ĠÎ±Î» ÎŃÏĥÎµÎ¹
ĠÎ±Î» Î»Î±Î³
ÏĦÎ±Î¹ Î¿ÏĤ
ÏİÎ½ Î±Î½Îµ
ÏĦÎ® ÏĥÏĦÎµ
ÏĦÎ® ÏĥÎ¿ÏħÎ¼Îµ
ĠÏĩÎ± Î¼ÎŃÎ½Î¿ÏĤ
ĠÏĩÎ± ÂµÏĮ
ĠÏĩÎ± ÏĪÎ¹Î¬
ĠÏĩÎ± Î¶ÎµÏį
ĠÏĩÎ± ÏģÎ±Î¼Î¬Î´Î±
ĠÏĢÎ® Î³Î±Î¼Îµ
ÏĢÎ¯ Î½Î±
ÏĢÎ¯ ÏĥÏĦÎµ
Îĳ Î¼Î¬Î½
Îĳ Î½Î¿Î¯
Îĳ Î»Î¯Î¼Î¿Î½Î¿
Îĳ ÎºÎ¿Î»Î¿ÏħÎ¸Î®
ĠÎĪ Î´ÎµÎ¹
ĠÎĪ ÏĨÏĦÎ¹Î±Î¾Î±Î½
ĠÎĪ ÏĦÏģÏīÎ³Îµ
ĠÎĪ ÏĨÏĦÎ±ÏĥÎµ
Î´Îµ Ïģ
Î²Î± ÏĥÎ¹Î»Î¹Î¬
Î²Î± Î»Î»Îµ
Î¼Î¿ ÏĦÎ¹ÎºÎ¿Ïį
ĠÎµÎºÎµÎ¯ Î½Î¿ÏħÏĤ
âĢĻ !
ĠÎºÎ¬Î½ Îµ
ĠÎºÎ¬Î½ Î¿ÏħÂµÎµ
Î½Î±Î½ Îµ
ĠÎ¼ÏĢÎ¿Ïģ ÎŃÏĥÎ¿ÏħÎ¼Îµ
Î»Î® Î¸Î·ÎºÎµ
ÎºÎ¿Ïħ Î²
... ".
ĠÎĶ Î¿Ïį
ĠÎĹ Î»ÎŃÎº
Îķ Î¡
Îķ ÏĥÎŃÎ½Î±
Îķ ÏĢÎ¹ÏĦÎŃÎ»Î¿ÏħÏĤ
ĠÎ²Î±ÏĥÎ¹ Î»Î¹
ĠÎ²Î±ÏĥÎ¹ Î»Î¿ÏĢ
ĠÎ²Î±ÏĥÎ¹ Î»ÎµÏį
ĠÎ²Î±ÏĥÎ¹ Î»ÎŃÎ±
ĠÎ²Î±ÏĥÎ¹ Î»ÎµÎ¯ÏĤ
ÏĢÎ¿Ïħ ÏģÎ³ÏĮ
Î»ÏĮ ÏĨÏīÎ½Î±
ĠÎ»Î¯ ÏĢÎ±ÏĥÎ¼Î±
Îł Î¹
Îł ÏģÏİ
Îł ÏĮÏĦÎµ
Îł Î¬Î½Ïī
Îł ÏģÎ¬Î³Î¼Î±ÏĦÎ¹
ĠÎ¼ÎµÎ³Î¬ Î»Î·ÏĤ
ÏĢÎ¬ ÎºÎ¿Ïħ
ÏĢÎ¬ ÎºÎ¿ÏĤ
ĠÎĮ ÏĦÎ¹
ĠÎĮ ÏĥÎ±
ĠÎĮ ÏĢÎ¿ÏĦÎµ
ĠÎ¬Î½ Î¸Î·
ĠÎ¬Î½ Î´ÏģÎ±ÏĤ
ÏĦÎŃ ÏĥÏĥÎµ
ĠÎ¾Îµ ÏĨÏħ
ÎºÎ¿ ÏĦÎµÏĤ
ÎºÎ¿ ÎºÎºÎ¹
ĠÎºÎ¿Ïħ ÏĦÎ®
ĠÎºÎ¿Ïħ ÎºÎ¿ÏįÎ»Î¹
ĠÎºÎ¿Ïħ Î¶Î¯Î½Î±ÏĤ
ĠÎĵ ÎŃÏģÎ¹
ĠÎĵ ÎĻÎĳ
ĠÎ¤Î¿ Î±Î³Î¿ÏģÎ¬ÎºÎ¹
ĠÎºÏĮ Î¼ÏĢ
ĠÎºÏĮ ÏĪÎ¿ÏħÎ½
ĠÎºÏĮ ÏĢÎ·ÎºÎµ
ÏĢÎµÎ¹ ÏģÎ¬Î¾Ïī
ĠÏĢÏĮ ÏĦÎ¹ÏĥÎµ
Î¼Î· Î¼Î±
ĠÎ±Î³ ÏīÎ½
ĠÎĺ Î¬Î½Î¿ÏĤ
ĠÎĺ ÏħÎ¼Î®Î¸Î·ÎºÎµ
ÏĦÏĮ ÏĢÎ¿ÏħÎ»Î¿
ĠÎ´Îµ ÏģÎ¼Î¬ÏĦÎ¹
ĠÏİ ÂµÎ¿ÏħÏĤ
Î¿Ïĥ ÎºÎµ
Î¿Ïĥ Î²Î®
ĠÎ±Ïģ Î¼Î¿Î½
ĠÎ±Ïģ Î³Î®ÏĥÎµÎ¹
ĠÎ±Ïģ Î½Î·Î¸ÎµÎ¯
ĠÏĢÎµÏģÎ¹ ÏĥÏĦÎ±ÏĦÎ¹ÎºÏĮ
ĠÏĩÏī ÏģÎ¿ÏįÏĥÎµ
ĠÏĢÎ±ÏģÎ± Î¸
ĠÏĢÎ±ÏģÎ± Î²
ĠÏĢÎ±ÏģÎ± Î¸Ïħ
ĠÏĢÎ±ÏģÎ± ÏĥÏħ
ÏģÎ¿Ïį Î¼Îµ
Î¿ÏĨ ÎŃÎ³Î³Î±
ĠÎ¼Î¹ÎºÏģÏĮ ÏĦÎµÏģÎ¿ÏĤ
ĠÏĥÏħÎ½ Î®Î¸ÎµÎ¹Î±
ĠÎºÎ¿ ÏĦÏĮÏĢÎ¿ÏħÎ»Î±
Î»Î¯ ÎµÏĤ
Î»Î¯ ÏĥÎ¿ÏħÎ½
Î»Î¯ Î¶Î¿Î½ÏĦÎ±ÏĤ
Î¼ÎµÎ½ Î®
Î¼Î® Î»Î±
Î¼Î® ÏĥÎ¿Ïħ
ÎŃÏĩ Î¿ÏħÎ½
ĠÎ³Îµ Î»Ïī
ĠÎ³Îµ ÏģÎ¿Ïħ
ĠÎºÏħ ÏĪ
ĠÎºÏħ Î²Îµ
ĠÎµÎ½ Î´Î¹Î±
ĠÏĥÎ±Î½ ÏĮ
ĠÏĥÎ±Î½ Î´Î¬
ÏģÎ¹Î¬ ÏĥÏĦÎ·ÎºÎµ
ĠÎºÎ±ÏĦÎ± Î²
ĠÎºÎ±ÏĦÎ± ÏĢÎ¬Î½Ïī
Î¬Ïĥ Î¿Ïħ
ĠÎ±Î½Î± ÏĥÏĦÎ¬
ĠÎ±Î½Î± ÏĦÏģÎ¯
ÏĩÎ½ Î¿ÏħÎ½
ÏĦÏĥ ÏĮ
ÏĦÏĥ Î¯Î±
ĠÎĴ Î³Î¬
ĠÎĴ ÏģÎ¹ÏĥÎºÏĮÏĦÎ±Î½
ĠÏĢÎ¿ Î´Î®Î»Î±
ĠÎĿ Î¹ÎºÏĮ
ĠÎĿ Î¹Ïİ
ĠÎĿ ÏĦÎ¬Î¼ÏĢÏĦÎ¹
ĠÎĿ ÏĦÎ¹ÎŃÎ³ÎºÎ¿
ÏĩÎ± Î»Î¬ÎºÎ·ÏĤ
ĠÎ´Î¹Î± Î²
ĠÎ´Î¹Î± Î»Î±
ĠÎºÎ±ÏĦÎ¬ Î¼Î±ÏħÏģÎ¿
ĠÎºÎ±ÏĦÎ¬ Î»Î±Î²ÎµÏĤ
ĠÎºÎ¿Î¹ Î¼Î®Î¸Î·ÎºÎ±Î½
ĠÏĢÏģÎ¿Ïĥ ÎºÎµ
ĠÏĢÏģÎ¿Ïĥ ÏĨÏħ
Î´Î¯ ÏĥÎµÎ¹
ÏĢÎŃ ÏģÎ¿Ïĩ
ÎĪ Î²Î»ÎµÏĢÎµ
ĠÎ±ÏĢÎ¿ Î¸Î®ÎºÎµÏĤ
Î¸ÎµÎ¯ Î±
ĠÂµÎµ ÏģÎ¹ÎºÎ¬
Î³Î® ÏĥÏī
Î¶Î±Î½ Î¯
ĠÎ³Ïħ ÏģÎµÏį
ÏĥÏĦÎ± Î¼Î±
ÂµÎ± ÏĦÎ¬ÎºÎ¹Î±
ĠÎ§ Î¿Ïħ
ĠÎ§ ÏģÎµÎ¹Î¬
ĠÎ§ Î¹Î»Î¹Î¬Î´ÎµÏĤ
Î²Î¬ ÏģÎµ
ÏģÎµÎ¹ Î¿
ĠÏĨÎ¯ Î¼Ïī
ĠÏĨÎ¯ Î»ÏīÎ½
ĠÏĨÎ± Î¯
ĠÏĨÎ± Î»Î±Î¹
ĠÏĨÎ± ÎºÎ¿ÏįÏĤ
ĠÏĨÎ± ÏĥÏĮ
ĠÎ»ÎŃ ÂµÎµ
ĠÎ»ÎŃ Î³ÎµÏĦÎ±Î¹
ĠÎ»ÎŃ Î³Î±Î¼Îµ
ĠÎµÏĢÎ¹ ÏĦÎµ
ĠÎµÏĢÎ¹ Î²Î¹
ĠÎµÏĢÎ¹ Î¼Î¿Î½Î®
ĠÎī ÏģÎ±ÏĤ
ĠÎī Î»Î¹Î¿
ĠÎ¯ ÏĥÎ¹Î¿
ĠÎĨ Î¼Î±
ĠÎĨ ÏĥÏĢ
ĠÎĨ Î½ÏĦÎ±
ÏģÎ½ Î¿ÏįÎ½
ĠÎ³Î¹ Î¿Ïħ
ĠÎ³Î¹ Î¿Ïį
ĠÎŃÏĢ Î½Î¹
ĠÎŃÎ² Î¿ÏĥÎºÎµ
Î´Ïħ ÏĥÏĦÏħÏĩ
ĠÏĦÎ¯ Î¼Î¹Î¿ÏĤ
ÏĦÎ¹Î¬ ÏĦÎ¹ÎºÎ±
ĠÎ¤Î± Î¾Î¯
ÏĦÏģÎµ ÏĢÎµ
ÏĦÏģÎµ ÏĪÎµ
ĠÎ²Î¬ Î¶Î¿ÏħÎ¼Îµ
ĠÏĢÎ¯ ÏĥÏĦÎ·
ĠÏĢÎ¯ ÎºÏģÎ±
ÏĢÎ® Î³Î±Î½
Î³Î¹Î± Î³Î¹Î¬
ĠÎ´Ïį ÏĥÏĦÏħÏĩ
ĠÏĢÎ±ÏģÎ¬ ÏĦÎ·ÏĥÎµ
ĠÎ±Î¼ ÏĨÎ¹
ĠÏĨÏīÎ½ Î®ÏĤ
Î²Îµ Ïħ
ĠÏĢÏģÏĮ ÏĦÎ±
ĠÏĢÏģÏĮ Î»Î±Î²Î±
ĠÏĢÏģÏĮ Î²Î±Î»Îµ
ĠÏĨÏį ÏĥÎ·ÏĤ
ĠÏĨÏį Î³Î±Î½Îµ
ÏĦÏħ ÏģÎ¿
Î¼Î¹ ÏĥÎ±Î½
Î¼Î¹ Î¶Î±
Î¼Î¹ Î»Î¯Î±
ĠÎµÎ¾ Î¹
ĠÎµÎ¾ Î±Î½
ĠÎµÎ¾ Î±ÏĨ
ĠÎµÎ¾ Î¿ÏħÏĥÎ¯Î±
ĠÎµÎ¾ Î±Î¹ÏĦÎ¯Î±ÏĤ
ÏĨÎ¬ Î»ÏīÏĥÎ±Î½
ÏĦÎ¿Ïħ ÏģÎ¯Î¶Î¿Î½ÏĦÎ±ÏĤ
ĠÏĥÎ· Î¼ÎµÎ¹
ĠÏĥÎ· ÂµÎ±Î½
ĠÎ±Î³Î± Î¸Î¬
Î±ÏĨ ÎµÎ¹ÏģÎŃÎ½Î¹Î±
ĠÎĽ Î¯Î½Î¿ÏĤ
ĠÎ±ÎºÎ¿Ïį ÏĦÎµ
ĠÎ±ÎºÎ¿Ïį Î¼Îµ
ĠÎŃÎ»Îµ Î³
Î¾Ïī ÏĦÎ¹ÎºÎ¬
ĠÎ¬Î½Î¸ÏģÏī ÏĢÎµ
ĠÎ¬Î½Î¸ÏģÏī ÏĢÎŃ
ÎĶ Ïİ
ÎĶ Î©
Î¼Î¯ Î»Î·
ĠÎļÎ± ÏģÎ±Î½ÏĦÎ¯Î½Î±
ĠÎļÎ± ÏĢÎ½Î¹
ĠÏĢÎ¿Î½ Î¿ÏįÎ½
Î½Î¬ ÎºÎ¿
Î´Î· Î¼Î±
ĠÎ´Î¯ Î´ÏħÎ¼Î±
ĠÎ¡ Î®
ĠÎ¡ ÎŃÎ³Î³Î±
ĠÏĢÎ±Î½ Î¹ÎºÎ¿
ĠÏĢÎ±Î½ Î´Î¿Ïĩ
ĠÏĢÎ±Î½ Î¿ÏįÏģÎ³Î±
ĠÏĢÎ±Î½ Î¬ÎºÏģÎ¹
ĠÏĢÎ¹Î± ÏĦÎŃÎ»ÎµÏĤ
ĠÏĨÏī ÏĦÎ¬ÎºÎ¹Î±
ĠÏĨÏī Î»Î¯ÏĦÏĥÎ±
ĠÏĩÎ¬ ÏĥÎµÎ¹ÏĤ
ĠÎ¼ÏĢÎ± Î¯Î½Î¿Î½ÏĦÎ±ÏĤ
ĠÎ»Î± Î³Î¿Ïį
ÏģÏħÏĥ Î¬
Î¹Ïĥ Î®
ĠÎ±Îº ÏĦÎ¹Î½Î¿
ĠÎ±Îº ÏģÎ¿ÏĢÎ¿
ĠÎŃÎº ÏģÎ·Î¾Î·
ĠÎºÏĮÏĥ ÂµÎ¿ÏĤ
ĠÎºÏĮÏĥ ÂµÎ¿Ïħ
ĠÏĥÏĩ Î¿
ĠÎľÎµ ÏĥÎ¿ÏĢÎŃÎ»Î±
Îĵ Ïħ
Îĵ ÏįÏģÏī
Îĵ ÏįÏģÎ¹ÏĥÎ±Î½
ÎŃÏĪ Î·
ĠÎ´Ïī ÂµÎ¬ÏĦÎ¹
ĠÎ»Ïį ÏģÎ±
Î¿Îº Î¯Î½Î·
ĠÎ²Î»ÎŃ Î¼Î¼Î±ÏĦÎ±
ĠÎ¼Î±Îº ÏģÎ¿Ïħ
ĠÏĢÎ¹ Ïģ
ĠÏĢÎ¹ Ïİ
ĠÏĢÎ¹ Î½ÎŃ
ÂµÎŃÎ½ ÎµÏĤ
ĠÎīÏĦÎ±Î½ Îµ
ĠÏĨÎ¿Ïģ ÏĦÎ·
ĠÎ»Îµ Î³ÏĮÏĦÎ±Î½
Î½Î¹ Î³Î¼Î±
ÏĨÎ± Î³Î±Î½
ĠÎ¦ Î¿ÏģÎ¿ÏįÏĥÎµ
ĠÏĥÎ± ÏĢÎ¿ÏħÎ½
ÎľÎ± Î¶Î¯
Î³Î¿Ïħ ÏģÎ¬
ĠÎ¾Î±Î½Î± ÏĢÎµÎ¹ÏģÎ¬Î¾Ïī
ĠÎºÎ±Î»ÏįÏĦÎµ ÏģÎ¿Î¹
Î¸Î± Ïģ
Î¸Î± ÏįÎ¼Î±
ĠÎ´Î¹ Îµ
ĠÎ´Î¹ ÏĮÎ»Î¿Ïħ
ĠÎ´Î¹ Î´Î¬
ĠÎ´Î¹ ÏĮÏĦÎ¹
ĠÎºÎ¬ÏĢÎ¿Î¹ Î¿ÏħÏĤ
ÏģÎ¿Ïĩ ÏİÏģÎ±
ÏĨÎ±Î½ Î¿
ÏĨÎ±Î½ ÏĦÎ±
ÎļÎ± Î¸
ĠÎ´ÎµÎ¹ Î»Î¹
ĠÎ³ÏģÎ® Î³Î¿ÏģÎ±Î³ÏģÎ®Î³Î¿ÏģÎ±
Î½Î±Î¯ ÏĥÎ¸Î·ÏĦÎ±
Î»Î¬Î² ÎµÎ¹
Î»Î¬Î² Î±Î¹Î½Îµ
ĠÎ¶Î® ÏĥÏī
ĠÎ¶Î® ÏĥÎµÏĦÎµ
ĠÎ¶Î® ÏĦÎ·Î¼Î±
ĠÎŃÎ²Î± ÏĪÎµ
ĠÎ¸Ïħ ÏģÎµ
ĠÎ¸Ïħ Î¼Î·
ĠÏĦÏģ ÎµÎ½
ĠÎ³Î± Î²
ĠÎ³Î± Î»Î±Î½
ĠÎ³Î± ÏĦÎ¬ÎºÎ¹
ĠÎ±Î½Î¸ Î¯ÏĥÎµÎ¹
ĠÎ±Î½Î¸ Î¹ÏĥÎ¼ÎŃÎ½Î±
ĠÏĩÏģÏħÏĥ Î¿Ïį
ĠÏĩÏģÏħÏĥ ÎŃÏĤ
ÏĦÎ¿Î½ Î¹Î¬
ÎµÏģ Î³Î¿
ĠÏĨÏħ Î»Î¬
ĠÎ³ÏħÎ½Î±Î¯ÎºÎ± ÏĤ
ĠÏĢÎµÏģÎ½ ÏİÎ½ÏĦÎ±ÏĤ
ÎľÎµ Î³Î¬
ĠÎ¬Î½Î¿Î¹ Î³Î±Î½
ĠÎĴÎ± ÏĥÎ¹
ĠÎ³Î¬ ÏĦÎ¿Ïħ
ĠÎ±Î½Î¬ ÂµÎµ
ÎĽ Ïħ
ÎĽ ÎŃÎ½Îµ
Î³Ïī Î³Î®
ÂµÎµ Î»Î±Î³
ÏįÎ½ Î¿ÏħÎ½
ĠÎŃÏĦÏģÎµ Î¼Î±Î½
Î²Î¿ Î»Î±
Î²Î¿ Î»Î¹
Î²Î¿ Î»Î¹ÎºÎ¬
Î²Î¿ ÎºÎ±ÏĦÎµ
ĠÏĢÎ· Î´Î®
ÏĨÏħ Î»Î»Î±
ĠÏĦÏģÎ¹ ÏĥÎµÏħÏĦÏħÏĩ
ÏĦÎ¿Ïį Î»Î·ÏĤ
ĠÏĢÎ¿Î¹ Î·ÏĦÎ®ÏĤ
ÏĥÏĦÎ® Î¼Î¹Î¿
ÏģÎ³ ÏĮÏĦÎµÏģÎ±
ÏģÎ³ Î¿ÏįÏģÎ¹Î¶Îµ
ÏĨÎ¹Î± ÏĥÎ¼ÎŃÎ½Î·
ĠÎµÏĢ ÏģÏĮÎºÎµÎ¹
ĠÎ±Îµ ÏĦÎŃ
ĠÏĨÏĮ ÏģÎµ
ĠÏĨÏĮ Î²Î¿ÏħÏĤ
ÏĥÏĦÎ¹ ÏĤ
ĠÎ¼ÏĢÎ±Î¼ÏĢÎ¬ Î´ÎµÏĤ
ĠÎ´Î¹Î¬ ÏĥÎ·
ĠÎ´Î¹Î¬ ÏĥÏĦÎ±ÏĥÎ·
ĠÎ´Î¹Î¬ ÏĥÏĦÎ·Î¼Î±
ÏĦÎµÎ¹ Î±ÏĤ
ĠÎ±ÏĢÎ¿Îº ÏĦÎ®ÏĥÏī
ÏģÎ¿ÏĢ Î¯Î±
ÏģÏĨ ÏīÏĥÎµ
ĠÎ»Î¬ Î¼ÏĢÎ±
ĠÎ»Î¬ ÏĦÏģÎµÏħÎµ
Î¶Î¹ Î¿Ïį
Î¼ÎµÎ¹ Î½Î±Î½
ÏĨÎ¿Ïģ ÎŃÎ±ÏĤ
ĠÏĦÏģÏĮ ÏĢÎ¿ÏħÏĤ
ĠÏħÏĢ Î½Î¬ÎºÎ¿
ĠÏĢÎ±Î¹Î´ Î¹ÎºÎŃÏĤ
ĠÎºÏģÏį ÏĨÏĦÎ·ÎºÎ±Î½
ĠÏĩÎ¹ Î»Î¹ÏĮ
ĠÎ¸ÎŃ Î»Î·
ĠÎ¸ÎŃ Î»Î·ÏĥÎ±Î½
ĠÂµÎ¹Î± ÏĤ
ĠÎĻ ÏĢ
ĠÎĻ ÎµÏģÎ¿Îº
ĠÎĻ ÏĥÏĢÎ±Î½
ĠÎ±ÏĢÎ± Î»Î»Î±Î³
ĠÏĩÏİ ÏģÎ¿ÏĤ
ĠÏĥÏĦÏģÎ± ÏĦÎ·
ĠÏĥÏĦÏģÎ± ÏĦÏĮ
ĠÏĥÏĦÏģÎ± ÏĦÏĮÏĤ
ĠÎ¬ÏĨ Î·ÏĥÎ±
ĠÏĢÎµÏģÎ¹ÏĥÏĥÏĮÏĦÎµ ÏģÎ·
ĠÏĦÏĮ ÏĢÎ¿ÏħÏĤ
ĠÏĦÏĥ Î¿Ïį
ĠÎºÎ±ÏĦÎŃ Î²Î±ÏĥÎ±Î½
ÏģÎ³Î± ÏģÎ¿
ĠÏĥÎ¿ ÎºÎ¬ÎºÎ¹
ĠÏĢÎ±ÏĢÏĢÎ¿Ïį Î´ÎµÏĤ
ĠÎ¿ÏħÏģÎ±Î½ Î¿ÏįÏĤ
ÏĩÎµÎ¹ Âµ
ĠÎ´Î¬ ÎºÏĦÏħ
ĠÎ²Î³Î® ÎºÎ±Î½Îµ
ĠÎ±ÏĨÎ® ÏĥÎµÏĦÎµ
ĠÎłÎ± ÏĦÎŃÏģÎ±
ĠÎ£ÏĦÎ± ÏįÏģÎ¿Ïħ
ĠÎµÏħ ÏģÏİ
ĠÎµÏħ ÎºÎ¿Î»
ĠÎµÏħ Î¸ÎµÎ¯Î±
ĠÎµÏĢÏĮ Î¼ÎµÎ½
ĠÎ±Î³Î±ÏĢ Î¬Î½Îµ
ĠÎ±Î´ Î¹Îº
ĠÏĨÎŃÏģ Î½Ïī
ĠÎĸ Î±ÏĩÎ±
ĠÎĸ Î±ÏĨÎµÎ¹ÏģÎŃÎ½Î¹Î±
ĠÏĩÏģÏİ ÂµÎ±
ĠÏĩÏģÏİ ÂµÎ±ÏĦÎ±
ĠÎŀ Î¬ÏĨÎ½Î¿Ïħ
ÏĦÏİ Î¼Î±ÏĦÎ±
ĠÏĨÏĦÎ¬ ÏĥÎ¿ÏħÎ¼Îµ
ĠÏīÏģÎ± Î¯ÎµÏĤ
ĠÎºÏģÏħ ÏİÎ½ÎµÎ¹
ĠÎ¸Îµ ÏĬ
ĠÎ¼ÎµÎ³Î±Î» ÎµÎ¯Î¿
ĠÎ¼ÎµÎ³Î±Î» ÏİÎ½ÎµÎ¹
ĠÎºÎ¿ÏħÎ½ Î¬ÎµÎ¹
ĠÎºÎ¿ÏħÎ½ Î¿ÏįÏĢÎ¹Î±
ĠÏĥÏĦÏĮ Î¼Î±ÏĦÎ±
ĠÎŃÏĨÎµ ÏħÎ³Î±Î½
ĠÎºÎ¿ÏĢ ÎµÎ¯
ĠÎºÎ¿ÏĢ Î¹Î¬
ĠÎ¬ÏĥÏĢ ÏģÎ¿ÏĤ
ĠÎ¼Î® ÏĦÎµ
Î¥ ÏĢÎ®
Î¥ ÏĢÎ¬ÏģÏĩÎµÎ¹
ĠÎ±Î³Î¬ÏĢÎ· ÏĥÎµ
ĠÎºÎ»ÎµÎ¹ ÏĥÎ¼ÎŃÎ½Î·
ĠÎºÎ»ÎµÎ¹ ÏĥÎ¼ÎŃÎ½Î¿
ĠÎºÎ»ÎµÎ¹ ÏĥÎ¼ÎŃÎ½Î¿ÏĤ
ĠÎºÎ»ÎµÎ¹ Î´Ïī
ĠÎºÎ»ÎµÎ¹ Î´ÏİÏĥÎµÎ¹
ĠÏĥÏī Î¸ÎµÎ¯
Î¸Î¿Ïħ ÏĥÎ¹Î±
ĠÏĥÎºÎµÏĨ ÏĦÎ¹ÎºÏĮÏĤ
ĠÏĥÎºÎµÏĨ ÏĦÎ¿ÏįÎ½
ĠÏĢÎµÏĦÎ¬ ÏĩÏĦÎ·ÎºÎ±Î½
ĠÏĪÎ± ÏģÎ¿Î½
ĠÏĪÎ± ÏģÎ¹Î¿Ïį
ĠÏĪÎ± ÏģÎ¿ÎºÏĮ
ÎķÎ¯ ÏĢÎµ
ĠÏĢÎ»Î¬ ÎºÎ±
ÎĴ Î¬
ÎĴ Îĳ
Î»Î¿Î½ Î¹Î¿Ïį
Î§ Î¼
ĠÎµÏĢÎŃ ÏĦÏģÎµÏĢÎµ
ÏĦÏĥÎ± Î»Î±
ĠÏĨÎ¹ Î»Î¬
ĠÏĨÎ¹ Î³Î¿Ïį
ĠÎºÎ¬Î¸ Î¿Î¼Î±Î¹
ĠÎ»Ïħ ÏĢÎ¬
ÎĨ Î»
ÎĨ ÏĨÎ·ÏĥÎµ
Îī Î¾ÎµÏģÎµ
Îī ÏģÎ¸Î±Î½
ÎµÎ³ Î³Î¬ÏģÎ¹
âĢĿ .âĢľ
ĠÎ³ÎµÎ½ ÎŃÎ¸
ĠÎ³ÎµÎ½ Î½Î±Î¯Î¿
ĠÎ³ÎµÎ½ Î½Î¿ÏįÎ½
ĠÎºÎ¿Î¹ÏĦÎ¬ Î¶Î¿ÏħÎ½
ĠÎ³ÏħÏģÎ¯ Î¶ÎµÎ¹
ĠÏįÏĢ Î½Îµ
ĠÎ³Î½Ïī ÏĥÏĦÎ®
ĠÎ²Îµ Î»ÏĮÎ½Î±
ĠÎ²ÏĮ ÎµÏĤ
ĠÎ²ÏĮ Î¼Î²
ĠÏĢÎ±ÏģÎ±Î¼ Î¹ÎºÏģÎ®
ĠÏĥÎ·Îº ÏİÎ¸Î·ÎºÎ±Î½
ĠÏĥÎ·Îº ÏİÎ½ÎµÏĦÎ±Î¹
ĠÏĨÎ¬Î½ ÏĦÎ±
ĠÏĨÎ¬Î½ Î·ÎºÎ±Î½
ĠÏģÎ¯ Î¾Ïī
ĠÏģÎ¯ Î¾Î¿ÏħÎ½
ĠÏģÎ¯ ÏĩÏĦÎ·ÎºÎµ
ĠÏģÎ¯ Î¾Î¿ÏħÎ¼Îµ
ĠÎ¬Î³ ÏģÎ¹Î¿ÏĤ
ĠÏĦÎŃ ÏĦÎ±Ïģ
ĠÎ³Î¿Ïħ ÏģÎ³Î¿ÏįÏģÎ¹Î¶Îµ
ĠÎºÎ±Î¹Î½Î¿Ïį ÏģÎ¹Î¿ÏħÏĤ
ÏĥÎ¹Î¬ Î¶ÎµÎ¹
ĠÎ±Î½ÏĦÎ¯ Î¸ÎµÏĦÎ±
ĠÎ±Î½ÏĦÎ¯ Î´Î¿ÏĦÎ¿
ĠÎ±ÎºÏģÎ¹Î² ÏĮÏĦÎµÏģÎ¿
ĠÏĥÎ·Î¼Î± Î¯ÎµÏĤ
ĠÎ¼Î¿Î¹ ÏģÎ¬ÏĥÎµÎ¹
Î±Î½Î± ÏĥÏĦÎŃÎ½Î±
ĠÎ¾Ïī ÏĦÎ¹ÎºÏİÎ½
ĠÎ±Î´ÎµÏģÏĨ ÎŃ
ĠÎ±Î´ÎµÏģÏĨ Î¿ÏįÎ»Î±
ÏĦÎŃÎ» ÎµÎ¹Î±
ĠÏĢÎµÎ¯ ÏĥÎ¼Î±
ĠÏĢÎµÎ¯ ÏĥÂµÎ±
ĠÎ´ÏģÎ¬ ÎºÎ¿ÏħÏĤ
ĠÏĩÏĦÏħ ÏĢÎ·
ĠÏĦÎµÎ»ÎµÏħÏĦÎ± Î¯Î¿ÏĤ
ĠÎ²Î¹Î² Î»Î¯Î¿Ïħ
ĠÏĥÏĩÎµ Î´Î¯Î±
ĠÎµÎ¯ÏĩÎ± ÏĦÎµ
ĠÎ¹Î´ ÏģÏİÏĦÎ±ÏĤ
ĠÏĢÎŃÏĦÎ± Î»Î¬
ĠÎ²ÏģÎŃ Î¸Î·ÎºÎµÏĤ
ĠÎµÎ¯ÏĢÎ±Î½ Îµ
ĠÎ±ÎºÎ¿Î» Î¿ÏħÎ¸Î¿ÏįÏĥÎµ
ĠÏĨÏĦÏīÏĩ Î¹ÎºÎ¬
Î¶ÏĮÏĦÎ±Î½ Îµ
ĠÎµÏħÏĩÎ±ÏģÎ¹ÏĥÏĦ Î®Î¸Î·ÎºÎµ
ĠÎºÏį Î¼Î±
ĠÎºÏį Î»Î·ÏĥÎ±Î½
ĠÎºÏį Î»Î¹ÏĥÎµ
ĠÎºÎ¿ÏħÎ² ÎŃÏģÏĦÎµÏĤ
ÏĩÎ¬ Î¸Î·ÎºÎµ
ĠÏĥÎºÏħ Î»Î¬ÎºÎ¹Î±
ĠÏĥÎºÏħ Î»Î¹Î¿Ïį
ĠÏĢÎ·Î³Î± Î¯Î½Î¿Î½ÏĦÎ±ÏĤ
ĠÏĢÎ·Î³Î± Î¯Î½Î¿ÏħÎ¼Îµ
ĠÏħÏĢÏĮÎ»Î¿Î¹ ÏĢÎ·
ĠÏģÎ¬ Âµ
ÏĦÏģÎ¬ ÏĩÎ±
ĠÏĥÏĦÎ¬ ÏĥÎ·
ĠÏĥÏĦÎ¬ Î¸Î·ÎºÎ±Î½
ĠÎ±Î½Î¿Î¯ Î³Î¿ÏħÎ½
ĠÏĢÎµÏģÎ¹Î¼ÎŃÎ½ ÎµÏĦÎµ
Î³Ïħ ÏģÎ½Î¿ÏįÏĥÎµ
Î¶Î¿ Î¼Î¬Î½ÏĦÎ¹
ĠÎ¼Î±Ïį ÏģÎ¿ÏĤ
ĠÏĢÎ±Î½ÏĦÏģÎµ ÏħÏĮÏĦÎ±Î½
ĠÏģÏī ÏĦÎ®ÏĥÎ¿ÏħÎ½
ĠÏģÏī ÏĦÎ¬ÏĤ
ĠÏĥÎºÎ¯Î¿Ïħ ÏģÎ¿Î¹
ĠÎ¼ÎµÎ³Î±Î»ÏįÏĦÎµ ÏģÎ¿Î¹
ĠÎ³Îº ÏģÎŃ
Î´ÎµÎ¹ Î¾Î·
ĠÎŃÏĨÎ± Î³Î±
Î¬Î½Î¹ Î¶Îµ
ĠÏĦÎ¿Ïį ÏĦÎ±
ĠÏĦÎ¿Ïį Î¼ÏĢ
ĠÎ²Î³Î¬ Î»Ïī
ĠÎ²Î³Î¬ Î¶Î¿ÏħÎ½
ĠÎłÎµ ÏģÎ¬
ĠÏĦÏĥÎ± Ïĩ
ĠÏĦÏĥÎ± Î³Î¹Î¿Ïį
ĠÏĦÏģÏį ÏĢÏīÏĥÎ±Î½
Î»ÎŃÎ½ Î¹Î¿
ÏĨÏį Î»Î±Î³Îµ
Î»Î±Î½Î® Î¸Î·ÎºÎµ
ĠÎ±Î½ÏĦÎ¹ Îº
Î¦ Î¿
ĠÎŃÎ´Î¹ Î½Î±
ĠÎ±Î½Îµ Î²Î¬
ĠÎ±Î½Îµ Î¾Î®
ĠÎºÎ±ÏĦÎµ Î²Î±Î¯Î½ÎµÎ¹
ĠÎºÎ±ÏĦÎµ ÏħÎ¸ÏįÎ½
ĠÎĵÎ¹ Î¬Î½
ĠÎŃÎºÏĢÎ»Î· Î¾Î®
ĠÏĥÏħÎ½ÎµÏĩ Î¯Î¶Î¿Î½ÏĦÎ±ÏĤ
ĠÏĥÏħÎ½ÎµÏĩ Î¯Î¶Î¿Î½ÏĦÎ±Î½
ĠÎ±Î¹ ÏİÎ½
ĠÏĩÏĮ ÏģÏĦÎ±Î¹
Î¿ÏħÎ¸ ÎµÎ½
ĠÎ±Î² Î³Î¿ÏħÎ»Î¬ÎºÎ¹Î±
ĠÎµÎ¹ ÏģÎ·Î½
Î¸Ïİ ÏģÎ¹Î¿
ÏĢÎ¿Î½ Îµ
ĠÎ²Î¬ÏĦÏģÎ± ÏĩÎ¿Î¹
ĠÎ»ÏħÏĢÎ· ÏĦÎµÏģÏĮ
ĠÎºÎ¿Ïį ÏĦÏĥÎ¿Ïħ
ĠÎ½Î¿Î¼Î¯ Î¶Î¿Î½ÏĦÎ±ÏĤ
ĠÎ½Î¿Î¼Î¯ Î¶ÎµÏĦÎµ
ĠÏĢÎµÎ½ ÏĦÎ±Î½ÏĮÏĥÏĦÎ¹
ÎĳÎ½ ÎŃÎ²
ĠÎºÎ±Î¸Î± ÏģÎ¯
ĠÎŃÎºÎ»ÎµÎ¹ ÏĥÎ±Î½
ĠÎŃÎºÎ»ÎµÎ¹ Î½Îµ
ĠÎŃÎºÎ»ÎµÎ¹ Î½Î±Î½
ĠÏĦÏģÎµ Î»ÏĮÏĤ
ĠÎºÎ±Î¸ÏĮÏĦÎ±Î½ Îµ
Î¿Î»Î¿Î³ Î¯Î±
ĠÏĦÏįÏĩ Î±Î¹Î½Îµ
ĠÎ¸Î· ÏģÎ¯Î¿
ĠÏĨÏīÏĦÎ¹Î¬ ÏĤ
ĠÏĥÎ¿Î²Î± ÏģÎ¿Î¯
ĠÎ¬ÏĥÏĢÏģÎ¿ ÎºÎ»Î¿ÏħÎ²Î¯
ĠÏĥÏĦÎµÎ½Î±ÏĩÏī ÏģÎ®Î¸Î·ÎºÎµ
ĠÏĦÎ¬ Î¹Î¶Îµ
ĠÎĽÎ¯ Î»Î±
ĠÏĦÏģÎŃÎ½ ÏīÎ½
ĠÎ³Î¹Î¿Ïģ ÏĦÎ®ÏĤ
ĠÎ³Î¹Î¿Ïģ ÏĦÎ¹Î½ÏĮ
ĠÎ´ÏįÏĥÎºÎ¿Î» ÎµÏĤ
ĠÏĥÎµÎ¹ ÏģÎŃÏĤ
ĠÏĥÏħÎ½Î±Î½ ÏĦÎ®ÏĥÏī
ĠÎ´Î¹Î±ÏĨÎ¿ÏģÎµ ÏĦÎ¹ÎºÏĮÏĤ
ĠÎ´Î¹Î±ÏĨÎ¿ÏģÎµ ÏĦÎ¹ÎºÎŃÏĤ
ĠÎ¼Î¯ ÏĥÎ¿ÏĤ
ĠÎ¼Î¯ Î»Î±Î³Îµ
ĠÏĥÏį Ïģ
ĠÎĶÎ¹ ÎµÏħÎ¸ÏħÎ½
ĠÏĥÏĩÎŃ Î´Î¹ÏĮ
Î¬Î» Î»Î¿ÏĤ
ĠÎ´Î¹Îº Î¿Î¯
ĠÏħÏĢÎŃÏģÎ¿Ïĩ ÎµÏĤ
ĠÏĥÎºÎ¬ ÏĥÎµÎ¹
ÏĨÏīÎ½ Î®
ĠÎ²ÏģÎ¿Ïĩ ÎŃÏĤ
ĠÎľÎ¹ ÏĩÎ±Î»Î¬ÎºÎ·ÏĤ
Î¬Î½Îµ ÏģÎ¿
ĠÎ±Î½Î±ÏĢ Î½ÎµÏħ
ĠÎĽÎ¿Ïħ ÏĦÏĥÎ¯Î±
ĠÎµÏĢÎ¹Îº Î¿Î¹
ĠÎ²Î¿Ïħ Î»Î¹Î¬
ĠÎ²Î¿Ïħ ÏĦÎ¹ÎŃÏĤ
ĠÏĥÎºÎ¿Ïħ ÏĨÎ¯
Ġ1 2
ĠÎ²ÏģÏī Î¼Îµ
ĠÂµÏĢÎ¿Ïģ Î¿ÏįÎ½
ĠÏĥÎ®Îº ÏīÎ½Îµ
Î·Î³Î® Î¸Î·ÎºÎµ
ÏĩÏģÏī Î¼Î¿Î¹
Î²Î® Î¸Î·ÎºÎµ
ĠÏĢÎ±Î³Ïī Î¼ÎŃÎ½Î±
ĠÎµÎ½Î¸Î¿Ïħ ÏĥÎ¹Î¬ÏĥÏĦÎ·ÎºÎµ
ÏĢÏģÎ¬ Î³
ĠÎ¼Ïį Î³ÎµÏĤ
ĠÎ±ÏĥÏĦÎµ ÏģÎ¹ÏİÎ½
ĠÎ±ÏĥÏĦÎµ ÏģÏĮÏĥÎºÎ¿Î½Î·
ĠÎ±Î½Î· ÏĥÏįÏĩ
ĠÎ±Î½Î® ÎºÎµÎ¹
ĠÎ±Î½Î® Î³Î³ÎµÎ¹Î»Îµ
ĠÏĢÎ¬Ïģ ÎºÎ¿
ÎĳÏħÏĦ Î¿Î¯
ĠÎ²ÏģÎ¯ÏĥÎº Ïī
ĠÎ¼Î¹Ïĥ Î¿ÏįÏĥÎµ
ĠÎ»Î±ÏĩÎ±Î½ Î¹Î±ÏĥÎ¼ÎŃÎ½Î·
ĠÏĢÎµÏģÎ¯ÎµÏģ Î³ÎµÏĤ
Î²Î¿Î» Î®
Î²Î¿Î» ÎŃÏĤ
ÏĢÎµÏģÎ¹ ÏĥÏĥÏĮÏĦÎµÏģÎ¿
ĠÎ¿Î¹ÎºÎ¿Î³ÎŃÎ½ÎµÎ¹ Î¬ÏĤ
ĠÎ½ÎµÏģÎ¬Î¹Î´Î± ÏĤ
ÏĢÎ±Î¹ ÏĩÎ½Î¯Î´Î¹Î±
ĠÎłÎ¬ ÏģÎµ
ĠÎłÎ¬ Î½Î±ÏĤ
Î¿ÏĥÏĦÎ¬ ÏĥÎ¹Î¿
ĠÎ½ÏĮÎ¼Î¹ Î¶Î±
ĠÎºÎ»ÎµÎ¯ ÏĥÎ¿ÏħÎ½
ĠÎºÎ»ÎµÎ¯ ÏĥÏĦÎ·ÎºÎµ
ĠÎºÎ±ÏĦ Î¿ÏĩÎ®
ĠÎ±Î½ÏĦÎ± Î»Î»Î¬
ĠÏĢÎ±Î»Î¹ ÎºÎ±
ĠÎ¾Î¬ÏĢ Î»ÏīÎ½Îµ
ĠÎµÏĢÎ¹Î¸Ïħ Î¼Î¿ÏįÏĥÎµ
ĠÎ´Î¿ÎºÎ¹Î¼Î¬ Î¶ÎµÎ¹
ĠÎ¼Î±Î¶ ÎŃÏĪÎ¿ÏħÎ½
ĠÎ¼Î±Î¶ ÎŃÏĪÎµÎ¹ÏĤ
ĠÎ¼Î±Î¶ ÎŃÏĪÏī
ĠÎļÎ¿Î¹ ÏĦÎ¬
Î¼Î¿Î¹Î± Î¶Îµ
ĠÎºÎ¿ÏģÏħÏĨ ÎŃÏĤ
ĠÏĥÏĦÎ¿Î»Î¯ ÏĥÎ¿ÏħÎ½
Î»ÏĢÎ¹ Î¶Îµ
ĠÎºÏģÎ¬ ÏĦÎ·ÏĥÎ±Î½
ĠÎºÎ»Î¬ ÏĪÎµÎ¹
ĠÎºÎ»Î¬ ÂµÎ±ÏĦÎ±
ÎºÎ»Î± Î´Î¯
ĠÎ½ÏħÏĩ ÏĦÎ¹Î¬ÏĦÎ¹ÎºÎ±
ĠÎļÏħ Ïģ
ĠÎ±Î½Ïħ ÏĢÎ¬ÎºÎ¿Ïħ
ĠÏĩÎ¹Î¿Î½ Î¯Î¶ÎµÎ¹
ĠÎµÎ½Î¸Î¿ÏħÏĥÎ¹Î± ÏĥÎ¼ÎŃÎ½Î·
ĠÏĢÎ±ÏģÏĮ Î»Î±
ĠÎ²Î¬Î» Î¿ÏħÎ½
ĠÏħÏĢÎ·ÏģÎŃ ÏĦÏģÎ¹Î±
ÏĥÏĦÎµÏį Ïī
ĠÎ¼Î·ÏĩÎ±Î½ ÎŃÏĤ
ĠÎºÎ¿Î»ÏħÎ¼ÏĢ Î®ÏĥÎµÎ¹
ÂµÎ¯ Î»Î·
ĠÎ¼Î¹Î»Î¬ ÏĤ
ĠÎµÏħÏĩÎ±ÏģÎ¹ÏĥÏĦÎ· Î¼ÎŃÎ½Î¿
ĠÎ±Î½Î·ÏĥÏħÏĩ ÎµÎ¯
ĠÏĦÎ±Î¾Î¹ Î´ÎµÏįÎ¿ÏħÎ½
ĠÎºÎ±Î· Î¼ÎŃÎ½Î±
ĠÎ¾Î±ÏĢ Î¿ÏĥÏĦÎ¬
ĠÏĩÎ¿Î½ÏĦ ÏģÎ®
ĠÏĩÎ¿Î½ÏĦ ÏģÏĮÏĤ
ĠÎ£Îº Î¯Î¿ÏħÏģÎµ
ĠÏħÏĢÎµ ÏģÎ±
ĠÏĢÎ±ÏģÎ±ÎºÎ¬ Î»Î¹Î±
ĠÎ³ÎµÎ»Î¬ ÏĤ
ĠÎ³ÎµÎ»Î¬ Î½Îµ
ĠÎ»Î±Î¼ÏĢÎµ ÏģÎ®
Î¼Î±Î½ ÏĦÎ±
Î´Î¿Ïį ÏģÎ¹Î±
ĠÎ¿Î»Î¿ Îº
ĠÏĨÏģÎ¿Î½ÏĦÎ¯ ÏĥÏī
ĠÏĥÏħÎ¼ÏĢ ÎŃÏģÎ±ÏĥÎ¼Î±
ĠÏģÎ¿ Î´Î±
ĠÏĥÎºÎŃ ÏĦÎ¿
ĠÎ´ÏģÎ¿Ïĥ Î¹Î¬
ĠÎ±Î½ÎŃ Î²Î±ÏĥÎµ
ĠÎºÎ¿ÏħÎ²Î± Î»Î¿ÏįÏĥÎ±Î½
ĠÎ±ÏĨÎµÎ½ ÏĦÎ¹ÎºÎ¿Ïį
ĠÎ¼ÏħÏģÏī Î´Î¹ÎŃÏĤ
ĠÎ´Î¹Î¬Î²Î± ÏĥÎ¼Î±
ĠÎµÎ»ÎµÏħÎ¸Îµ ÏģÏİÏĥÎµÎ¹
ĠÎ¼ÎµÏĦÎ±Î¼Î¿ÏģÏĨ ÏİÏĥÎµÎ¹
ĠÏĢÎ·Î³Î¬ Î´Î¹Î±
ĠÏĥÎ·Î¼Î±Î½ ÏĦÎ¹ÎºÎ®
ĠÎºÏįÎº Î»Î¿ÏħÏĤ
ÎºÎ»ÎµÎ¹ Î´Î±
ĠÎµÏģÎ³Î± ÏĥÎ¯Î±
ĠÎµÏģÎ³Î± Î»ÎµÎ¯Î±
ĠÎ³ÏģÎ¹Î¬ ÏĤ
ĠÎ±Î½Î±ÎºÎ± ÏĦÏī
ĠÎĨÎ½ ÏĦÎµ
ĠÎ³Î±ÏģÎ³Î± Î»Î¬ÎµÎ¹
ĠÎ³Î±ÏģÎ³Î± Î»Î¿ÏįÎ½
ĠÎ³Î±ÏģÎ³Î± Î»Î®ÏĥÎ¿ÏħÎ½
ĠÎ±Î´ÏįÎ½Î± Î¼Î±
ĠÎŃÏĥÎºÎ± ÏĪÎ±Î½
ĠÎµÏĦÎ¿Î¹Î¼Î¬ Î¶ÎµÎ¹
ĠÎµÏĦÎ¿Î¹Î¼Î¬ ÏĥÏĦÎ·ÎºÎµ
ĠÎ¥ ÏĢ
ĠÎ¼Ïī ÏģÎ¬
ĠÎ¼Î±Ïģ Î¼Îµ
ĠÎ¼Î±Ïģ Î¼Î¬ÏģÎ¹
Î³Î±ÏĢÎ· Î¼ÎŃÎ½Î·
ĠÎµÎ¾Î± Î¯
ĠÎŃÎºÏĢÎ»Î·Îº ÏĦÎ¿
Ġ2 0
ĠÎ§Î± ÏģÎ¬ÏĤ
ĠÎ§Î± Î¼Î¿Î³ÎŃÎ»Î±ÏĥÎµ
ĠÎµÏĢÎ¹ÏĥÎº ÎŃÏĨÏĦÎ·ÎºÎµ
ĠÎºÏģÏħÏĨ ÏĦÎ¿ÏįÎ½
ĠÎ¼Î±Î¶ÎµÏį Î¿Î½ÏĦÎ±ÏĤ
ĠÎ¿Î½ÎµÎ¹ ÏģÎµ
ĠÎ¿Î½ÎµÎ¹ ÏģÎµÏįÏĦÎ·ÎºÎµ
ĠÎ¼ÏħÏģ Î¼Î·
ĠÏĩÏĦÏħÏĢ Î¿ÏįÎ½
ĠÏĩÏĦÏħÏĢ Î¬Î½Îµ
ĠÏĢÏģÎ¿ÏĩÏī ÏģÎ¿ÏįÏĥÎ±Î½
ĠÎµÎ»ÎµÏįÎ¸Îµ ÏģÎ±
ĠÏĨÎµÏį Î³ÎµÎ¹ÏĤ
ĠÎ¸Î±ÏħÎ¼Î¬ ÏĦÏīÎ½
ĠÏĥÎºÎ¿Ïį ÏģÎ¿
ĠÎµÎ»Î±ÏĨ ÏģÏį
ĠÎ±Î³ÎºÎ¬Î»Î¹Î± ÏĥÎ±Î½
ĠÎºÎ¿Î½ ÏĦÎ¹Î½
ĠÎ¼ÎŃÎ½ Ïī
ĠÎ³ÎµÎ¯ ÏģÎµÎ¹
ĠÏĨÏģÏĮÎ½ Î¹
ĠÎºÎ±ÏģÎ± Î²Î¬ÎºÎ¹Î±
ĠÎµÎ½Î¿Ïĩ Î»ÎµÎ¯
ĠÎµÎ½Î¿Ïĩ Î»Î®ÏĥÎµÎ¹
ĠÎµÎ¾Î® Î³Î·ÏĥÎ±Î½
ĠÎ½Î¹Ïİ Î¸Î¿ÏħÎ½
ĠÏĦÎ¿Î» Î¼Î¬
ĠÏĩÏģÏħÏĥÎ± ÏĨÎ¯
ĠÎ±Î½Î¸ÏģÏī ÏĢÎ¬ÎºÎ¹Î±
ĠÎ±Î½Î¸ÏģÏī ÏĢÎ¬ÎºÎ¿ÏĤ
ĠÎ±ÏĢÎ¿Î³Î¿Î·ÏĦÎµÏħ Î¼ÎŃÎ½Î·
ĠÎ²Î¿Î® Î¸ÎµÎ¹Î¬
ĠÏĩÎ¿ÏģÎµÏį ÎµÎ¹
ĠÎµÏħÎ³ÎµÎ½ Î¹ÎºÏĮÏĤ
Î±ÏħÏĦ Î¿ÎºÎ¯Î½Î·
ĠÏĦÏĥÎ¯ Ïĩ
ĠÏĥÎºÏĮ ÏĦÏī
ĠÎ±Ïĩ ÏĮÏģÏĦÎ±
Î´ÎŃÎ½ ÏĦÏģÎ¿
ĠÎ±ÏĢÎ¿Ïģ Î·Î¼ÎŃÎ½Î¿ÏĤ
ĠÏģÏĮ ÏĢÎ±
ĠÏģÏĮ Î´ÏīÎ½
ĠÎºÎ±ÏĦÎ±Î»Î±Î²Î± Î¯Î½ÎµÎ¹ÏĤ
ĠÎ§Î¬ ÏģÎ·
ĠÎ³Î±ÏĬ Î´Î¿ÏįÏģÎ¹Î±
ĠÎ²Î¹ÏĦÏģÎ¯ Î½ÎµÏĤ
ĠÏĥÏĦÎµÎ½Î±ÏĩÏīÏģÎ· Î¸ÎµÎ¯
ĠÎºÎ¬Î¼ÏĢÎ¿Ïĥ Î±
ĠÎ±Î½Î®ÏĥÏħÏĩ Î·
Î¿Î¿ Î¿
ÏĩÎ¸ ÎµÏĤ
ĠÎºÎ±Î»ÎŃ ÏĥÏī
ĠÏĥÏĦÎ¿Î»Î¹ ÏĥÎ¼ÎŃÎ½Î·
ĠÎ¾Î±ÏĨÎ½ Î¹ÎºÎ®
ĠÎ²Î±ÏģÎ¹ ÎŃÏĤ
ĠÎ±ÏģÏģÏİ ÏĥÏĦ
ĠÏĢÏģÎ¿ÏĥÎŃÏĩ ÎµÎ¹ÏĤ
ĠÎ´Î¹ÏĢ Î»Î¬
ĠÎ´Î¹Î·Î³Î® Î¸Î·ÎºÎ±Î½
ĠÎ³ÏģÎ®Î³Î¿Ïģ ÎµÏĤ
ĠÏĦÏģÎ±ÏĢÎµ Î¶Î¿Î¼Î¬Î½ÏĦÎ¹
ĠÏĢÎ¿Ïģ ÏĥÎµ
ĠÏĢÎ¿Ïģ ÏĦÎ¬ÎºÎ¹
ĠÎ¸Î»Î¹ Î¼Î¼ÎŃÎ½Î¿ÏĤ
ĠÏĢÎ±ÏģÎ±ÏĦÎ· ÏģÎ®ÏĥÎµÎ¹
ĠÎ¹ÎºÎ±Î½ Î¿ÏĢÎ¿Î¹
ĠÎ¹ÎºÎ±Î½ ÏĮÏĦÎ·ÏĦÎ±
ĠÎĨÎ³Î³Îµ Î»Î¿Ïħ
ĠÏĨÎ¬Î»Î±Î¹ Î½Î±
ĠÎŃÎ»ÎµÎ¹ ÏĢÎ±Î½
ĠÎºÎ±Î»Î± Î¸Î¬ÎºÎ¹
ĠÎ¼Î±Î³ÎµÎ¹ ÏģÎŃÏĪÎµÎ¹
ĠÏĥÏħÎ¶Î· ÏĦÎ®ÏĥÎµÎ¹ÏĤ
ĠÎłÎ¿Î» Î»Î¬
ĠÎ´Î¹Î±ÏĥÎºÎµ Î´Î¬ÏĥÎ¿ÏħÎ¼Îµ
!" "
ĠÎºÎŃÏģÎ± ÏĦÎ¿
ÏĢÎ¿Î» Î·
ĠÏĮÏģ Î³Ïī
ĠÎºÎ±ÏĦÎ±ÏĥÏĦ ÏģÎŃ
ĠÏĦÏħÏĩÎµ ÏģÏĮ
ĠÏĩÎ±Î¹ÏģÎŃ ÏĦÎ¹ÏĥÎµ
ĠÎ±ÏĢÎµÎ»ÏĢÎ¹ ÏĥÎ¼ÎŃÎ½Î·
ĠÎ±ÏĢÎµÎ»ÏĢÎ¹ ÏĥÎ¼ÎŃÎ½Î¿ÏĤ
ĠÎ±Î¹ÏĥÎ¸Î¬Î½ ÎµÏĦÎ±Î¹
ĠÏĥÎ¹ÏīÏĢÎ· Î»ÏĮ
ĠK Î±
ĠÎ¾ÎŃÎ½ Î¿ÏħÏĤ
ĠÏĢÎ¿Î»ÏįÏĦÎ¹ Î¼Î¿
ĠÏĦÏģÎ¿Î¼Î±Î³ Î¼ÎŃÎ½Î¿
ĠÏĩÏĮÏģÏĦÎ± ÏĥÎµ
ĠÎ¼Î±ÏģÎ³Î±ÏģÎ¹ ÏĦÎ¬ÏģÎ¹
ĠÏĢÏĮÎ½ Î¿ÏħÏĤ
ĠÏĢÏĮÎ½ ÎµÏĥÎµ
ĠÎ±ÏĢÎ±Î½ÏĦÎ¬ ÎµÎ¹
ĠÏĨÎ¿ÏįÏģ Î½Î±
ĠÎ¬ÏĥÏĦÏģÎ± ÏĨÏĦÎµ
ĠÎ¼Î±Î³Îµ Ïħ
ĠÎ¼Î±Î³Îµ Î¼ÎŃÎ½Î¿ÏĤ
ĠÎ¼Î±Î³Îµ Î¼ÎŃÎ½Î·
ĠÎ¾ÎŃÏĨ ÏħÎ³Îµ
ĠÎĳÎ¹ Î¼Î¹Î»Î¯Î±
ĠÏĥÎºÎ¿Ïģ ÏĢÎ¹
Î£ÏĦÎ± Î¼Î¬
ĠÎ±Î½Î¸ÏģÏİÏĢÎ¹ Î½Î¿
ĠÏĨÏĦÎµÏģÎ¿Ïį Î³Î¹Î¶Î±Î½
ĠÎºÎ±Î»Î¿ÎºÎ±Î¹ ÏģÎ¹Î½ÎŃÏĤ
ĠÎ±ÎºÎ¿Î»Î¿ÏħÎ¸Î® ÏĥÎ¿ÏħÎ½
ĠÎ´Î±Î³Îº ÏīÎ½
ĠÎµÎ¹Î´ ÏİÎ½
ĠÎµÎ¹Î´ Î¹ÎºÎ®
ĠÎĵÎ±Î»Î¬ ÏĦÎµÎ¹Î±ÏĤ
ĠÏĩÏģÎ·ÏĥÎ¹Î¼Î¿ÏĢÎ¿Î¹ Î¿ÏįÎ½
ĠÏĩÏģÎ·ÏĥÎ¹Î¼Î¿ÏĢÎ¿Î¹ Î®ÏĥÎµÎ¹
ĠÏĢÎ±ÏĢÎ¿ÏħÏĦÏĥ Î®
ĠÎ¼Î¿Ïį ÏĦÏģÎ±
ĠÎµÎ½Î· Î¼ÎŃÏģÏī
ĠÎ¿Î½ÏĮ Î¼Î±ÏĥÎµ
ÂµÏī ÂµÎŃÎ½Î¿
ĠÎ±ÏĢÏĮÏĨÎ± ÏĥÎ®
ÏģÏīÏĦÎ¹ ÎŃÎ¼Î±Î¹
ÏĪÎ¬ ÏģÎ¹Î±
ĠÏĩÏĮÏģÎµ ÏħÎµ
ĠÏĢÎµÏģÏĢÎ¬ ÏĦÎ·ÏĥÎ±Î½
ĠÎ¼Î¿ÏħÏģÎ¼Î¿Ïį ÏģÎ¹Î¶Î±Î½
ĠÎ½ÏħÏĨÎ¯ÏĦÏĥÎ± ÏĤ
ĠÏĦÏĥÎµ ÎºÎ¿Ïħ
ĠÏĨÏĦÎ± ÏģÎ½
ĠÏĢÎ±ÏĢÎ± ÏģÎ¿ÏįÎ½ÎµÏĤ
ĠÎ±Î½ÏĦÎŃ Î¾ÎµÎ¹
ĠÎłÎµÏģ ÏĢÎ¬ÏĦÎ·ÏĥÎµ
ĠÎłÎµÏģ ÏĥÎµÏĨ
ĠÏģÎ¿Ïħ ÏĨÎ®
Î¿ÏĥÏĦÎ± Î»Î¯Î´ÎµÏĤ
ĠÎ»ÎµÎ¼Î¿Î½ Î¬Î´Î±
ĠÏĢÎ±Î½ÏĦÏģÎµÏħÏĦ Ïİ
ĠÏĢÎ±Î½ÏĦÏģÎµÏħÏĦ Î¿ÏįÎ¼Îµ
ĠÎºÏģÎ¯ ÏĥÎ·
ÎŃÎ³ Î½Î¿Î¹Î±
ĠÎ¸ÎŃÎ± ÂµÎ±
ĠÎ®ÏģÎµ Î¼Î¿ÏĤ
ÏģÎ¯Î¶ ÏīÏĥÎµ
ĠÎ´ÏħÎ½Î¬ Î¼ÏīÏĥÎµ
ĠÎĴÎ»ÎŃ ÏĢÎµÎ¹ÏĤ
ĠÎ¶ÏīÎ¿Î»Î¿Î³ Î¹ÎºÎ¿Ïį
ĠÏĨÎ¿ÏģÏĦÏī Î¼ÎŃÎ½Î±
ĠÎĻÏĥÎ¯Î´Ïī ÏģÎ¿Ïħ
ĠÎĳÏĢÎ¿ÏĨÎ¬ÏĥÎ¹ ÏĥÎ±Î½
ĠÏĨÎ±Î½ÏĦÎ±ÏĥÏĦÎµÎ¯ ÏĦÎµ
ĠÎ¶Î¿ÏįÎ³Îº Î»Î±ÏĤ
ĠÎļÎ¿Î½ÏĦÎ¿ÏģÎµÎ²Î¹Î¸Î¿Ïį Î»Î·
Î¿ÏĮ Î½ÎµÎ¹
ĠÏĥÏĨ ÎµÎ½ÏĦÏĮÎ½Î±
ĠÎ±ÏģÎ¬ÏĩÎ½Î· ÏĤ
ĠÎ³Î»Î¯ ÏĦÏīÏĥÎµ
ĠÎ³ÎŃÏģÎ¹ ÎºÎ·
ĠÏĥÏĦÎŃÎ» Î½Î¿ÏħÎ½
ÏĦÎµÎ»ÎµÎ¯ ÏīÏĥÎµ
ĠÏĩÏģÎ¹ÏĥÏĦÎ¿ÏħÎ³ÎµÎ½Î½Î¹Î¬ ÏĦÎ¹ÎºÎ±
ĠÎ¼ÏĢÎŃ Î¹ÎºÎ¿Î½
ÏĢÎ±ÏģÎ¬ Î¾ÎµÎ½Î¿
ĠÎºÎ¿ÎºÎºÎ¹ Î½Î¿
ĠÎºÎ¿ÎºÎºÎ¹ Î½Î¯
ĠÎ¯ÏĥÎ± Î¯ÏĥÎ±
ĠÎ´Î¹ÎŃÎº ÏģÎ¹
ĠÎ¿Îº ÏįÏģÎ¹Î¿ÏĤ
ĠÎ´Î¹Î±ÏĥÎºÎŃÎ´Î± ÏĥÎ·
ÏĥÏĦÎ±Î¼Î¬ ÏĦÎ·ÏĥÎµ
ĠÎ¶ÏīÎ³ÏģÎ±ÏĨÎ¹ ÏĥÎ¼ÎŃÎ½Î¿
ĠÎĽÎ¬Î¶Î± ÏģÎ¿
ĠÎºÎ¿ÏģÎ¿ÏĬ Î´ÎµÏįÎ¿ÏħÎ½
ĠÏĥÎºÎµÏĢ ÏĦÏĮ
ĠÏĨÎ±Î½Î¿ÎºÏĮ ÏģÎ¿ÏħÏĤ
ĠÎ¬Î³Î½Ïī ÏĥÏĦÎ·
ĠÎ¼Î¿Î½Î±Ïĩ ÏĮ
ĠÎ¼Î¿Î½Î±Ïĩ Î¹ÎºÏĮ
ĠÎºÎ¹Î½Î´ÏħÎ½Îµ Ïį
ĠÎµÎ³ÎºÎ±ÏĦÎ± Î»ÎµÎ»ÎµÎ¹
ĠÎ²Ïģ ÏħÏĩÎ®Î¸Î·ÎºÎµ
ĠÎºÎ±ÏĦÎ· Î³Î¿Ïģ
ĠÎ²Î±ÏģÎµ Î¸ÎµÎ¯
ĠÎ£ÏĦÏģÎ¬ ÏĦÎ¿
ÎĳÏĢ Î¿ÏĨÎ¬ÏĥÎ¹
ĠÎºÎ±Î¸Î¯ ÏĥÎ¿ÏħÎ½
ĠÎºÎ±Î¸Î¯ ÏĥÎµÎ¹ÏĤ
ĠÏĥÏħÎ½Î½Îµ ÏĨÎ¯
ĠÏĥÏħÎ½Î½Îµ ÏĨÎ¬ÎºÎ¹Î±
ĠÏĢÏģÎ¿ÏĥÏĢÎ± Î¸ÎµÎ¯
ĠÎ±ÎºÎ¯Î½Î· ÏĦÎ¿
ĠÎ±ÎºÎ¯Î½Î· ÏĦÎ¿ÏĤ
ĠÏĢÏģÎ¿Î·Î³Î¿Ïį Î¼ÎµÎ½ÎµÏĤ
ÎĻÎļ ÎŁ
ĠÎ¼Î¿Î½Î¬ ÏĩÎ¿ÏĤ
ÎĴÎ»ÎŃ ÏĢÎµÎ¹ÏĤ
ĠÎ²ÏģÎ±Î´Î¹Î¬ ÏĥÎµÎ¹
ĠÎ¼ÏĢÎµÏģÎ´Îµ ÏħÏĦÎµÎ¯
ĠÏĦÏĥÎ¯Ïģ ÎºÎ¿Ïħ
ĠÏĢÎµÏģÎ¹ÏĢÎŃÏĦÎµÎ¹ Î¬
ĠÎºÎµÏģÎ´Î¯ ÏĥÎµÎ¹
ĠÏĨÏĦÎ¹Î±Î³ Î¼ÎŃÎ½Î±
ĠÎ¼ÎµÎ»Ïī Î´Î¯ÎµÏĤ
ĠÏĢÎµÏį ÎºÎ¿ÏĤ
ĠÏĢÎ¬ÏģÎµ ÏĦÎµ
ĠÎ£Î® ÎºÏī
ĠÏĩÎ±Î¼Î· Î»Î¬
Î£Îº ÎŃÏĨÏĦÎ·ÎºÎµ
ĠÎ±Î½Î±Î³Î½Ïī ÏģÎ¯ÏĥÎµÎ¹
ĠÎ±Î½Î±ÏģÏīÏĦÎ¹ ÏĮÎ½ÏĦÎ¿ÏħÏĥÎ±Î½
ĠÎĿÎµ ÏģÏİÎ½
ĠÏįÏĨÎ± Î»Î¿
ĠÎºÏģÎ±ÏĦÎ® ÏĥÎ¿ÏħÎ¼Îµ
ÏĥÏħÎ½ÎŃÏĩ Î¹ÏĥÎµ
ÏĥÏħÎ½ÎŃÏĩ Î¹Î¶Îµ
ĠÎºÎ¿ÏħÎ²ÎŃÎ½ÏĦÎ¹Î± Î¶Îµ
ĠÎļÎ¿Î¹ÂµÎ¯ ÏĥÎ·
ĠÏĥÎºÎŃÏĢÎ± ÏĥÎ±Î½
ĠÏĢÎ±Ïģ ÏĦÎµ
ĠÏĢÎ±Ïĩ ÏįÏĤ
ĠÏĢÎ¿Î»Îµ Î¼Î®
Î³Î±ÏĢ Ïİ
ĠÏĪÏħÏĩ Î®ÏĤ
ĠÏĨÎ±Î½ÏĦÎ¬ Î¶Î¿Î¼Î±Î¹
ĠÎĶÎ¹ÏĮÎ½Ïħ ÏĥÎ¿ÏĤ
ĠÏĥÏħÎ³ÏĩÏī ÏģÎµÎ¯ÏĦÎµ
ĠÎ¿ÏģÏĨÎ±Î½ Î¿ÏĦÏģÎ¿ÏĨÎµÎ¯Î¿
ĠÎ½Î¿Î¹ÎºÎ¿ ÎºÏį
ĠÎ¸Î¬Î¼ Î½Î¿
ĠÎ¼Î¿Î»Ïħ Î²Î¬ÎºÎ¹
ĠÎµÏģÏī ÏĦÎµÏħ
ĠÎ³ÏĮÎ½Î± ÏĦÎ¬
ĠÏĥÏĦÏģÏİ Î¼Î±
ĠÎ¬Ïĩ ÏħÏģÎ±
ĠÎ¬Ïĩ ÏģÎ·ÏĥÏĦÎ±
ĠÎ»Î¿Î³ Î¹ÎºÏĮ
ĠÎ»Î¿Î³ Î¹ÎºÎ®
ĠÎ±Î½ÏĮÎ· ÏĦÎ¿
ĠÎ£ÏĮ Î»Î¿Î¼Î¿Î½
ĠÏĩÎ±ÏĥÎ¼Î¿Ïħ ÏģÎ¹
ÎĳÎºÎ¿Ïį ÏĥÏĦÎµ
ĠÎĪÎº Î¿ÏĪÎµ
ĠÎ½ÎµÏħ ÏģÎ¹Î±
ĠÎ³ÏħÎ¬Î»Î¹ Î½Î¿
ĠÏĦÏģÎ±Î² Î¿ÏįÏĥÎµ
ĠÎĻÎ½ Î´Î¯Î±
ĠÎºÏģÎµÎ¼Î¬ ÏĥÎ¿ÏħÎ½
ĠÏĢÏħÏģÎ±Î¼Î¯ Î´ÎµÏĤ
Î³ÏģÎ¬ÏĨ Î¹ÏĥÎµ
ĠÏĩÎ±Î¼Î¿Î³ÎµÎ»Î± ÏĥÏĦÎ¬
ĠÎ±Î³ÏģÎ¹ÏĮ ÎºÎ¿ÏĦÎµÏĤ
ĠÏĥÎºÎ±ÏģÏĨÎ± Î»ÏİÏĥÎµÎ¹
ĠÂµÏĢÎ±ÂµÏĢÎ¬ ÏĤ
ĠÏĨÎ±ÏģÎ¼Î±ÎºÎ¿ÏĢÎ¿Î¹ Î¿Ïį
ĠÏĨÎ±ÏģÎ¼Î±ÎºÎ¿ÏĢÎ¿Î¹ ÏĮÏĤ
ĠÏĢÎ»Î® Î¸Î¿ÏĤ
ĠÏĢÎ»Î¿Ïħ Î¼Î¹
ĠÎ½Î¹Îº Î·ÏĦÎ®
ĠÎŃÎºÎ±Î¹ Î³Î±Î½
ĠÏĦÎ¿ÏħÏģ ÏĦÎ¿ÏħÏģÎ¯Î¶Î¿Î½ÏĦÎ±ÏĤ
ĠÎ³Î¿ÏįÏģ Î»ÏīÏĥÎµ
ĠÏĦÎ±Î»Î±Î¹ÏĢÏī ÏģÎ·
ĠÎ²ÏģÎ¿Î½ ÏĦÎµÏģÎ®
ĠÎ»Î¬Ïĥ ÏĢÎµÏĤ
ĠÎ±ÏĢÏĮÎ»Ïħ ÏĦÎ±
ĠÎ¸Î±Î»Î± ÏĥÏĥ
Î²Î±Î¯ ÏīÏĥÎµ
ĠÎ´ÎµÎ»ÏĨ Î¯Î½Î¹
ĠÎºÎ±ÏĦÎ¬Î»ÎµÏħ ÎºÎ¿
ĠÎļÎ±Î¸ ÏĮÏĦÎ±Î½
ĠÎļÎ±Î¸ ÏĮÎ»Î¿Ïħ
ĠÎ±ÏģÏĩÎ¿Î½ ÏĦÎ¹ÎºÏĮ
ĠÎ¿ÏĢÎ¿Î¯ Î¿ÏħÏĤ
ĠÏĥÎºÎµÏĢÎ¬ ÏĥÎµÎ¹
ĠÏģÎ¯ÏĩÎ½ ÎµÎ¹
ĠÏĨÎ¿ÏħÏĥÎº ÏİÎ½ÎµÎ¹
ĠÏĥÏĦÎ±Î¸Î¼Î¬ ÏģÏĩÎ·
ĠÏĥÎºÎ¿ÏģÏĢÎ¯ ÏĥÏĦÎ·ÎºÎ±Î½
Î³ÎµÎ¯ ÏīÏĥÎ·
ĠÎµÎ»ÏĢÎ¯ Î¶Î¿Î½ÏĦÎ±ÏĤ
ĠÎ½Î¹ÎºÎ® ÏĥÎµÎ¹
ĠÎ¼ÎµÏĦ ÏģÎ®ÏĥÏī
ĠÎºÎ±ÏĨÎµ ÏĦÎ¹Î¬
ĠÎ¾ÎµÎ½ Î¿Î´
ĠÏĦÎ¹Î½Î¬ ÏĩÏĦÎ·ÎºÎµ
ĠÏĩÎ±ÏģÎ±Îº ÏĦÎ·
ÎŃÏĨÎ± Î»Î¿ÏĤ
ĠÎ¼ÏĢÎ±Î» ÏĮÎ½Î¹Î±
ĠÎĳÎ½ÏĦÏģÎŃ Î±
ÏĥÎºÎµÏĨ ÏĦÎµÎ¯
ĠÏĢÎ±ÏģÎ±Î¼ÏħÎ¸ ÎŃÎ½Î¹Î±
ĠÎ³ÎºÏģÎ¯ Î¶Î±
ĠÏĦÎ¿ÎºÎ¿Î³Î»Ïį ÏĨÎ¿
ĠÏĦÎ±Î¹ ÏģÎ¹Î¬
ĠÏĦÎ±Î¹ Î½Î¯ÎµÏĤ
ÏĥÎ¼Î¬ ÏĦÏīÎ½
ĠÎºÎ»Ïİ ÏĥÎ¹Î¼Î¿
ĠÎ±ÏĩÎ½ ÏĮ
ĠÎ¿ÏģÎ¸ Î¿Î³ÏģÎ±ÏĨÎ¯Î±
ĠÎ¼Î±Î¸Î· ÏĦÎ®ÏĤ
ĠÎºÎ¬Î½Î± ÏĦÎµ
ĠÎºÎ¹Î½Î· ÏĦÎ®ÏģÎ±
ĠÎŁÏħ ÏģÎ±Î½ÏĮ
ĠÎ¾ÎµÏĩÏİ ÏģÎ¹Î¶Îµ
ĠÎ´ÎµÏĩ Î¸ÎµÎ¯
Î¿ÏĨÎ± Î³Ïī
ĠÎĴÎ¬Î¹ Î½Î±
ĠÎºÎ±Î½Î¬ ÏĦÎ±
ĠÎ²Î¬ÏĥÎ±Î½ Î±
ĠÎĽÎŃ ÎµÎ¹
ĠÎłÎ±Ïį Î»Î¿ÏĤ
ĠÎºÏħÎ½Î·Î³Î¬ ÏĤ
ĠÎ¼Î±Î½ÏĦÎ± ÏģÎ¯Î½Î¹Î±
ĠÏĥÏħÎ½Î±Î½ÏĦÎ® Î¸Î·ÎºÎ±Î½
ĠÏĥÏħÎ³ÎºÎµÎ½ÏĦ ÏģÏİÎ¸Î·ÎºÎ±Î½
ĠÎ¾ÎµÎºÎ¹Î½Î® ÏĥÏī
ĠÎ¾ÎµÎºÎ¹Î½Î® ÏĥÎ¿ÏħÎ½
ĠÎ´Î·Î¼Î¹Î¿ÏħÏģ Î³Î®ÏĥÎµÎ¹
ĠÏĥÏĦÏģÎ¹ÏĨÎ¿Î³ Ïħ
ĠÎµÎ³Î³Î¿Î½ Î¬ÎºÎ¹Î±
ĠÎ²ÏģÏİÎ¼Î¹Îº Î·
ĠÏĩÎµÎ¹ÏģÎ¿ÎºÏģÎ¿ ÏĦÎ®Î¼Î±ÏĦÎ±
ĠÏĥÏĨÏħÏģÎ¯ Î³Î¼Î±ÏĦÎ±
ĠÏĩÏģÏħÏĥÎ¿ ÎºÎ»Ïī
ĠÎºÎ±Î»Î¿ÏĥÏħÎ½Î¬ ÏĦÎ¿
Î´ÎŃ ÏĩÎµÏĥÎ±Î¹
ĠÏĨÎ»Î¹ÏĦÎ¶ Î¬Î½Î¹Î±
ĠÎ¸ÎµÎ¯ Î¿ÏĤ
ĠÎľÎ¯Î½Ïī Î±ÏĤ
ĠÎłÎ±Î½ ÏĦÎ¿Ïį
ĠÏĢÎ±Î¹ÏĩÎ½ Î¹Î´Î¹Î¬
ĠÏĢÎ®ÏģÎ± Î¼Îµ
ÎĳÏĥÏĦÏģÎŃÎ½ Î¹Î¿
ĠÏĪÎµÏį ÏĦÎ¹ÎºÎ±
ĠÎ±ÏħÎ»Î¹ ÎºÎ¿ÏįÏĤ
ĠÎºÎ±ÏĦÎ±ÏĥÎºÎµ Ïħ
ĠÏĨÎ±Î»Î±Î¹Î½ ÏİÎ½
ĠÏĨÎ±Î»Î±Î¹Î½ Î¿ÏĢÎ±Î¹
ĠÏīÎºÎµ Î±Î½ÏĮ
ĠÏĢÎ»Î·ÏģÎ¿ÏĨ Î¿Ïģ
ĠÏĨÎ±Î½Îµ ÏģÎ®
ĠÎ¶ÎµÏĥÏĦÎ¬ Î½ÎµÎ¹
ĠÏĢÎ±ÏģÎŃÏĥÏħ ÏģÎ±Î½
ĠÏĩÏĦÏħÏĢÎ® ÏĥÎµÎ¹ÏĤ
ĠÎ±Î¹Ïĩ Î¼Î±
ĠÎ±ÎºÎ¿ÏħÎ¼ÏĢ Î¿ÏįÏĥÎµ
ĠÎ±ÎºÎ¿ÏħÎ¼ÏĢ Î®ÏĥÎµÎ¹
ĠÏĥÎºÎ»Î·ÏģÏĮ ÎºÎ±Ïģ
ĠÏĦÎ±Î¾Î¹Î´Î¹ ÏİÏĦÎµÏĤ
ĠÎ¿Î»Î¿Î¼ÏĮÎ½Î± ÏĩÎ·
ĠÎĳÏĨÏģÎ¿Î´Î¯ ÏĦÎ·
ĠÎ¼Î¹ÎºÏģÎ¿ÏĥÎºÎ¿ÏĢ Î¹ÎºÎ¬
ĠÎµÏįÏĩ Î¿Î½ÏĦÎ±Î½
ĠÎµÏįÏĩ Î¿Î½ÏĦÎ±Î¹
ĠÏĨÎ¸Î¬ ÏĥÎµÎ¹
ĠÏĨÎ¸Î¬ ÏĥÎ¿ÏħÎ½
ĠÎ²Î´Î¿ Î¼Î¬Î´ÎµÏĤ
ĠÎ¼Î±Î¸Îµ ÏįÏĦÎ·ÎºÎµ
ĠÎºÎ¬ÏĦÎ±ÏĥÏĢ ÏģÎ¿
ĠÎķÎ¾ Î¬Î»Î»Î¿Ïħ
ÎºÎ¬Î¸Î± ÏģÎ±
ÎłÏģÎ¿Ïĩ Ïī
ĠÎºÎ¿ÏħÏģ ÏĦÎ¯Î½Î±
ĠÏĦÎµÎ¼ÏĢ ÎŃÎ»Î·ÏĤ
ĠÏĢÏģÎ¿ÎµÎ¹Î´ Î¿ÏĢÎ¿Î¹Î®ÏĥÎµÎ¹
ĠÎ¸ÏħÂµÏī ÂµÎŃÎ½Î¿ÏĤ
ĠÎ¼ÎµÎ³Î±Î»ÏĮÏĢÏģÎµ ÏĢÎ·
ĠÏĥÎºÎµÏĢÎ± ÏĥÎ¼ÎŃÎ½Î¿
ĠÎ£ÏĦÎ±Î¼Î¬ ÏĦÎ·ÏĥÎµ
ĠÎ£ÏĦÎ±Î»Î±ÏĩÏĦÎ¯ ÏĦÎ±
ĠÏĢÎ±ÏģÎ±Î¼ÏħÎ¸Î¹ Î¿Ïį
ĠÎ´Î·Î»Î· ÏĦÎ®ÏģÎ¹Î¿
ĠÎ±Î½ÏĦÎ¹ÎºÎµÎ¯ Î¼ÎµÎ½Î±
ĠÎ¼ÏĢÎ¿ÏħÎ¼ÏĢÎ¿Ïį ÎºÎ¹Î±
ĠÎ³Î¹Î¿ÏģÏĦÎ¬ ÏĥÎ¿ÏħÎ¼Îµ
ĠÎŃÎ½ÏĦÎ¿Î½ Î·
ĠÏĥÏĢÎ¿ÏħÏģÎ³Î¯ ÏĦÎ¹Î±
ĠÎµÏĢÎ±Î½Î± Î»Î±Î¼Î²
ĠÎĶÎ·Î¼Î® ÏĦÏģÎ·
ĠÏĢÎ±ÏģÎ±ÏĢÎ¿Î½Î¹ ÎŃÏĦÎ±Î¹
ĠÏħÏĢÎ¿ÏĪÎ® ÏĨÎ¹Î¿
ÎµÎº ÏĦÏĮÏĤ
ĠÎºÎ¿ÏĨ ÏĦÎµÏģÎ¬
ĠÎ±Î¸Ïİ Î±
ĠÎ´Î¿ Î¸ÎµÎ¯
ÏģÎ±Ïĩ Î®
ĠÏģÎ¿ÏĩÎ± Î»Î·ÏĦÏĮ
ĠÏĥÏħÎ½Î¬ Î¼Î±
ĠÎ±Î½Î±Î² Î¿ÏĥÎ²Î®
ĠÎ±Î½Î±ÏĩÏİ ÏģÎ·
ĠÏĢÏģÎ¿ÏĥÏī ÏĢÎ¬ÎºÎ¹
ĠÎīÎ¾Îµ ÏģÎ±
ĠÎ¦Î¿ Î²Î®Î¸Î·ÎºÎµ
ĠÎ¸ÏħÂµ Î¬ÏĥÎ±Î¹
ĠÏĨÏĮÏģ ÏĦÏīÏĥÎµ
ĠÎ¿Î»ÏĮÏĩ ÏģÏħÏĥÎ±
ĠÏĥÎºÎ¿ÏĦÏİ ÏĥÎ¿ÏħÎ½
ĠÎ»ÏħÎ³ Î¼Î¿ÏįÏĤ
ĠÎºÎ±Î¹Î½Î¿ÏįÏģÎ³Î¹ Î¿ÏħÏĤ
ĠÎ¬ÏģÎ¼Îµ Î³Îµ
Î¼ÏĢÎ±Î¼ÏĢÎ¬ ÏĤ
ĠÎľÎ¹Î½ÏİÏĦÎ± ÏħÏģÎ¿
ĠÎľÎ¹Î½ÏİÏĦÎ± ÏħÏģÎ¿ÏĤ
ĠÎ±Î½Î±ÏĢÎ¬Î½ÏĦÎµ ÏĩÎ¿
ĠÎºÎ¹Î½Î´ÏįÎ½Îµ ÏħÎµ
ĠÎ´Î·Î¼Î¹Î¿ÏįÏģ Î³Î·ÏĥÎµ
ĠÏĨÎ¿ÏħÎ½ÏĦÏī ÏĦÎ®
ĠÎºÎµÎ»Î±Î·Î´ Î¿ÏįÏĥÎµ
ĠÎ±ÏĥÏĦÏģÎ±ÏĨÏĦÎµ ÏģÎ¬
ĠÏĢÎµÏģÎ±ÏĥÏĦÎ¹ ÎºÎ¿Î¯
ĠÎµÎ³ÎºÎ±ÏĦÎ±Î»ÎµÎ¯ ÏĪÎµÎ¹
ĠÎ²ÎµÎ»Î¿ÏįÎ´Î¹ Î½Î¿
ĠÎºÎ±Î»Î±Î¼ÏĢÏĮ ÎºÎ¹
ĠÎºÎ±Î»Î±Î¼ÏĢÏĮ ÎºÎ¹Î±
ĠÏĥÏĩÎ¹ Ïĥ
ĠÎ±Î¾ ÎŃÏĩÎ±
ĠÎ±Î¼Î± Î¾Î¬
ĠÎµÎ½Îµ ÏģÎ³
ĠÎ½Î¬ Î¶Î¹Î±
ĠÎ½Î¿ÏįÎ¼Îµ ÏģÎ¿
ĠÎ²ÏģÏĮ Î¼Î¹Îº
ĠÏĩÎ¬Î»Î± ÏĥÎµÏĤ
ĠÎ¼Î±ÏģÎ¼Î± ÏģÎ¬ÎºÎ¹Î±
ĠÎĶÎ¹Î¬ Î²Î±ÏĥÎµ
ĠÎ¾ÎµÏĨ ÏİÎ½Î¹ÏĥÎµ
ĠÎ¾ÎµÏĦÏģÎµ Î»Î±
ĠÎºÎ¿ÏħÏĨÎ¬ Î»Î±
ĠÏĩÏīÏģÎ± ÏĨÎ¬ÎºÎ¹
ĠÏĢÎ±Î½ÏĦÎµÎ» ÏĮÎ½Î¹
ĠÎµÎ¼ÏĢÎ¹ ÏĥÏĦÎµÏį
ĠÎºÏģÏįÎ² Î¿Î½ÏĦÎ±Î½
ĠÏĥÏĦÎ¬Ïĩ ÏĦÎ·
ĠÏĦÏĥÎ±ÎºÏİÎ½ Î¿Î½ÏĦÎ±Î¹
ĠÎµÏĢÎ¹ÏĥÏĦÏģÎŃ ÏĪÎ¿ÏħÎ¼Îµ
ĠÏĥÎºÎ¿ÏħÎ»Î· ÎºÎ¬ÎºÎ¹
ĠÎ¾ÎŃÏĩÎ± ÏĥÎ±
ĠÎ³Î±ÏĬÎ´Î¿Ïħ ÏģÎ¹Î½Î¬
ĠÎ±ÏĢÎ¿ÎºÎ±Î¼Ïī Î¼ÎŃÎ½Î¿ÏĤ
ĠÎ±Î½ÏĦÎ·Ïĩ Î¿ÏįÏĥÎµ
ĠÎłÎ»Î¿ÏįÏĦÏī Î½Î±
Î±Î´ÎµÏģÏĨ Î¿ÏįÎ»Î±
ĠÎºÎ»ÏīÎ½ Î¹Î¬
ĠÏĢÏģÎ± ÏĥÎ¹
ĠÏĢÏģÎ±Î³ÂµÎ± ÏĦÎ¹ÎºÎ¬
ĠÎ±ÏĩÎ¹ Î½ÏĮ
ĠÎŃÏĥÏĦÎµÎ» Î½Îµ
ĠÎ½Î±ÎºÎ¿Î¹ Î¼Î·Î¸ÎµÎ¯
ĠÏĨÏįÏĦÎµ ÏĪÎµ
ĠÏĨÎ¸Î¬Î½ Î¿ÏħÎ½
ĠÎºÎ±ÏĦÏĥÎ± ÏģÏĮÎ»Î±
ĠÎºÎ±ÂµÎ¹ Î½Î¬Î´Î±
ĠÎ¸ÎŃÎ»Î± Î¼Îµ
ĠÎ¤Î¿ÏĥÎ¿Î´Î¿Ïį Î»Î·ÏĤ
ÎºÎ±Î¸ ÏĮÎ»Î¿Ïħ
ĠÏĥÏĦÎ±ÂµÎ¬ ÏĦÎ·ÏĥÎµ
ÎºÎ¿ÏħÎ¬ Î¶
ĠÏĦÎµÏĩÎ½Î¯ ÏĦÎ·ÏĤ
ĠÎĴÏĮ ÏģÎµÎ¹Î¿
ĠÎ´Î¹Î±Î´ÏģÏĮ Î¼Î¿ÏħÏĤ
ĠÎ±ÏĢÎ¿Î³Î¿Î®ÏĦÎµÏħ ÏĥÎ·
ĠÎµÏĢÎ¹Î²Î»Î· ÏĦÎ¹ÎºÎ®
ÎŃÏĨÏĦÎ± ÏĥÎ±Î½
ĠÎ¼ÎµÏĦÎ¬Î½Î¹ ÏīÏĥÎµ
ĠÏĢÎ±Î½Î·Î³ ÏįÏģÎ¹
ĠÎ¼ÏĢÎ±ÏĥÏĦ Î¿ÏįÎ½Î¹
ĠÎµÏħÏĩÎ¬ÏģÎ¹ ÏĥÏĦÎ±
ĠÏĢÎµÏģÎ¯ÏĢÎ± ÏĦÎ¿
ĠÎ´Î¹ÏĪÎ¬ Ïī
ĠÎ¼Î¹Î»Î¿Ïį ÏĥÎ±
ĠÎ³Î¬Î¹Î´Î± ÏģÎ¿
ÏĢÎ¿ÏģÏĦÎ¿ ÎºÎ±
ĠÎµÏħÏī Î´Î¹Î¬
ĠÏĦÏħÎ»Î¹Î³ Î¼ÎŃÎ½Î¿
ĠÎºÏħÏģÎ¬ÎľÎ± ÏĦÎ¯Î½Î±
ĠÏħÏĢÎ·ÏģÎµ ÏĥÎ¯Î±
ĠÎºÎ±ÏĨÎµÎ½ ÎµÎ¯Î¿
ĠÏĩÎ±Î¯ÏģÎµ ÏĥÎ±Î¹
ĠÏĥÏĦÎµÎ½Î¿ÏĩÏīÏģÎ¹ ÎŃÏĥÎ±Î¹
ĠÎĳÎ¹Î³ ÎŃÎ±ÏĤ
ĠÏĥÎ²Ïİ Î»Î¿
ĠÎºÎ¿ÎºÎºÎ¹Î½ Î¯Î¶ÎµÎ¹
ĠÎĽÎµÎ¼Î¿Î½Î¿Î´Î¬Ïĥ Î¿ÏħÏĤ
ĠÎµÏģÎ·Î¼Î¯ ÏĦÎ·ÏĤ
ĠÎ¼ÏĢÎ±Î»Îº ÏĮÎ½Î¹
ĠÎłÎ±ÏģÎ¬Î´ÎµÎ¹ ÏĥÎ¿
ĠÎ¦Î¯Î»Î±Î½ Î´ÏģÎ¿ÏĤ
ĠÎ±Î»Î±Î¶Î¿Î½ ÎµÎ¯Î±
ĠÎ±Î³Î±Î½Î¬Îº ÏĦÎ·ÏĥÎ·
ĠÏĦÎŃÏĩ Î½Î·
Î¯ÏģÎ½ ÎµÎ¹
ĠÎ¼Î½Î· ÏĥÏĦÎ®
ĠÎ¼Î¿ÏģÏĨ ÎŃÏĤ
ĠÎµÏĢÎµ Îº
ĠÎŃÎ½Ïī Î½Îµ
ĠÎ½Î±ÎºÎ¬Î½ Î¿ÏħÎ½
ĠÏĥÏĦÏģÎ¿Ïħ Î¸Î¿
ĠÏĨÏĦÏİ ÏĩÎµÎ¹Î±
Î²Ïħ ÏĥÏĥÎ¿
ĠÎºÎ±Âµ Î¹Î¬
ĠÎ¬Î³Î± Î»Î¼Î±
ĠÎ¤ÏģÎ¿ Î¼Î±Î³
ĠÏĥÏħÎ¼ÏĢÎ¬ Î¸ÎµÎ¹Î±
ĠÏģÎ¿ÏĩÎ¬Î»Î¹ Î¶Î±Î½
ĠÏĥÎºÏħÏĨ ÏĦÏĮ
ĠÏĩÎ±ÂµÎ· Î»Î¬
ĠÎ²Î±ÏĥÎ¹Î»ÎŃ Î±ÏĤ
ĠÎºÎ¿ÏħÎºÎ¿ÏħÎ½ Î¬ÏģÎ¹Î±
ĠÎ±ÏģÎ¼Î± Î¸Î¹Î¬
ĠÂµÎµÎ»Ïī Î´Î¯ÎµÏĤ
ĠÎĨÏģ ÏĦÎµ
ĠÎ±ÏģÏĩÎ±Î¹ Î¿Î»ÏĮ
ĠÎ»Î±Î¯Î¼Î± ÏģÎ³Î¿ÏĤ
ĠÏĨÏħÎ»Î»Ïī ÏĥÎ¹ÎŃÏĤ
ĠÂµÎ±ÎºÏģÎ¹ Î½Î¬
ĠÎ±ÎµÏģÎ¿ Î´ÏģÏĮÎ¼Î¹Î¿
ĠÏħÏĢÎ¿Î»Î¿Î³ Î¯ÏĥÎµÎ¹
ĠÏĢÎ»Î±ÎºÏĮÏĥÏĦÏģÏī ÏĦÎ¿
ĠÏĨÏħÎ»Î±Îº Î¯ÏĥÎµÎ¹
ĠÏĥÎ¿ÏĨÎ¯ ÏĦÎ±
ĠÏĥÏħÎ³ÏĩÏİ ÏģÎ·ÏĥÎµ
ĠÎĸÎ±Î¼Î¶Î± Î¼Î¿ÏĩÏİÏģÎ±
ĠÎ±Î½ÎŃÎ¼Îµ Î»Î±
ĠÎ³Î±ÏģÎ³Î±Î»Î¿ÏĬ ÏĮ
ÎĸÎ® ÏĦÏī
ĠÎĽÎ±Î²ÏįÏģÎ¹Î½ Î¸Î¿
ĠÎ¤Î·Î»ÎŃÎ¼Î± ÏĩÎ¿ÏĤ
ĠÎ³Î¿Î· ÏĦÎµÏħ
ĠÏħÏĢÎ¬Î»Î»Î· Î»Î¿Î¹
ĠÎ·Î¼ÎµÏģÎ¿Î»ÏĮ Î³Î¹Î¿
ĠÎ³ÎµÏģÎ¿Î½ÏĦÎ¬ ÎºÎ¿ÏĤ
ĠÎµÏĥÏĦÎ¹Î±ÏĦÏĮ ÏģÎ¹Î¿
ĠÎ³ÏģÎ·Î³Î¿ÏģÏĮ ÏĦÎµÏģÎ±
ÏĢÏģÎ±Î³ÂµÎ± ÏĦÎ¿ÏĢÎ¿Î¹
ÎºÏģÎ¬ ÏĦÎ·ÏĤ
ÏĮÎ¿Ïħ ÎºÎ±
Î³Î¯Î³Î±Î½ ÏĦÎ±ÏĤ
ĠÎ½ÏĦÏģÎµ ÏĢÏĮÏĦÎ±Î½
Î¸ÏĮÏģÏħ Î²Î±
ĠÎ´ÏģÎµÏĢ Î¬Î½Î¹
ĠÎ³Î»Î± ÏģÎ¿ÏĢ
ĠÏĥÏĦÎ¿ÏģÎ³ Î¹ÎºÎ¬
ĠÏĢÎ±ÏĩÎ¿Ïħ Î»ÎŃÏĤ
ĠÎ¼Î±Î³Îº Î¬Î½Î¹
ĠÎ¼ÏĢÏģÎ¿Ïĥ ÏĦÎ¹Î½Î¬
ĠÎĶÎŃÎ»ÏĨÎ¹ Î½Î¿ÏĤ
Î»ÏĮÎ¾ÎµÎ½ Î·
ĠÎºÎ±Î¸ÏģÎµÏĨÏĦÎ¯ Î¶ÎµÏĦÎ±Î¹
ĠÎºÏħÎº Î»Î¿ÏĨ
ĠÎºÎ±ÏĦÎ±ÏĨÎ± ÏĦÎ¹ÎºÎ¬
ĠÎĨÏĨÎ· ÏĥÎŃ
ĠÎºÏģÎ±ÏĥÎ¿ Î²Î¬ÏģÎµ
ĠÎ´ÏħÎ½Î±ÏĦÏĮÏĦÎµ ÏģÎ¿ÏĤ
ĠÎ³Î±ÏģÎ¯ ÏĨÎ±
ĠÏĥÏĩÎ¿Î»Î¯Î± Î¶Î±Î½
ĠÎºÏģÎµÎ¼Î¼Ïį Î´Î¹Î±
ĠÎ§ÏģÎ¹ÏĥÏĦÎ¿ÏħÎ³ÎµÎ½Î½Î¹Î¬ ÏĦÎ¹ÎºÎ¿
ĠÎ´Î¹ÎºÎ±Î¯ ÏīÎ¼Î±
ĠÎ´ÏģÎ¿Î¼ Î¿Î»ÏĮ
ĠÎ±Î½ÏĦÎ¬Î»Î»Î± Î³Î¼Î±
ĠÎĳÎ¯Î³ÏħÏĢ ÏĦÎ¿
ĠÎ´Î·Î»Î·ÏĦÎ·ÏģÎ¹Î± ÏĥÎ¼ÎŃÎ½Î±
ĠÎºÏħÏģÎ¹ÎµÏį ÏĥÎµÎ¹
ĠÎ±ÏĩÏİÏģÎ¹ÏĥÏĦ Î¿Î¹
âĦ ¦
ĠÎ¼ÏħÏĦ Î¿ÏįÎ»Î±
ĠÎµÏĥÏī ÏĦÎµ
ĠÎµÏĢÎ¬ Î³Î³ÎµÎ»Î¼Î±
ĠÎµÏģÎµÎ¹ ÏĢÏī
ĠÎ´Î¿Î½ÏĦÎ¬ ÎºÎ¹Î±
ĠÎ»Î·Ïĥ ÂµÎ¿Î½Î¹Î¬ÏĤ
ĠÏĦÎ·ÏĤÎºÎ±ÏģÎ´Î¹Î¬ ÏĤ
ĠÏĢÎ±ÏģÎ¿Î¹ Î¼Î¯Î±
ĠÎ¾ÏħÎ»Î± ÏģÎ¬ÎºÎ¹Î±
ĠÎ¼ÏĢÎ»Î¿Ïį Î¶Î±
ĠÎļÎ»Ïī Î¸Ïİ
ĠÎļÎ¹ÎºÏĮ ÏģÎ±Î½
ĠÎ±Î½ÏĦÏģÏĮ Î³ÏħÎ½Î¿
ĠÎ±Î½Î¿Î· ÏĥÎ¯ÎµÏĤ
ĠÎºÎ¹Î¼Ïī Î»Î¯Î±
Î²Î±ÏĥÎ¹Î»Î¹Î¬ ÏĤ
ĠÎĹÎ»ÎŃÎº ÏĦÏģÎ±
ĠÎ²Î±ÏĥÎ¹Î»Î¿ÏĢ Î¿ÏįÎ»ÎµÏĤ
ĠÎ³ÎµÎ»Ïī ÏĦÎ¿ÏĢÎ¿Î¹
ĠÎ³ÎµÏģÎ¿Ïħ ÏĢÎ¿ÏħÏģÎ³ÏĮÏĤ
ĠÏĥÎ±Î½Î´Î¬ Î»Î¹Î±
ĠÏĨÎ¯Î¼Ïī ÏĦÏģÎ¿
ĠÏĨÎ±ÏĥÏĮ Î»Î¹Î±
ĠÎĨÎ½ÏĦÎ± Î¼
ĠÏĥÎ·ÂµÎ±Î½ ÏĦÎ¹ÎºÏĮ
ĠÎ±ÎºÏģÎ¿ÏĢÎ¿ ÏĦÎ±
ĠÎľÎµÏĥÎ¿ÏĢÎŃÎ»Î± Î³ÏīÎ½
ĠÎµÏĢÏģÏĮÎºÎµÎ¹ ÏĦÎ¿
ĠÎ±Î½ÎµÎ¾Î® Î³Î·
ĠÎºÎ¿Î½ÏĦÎ¹Î½ ÏĮÏĦÎµÏģÎ¿
Î±ÏħÏĦÎ¿ÎºÎ¯Î½Î· ÏĦÎ¿
ĠÏĦÏģÎ±ÏĢÎµÎ¶Î¿Î¼Î¬Î½ÏĦÎ¹ Î»Î¿
! âĢ¦
! ....
! ".
2 0
; ",
; âĢĿ.
K Î¹
a y
c h
e ck
o n
r i
Ġ &
Ġ in
Ġ ch
Î± ÏģÎ±
Î± ÏĦÎµ
Î± Î»Î¹
Î± ÎºÎ¿Ïħ
Î± Î»Î·Î¸Î¹
Î± ÎºÎ¿ÏįÎ»Î±
Î± ÎºÏĮÎ¼Î·
Î± Î³Î³ÎµÎ»Î¯Î±
Î¿ ÏĦÎ¬
Î¹ Î½
Î¹ ÏĥÎ·
Î¹ ÏĮÏĦÎ±Î½
Î¹ ÏĮÎ½Î¹
Î¹ ÏĥÏĦÏİ
Î¹ ÏĩÎ¬Ïģ
Îµ Î»
Îµ ÏģÎ®
Îµ ÏħÎ³Îµ
Îµ ÏĥÎŃÎ½Î±
Î½ ÏĦÎ¹
Î½ ÏĦÎ·
Î½ ÏįÏĩ
Î½ Î¿Î½ÏĦÎ±Î¹
Î½ ÎŃÎ±
Î½ ÏīÎ½Î¯Î±
Î½ ÏĮÏĦÎµÏĤ
ÏĦ Ïģ
ÏĦ ÏĥÎ±Î½
ÏĦ ÎŃÏģ
ÏĦ ÏĮÏĥ
ÏĦ ÏģÎ¿Ïį
ÏĦ ÏĮÎ½Î¹
ÏĦ ÏģÎ·ÏĥÎµ
ÏĦ ÏĮÎ½ÏĦÎ¿ÏħÏĥÎ±Î½
ÏĦ ÎŃÎ½Î¹Î±
ÏĦ ÏİÎ½Î¿ÏħÎ½
ÏĦ Î¶Î¯ÏĦÎ¶
Ïģ Î¼Î¿Ïį
Ïģ Î¿ÏįÎ½ÏĦÎ±Î¹
Ïģ Î¿ÏįÎ½ÏĦÎ±Î½
Ïģ ÏģÎ·ÏĥÎ·
Ïģ ÂµÎ¿Ïį
Ïģ Î»Î¬Î½
Ïģ ÎºÎ¿ÏħÎ¬Î¶
ĠÏĦ Î¼Î®
ĠÏĦ Î¶Î¹
Î¬ Î´Îµ
Î¬ ÎºÎ¿Ïħ
Î¬ Î´ÎµÏĤ
Î¬ ÏģÎµÏĥÎ±Î½
Î» Î»ÎµÏħ
Î» Î¼ÎŃÎ½Î·
Î» ÏĢÏī
Î» Î»ÏīÎ½
Î» Î¿ÏĥÏįÎ½Î·
Ïĥ ÏĨ
Ïĥ ÏĢÎ±
Ïĥ ÎºÎµÎ¯
Ïĥ ÏĦÎ±ÏĤ
Ïĥ ÏĦÎ¹Î¬
Ïĥ ÏĥÎ¹Î¬
Ïĥ Î¸ÎµÏĥÎµ
Î· Î»Î¬
Î¯ Î¾Îµ
Î¯ ÏĥÎµÎ¹ÏĤ
ĠÎº ÏĦÎ¯
ĠÎº Î»Î¿ÏĢ
Î¿Ïħ Î³Îº
Î¿Ïħ ÏģÎ¬ÎºÎ¹
Î¿Ïħ Î¸Î¿ÏįÎ½
ÏĢ Î¹Îº
ÏĢ Î¿ÏįÏĥÎµ
ÏĢ ÎŃÏĤ
ÏĢ ÏİÏĤ
ÏĢ ÏģÏĮÏĤ
ÏĢ ÏİÎ½ÎµÎ¹
ÏĢ ÏģÎ¹Î½
ÏĢ Î¬Î½Î¹Î±
Îº ÏĦÎ±
Îº Ïİ
Îº ÎµÎ½
Îº ÎŃÎ½
Îº ÏģÎ¿
Îº ÏĦÎ·ÏĥÎµ
Îº ÏģÎ¿ÏĤ
Îº ÏĦÏĮ
Îº Î¯ÎµÏĤ
Îº Î»Î®ÏĤ
Îº ÏĦÎ±Ïģ
Îº ÏģÎ±Î¹Î½Îµ
ĠÏĢ ÏģÎ¿Ï
ĠÏĢ Î¿ÏģÏĨ
ĠÏĢ Î½Î¹
ĠÏĢ ÏĦÏīÏĩ
ĠÏĢ ÏģÎ¿Î¹
ĠÏĢ Î¯Î½ÎµÎ¹ÏĤ
ÏĮ Ïģ
ÏĮ ÏĨ
ÏĮ ÏģÎ¹
ÏĮ ÏĢÎ·
ÏĮ ÏĨÎ¿Ïħ
ÏĮ Î±ÏĥÎ·
ÏĮ ÏģÎµÏĪÎ±Î½
ÏĮ Î¼Î¹Î¶Î±
Î¼ Î¿Ïĩ
Î¼ ÎŃÏģÎµÏĤ
Î¼ ÏĮÎ½ÏĦÎ¿ÏħÏĥÎ±Î½
Î¼ Î¿ÏĢÎ¿Î¯Î·ÏĥÎµ
ÎŃ ÏĦÎ¿ÏĤ
ÎŃ Î³ÏģÎ±
ÎŃ Î´ÎµÎ¹
ÎŃ ÏĦÏģÎµÎ¾Îµ
ÎŃ Î²Î±Î»Î±Î½
ÎŃ ÏĦÏģÏīÎ³Îµ
ÎŃ ÎºÎ±Î½ÎµÏĤ
Î±Î¹ Î½Î¬Î´ÎµÏĤ
ĠÎ¼ Î¿Ïĩ
ĠÎ¼ Î½Î®
ĠÎ¼ Î±Î½ÏĦÎ¬
ĠÎ¼ ÏįÏģÎ¹Î¶Î±Î½
ĠÏĥ ÎŃ
ĠÏĥ Î¼Î¯
ĠÏĥ ÏĨÎ¿Ïħ
ĠÏĥ Î³Î¿ÏħÏģÎ¬
ĠÎ± ÏĦÎ±
ĠÎ± Î»Î¿
ĠÎ± Î¼Î®
ĠÎ± ÏĥÏį
ĠÎ± Î¸ÏĮÏģÏħÎ²Î±
Î³ Î¯Î±
Î³ ÎºÏĮ
Î³ ÏİÎ½
Î³ Î¿ÏĢ
Î³ Î¼ÎŃÎ½Î¿ÏĤ
Î³ Î»Ïİ
Î³ Î¼ÎŃÎ½Î¿Î¹
Î³ Î¼ÎŃÎ½ÎµÏĤ
Î³ Î¯Î½Î¿Î½ÏĦÎ±Î½
Î±Î½ Î·
Î±Î½ ÎµÏĤ
Î±Î½ Î¿ÏįÎ»Î±
Î±Î½ Î±ÏĨ
Î±Î½ Î¸Î®
Î±Î½ Î¿Î³ÏģÎ±ÏĨÎ¿Î¼Î·ÏĩÎ±Î½Î®
Ïī ÏĨÏĮ
Ïħ Îº
Ïħ Âµ
Ïħ Î»Î®
Ïħ ÎºÏĦÎ¹ÎºÎ¬
Ïħ ÏĢÎ¬ÏģÏĩÎµÎ¹
Ïħ Î¼Î²Î±Î¯Î½ÎµÎ¹
ÎµÎ¹ Ïĥ
ÎµÎ¹ ÏĮ
ÎµÎ¹ ÎµÎ¹
ÎµÎ¹ Î»Îµ
ÎµÎ¹ Î½Î¿
ĠÎºÎ±Î¹ ÏĩÎ±
ĠÎºÎ±Î¹ Î´ÎµÎ½
ĠÎºÎ±Î¹ ÏģÎ¿Î¯
ĠÎºÎ±Î¹ ÏĢÎ¬Î»Î¹
ĠÎºÎ±Î¹ ÎŃÏĢÎ¹Î±ÏĥÎµ
ĠÎµ Ïĩ
ĠÎµ ÏħÏĦ
ĠÎµ Î³Îº
ĠÎµ Î»Î±Î¹
ĠÎµ Î»Î¹ÎºÏĮ
Î¹Î± Î¶ÏĮÏĦÎ±Î½
Î¹Î± ÏĥÎ¼ÎŃÎ½Î±
Î¹Î± Î´Î®ÏĢÎ¿ÏĦÎµ
Ïĩ Î·ÏĥÎ±Î½
Ïĩ ÏģÎ¹ÏĥÏĦÎ¿ÏħÎ³ÎµÎ½Î½Î¹Î¬
Ïĩ ÏģÏĮÎ½ÏīÏĤ
Î® ÏģÎµ
ĠÏĦÎ¿ Î¾
ĠÏĦÎ¿ Î²ÏģÎ¬
ĠÎŃ Î»
ĠÎŃ ÏģÎ¸Îµ
ĠÎŃ Î¼ÏĢÎ¹
Î´ Î¿ÏħÎ½
Î´ Î¿Îº
Î´ Î¿ÏįÎ¼Îµ
Î´ Î¿Î½ÏĦ
Î´ Î¿ÏĢÎ¿Î¹
Î´ ÎŃÎ»Î¹
Î´ ÏģÏīÎ½
ĠÎ½Î± Îµ
ĠÎ½Î± Î³
ĠÎ½Î± ÏĦÎ¿
ĠÎ½Î± Î´Î¹
ĠÎ½Î± Î±Î½Îµ
ĠÎ½Î± ÏĦÎ¿ÏħÏĤ
ĠÎ½Î± ÏĨÏĦÎ¬
ĠÎ½Î± Î±ÏĢÎ¿
ĠÎ½Î± ÎµÏĢÎ¹
ĠÏĦÎ· Î¼Î¹ÎºÏģÎ®
Î¸ ÏģÎµ
Î¸ Î¿ÏħÏĤ
Î¸ Î¿Î½ÏĦÎ±ÏĤ
Î¸ ÏģÎµÏĤ
Î¸ ÎŃÏĥÎµÎ¹
Î¸ ÏģÎµÏĪÎµ
ÏģÎ± Î¯Î¿
ĠÎ³ ÏģÏĮ
ĠÎ³ Î¹Î¬
ĠÎ³ ÎŃÏģÎ±
ĠÎ³ ÏģÏħ
ĠÎ³ ÎµÎ¹Î±
ĠÎ³ Î»ÎµÎ½
ĠÎ³ ÎŃÏģÎ±ÏĥÎ±
ÏĦÎ± ÏģÎ¹Î¿Ïį
ÏĦÎ± ÏĦÎ¿ÏįÎ»Î±
Ïİ Î´ÎµÏĤ
Ïİ ÏģÎ¿Ïħ
Ïį Î·
Ïį Ïī
Ïį ÏĦÎ·
Ïį Î¿Î½ÏĦÎ±ÏĤ
Ïį ÏģÎ¹Î±
Ïį Î»Î¿ÏĤ
Ïį ÏĥÏĥ
Ïį Î»Î¹ÏĥÎµ
ÏĨ ÎµÎ¹
ÏĨ Î¿Î¹
ÏĨ ÏĦÎ·
ÏĨ Î½Î·
ÏĨ Î¸ÎµÎ¯
ÏĨ ÏİÎ½ÏĦÎ±ÏĤ
ÏĨ Î¸ÎµÎ¯ÏĤ
ÏĨ ÎŃÏģÎµÏĦÎµ
ÏĨ ÏģÎ±ÏĥÎ·
ÏĨ ÏİÎ½Î±Î¶Îµ
Î½Î± ÏĪÎµ
ĠÏĥÏĦ Î¯
ĠÏĥÏĦ ÏģÎ¬
ĠÏĥÏĦ Î¿ÏĢ
ĠÏĥÏĦ ÏģÎ¿ÏĨÎ®
ĠÏĥÏĦ ÏģÎ¬ÏĨÎ·ÎºÎ±Î½
ĠÏĥÏĦ Î¿ÏģÎ³Î®
ÏģÎ¹ ÏĥÎ±
ÏģÎ¹ Î½Î¿Ïį
ÏģÎ¹ ÎºÎŃÏĤ
ÏģÎ¹ Î´Î¯ÎºÎ·
ÏģÎ¹ ÏĩÏĦÏĮ
ĠÎ¿ ÏģÎ³
ĠÎ¿ ÏįÏĢ
ĠÎ¿ ÏĩÎ¹Î¿Î½
ĠÎ¿ ÎľÎµÎ»Ïī
ÏĦÎµ ÎºÎ±
ÏĦÎµ Î»Î®
ÏĦÎµ Î»Î¹ÎºÎ¬
ÏĦÎµ Î»ÎµÏħÏĦÎ±
ĠÏĮ Î»
ĠÏĮ Î¾Ïī
ĠÏĮ ÏĩÎ¸ÎµÏĤ
ĠÎ±ÏĢ Î¯
ĠÎ±ÏĢ Î»Ïī
ĠÎ±ÏĢ ÏģÏĮÏĥÎµ
ĠÏĨ Î·
ĠÏĨ Î»Î±
ĠÏĨ Î»Î¿Ïį
ĠÏĨ ÎŃÏĦÎ±
ÏĦÎ¹ Î¿Î½
ÏĦÎ¹ ÏĦÎ¿ÏįÏģÎ±
ĠÏĦÎ± Î±
ĠÏĦÎ± ÏĢÎ±Î¹Î´Î¹Î¬
ĠÏĦÎ± Î¼ÎµÎ¯Î¿
ĠÎ¼Îµ Î»Î±
ĠÎ¼Îµ Î»ÎŃ
ĠÎ¼Îµ Î»Î¯
ĠÎ¼Îµ Î»Î¹ÏĦÎ¶Î¬Î½ÎµÏĤ
Î² Î³Î®ÎºÎµ
Î² ÏģÎ¹ÏĥÎºÎµ
Î¶ ÏīÎ½
Î¶ Î¿ÏįÏĥÎµ
Î¶ Î¬Î½Î¹
ÏģÎ¬ ÏĥÏĦÎ·ÎºÎ±
ĠÎ² ÏģÎ¹
ĠÎ² Î¿ÏįÎ»ÎµÏĤ
ĠÎºÎ± ÏĦÎµÏħ
ĠÎºÎ± ÎĲ
ĠÎºÎ± ÏĢÎ¬ÎºÎ¹
ĠÎºÎ± Î»Î¿ÏįÏĤ
ĠÎºÎ± ÏħÏĦÎ®
ĠÎºÎ± ÂµÎ¯Î±
ĠÎºÎ± Î³ÎºÎ¿Ïħ
ĠÎºÎ± ÎºÎ¿Î¼Î¿Î¯
ĠÎºÎ± Î¶Î¬Î½Î¹
Î¿Î½ Îµ
Î¿Î½ Î¹ÎºÎ¬
Î¿Î½ ÏĦÏģÎ¿
Î¿Î½ Î·ÏĤ
Î¿Î½ Î¹ÎºÎŃÏĤ
ÎµÎ½ ÏĦÏģÏī
ÎµÎ½ ÏĦÎ±ÎºÏĮÏĥÎ¹Î±
Î»Î± Îº
Î»Î± Î¯Î±
Î»Î± ÏĩÎ±Î½
Î»Î± ÏģÎ¬ÎºÎ¹
Î»Î± ÏĥÏĥÎ¹
Î»Î± ÏģÎ¯ÎºÎ¹Î±
ĠÏĩ Ïį
ĠÏĩ Î¿ÏħÏģ
ĠÏĩ ÏĦÎ¯ÏĥÎµÎ¹
Î¾ Î¬ÏĤ
Î¾ Î¿ÏħÂµÎµ
ĠÏĢÎ¿Ïħ ÎŃ
ĠÏĢÎ¿Ïħ Î»Î¿ÏįÏĥÎ±Î½
ĠÏĢÎ¿Ïħ Î®ÏĦÎ±Î½
ĠÏĢÎ¿Ïħ Î»Î¬ÏĤ
ĠÏĢÎ¿Ïħ Î»Î±ÏģÎ¬ÎºÎ¹
ÏĦÎ¬ Î¼Îµ
ÏĦÎ¬ ÏĥÎµÎ¹ÏĤ
ÏĦÎ¬ ÏĥÎ¿Ïħ
ÏĦÎ¬ ÏĩÏĦÎ·ÎºÎµ
ÏĦÎ¬ Î½Î¹Î¿
ÎµÎ¯ ÏĩÎ±
ÎµÎ¯ Î»Î·ÏĥÎµ
ÏĦÎ· ÏĦÎ¿
ÏĦÎ· Î¼ÎŃÎ½Î¿ÏĤ
ÏĦÎ· ÏĥÎ®
Î»Î¹ Î¿ÏħÏĤ
Î»Î¹ ÎºÎ¿Ïį
Î»Î¹ ÏĥÎ¹Î¬
Î»Î¹ ÏĥÏĥÎµÏĤ
Î¼Î± Î¸Î±
Î¼Î± ÏĦÎ¬ÎºÎ¹
Î¼Î± Î¶ÏĮÏĦÎ±Î½
Î¼Î± ÎºÏģÎ¹Î¬
Î¼Î± Î»Î»Î¹Î¬
ĠÎ¸ Î±Î½
ĠÎ¸ ÏģÎ¹Î±
ĠÎ¸ Î±Î½Î±
Âµ ÏĢÎ±
Âµ ÏĮÏĤ
Âµ ÏĢÎ¿Ïħ
Âµ Î¹ÏĥÎ±Î½
Âµ ÏĢÎ¿Ïģ
Âµ ÎŃÏĩÏģÎ¹
Âµ ÏĢÏģÎ¿ÏĥÏĦÎ¬
ĠÎ¬ ÏĥÎº
ĠÎ¬ ÏĢÎ»Î·
ĠÎ¬ ÏħÏĢ
ĠÎ¬ ÏĥÏĦÏģÎ¿
ĠÎ¬ ÏĦÏħÏĩ
ĠÎ¬ ÏģÎ±Î¶Îµ
ĠÎ¬ Î¾Î¹Î±
Î»Î¬ Î¿Ïħ
Î»Î¬ Ïī
Î»Î¬ Î¼Îµ
Î»Î¬ Î¶ÎµÎ¹
Î»Î¬ Î²ÎµÏĦÎµ
ĠÏĦÎ·Î½ Îµ
ĠÏĦÎ·Î½ ÎºÎ»ÎµÎ¯
ĠÎ±ÏĢÏĮ ÏĦÎ¿ÏħÏĤ
ĠÎ±ÏĢÏĮ ÏĩÎ·
ĠÎ±ÏĢÏĮ ÎºÎ¿Ïĥ
ĠÎ· Âµ
ĠÎ· Î±Ïģ
ĠÏĦÎ·ÏĤ ÏĢÏĮ
ĠÎ³Î¹Î± ÏĦÎ¿
ĠÎ³Î¹Î± Î³Î¹
ĠÎ³Î¹Î± ÏħÏĦÏĮ
ĠÎ³Î¹Î± ÏĦÎ¿Î½
ÎŃÎ½ Î·
ÎŃÎ½ ÎµÎ¹
Î¬Î½ ÎµÎ¹ÏĤ
Î¬Î½ Î¸Îµ
Î¬Î½ Î·ÎºÎµ
Î¬Î½ ÏĦÎ·ÏĥÎ±Î½
ÏĥÎ± ÏĥÏĦÎ±Î½
ÏĥÎ± Î»Î¹Î³ÎºÎ¬
ÏĥÎ± ÎºÎ¿ÏįÎ»Î±
ÏĥÎ± ÏĢÎ»Î¬
ÏĥÎ± ÏģÎ±Î½ÏĦÎ±ÏĢÎ¿Î´Î±ÏģÎ¿ÏįÏĥÎ±
Î¹Îº ÏģÎ¿Î½
ÎºÎ¹ ÏİÎ½
ÎºÎ¹ Î¿ÏħÏģÎ¬ÎºÎ¹
ÎºÎµ ÏģÎ¬
ÏĥÎ¹ Î¼ÏĮ
ÏĥÎ¹ Î¬ÏĥÏĦÎ·ÎºÎ±Î½
ĠÏĥÏĦÎ¿ Î±Î³Î¿ÏģÎ¬ÎºÎ¹
ĠÏĢÎ± ÏĢ
ĠÏĢÎ± ÎºÎµ
ĠÏĢÎ± Î»ÎŃ
ĠÏĢÎ± Î³Î¹
ĠÏĢÎ± ÏģÎ±Î¹
ĠÏĢÎ± ÏģÎµÎ¾Î·
ĠÏĢÎ± ÏģÎ¹ÏĥÏĦÎ¬
ĠÏĢÎ± ÏĦÎ±ÏĦÎ¿ÏįÎ»Î±
ÏħÏĦ Î¿Ïĩ
ÏħÏĦ ÎŃÏģÎµ
ÏģÎ¯ Î´ÎµÏĤ
ÏģÎ¯ Î¶ÎµÎ¹ÏĤ
ĠÏĦÎ¿ÏħÏĤ Î±Î½Î¸ÏģÏİÏĢÎ¿ÏħÏĤ
ĠÎ¼Î± ÎºÎ±
ĠÎ¼Î± Î»Î»Î¬
ĠÎ¼Î± ÏĦÎ¹Î¿Ïį
ĠÎ¼Î± Î³Î¹ÏĮ
ĠÎ¸Î± Ïį
ĠÎ¸Î± Î¼ÏĢ
ÏĢÎµ ÏĥÎ±Î½
ÏĢÎµ ÏģÎ½Î¿ÏįÏĥÎµ
ĠÎ´ÎµÎ½ ÏĦÏģÎ¬ÎºÎ¹Î±
ÏĥÏĦ ÏĮÎ½
ÏĥÏĦ ÏģÎ¹Î±
ÏĥÏĦ ÏģÎ¿ÏĨ
ÏĥÏĦ ÎµÎ¹Î»Îµ
Î»Î· ÏĦÎ¹ÎºÎ¬
ÏģÎµ ÏĢÎ®
ÏģÎµ Î»Î¹Î±
ÏģÎµ ÏįÎµÎ¹
Î¹Î¬ Î»
ĠÎ¾ Î¿ÏĢ
ĠÎ¤ Îµ
ĠÎ¤ ÏĥÎµ
ĠÎ¤ ÏģÎ¹
ĠÎ¤ ÏģÏĮ
ĠÎ¤ Î¹Ïĥ
ĠÎ¤ ÎŁÎ¥
ĠÎ¤ Î¼Ïİ
ĠÎ¤ ÎĻÎ£
ĠÎ¤ ÏĮÎ½Ïħ
ĠÎ¤ ÏĥÎ¬ÎºÎ±Î»Îµ
Î»Îµ Î½Î±
Î»Î¿ Îº
Î»Î¿ Î³Î¿ÏĤ
Î»Î¿ ÏĦÎ®ÏģÎ¹Î¿
Î¼Îµ ÏĦÎ¬
Î¼Îµ ÏģÎ¬ÎºÎ¹
Î¯Î½ ÎµÏĤ
Î¯Î½ Î¿Î¼Î±Î¹
ÏģÎ¿ ÎºÎ¿ÏĢ
ĠÎºÎ¬ Î·ÎºÎµ
ĠÎºÎ¬ ÏĪÎ¿ÏħÎ½
ĠÎ¼ÎŃ Î³Î±
ĠÎ¼ÏĢ Î¹
ĠÎ¼ÏĢ ÏģÎ¿ÏĤ
ĠÎ¼ÏĢ Î±Î½Î±Î½
ĠÎ¼ÏĢ Î¿ÏįÎºÎ»ÎµÏĤ
ÏģÏī Î½Î±Î½
ÏģÏī Î¼ÎŃÎ½Î¿ÏĤ
ÎºÎ± Î¼Î±
ÎºÎ± ÏĦÎ¿Î¼Î¼ÏįÏģÎ¹Î±
ÎºÎ± Î»ÏįÏĦÎµÏģÎ±
ÎºÎ± ÏĦÏĮÏģÎ¸
ĠÎĳ Î²
ĠÎĳ ÏĥÏĦÎµ
ĠÎĳ Î¯ÏĥÏī
ĠÎĳ Î¼ÎµÏģÎ¹
ĠÎĳ ÂµÎŃÏĥÏīÏĤ
ĠÎĳ Î¸ÎµÏģÎ¯Î½Î±
ĠÎĳ Î»Î¹ÏĥÎ¹Î¬
.. !
ĠÏĢÎ¿Î» ÏħÎµ
ĠÏĢÎ¿Î» ÏħÎ¸
ĠÏĢÎ¿Î» Î¯ÏĦÎµÏĤ
ĠÏĢÎµ ÏĦÏģÎŃ
ĠÎļ ÏĮÏĥ
ĠÎļ Î»ÎŃ
ĠÎļ Î¬Î½ÎµÎ¹
Î½Îµ ÏģÏĮ
Î½Îµ ÏģÎ³Î±
ĠÎľ Îł
ĠÎľ ÎĹ
ĠÎľ Î¿ÏĥÏĩÎ¿
ĠÎľ Î±Î¹Î½Î¬Î´ÎµÏĤ
ÎºÏĮ ÏĪÎµÎ¹
ĠÏĦÎ¹ ÏĦÎ¯
ĠÎ±Î½ Ïİ
Î³Î¬ Î»Î±
Î³Î¬ ÎºÎ¹Î±
Î¼ÎŃÎ½ Î¿ÏħÎ½
Î¼ÎŃÎ½ ÎµÏĦÎµ
ÏĢÎ± Î¼Îµ
Î³Îµ ÏģÎ¬
Î³Îµ Î»Î¿
ĠÂµ Î¿Î½
ĠÂµ ÎŃÎ½Î±
ĠÂµ Î®ÏĢÏīÏĤ
ĠÂµ ÎµÎ¯Î½ÎµÎ¹
ĠÂµ ÎŃÏģÎ¿ÏĤ
ÏĪ ÏħÏĩÎ±
ĠÎ¶ Î¿
ÏĢÎ¿ Î´
ÏĢÎ¿ ÏĦÎŃ
Î¼Î¬ ÏģÎ±
Î¼Î¬ ÏĦÎ¿ÏĤ
ĠÎķ ÏģÏį
ĠÎķ Î³Ïī
ĠÎķ Î»ÏĢÎ¯
ĠÎķ ÎĶÎ©
ÎºÎ¬ ÏĦÎ·
ÎºÎ¬ ÏģÎ¿Î½Î¿
ÏĦÎ¿ Î½Î±ÏĤ
Î³Î± Î»Î¿
Î³Î± Î»ÏįÏĦÎµÏģÎ¿
ÏĢÎ¹ Î½
ÏĢÎ¹ Î³Î³
ÏĢÎ¹ Î¿ÏįÎ½ÏĦÎ±Î¹
ÏĢÎ¹ ÏĥÏĦÏİ
ĠÏĥÏħ ÏĥÏĦÎ¬
ĠÏĥÏħ ÎºÎ¿ÏĨ
ĠÏĥÏħ Î½Î±Î¹Ïĥ
Î¤ ÏģÎ±Î³
Î¤ ÎĳÎĻ
Î¤ ÏĥÎ¬ÎºÎ±Î»Îµ
Î¤ ÎĻÎļÎĳ
ĠÎł Î»Î·
ĠÎł ÎŁ
ĠÎł Î·Î½Îµ
ĠÎł ÎŃÏĦÎ±Î¾Îµ
ĠÎł Î»ÎŃÎ¿Î½
ĠÎł ÎŁÎĽ
ĠÎł ÏģÎ¬Î³Î¼Î±ÏĦÎ¹
ĠÎł Î»Î·ÏĥÎ¯Î±
ĠÎł ÎµÎ¹Î½Î¬
Î¸Îµ ÏĦÎ·
ÎŃÏģ Î¼Î±
ÎŃÏģ Î½Î·
ÎŃÏģ ÎµÎ¹Î±
ÎŃÏģ ÏĩÎµÏĦÎ±Î¹
ÏĮÏĥ ÎºÏħÎ»Î±
ÏģÎŃ ÏĥÎº
ÎºÎ±Î½ ÎµÎ¯ÏĤ
ÎºÎ±Î½ ÎŃÎ½Î±Î½
ÏģÏĩ Î¿Î½ÏĦÎ±Î½
ÏģÏĩ Î¿Î½ÏĦÎ±Î¹
ÎŃÏģÎ± ÏĦÎµ
ÏģÎ· ÏĦÏĮ
ÏģÎ· Î´ÎµÏĤ
ÎºÎµÎ¯ Î¿Ïħ
ÎºÎµÎ¯ Î½Î¿ÏĤ
ĠÏĢÎ¬ Î»ÎµÏħÎµ
ĠÏĢÎ¬ Î¸Ïī
ÏģÎ® ÎºÎ±Î½
Î½Î· Î¼Î±
Î½Î· ÏĥÎ·
Î½Î· Î¸ÎµÎ¯ÏĤ
Îľ ÎŃ
Îľ ÎµÎ¯
Îľ ÎŃÏģÎµÏĤ
Îľ Î¼Î¼Î¼
Îľ Î±Î½Î¿ÏįÎ»Î±
ÏĥÎ· Îº
ÏĥÎ· Î¼Î±
ÏģÏİ Î½Î±
ÏģÏİ Î½Îµ
ÏģÏİ ÏĥÎ¿Ïħ
ÏģÏİ Î½ÎµÏĦÎ±Î¹
ĠÎ£ Îķ
ĠÎ£ ÏĦÏĮ
ĠÎ£ ÏħÎ³
ĠÎ¬Î» Î»Î·ÏĤ
ĠÎ¬Î» Î»Î¿ÏĢ
Îļ ÏįÎ»Î¹ÏĥÎµ
ĠÏģ Î±ÏĨ
ĠÏģ ÏħÎ±
ĠÎŁ Î¹Îº
Î´Î± Î»Î·
Î´Î± ÎºÎ±ÏĤ
ĠÏĥÎº Î¿ÏĢ
ĠÏĥÎº ÏĮÎ½ÏĦÎ±
Î¼ÏĢ Î¿ÏįÏĥÎ±Î½
ĠÎ¼Î¹Îº ÏģÎ¿ÎºÎ±Î¼Ïī
ĠÎŃÏĩ Î±Î½ÎµÏĤ
ĠÏĮÎ¼ Î¹ÎºÏģÎ¿Î½
ĠÏĥÏĦÎ± Î³Î¿Î½
ĠÎ±Î» Î»Î¹Ïİ
ĠÏĥÎ¿Ïħ ÏģÎ¿Ïħ
ÏİÎ½ Î¿Î½ÏĦÎ±Î½
ÏĦÎ® ÎºÎ±Î¼Îµ
ÏĦÎ® Î¼Î±ÏĦÎ¿ÏĤ
ĠÏĩÎ± Î»Î±
ĠÏĩÎ± Î»Î¹Î¬
ĠÏĩÎ± ÏģÎ±Î³
ĠÏĩÎ± Î¼ÎŃÎ½Î±
ĠÏĩÎ± Î¸Î¿ÏįÎ½
ĠÏĩÎ± Î»Î¬ÎµÎ¹
ĠÏĩÎ± ÏģÎ¯ÏĥÎµÎ¹
ĠÏĩÎ± ÏģÎ¯ÏĥÏī
ĠÏĩÎ± ÏĥÎ¬ÏĢÎ·
ĠÏħ ÏĨÎ±Î½
Î¿ÏĢ Î¿ÏįÎ»Î±
Î¿ÏĢ Î¬Ïģ
Î¿ÏĢ ÎŃÎ´Î¹
Îĳ ÏģÏĩ
Îĳ ÏģÎ³Î¬
Îĳ Î¼ÏĢÎ½ÏĦÎ¬Î»Î±
Îĳ ÎºÏĮÎ¼Î±
Îĳ Î²ÎŃ
Îĳ Î±Î±Î±
ĠÎĪ ÏĦÏģÎ¹
ĠÎĪ ÏĦÏĥÎ¹Î±
ĠÎĪ Î²Î»Îµ
ĠÎĪ ÏĨÏħÎ³Îµ
ĠÎĪ Î²Î±Î»Î±Î½
ĠÎĪ ÏĨÏħÎ³Î±Î½
ĠÎĪ ÏĨÎ±Î³Î±Î½
ĠÎĪ Î¼Î¿Î¹Î±Î¶Îµ
ĠÎĪ Î»ÏĢÎ¹Î¶Îµ
Î´Îµ ÏĩÏĦÎµÎ¯
ÏģÏħ ÏĨ
ÏģÏħ Î½Î±Î½
Î²Î± ÏĦÎ¿
Î²Î± Î¯Î½Î¿ÏħÎ½
ĠÎ¼Î¬ ÏĤ
ĠÎ¼Î¬ Î¸Î±
ĠÎ¼Î¬ Î»ÏīÏĥÎµ
ĠÎ¼Î¬ Î»ÏīÎ½Îµ
ĠÎ¼Î¬ ÏĩÎµÏĤ
ÏĥÏī ÏĢÎ¿
ÏĥÏī ÎºÎ±Î¹
Î¼Î¿ ÏĦÎ¹ÎºÏĮ
ĠÏĥÏĦÎ¿Î½ Î¿ÏħÏģÎ±Î½ÏĮ
Î´Î¹Î¬ ÏĤ
ÏģÎ¿Ïĥ Î²Îµ
ÏģÎ¿Ïĥ Î±ÎºÎ¿ÏįÎ»Î±
ĠÏĢÎ¬Î½ Î¹
Î´Î¹Î± ÏĥÎµ
ÏįÏĦÎµ ÏģÎ¿
ĠÎĶ Î±
ĠÎĶ Î¿Îº
ĠÎĶ Î±Î½Î¬
ĠÎĶ ÏħÏĥÎºÎ¿Î»
ĠÎĶ ÎµÎ¹Î½Î¿
ÏĦÏī ÎºÏģÎ±
ÏĦÏī Î´ÏİÏĤ
ĠÏĪ Î¿ÏĨ
ĠÏĪ ÏİÎ½Î¹Î±
ĠÎ±ÏħÏĦÏĮ ÏĦÎ¿
ĠÎ±ÏħÏĦÏĮ Î¼Î±ÏĦÎ¿
Î»ÎµÎ¹ ÏĪÎµ
ÏĢÏĮ Î¸Î·
ÏĢÏĮ Î¼ÎµÎ½Î·
Îķ Î¾
Îķ Î½Ïİ
Îķ Î»Î»Î¬Î´Î±
Îķ Î»ÏĢÎ¹Î½Î¯ÎºÎ·
Î»ÎŃ ÎºÎ¹
Î»ÎŃ ÏĥÎµÎ¹
Î»ÎŃ ÏĨÎ±Î½
ĠÎ²Î±ÏĥÎ¹ Î»ÎŃÏĪÎµÎ¹
ĠÎ²Î±ÏĥÎ¹ Î»ÎµÏįÎµÎ¹
ÏĢÎ· ÏĥÎµ
ÏĢÎ· ÏĥÎ±Î½
Î»ÏĮ ÏĢÎ·
Î»ÏĮ ÏĢÎ¿ÏħÎ»Î¿
ĠÎ»Î¯ ÏĥÏĦÎ±
ĠÎ±Î»Î»Î¬ Î¾Î¿ÏħÎ½
Îł Î¹Î¿
Îł Î¯ÏĥÏī
Îł Î¬Î»Î¹
Îł Î»Î·ÏĥÎ¯Î±
ÎºÎ¿Ïį Î´Î±
ĠÏĥÏĦÎ· Î½Î±Î³
ÏĮÏĦÎ±Î½ Îµ
ÏĢÎ¬ ÏĤ
ĠÎĮ ÏĢÎ¿Ïħ
ĠÎĮ Î»Î¿ÏĤ
ĠÎĮ Î½ÎµÎ¹
ĠÎ¬Î½ Î¸Î¹ÏĥÎµ
Î³Î¹ ÏĥÎ¼ÎŃÎ½Î·
Î³Î¹ Î½ÏĮÏĦÎ±Î½
ÏĦÎŃ Î²Î·
ĠÎ¾Îµ Î³
ĠÎ¾Îµ Î³ÎŃÎ»Î±ÏĥÎµ
ĠÎ¾Îµ ÎºÎ±Ïģ
ĠÎ¾Îµ ÎºÎ¯Î½Î±
ĠÎ¾Îµ ÏĦÏħÎ»Î¯
ÎºÎ¿ Âµ
ĠÎºÎ¿Ïħ Î»Î¿Ïį
ĠÎºÎ¿Ïħ ÏĦÏĮÏĤ
ĠÎºÎ¿Ïħ Î´Î¿Ïį
ĠÎºÎ¿Ïħ ÏģÎµÎ»Î¹Î±
Î¿ÏįÎ½ Î¹ÏĥÎµ
ĠÎĵ ÎµÎ¹Î±
ĠÎĵ Î½Ïİ
ĠÎĵ ÎºÎ¯
ĠÎºÏĮ Î²
ĠÎºÏĮ ÏĢÎ·ÎºÎ±Î½
âĢ¦ ,
Î¼Î· ÏĦÏģÎ±
ĠÎ±Î³ ÏģÎ¿Îº
ĠÎ±Î³ ÏİÎ½Î±ÏĤ
ĠÎĺ ÎŃ
ĠÎĺ Î¿Î´
ÎĹ Î»Î¯Î±
ÏĦÏĮ ÏĨ
ÏĦÏĮ Î¼Î¿ÏħÎ½
ĠÎ´Îµ Î¸Î±
Î£ ÏĦÎŃ
Î£ ÏħÎ³
Î£ ÏĦÎ¹ÏĤ
Î£ ÏįÎ½ÏĦÎ¿Î¼Î±
Î³Îº Î¿ÏĤ
Î³Îº ÎµÏĤ
Î³Îº ÏģÎ¹Î½Î¹Î¬
ĠÎ±Ïģ Î½Î¬ÎºÎ¹Î±
ĠÎ±Ïģ ÏģÎ±Î²
ĠÏĢÎµÏģÎ¹ Î³ÏģÎ±ÏĨ
ĠÏĢÎµÏģÎ¹ ÎµÏĩÏĮ
ĠÏĢÎµÏģÎ¹ Î¸ÏİÏģÎ¹Î¿
ĠÎ±Ïħ Î³Î®ÏĤ
ĠÏĩÏī ÏģÎ¿ÏįÏĥÎ±Î½
ĠÏĢÎ±ÏģÎ± Î´ÎŃÏĩÏĦÎ·ÎºÎµ
ĠÏĢÎ±ÏģÎ± ÏĥÏĦÎ¬ÏĥÎµÎ¹ÏĤ
ĠÏĢÎ±ÏģÎ± Î´Î¯ÏĢÎ»Î±
ĠÏĢÎ±ÏģÎ± ÏĨÏįÎ»Î±Î³Îµ
ÏģÎ¿Ïį ÏĦÎ±
ÏģÎ¿Ïį Î¼ÎµÎ½Î±
ĠÏĥÏĢÎ¯ÏĦÎ¹ ÏĦÎ·ÏĤ
ĠÏĥÏħÎ½ ÏĦÎ±Î³ÎŃÏĤ
ĠÎºÎ¿ Î»Î±
ĠÎºÎ¿ Î¼ÏĢÎ±Î½
ĠÎºÎ¿ ÏģÎ±Î»
Î»Î¯ Î½Î±ÏĤ
ĠÏĮÎ»Î± ÏĦÎ±
ĠÏĦÎµ ÏĦÏģÎ±
ĠÏĦÎµ Î»Î¹ÎºÎ®
ĠÎ¬ÏģÏĩ Î¿Î½ÏĦÎ±
ĠÎ¬ÏģÏĩ Î¿Î½ÏĦÎ¬ÏĤ
ĠÎ³Îµ Ïį
ĠÎ³Îµ ÏģÎ¬ÎºÎ¹
ĠÎ³Îµ ÏģÏĮÎ½
ĠÎºÏħ Î»Î¬ÎµÎ¹
ĠÎºÏħ Î»Î¿ÏįÎ½
ĠÎºÏħ Î»Î¯ÏĥÎ¿ÏħÎ½
ĠÎµÎ½ ÏİÎ½Î¿Î½ÏĦÎ±Î¹
ĠÎµÎ½ ÎŃÏĥÎµÎ¹ÏĤ
ĠÎµÎ½ ÏĦÎŃÎ»ÎµÎ¹Î±
ĠÎ½Îµ ÏįÏģÎ±
ĠÎºÎ±ÏĦÎ± ÏĢ
ĠÎºÎ±ÏĦÎ± ÏģÎ±
ĠÎºÎ±ÏĦÎ± ÏĥÏĦÎ®
ĠÎºÎ±ÏĦÎ± Î´Î¹ÎºÎ±
ĠÎºÎ±ÏĦÎ± ÏĬÎ´
ĠÎºÎ±ÏĦÎ± Î³ÏīÎ³Î®
Î¬Ïĥ ÏĩÎ±
ĠÎ±Î½Î± ÎºÎ¬
ĠÎ±Î½Î± Î²Î¬
ĠÎ±Î½Î± ÏĢÎ®
ĠÎ±Î½Î± ÏĦÎµÎ¯
ĠÎ±Î½Î± ÎºÎ¿Î¹
ĠÎ±Î½Î± Î¸ÎŃ
ĠÎ±Î½Î± Î»Î¿Î³
ĠÎ±Î½Î± ÏĨÏİÎ½Î·ÏĥÎ±Î½
ÏĢÎ¿Ïį Î»Î±
Î³Î· ÏĥÎ±
ÏĩÎ½ Î¿ÏħÎ¼Îµ
Î»Î¿Ïį Î¼Îµ
ĠÎĴ ÏģÏįÏĥÎ·
ĠÎĴ Î³Î®ÎºÎ±Î½
ĠÏĢÎ¿ ÏĦÎ·
ĠÏĢÎ¿ Î´Î¬
ĠÎĿ ÏĦÏħ
ĠÎĿ ÏĦÏįÎ¸Î·ÎºÎµ
ÏĩÎ± ÏĥÎµ
ÏĩÎ± ÏģÎ¬
ĠÎ´Î¹Î± Ïģ
ĠÎ´Î¹Î± Î¼Î¬
ĠÎ´Î¹Î± ÎºÏģÎ¹
ĠÎ´Î¹Î± ÎºÎ¿Ïĥ
ĠÎ´Î¹Î± ÏĢÎ¹ÏĥÏĦ
ĠÎ´Î¹Î± ÏĢÎŃÏģÎ±ÏĥÎµ
ĠÎ´Î¹Î± ÏĢÎ¹ÏĥÏĦÏİ
ĠÎºÎ¿Î¹ ÏĦÏİ
ĠÎºÎ¿Î¹ ÂµÎ·
ĠÎºÎ¿Î¹ Î½ÏīÎ½Î¯Î±
ĠÏĢÏģÎ¿Ïĥ ÎºÏħ
ĠÎ¾Î±Î½ Î¸
ÎĪ Îº
ÎĪ Î½Î¹
ÎĪ ÏĨÏħÎ³Î±Î½
ĠÎ±ÏĢÎ¿ ÂµÎ±
ĠÎ±ÏĢÎ¿ Î³ÎµÎ¹
ĠÎ±ÏĢÎ¿ ÏĦÏħÏĩ
ĠÎ¹ ÎµÏģÏĮ
ĠÎ¹ ÏĥÎ¿Ïģ
ĠÎ±ÏĨ Îµ
ĠÎ±ÏĨ ÏģÎ¬ÏĦÎ¿
ĠÎ±ÏĨ Î¿ÏħÎ³Îº
ĠÂµÎµ ÏĦÎ±Î¾Ïį
ĠÎ³Ïħ ÏģÎ¹Ïĥ
ÏĥÏĦÎ± ÏĦÎ¹ÎºÎ¬
ÏĥÏĦÎ± Î¸ÎµÎ¯
ÏĥÏĦÎ± ÂµÎ±
ÏĥÏĦÎ± Î¯Î½Î¿ÏħÎ½
ÏĥÏĦÎ± Î³Î¼ÎŃÎ½Î¿ÏĤ
ÏİÎ½Î± Î¾Î±Î½
ĠÎ§ ÎŃ
ĠÎ§ ÏĦÏħ
ĠÎ§ Î¼Î¼Î¼
Î²Î¬ Î¶Î¹
ÏģÏį ÏĨÎ±
ĠÎºÎ±Î» ÏĮÏĥ
ĠÎºÎ±Î» Î¿Ïĥ
ĠÎºÎ±Î» ÏħÏĦÎŃÏģÎµ
ĠÏĨÎ¯ Î»Î·ÏĤ
ĠÎ»ÎŃ Î³Î¿Î½ÏĦÎ±Î½
ĠÎ»ÎŃ Î³Î±ÏĦÎµ
ĠÎµÏĢÎ¹ ÏĢ
ĠÎµÏĢÎ¹ ÏĦÎŃ
ĠÎµÏĢÎ¹ ÏĨÎ±Î½
ĠÎµÏĢÎ¹ ÏĢÎ»ÎŃÎ¿Î½
ĠÎµÏĢÎ¹ Î²Î¬ÏĦÎµÏĤ
ĠÎµÏĢÎ¹ ÏĦÏģÎ±ÏĢÎŃ
ĠÎµÏĢÎ¹ ÏĦÏģÎ¿ÏĢÎ®
ĠÎµÏĢÎ¹ Î´ÎµÏģ
ÎĿ ÏĦÎ¬Î¼ÏĢÏĦÎ¹
Î¿Ïĩ ÎµÎ¯Î¿
ĠÎĨ Î»Î»Î¿
ĠÎĨ ÎºÎ·ÏĤ
ÏģÎ½ Î¬Î½ÏĦÎ¿
ÎŃÏĨ ÏīÏĦÎ¿
ĠÎ³Î¹ ÏģÎ»Î¬Î½
ĠÎ¶Ïī ÎŃÏĤ
ÏĥÎº Î®
ÏĥÎº Î¿ÏĤ
ÏĥÎº ÎŃÏĪÎµÎ¹ÏĤ
ÏĥÎº ÏįÎ»Î¿ÏĤ
Î»Ïī Î½Î±
Î»Ïī ÏĦÎ¯
ĠÏĦÎ¯ Î¼Î¹Î±
ĠÏĮÎ¼Î¿ÏģÏĨ Î¿ÏħÏĤ
ÏģÎ±Î½ Î´Î¿Î¹
ĠÎ¤Î± ÏħÏĦÏĮÏĩÏģÎ¿Î½Î±
ÏĦÏģÎµ ÏįÏĦÎ·ÎºÎµ
ĠÎ²Î¬ Î»ÎµÏĦÎµ
ĠÎ²Î¬ Î´Î¹Î¶Îµ
ĠÎ²Î¬ ÏģÏħÎ½Î±Î½
ĠÏĢÎ¯ ÏĦÎ±
ĠÏĢÎ¯ ÎµÏĥÎµ
ĠÏĢÎ¯ Î´Î±ÎºÎ±ÏĤ
ÏĢÎ® Î³Îµ
ÏģÎ¸ Î¿ÏįÎ½
ĠÎºÎµ ÏģÎ¯
ĠÎºÎµ ÏģÎ¹Î¬
ĠÎ±Î¼ ÎŃÏģÎ¹
ĠÎ±Î¼ ÏĮÎ»Ïħ
Î²Îµ Ïģ
ĠÏĢÏģÏĮ Î³ÏģÎ±Î¼Î¼Î±
ĠÏĢÏģÏĮ ÏĢÎ¿Î´ÎµÏĤ
ÎºÎ® ÏĤ
ĠÎ´ÏħÎ¿ ÏĦÏģÎµÎ¹ÏĤ
Î¼Î¹ Î¿Ïį
Î¼Î¹ ÎµÏĤ
ĠÎ¼ÏĮÎ½Î¿ Î¼ÏĢÎ¹Î¶ÎŃÎ»Î¹Î±
ĠÎµÎ¾ ÎŃ
ĠÎµÎ¾ Î¬Î»Î»Î¿Ïħ
ĠÎµÎ¾ Î¯ÏĥÎ¿Ïħ
ĠÎµÎ¾ Î¿ÏħÎ¸ÎµÎ½
ĠÎµÎ¾ Î¬Î´Îµ
ÏĥÎ¿ Î²Î±
ÏĥÎ¿ ÎºÎ¿Î»Î¬
ÏĩÎ¹ ÏĮÎ½Î¹ÏĥÎµ
ÏįÏĩ Î¿Î½ÏĦÎ±Î½
ĠÎĽ Ïį
ĠÎĽ Î¿Î½Î´
ĠÎ±ÎºÎ¿Ïį ÏĥÎ±Î¼Îµ
ÏĨÎµ Î»
ÏĨÎµ ÏĦÎµ
ÏĨÎµ ÎºÎ¿
ÏĨÎµ ÏģÎ½Î±Î½
ÎĶ Î¯
ÎĶ ÎµÎ¯ÏĦÎµ
Î¼Î¯ Î´Î±
ĠÎļÎ± ÏĦÎµ
ĠÎļÎ± ÏģÎ»
Î½Î® Î¸ÏīÏĤ
ĠÏĢÎ¿Î½ Îµ
ĠÏĢÎ¿Î½ Î¬Î½Îµ
ĠÎ´ÎŃÎ½ Î´ÏģÎ¿Ïħ
ĠÎ±ÏģÏĩ Î¹ÎºÎ®
ĠÎ±ÏģÏĩ Î·Î³
ĠÎ±ÏģÏĩ Î¯ÏĥÏī
ĠÎľÎ± Î¶Îµ
ĠÎ´Î¯ Î´Î±
ĠÎ¡ Î¹ÏĩÎ¬Ïģ
ĠÏĢÎ±Î½ ÏĦÎµ
ĠÏĢÎ±Î½ Î¹ÎºÏĮ
ĠÏĢÎ±Î½ ÎµÏĢÎ¹
ĠÏĢÎ±Î½ ÏĥÎŃÎ»Î·
ĠÏĢÎ±Î½ ÏĦÏĮÏĨ
ĠÏĨÏī ÏĥÏĨÎ¿ÏģÎ¯Î¶ÎµÎ¹
ĠÏĩÎ¬ Î»Î¹Î±
ĠÏĩÎ¬ ÏģÎ¹ÏĥÎ±Î½
ĠÎ¼ÏĢÎ± Ïģ
ĠÎ¼ÏĢÎ± Î¯Î½Î¿ÏħÎ½
ĠÎĺÎ± ÏħÎ¼Î¬
ĠÏĥÏħÎ¼ Î¼Î¿ÏģÏĨ
ÏģÎ¹ÏĥÏĦ ÏĮ
ÏģÎ¹ÏĥÏĦ ÎŃÏĤ
ÏģÎ¹ÏĥÏĦ Î¿ÏįÎ½
ÏģÎ¹ÏĥÏĦ Î¿ÏįÎ¼Îµ
ĠÎ¼Î· ÏĦÏģÎ¹ÎºÎ®
Î¸Î® ÏĥÏĦÎµ
Î¸Î® ÎºÎ±Î½Îµ
ĠÎ»Î± Î´Î¹Î¿Ïį
ĠÎ»Î± Î¼ÏĢÎ¿
ĠÎ»Î± Î²Ïī
ĠÎ»Î± Î³Î¿ÏįÏĤ
ĠÏĦÎ¯ÏĢÎ¿ ÏĦÎ¹ÏĤ
ĠÎŃÎº Î¿ÏĪ
Î»Î¹Î± ÏĥÎµ
ĠÎŃÎ´ ÎµÎ½Îµ
ĠÎľÎµ ÏģÎ¹ÎºÎ¬
ĠÎľÎµ ÏĦÎ±Î¾Ïį
ĠÎ²Î¿ ÏĦÏĥÎ±
Î¾Î±Î½ Î¸Î±
Îĵ Îµ
Îĵ ÎµÎ½
Îĵ ÎķÎĿ
ĠÎ¬ÎºÎ¿Ïħ ÏĥÎµÏĤ
ĠÎ¬ÎºÎ¿Ïħ ÏĥÎ¼Î±
ĠÎµÏħÏĩ ÏĮÏĦÎ±Î½
ĠÎµÏħÏĩ Î·Î¸ÎµÎ¯
ĠÎ»Ïį ÏĥÎµÎ¹
ĠÎ»Ïį Î¸Î·ÎºÎ±Î½
ĠÎ»Ïį Î³Î¹ÏĥÎµ
ĠÏĥÎ¹ Î³Î±Î½Î¬
ĠÏĥÎ¹ ÏģÏĮÏĢÎ¹
ĠÏĥÎ¹ ÏĦÎ±ÏģÎ¹Î¿Ïį
Î¸Ïħ Î¼Î¿ÏĢÎ¿Î¹
ĠÎºÎ¿Ïģ Î¼Î¿Î¯
ĠÎºÎ¿Ïģ Î´ÏĮÎ½Î¹Î±
Î¿Îº ÏģÎ±
Î¿Îº ÏħÎ¸
ÎŃÎ»Î± ÏĤ
ÎŃÎ»Î± ÏĥÎ±Î½
ĠÏį ÏĨ
ĠÏį ÏĢÎ±Ïģ
ĠÎ¼Î±Îº ÏģÎ¿
ĠÏĢÎ¹ ÏĥÏĦÏĮ
ĠÏĢÎ¹ Î¸Î±Î½
ĠÏĢÎ¹ Î¬Î½Î¿ÏħÎ½
ĠÏĢÎ¹ Î±Î½Î¿Î³ÏģÎ±ÏĨÎ¿Î¼Î·ÏĩÎ±Î½Î®
ĠÏĢÎ¹ Î»Î¿ÏĦÎ®ÏģÎ¹Î¿
Î¼Î¿ÏģÏĨ Î±
ĠÎºÎ±Ïģ ÏĨ
ĠÎºÎ±Ïģ ÏĢÎ¿Î¯
ÏģÎ¿Ïħ Î´ÎŃÎ»Î¹
ĠÎŃÎ³Î¹ Î½ÎµÏĤ
ĠÏī Ïĩ
ĠÏī ÏģÎ¯
ĠÎºÏģÎ± ÏĥÎ¹Î¿Ïį
ĠÏĢÎµÏģÎ¯ ÏĥÏĥÎµ
ĠÎ¼Ïħ Î±
ĠÎ¼Ïħ Î¸
ĠÎ¼Ïħ ÏĥÏĦÎ·
ĠÎ»Îµ Î¼ÏĮÎ½Î¹Î±
Î´Î¿ ÎºÎ¹
Î½Î¹ Î¿Ïħ
Î¸Î¹ Î¶Î±Î½
ÏĨÎ± Î¾Îµ
ĠÎ¦ Î¿Ïģ
ĠÎ¦ ÏİÏĦÎ·ÏĤ
ĠÎ¦ ÏįÎ³Îµ
ĠÏĥÎ± ÏįÏģÎ±
ĠÏĥÎ± ÏģÎ±Î½ÏĦÎ±ÏĢÎ¿Î´Î±ÏģÎ¿ÏįÏĥÎ±
ÎľÎ± ÎºÏģÎ¹Î¬
ĠÎ²Î±ÏĥÎ¯ Î»ÎµÏħÎµ
ĠÎ²Î±ÏĥÎ¯ Î»ÎµÏĪÎµ
Î³ÏĮ ÏģÎµÏħ
ĠÎ¾Î±Î½Î± ÎºÎ¿Î¹
ĠÎ¾Î±Î½Î± ÎºÎ¬Î¸Î¹ÏĥÎµ
ĠÎ¾Î±Î½Î± ÎŃÏĨÏĦÎ¹Î±
ĠÎ¾Î±Î½Î± ÏĥÎºÎŃÏĨÏĦÎ·ÎºÎµ
ĠÎ¾Î±Î½Î± ÏĩÎ¹Î¿Î½Î¯ÏĥÎµÎ¹
ĠÎ¾Î±Î½Î± Î¶ÏīÎ½
ĠÏĢÏģÎ¿ Î¸ÏħÎ¼Î¿ÏĢÎ¿Î¹
ĠÎ¿Ïħ Ïģ
ĠÎ¿Ïħ ÏģÎŃÏĤ
ĠÎ¿Ïħ ÏĥÎ¯ÎµÏĤ
ĠÎ¿Ïħ ÏģÎ»Î¹Î±
ĠÎºÎ±Î»ÏįÏĦÎµ ÏģÏĮ
Î¸Î± Î¼Î²
ĠÎ´Î¹ ÎŃÏĥ
ĠÎ´Î¹ Î·Î³Î¿Ïį
ĠÎ´Î¹ ÎŃÎ¾Î¿Î´Î¿
ĠÎ¬Î»Î»Î± Î¶Î±Î½
ĠÎ¿ÏĢÎ¿ Î¹Î±Î´Î®ÏĢÎ¿ÏĦÎµ
ĠÎ¼ÎµÏĦÎ± ÎºÎ¹
ĠÎ¤Î¹ Î¼
Î½Î±Î¯ Î¿ÏĤ
ĠÎ±Î³Î¿ ÏģÎ¬ÎºÎ¹Î±
ĠÏĨÎ¬ Î²Î±
ĠÏĨÎ¬ Î³Î±Î½Îµ
ĠÎĳÎ½ Ïħ
ĠÎĳÎ½ Î´ÏģÎ¿
ĠÎĳÎ½ ÎŃÏĥÏĦÎ·
ÏģÎ¹Ïĥ ÏĦÎ¹ÎºÎ¬
Î»Î¬Î² Î¿ÏħÎ½
ÏĢÎ»Î± ÏĦÎ±
ĠÎ¶Î® Î»ÎµÎ¹Î±
Î»Ïİ Î¼Î±ÏĦÎ±
Î»Ïİ ÏĥÎµÎ¹ÏĤ
ĠÎ»ÏĮ Î³Î¿Ïħ
ĠÎ´ÏħÎ½Î± ÏĦÎ¿ÏįÏĤ
ÏĢÎ±Î½ ÏĦÎ¿Ïį
ĠÎŃÎ²Î± Î»Î±
ĠÎŃÎ²Î± Î»ÎµÏĤ
ĠÎ¸Ïħ Î¼Î·Î¸ÎµÎ¯
ĠÎ³Î¹Î±Î³Î¹Î¬ Î´ÎµÏĤ
ĠÏĥÎºÎŃÏĨ ÏĦÎ¿Î½ÏĦÎ±Î¹
ĠÎļÎ¹ Î¼
ĠÎ³Î± Î¼ÏĢ
ĠÎ³Î± Î»Î»Î¹ÎºÎ¬
ĠÎ³Î± ÏģÏįÏĨÎ±
Î¼Î¿Ïħ Î´Î¹Î¬
Î¾Î¹ Î¿Ïħ
ĠÏĩÏģÏħÏĥ Î¬Î½Î¸Îµ
Î½Î¿Ïį Î»ÎµÏĤ
Î¯ÏĦ ÏģÎ¹Î½
ĠÏĦÏģÎ± Ïħ
ĠÏĦÏģÎ± ÏĢÎ¿ÏħÎ»ÏĮ
ÎµÏģ Î³Î±
ĠÏĢÎµÏģÎ½ Î¬Î½Îµ
ĠÏĢÎ»Î· Î³Î®
ĠÎ³Î¬ ÏģÎ³Î±ÏģÎ¿
ĠÂµÎ± ÏģÎ³Î±
ĠÂµÎ± Î´ÎµÎ½
ĠÂµÎ± ÎºÏģÏį
ĠÎ±Î½Î¬ ÏĪÎ¿ÏħÎ½
ĠÎ±Î½Î¬ Î³ÎºÎ±
ĠÎ±Î½Î¬ ÏĢÎ¿Î´Î±
ÎĽ Î±
ÎĽ Îĳ
ÎĽ ÎķÎĻ
Î»Î±Î¹ Î½Î¿ÏĤ
ĠÎ¾Î±Î½Î¬ ÏģÏĩÎ¹ÏĥÎµ
ĠÎ¾Î±Î½Î¬ ÏĨÏĦÎ¹Î±Î¾Î±Î½
ÂµÎµ Î»Î¹ÏĦÎ¶Î¬Î½ÎµÏĤ
ĠÏĢÎ±Î¯ Î¾ÎµÎ¹ÏĤ
ĠÏĢÎ±Î¯ Î¶Î±Î¼Îµ
ĠÏĨÎ±Î³Î· ÏĦÎ¿Ïį
ĠÏĢÎ· Î´
ĠÏĢÎ· ÏĩÏĦÏĮ
Îĺ ÏħÎ¼Î®Î¸Î·ÎºÎµ
ĠÎ¾ÎŃÏģ Î¿Î½ÏĦÎ±ÏĤ
ĠÎ²Î¿Î· Î¸Î¿ÏįÎ½
ĠÏĦÏģÎ¹ ÎºÏħ
ĠÏĦÏģÎ¹ ÏĩÎ¹Î¬
Î½Ïİ ÂµÎ·
ÏĦÎ¿Ïį ÏģÎµÏĤ
ÏĦÎ¿Ïį ÏĨÎµÎºÎ¿
ĠÎºÎ»Î± Î¯ÏĤ
ĠÎºÎ»Î± Î´Î¬ÎºÎ¹
Î¶Ïī Î³ÏģÎ±ÏĨÎ¹
ÏĥÏĦÎ® ÏģÎ±
ÏĥÏĦÎ® Î¼Î¿Î½
ĠÎµÏĢ Î¿ÏĩÎ®ÏĤ
ĠÎµÏĢ Î¿ÏĩÎŃÏĤ
ÏĦÎ¶ Î¿ÏĩÎ¿Î¹ÏģÎ¬ÎºÎ¹
ĠÏĨÏĮ ÏģÎ±Î³Îµ
ĠÎļÎ¬ ÏĢÏīÏĤ
ÏħÎ¸ Î¿ÏįÎ½
ÏħÎ¸ ÏįÏĤ
ĠÎ´Î¹Î¬ ÏĢÎ»Î±ÏĦÎ±
ĠÏĪÎ¬ ÏģÎµÎ¼Î±
ÎºÎ¯Î½ Î·ÏĥÎµ
ÏģÎ¿Î½ ÏĮ
ĠÎ±ÏĢÎ¿Îº ÏģÎ¿Ïħ
ĠÎ¶Î· ÏĦÏİÎ½ÏĦÎ±ÏĤ
ĠÎ¶Î· ÏĦÎ¬Ïī
ĠÎ¶Î· Î¼Î¹ÎŃÏĤ
ĠÎ¶Î· ÏĦÏīÎºÏģÎ±
ÏģÏĢÎ± Î¾Îµ
ĠÎµÎº ÏĢÎ»Î·
ĠÎµÎº ÏĨÏģÎ¬
ĠÎµÎº ÏĦÎ¿Î¾Îµ
ĠÎµÎº Î¸Î±Î¼Î²
ÏģÏĨ Î±Î¹Î½Îµ
ÎµÏį ÎºÎ¿Î»Î¿
ĠÎ»Î¬ ÎºÎºÎ¿
ĠÏĨÎ±Î½ Î±
Î¼ÎµÎ¹ ÏĨÎ¸ÎµÎ¯ÏĤ
Î¼Î¿Î½ Î¬
ÏĨÎ¿Ïģ ÎŃÏĤ
ĠÏĥÏĦÎµ ÏĨÎ¬Î½
ĠÎŃÏĢÎ±Î¹ Î¾Îµ
ĠÏĦÏģÎŃ ÏĨ
ĠÏĦÏģÎŃ Î¾Î¿ÏħÎ½
ĠÏħÏĢ Î¿ÏĨ
ĠÏħÏĢ Î½Î¬ÎºÎ¹
ĠÏħÏĢ Î¿ÏĩÏī
ĠÏħÏĢ Î¿Î½ÏĮ
ÏĢÎ»Î· ÏĥÎ¯Î±ÏĥÎµ
ĠÏĩÎ±ÏģÎ¿Ïį ÂµÎµÎ½Î·
ĠÏĩÏīÏģÎ¹ ÎºÎ¿ÏįÏĤ
ĠÏĩÏīÏģÎ¹ Î±Î½Î¿Î¯
ĠÎ¬ÏģÏĩÎ¹ÏĥÎ±Î½ Î½Î±
ĠÎºÏģÏį Î±
ÏħÏĢ Î¿ÏĪÎ¯Î±
ĠÏĩÎ¹ ÏĮÎ½Î¹ÏĥÎµ
ÏĪÎ± ÏģÎ±
ĠÎĻ ÏĮÎ»Î±
ĠÎĻ Î²ÎŃ
ĠÎ±ÏĢÎ± ÏģÎ¬
ĠÎ±ÏĢÎ± Î»Î®
ĠÎ±ÏĢÎ± Î³Î¿Ïģ
ĠÎ¬ÏĨ Î¸
ĠÏģÎ¿Ïį ÏĩÎ¿
Î³Î³ Î½ÏİÎ¼Î·
ĠÏħÏĢÎ¬ÏģÏĩ Î¿Î½ÏĦÎ¬
ĠÎºÎ±ÏĦÎŃ Î²Î±Î¶Îµ
ÏģÎ³Î± ÏĥÎ¯Î±
ĠÏĦÎŃÎ» ÎµÎ¹Î¿
Î»Î¿ÏĢ Î¬
ĠÎ²Î¹ Î¿Î»Î¯
Î¼Ïī ÏģÎ¿ÏħÎ´ÎŃÎ»Î¹
ĠÎ²Î³Î® ÎºÎ±
ÏĢÎ±Î¸ Î¿ÏįÏĥÎ±Î½
ĠÎºÏįÏģÎ¹ Î¿Î¹
ĠÎ±ÏĨÎ® Î½Î¿Î½ÏĦÎ±ÏĤ
ĠÎłÎ± ÏĢÎ±
ĠÏĥÎºÎ¿ ÏĦÏİÎ½ÎµÎ¹
ĠÏĥÎºÎ¿ ÏĦÎµÎ¯Î½
ĠÏĥÎºÎ¿ ÏĦÎ¿ÏįÏģÎµÏĤ
ĠÎ±Î´ ÎŃÏĥ
Î¸ÎµÎ¹ ÎµÏĤ
ĠÎŀ ÎŃÏģÎµÏĦÎµ
ĠÏĨÏĦÎ¬ ÏĥÎ±Î½Îµ
ÎŃÎ½Î±Î½ Îµ
ĠÎºÏģÏħ ÏİÎ½Î¿ÏħÎ½
ĠÎºÏģÏħ ÏİÎ½Ïī
ĠÎ¸Îµ ÏĮ
ĠÎ¸Îµ Î»Î±
ĠÎ¸Îµ ÏĦÎ¿Î¯
ĠÎ¸Îµ ÏİÏģÎ·ÏĥÎµ
ĠÎ¼ÎµÎ³Î±Î» ÏİÎ½Î¿ÏħÎ½
ÎºÎ¿Î» Î·
ÎºÎ¿Î» Î¿ÎºÏħÎ¸
ĠÎ±Î³Î±ÏĢÎ· ÏĦÎ®
ĠÎ±Î³Î±ÏĢÎ· Î¼ÎŃÎ½ÎµÏĤ
ĠÎºÎ¿ÏħÎ½ Î¿Ïħ
ĠÏĥÏĦÏĮ ÏĩÎ¿ÏħÏĤ
ĠÎºÎ¿ÏĢ Î±
ĠÏĢÏī Î»Î·
Îŀ ÎŃÏģÎµÏĦÎµ
ĠÎºÎ»ÎµÎ¹ ÏĥÎ¼ÎŃÎ½Î±
ĠÏĥÎºÎµÏĨ ÏĦÎ¹ÎºÏĮ
ĠÏĥÎºÎµÏĨ ÏĦÎ¿ÏįÎ¼Îµ
ĠÏĥÎºÎµÏĨ ÏĦÏĮÎ¼Î¿ÏħÎ½
Î´Î¬ ÏģÎ¿Ïħ
Î´Î¬ ÏĩÏĦÏħ
Î´Î¬ ÏĨÎ½Î·
ĠÏĢÎµÏĦÎ¬ Î¾Ïī
ĠÏĢÎµÏĦÎ¬ Î¾Î¿ÏħÎ½
ÎķÎ¯ Î´Îµ
ÎķÎ¯ ÏĩÎ±Î½
ÎķÎ¯ ÏĩÎ±
ÎķÎ¯ Î´ÎµÏĤ
ÎķÎ¯ ÏĥÎ±ÏĥÏĦÎµ
ĠÎ¾ÎµÎºÎ¯Î½ Î·ÏĥÎ±
ĠÏĢÎ»Î¬ ÏĦÎ±Î½
ĠÏĢÎ»Î¬ Î³Î¹Î±
Î±ÏĢ Î»Ïİ
ÎĴ Î³Î®ÎºÎµ
ÎĴ Î¿Î·
ÎĴ ÏģÎŃÎ¸Î·ÎºÎµ
Î§ ÏĦÏįÏĢÎ·ÏĥÎµ
ĠÎµÏĢÎŃ Î¼ÎµÎ¹Î½Îµ
ĠÂµÎ¿Ïħ ÏģÂµÎ¿Ïį
ĠÏĨÎ¹ ÏĥÏĦÎ¯
ĠÎºÎ¿Î¼ Î¼ÎŃÎ½Î±
ĠÎºÎ¿Î¼ Î¼ÎŃÎ½Î¿
ĠÎºÎ¿Î¼ ÏĪÏĮ
ĠÎ¼Î±Î» ÏİÏĥÎµÎ¹
ĠÎ¼Î±Î» Î»Î¹ÏİÎ½
ĠÎ¼Î±Î» ÏİÎ½Î±Î½Îµ
ÎĨ ÏģÎ±
ÎĨ ÏĥÎµ
Îī ÏģÎ¸ÎµÏĤ
Î¿ÏĪ Î·
ÏĦÎµÏħ Î±Î½
ÎºÎ»Î· ÏģÎ·
ĠÏĢÎ¹Î¬ ÏĥÏĦÎ·ÎºÎ±Î½
âĢĿ ;
ĠÎ³ÎµÎ½ Î½Î·
ĠÎºÎ¿Î¹ÏĦÎ¬ Î¶ÎµÎ¹ÏĤ
ĠÎºÎ¿Î¹ÏĦÎ¬ Î¾ÏĦÎµ
ĠÎ»Î¹Î¿Î½ÏĦÎ¬ ÏģÎ·ÏĤ
ĠÎ½ÏĮ Î¼Î¿ÏħÏĤ
ĠÎ²ÏĮ ÏĦÏĥÎ±Î»Î±
ÏģÎŃÎ½ Î¹Î¿
ÏĥÏħ Î¼
ĠÎµÎ¯Î´ Î¿ÏĤ
ĠÏģÎ¯ ÏĩÏĦÎ·ÎºÎ±Î½
ĠÏĩÏģÎ® Î¼Î±
ĠÎ¬Î³ ÏģÏħÏĢ
ÏĦÏģÎ¹ ÎºÏĮ
ĠÎ²ÏģÎ¯ ÏĥÎºÎ¿
ĠÎ±ÎºÏģÎ¹Î² ÏĮ
ĠÎŃÏĥ ÏĦÎ·ÏĥÎµ
Î³ÎºÎ¬ ÎºÎ¹
Î³ÎºÎ¬ ÏģÎ·
ĠÎ½ÎŃ ÎºÏĦÎ±Ïģ
ĠÎ¼Î¿Î¹ ÏģÎ¿Î»Î¿Î³
Î¸Î¬ ÏģÎ¹
ĠÎ¾Ïī ÏĦÎ¹ÎºÎ¿Ïį
ÏĪÎ· Î»Î¬
ĠÎ±Î´ÎµÏģÏĨ Î¿Ïį
ĠÎ±Î´ÎµÏģÏĨ Î®ÏĤ
ĠÎ´Î· Î¼Î¿Ïĥ
ĠÎ´Î· Î¼Î¿ÏĦÎ¹ÎºÏĮ
ÎķÎºÎµÎ¯ Î½Î¿Î¹
ĠÏĢÎµÎ¯ ÏĥÎµÎ¹
ĠÏĢÎµÎ¯ ÏĥÎ¿ÏħÎ¼Îµ
ĠÎ¬Î»Î¿ Î³Î¬
ĠÏĥÏĩÎµ ÏĦÎ¹ÎºÎ¬
ĠÎ¹Î´ Î±Î½
ĠÏĢÎŃÏĦÎ± Î¾Î±
ĠÏĢÎŃÏĦÎ± Î³Î¼Î±
Î¯Î´Î± ÏĤ
ĠÏĥÎºÎ± ÏģÏĨ
ĠÏĥÎºÎ± Î»Î¯Î¶ÎµÎ¹
ĠÎ¾ÏįÏĢ Î½Î±Î³Îµ
Î¼Î¼ Ïħ
ÏģÎ¹Î½ Î¿ÏįÏĤ
Î¾Î± Î¼ÎµÎ½Î®
ĠÎľÏĢÎ± Î¯Î½ÎµÎ¹
ĠÎľÏĢÎ± Î¯Î½Î¿Î½ÏĦÎ±ÏĤ
ĠÎ´Î± Îº
ĠÎ¼Î¿ÏħÏĥ ÏĦÎ¬ÎºÎ¹
ĠÎ¼Î¿ÏħÏĥ Î¹ÎºÏİÎ½
ĠÎ¼Î¿ÏħÏĥ Î¹ÎºÎ¿Î¯
ĠÏĥÎ·Î¼ ÎµÎ¯Î±
ĠÎłÎ® Î³Î±Î½
ĠÎŃÏĨÏĦÎ¹Î± Î¾Î±
ĠÎ±ÏģÎ³Î¬ Î±ÏģÎ³Î¬
ĠÏĥÎ¯Î³Î¿Ïħ ÏģÎ¿
ĠÎºÎ¿ÏħÎ² ÎŃÏģÏĦÎ±
ĠÎ±Î¯ ÏĥÎ¸Î·Î¼Î±
ÏĩÎ¬ Î»Î·ÏĤ
ĠÎŃÏĦÎ¿Î¹ Î¼Î¿Î¹
ĠÏĥÏħÎ½Îµ ÏĩÎ¹
ĠÏĥÏħÎ½Îµ ÏģÎ³Î±ÏĥÎ¯Î±
ĠÏĥÎºÏħ Î¼Î¼ÎŃÎ½Î¿
ĠÏĢÎ·Î³Î± Î¯Î½Î±Î¼Îµ
ĠÏģÎ¬ ÏĪÎµÎ¹
ĠÎŃÎ´ÎµÎ¹ Î¾Î±Î½
ĠÎµÏĢÎŃÏĥÏĦÏģÎµ ÏĨÎ±Î½
ÏĦÏģÎ¬ ÏĢÎ·ÎºÎµ
ĠÎ¼Î±Î½ ÏĦÏģÎ¯
ĠÎ±Î½Î¿Î¯ Î¾ÏĦÎµ
ĠÎ´ÏįÎ½Î± Î¼Î®
ĠÏĢÎ¿Ïį Î»Î·Î¼Î±
ĠÏĦÏĮÏĥ Î¿ÏĮÎ¼Î¿ÏģÏĨÎ·
Î³Ïħ ÏģÎ¯ÏĥÏī
ĠÎŃÏĥÏĦ ÏģÏīÏĥÎµ
ĠÎ¼Î¹ÎºÏģÎ¿Ïį ÏĦÏĥÎ¹ÎºÎ¿
ĠÏĢÎ±Î½ÏĦÏģÎµ ÏįÎ¿Î½ÏĦÎ±Î½
ÎļÎ¬ ÏĢÏīÏĤ
ÎļÎ¬ ÏĢÎ¿Î¹Î¿ÏĤ
ĠÏģÏī ÏĦÎ¿ÏįÏĥÎ±Î½
ĠÏĥÎºÎ¯Î¿Ïħ ÏģÎ¿Ïħ
ĠÏĦÏģÎ¹Î±Î½ÏĦÎ¬ÏĨÏħ Î»Î»Î¿Ïħ
ĠÎ³Îº Î¯Î»Î¹
Î±ÏĨÎ±Î½ Î¯ÏĥÏĦÎ·ÎºÎµ
ĠÎ³Î½Ïİ ÏĥÎ·
ĠÎŃÏĨÎ± Î³ÎµÏĤ
ĠÎºÏħÏģÎ¯Î± ÎķÎ»ÏĢÎ¹Î½Î¯ÎºÎ·
[...]
