{"<s>":0,"<pad>":1,"</s>":2,"<unk>":3,"<mask>":4,"!":5,"\"":6,"&":7,"(":8,")":9,"*":10,"+":11,",":12,".":13,"/":14,"0":15,"1":16,"2":17,"3":18,"4":19,"5":20,"6":21,"7":22,"8":23,"9":24,":":25,";":26,"=":27,">":28,"?":29,"A":30,"C":31,"D":32,"E":33,"F":34,"G":35,"H":36,"I":37,"K":38,"L":39,"M":40,"N":41,"O":42,"P":43,"R":44,"S":45,"T":46,"V":47,"W":48,"X":49,"Z":50,"[":51,"]":52,"_":53,"a":54,"b":55,"c":56,"d":57,"e":58,"f":59,"g":60,"h":61,"i":62,"j":63,"k":64,"l":65,"m":66,"n":67,"o":68,"p":69,"q":70,"r":71,"s":72,"t":73,"u":74,"v":75,"w":76,"y":77,"|":78,"¡":79,"£":80,"¤":81,"¥":82,"¦":83,"§":84,"¨":85,"©":86,"¬":87,"®":88,"¯":89,"°":90,"±":91,"²":92,"³":93,"´":94,"µ":95,"¶":96,"·":97,"¸":98,"¹":99,"º":100,"»":101,"¼":102,"½":103,"¾":104,"¿":105,"Â":106,"Ã":107,"Í":108,"Î":109,"Ï":110,"â":111,"ï":112,"Ă":113,"Ġ":114,"Ģ":115,"ģ":116,"Ĥ":117,"ĥ":118,"Ħ":119,"ħ":120,"Ĩ":121,"ĩ":122,"Ī":123,"ī":124,"Ĭ":125,"ĭ":126,"Į":127,"į":128,"İ":129,"ı":130,"Ĳ":131,"ĳ":132,"Ĵ":133,"ĵ":134,"Ķ":135,"ķ":136,"ĸ":137,"Ĺ":138,"ĺ":139,"Ļ":140,"ļ":141,"Ľ":142,"ľ":143,"Ŀ":144,"ŀ":145,"Ł":146,"ł":147,"Ń":148,"ĠÎ":149,"Î±":150,"ĠÏ":151,"Î¿":152,"Î¹":153,"Îµ":154,"Î½":155,"ÏĦ":156,"Ïģ":157,"Î¿Ï":158,"ĠÏĦ":159,"Î¬":160,"Î»":161,"Ïĥ":162,"ÏĤ":163,"Î·":164,"Î¯":165,"ĠÎº":166,"Î¿Ïħ":167,"ÏĢ":168,"Îº":169,"ĠÏĢ":170,"ÏĮ":171,"Î¼":172,"ÎŃ":173,"Î±Î¹":174,"ĠÎ¼":175,"ĠÏĥ":176,"ĠÎ±":177,"Î³":178,"Î±Î½":179,"Ïī":180,"Ïħ":181,"ÎµÎ¹":182,"ĠÎºÎ±Î¹":183,"ĠÎµ":184,"Î¹Î±":185,"Ïĩ":186,"ĠÎ½":187,"Î®":188,"ĠÏĦÎ¿":189,"ĠÎŃ":190,"Î´":191,"ĠÎ½Î±":192,"ĠÏĦÎ¿Ïħ":193,"ĠÏĦÎ·":194,"Î¸":195,"Î¿Ïį":196,"ĠÎ´":197,"ÏģÎ±":198,"ĠÎ³":199,"ÏĦÎ±":200,"Ïİ":201,"Ïį":202,"ÏĥÎµ":203,"ÏĨ":204,"Î½Î±":205,"ĠÏĥÏĦ":206,"ÏģÎ¹":207,"ĠÎµÎ¯":208,"ĠÎ¿":209,"ÏĦÎµ":210,"ĠÏĮ":211,"ĠÎ±ÏĢ":212,"ĠÏĨ":213,"ÏĦÎ¹":214,"ĠÏĦÎ±":215,"Î¿ÏĤ":216,"ĠÎ¼Îµ":217,"Î²":218,"Î¶":219,"ÏģÎ¬":220,"ĠÎ²":221,"ĠÎºÎ±":222,"Î¿Î½":223,"ÏĦÎ±Î½":224,"ÎµÎ½":225,"Î»Î±":226,"ĠÏĩ":227,"Î¾":228,"ĠÏĢÎ¿Ïħ":229,"Î¿Î¹":230,"ÏĦÎ¬":231,"ÎµÎ¯":232,"ÏĦÎ·":233,"Î»Î¹":234,"Î¼Î±":235,"ĠÎ¸":236,"Âµ":237,"ĠÎ¬":238,"Î»Î¬":239,"ĠÎ»":240,"ĠÏĦÎ·Î½":241,"ĠÎ±ÏĢÏĮ":242,"ĠÎ·":243,"ĠÏĦÎ·ÏĤ":244,"ÏģÏĮ":245,"Î¿Ïģ":246,"ÎµÏĤ":247,"ĠÎ®":248,"ĠÎ³Î¹Î±":249,"ÎŃÎ½":250,"Î¬Î½":251,"ÏĥÎ±":252,"Î¿Î»":253,"Î¹Îº":254,"ÎºÎ¹":255,"ĠÏĦÎ¿Î½":256,"ÎºÎµ":257,"ÏīÏĤ":258,"Î¿ÏħÎ½":259,"ÏĥÎ¹":260,"ĠÏĥÏĦÎ¿":261,"ĠÏĢÎ±":262,"ÏħÏĦ":263,"ÏģÎ¯":264,"ÏĥÎµÎ¹":265,"ĠÎŃÎ½Î±":266,"ĠÏĦÎ¿ÏħÏĤ":267,"ĠÎ¼Î±":268,"ĠÎ¸Î±":269,"ÏĢÎµ":270,"ĠÎ´ÎµÎ½":271,"ÏĥÏĦ":272,"Î»Î·":273,"ÏģÎµ":274,"ÏĥÎ±Î½":275,"Î¹Î¬":276,"ĠÎ¾":277,"ĠÎ¤":278,"ÏĩÎµ":279,"Î»Îµ":280,"Î»Î¿":281,"âĢ":282,"Î¼Îµ":283,"Î¯Î±":284,"Î·Î½":285,"Î¯Î½":286,"ÏģÎ¿":287,"ĠÎºÎ¬":288,"ĠÎ®ÏĦÎ±Î½":289,"ÏĮÎ½":290,"ĠÎ¼ÎŃ":291,"ĠÎ¼ÏĢ":292,"ÏģÏī":293,"ÎºÎ±":294,"ĠÎĳ":295,"..":296,"ĠÏĢÎ¿Î»":297,"ĠÏĢÎµ":298,"ĠÎļ":299,"ĠÎ¼Î¿Ïħ":300,"Î½Îµ":301,"ĠÎ±ÏħÏĦ":302,"ĠÎľ":303,"ÎºÏĮ":304,"ĠÏĥÎµ":305,"ĠÏĦÎ¹":306,"ĠÎ±Î½":307,"Î½Î±Î¹":308,"Î³Î¬":309,"Î¼ÎŃÎ½":310,"ÏĢÎ±":311,"ĠÎµÎ¯Î½Î±Î¹":312,"Î³Îµ":313,"ÏīÎ½":314,"ĠÂµ":315,"Î¾Îµ":316,"ÏĪ":317,"ĠÎ¶":318,"ÏĢÎ¿":319,"Î¼Î¬":320,"ĠÎµÎ¯ÏĩÎµ":321,"ĠÎķ":322,"ÎºÎ¬":323,"Î¸Î·":324,"ĠÎ¼Î¹Î±":325,"ĠÎºÎ¹":326,"Î¿ÏįÏĥÎµ":327,"ÏĦÎ¿":328,"ÎµÎ¹ÏĤ":329,"ĠÎµÎ¯ÏĢÎµ":330,"Î³Î±":331,"Î¿ÏħÏĤ":332,"ÏģÎ¿Ï":333,"ÏĢÎ¹":334,"ĠÏĥÏħ":335,"Î¤":336,"ÎŃÏĤ":337,"Î³Î¿":338,"ĠÎł":339,"Î»Î¹Î¬":340,"Î¸Îµ":341,"ĠÎ²Î±":342,"ÎŃÏģ":343,"ÏĮÏĥ":344,"ÏģÎŃ":345,"ÎºÎ±Î½":346,"ÏģÏĩ":347,"ĠÏĥÏĦÎ·Î½":348,"ĠÏĢÎ¿Î»Ïį":349,"ÎŃÏģÎ±":350,"ÏģÎ·":351,"ÎºÎµÎ¯":352,"ÏĦÎ¯":353,"ĠÏĢÎ¬":354,"ÏģÎ®":355,"ÏĥÏĦÎµ":356,"Î½Î·":357,"ÏĮÏĤ":358,"ÎŁ":359,"Îľ":360,"Î´Î¹":361,"ÏĥÎ·":362,"ÏģÏİ":363,"ÏĦÎ±ÏĤ":364,"ĠÎ£":365,"ÏĮÏĦÎµ":366,"ĠÎ¬Î»":367,"ĠÎ¿Î¹":368,"ÏħÏĩ":369,"Îļ":370,"ĠÏĮÏĦÎ¹":371,"ĠÏģ":372,"ĠÎŁ":373,"Î¶Îµ":374,"Î´Î±":375,"ĠÏĥÎº":376,"Î¼ÏĢ":377,"ĠÎ¼Î¹Îº":378,"ÏĦÏĥÎ¹":379,"ĠÎŃÏĩ":380,"ĠÏĮÎ¼":381,"ĠÏĥÏĦÎ±":382,"ÏĦÎ·ÏĥÎµ":383,"ĠÎ±Î»":384,"ÏĦÎ±Î¹":385,"ĠÏĥÎ¿Ïħ":386,"ÏİÎ½":387,"ÎŃÎ»":388,"ÏĦÎ®":389,"Î½Î¿":390,"ĠÏĩÎ±":391,"ĠÏĢÎ±Î¹":392,"ĠÏĦÎ¹ÏĤ":393,"ĠÏĢÎ®":394,"ÎŃÎ½Î±":395,"ĠÏħ":396,"Î¿ÏĢ":397,"Î¿Î¯":398,"ÏĢÎ¯":399,"Îĳ":400,"ĠÎĪ":401,"Î´Îµ":402,"Î¹Î¿":403,"ÏģÏħ":404,"Î²Î±":405,"ÎºÎ¹Î±":406,"ĠÎ¼Î¬":407,"ÏĥÏĥÎ±":408,"ÏĥÏī":409,"Î¼Î¿":410,"ĠÎµÎºÎµÎ¯":411,"ÏİÏĤ":412,"ĠÏĥÏĦÎ¿Î½":413,"âĢĻ":414,"Î¸Î·ÎºÎµ":415,"Î´Î¹Î¬":416,"ÏģÎ¿Ïĥ":417,"ĠÎºÎ¬Î½":418,"ĠÏĢÎ¬Î½":419,"Î½Î±Î½":420,"ÏĦÎ·ÎºÎµ":421,"ĠÎ¼ÏĢÎ¿Ïģ":422,"Î»Î¿Î¹":423,"Î»Î®":424,"ÎµÎ¯ÏĤ":425,"Î±ÏĤ":426,"ÎºÎ¿Ïħ":427,"Î´Î¹Î±":428,"ÏįÏĦÎµ":429,"...":430,"ĠÎĶ":431,"ÏĦÏī":432,"ĠÏĪ":433,"ĠÎ±ÏħÏĦÏĮ":434,"Î»ÎµÎ¹":435,"ĠÎĹ":436,"ÏĢÏĮ":437,"ĠÎŃÏĨ":438,"ÏĮÏĥÎ¿":439,"Îķ":440,"Î»ÎŃ":441,"ĠÎ²Î±ÏĥÎ¹":442,"ÏĢÎ·":443,"Î¿ÏģÏĨ":444,"ÏĢÎ¿Ïħ":445,"Î»ÏĮ":446,"Î¹ÏĥÎµ":447,"ĠÎ»Î¯":448,"ÏģÎ¿ÏĤ":449,"ĠÎ±Î»Î»Î¬":450,"ÏĩÎ±Î½":451,"Îł":452,"ÎºÎ¿Ïį":453,"ĠÏĥÏĦÎ·":454,"ĠÎ´Ïħ":455,"ĠÎ¼ÎµÎ³Î¬":456,"ÏĮÏĦÎ±Î½":457,"Î¿ÏįÏĥÎ±Î½":458,"ÏĢÎ¬":459,"ĠÏĢÏīÏĤ":460,"Î¼Î±ÏĦÎ±":461,"Î¿ÏħÎ¼Îµ":462,"ÏİÏģÎ±":463,"ĠÎĮ":464,"ĠÎ¬Î½":465,"Î³Î¹":466,"ÏĦÎŃ":467,"ÎµÎ¹Î±":468,"ĠÏĨÎ¿":469,"Î¿Î½ÏĦÎ±ÏĤ":470,"ÏĦÎ¹Î±":471,"ĠÎ¾Îµ":472,"ĠÎºÎ±Î¸":473,"ÎºÎ¿":474,"Î¶Î¯":475,"ÏĥÎ¯":476,"ĠÎºÎ¿Ïħ":477,"Î¿ÏįÎ½":478,"ĠÎ¼ÎŃÏĥÎ±":479,"ĠÎĵ":480,"ĠÏĥÏĢÎ¯":481,"ĠÎ¤Î¿":482,"ĠÎºÏĮ":483,"âĢ¦":484,"ÏĢÎµÎ¹":485,"ĠÏĢÏĮ":486,"ĠÎ¼Î±ÏĤ":487,"ÏīÏĥÎµ":488,"Î¼Î·":489,"ĠÏĮÎ¼ÏīÏĤ":490,"ĠÎ±Î³":491,"ĠÎĺ":492,"ÎĹ":493,"ÏĦÏĮ":494,"ĠÎ´Îµ":495,"Î£":496,"ÏįÏģÎ¹":497,"ĠÏİ":498,"ÏĢÎ¿Î¹":499,"Î¿Ïĥ":500,"Î³Îº":501,"ĠÎ±Ïģ":502,"Î¬ÎºÎ¹":503,"ĠÏĢÎµÏģÎ¹":504,"ĠÏĢÎ¹Î¿":505,"ĠÎ±Ïħ":506,"ĠÏĩÏī":507,"ĠÏĢÎ±ÏģÎ±":508,"ÏģÎ¿Ïį":509,"ĠÏĮÏĦÎ±Î½":510,"ĠÏĥÏĢÎ¯ÏĦÎ¹":511,"ÏĢÏīÏĤ":512,"Î¿ÏĨ":513,"ÏĥÎ¿ÏħÎ½":514,"Î¯Î½ÎµÎ¹":515,"ÏĥÎ¼ÎŃÎ½":516,"ĠÎ¼Î¹ÎºÏģÏĮ":517,"ĠÏĥÏħÎ½":518,"ĠÎºÎ¿":519,"Î»Î¯":520,"Î¼ÎµÎ½":521,"Î¼Î®":522,"ÎŃÏĩ":523,"Î¶ÎµÎ¹":524,"ĠÏĦÏĮÏĥÎ¿":525,"ĠÏĮÎ»Î±":526,"ĠÏĦÎµ":527,"ĠÎ¼ÏĮÎ½":528,"ĠÎ¬ÏģÏĩ":529,"ÏĦÎ¹ÎºÎ¬":530,"ĠÎ³Îµ":531,"ĠÎºÏħ":532,"ĠÎµÎ½":533,"ĠÎ½Îµ":534,"ĠÏĥÎ±Î½":535,"ÏģÎ¹Î¬":536,"ÏģÎµÏĤ":537,"ÎŃÏĥ":538,"ĠÎºÎ±ÏĦÎ±":539,"ĠÎ¼ÎŃÏģÎ±":540,"ĠÎ²Î±ÏĥÎ¹Î»Î¹Î¬":541,"ĠÎµÎ¯ÏĩÎ±Î½":542,"ĠÎļÎ±Î¹":543,"Î¬Ïĥ":544,"ĠÎ±Î½Î±":545,"Î³Î±Î½":546,"Î³ÎºÎ¹":547,"ÏĢÎ¿Ïį":548,"Î³Î·":549,"ĠÏĢÏģÎ¹":550,"ĠÎ»Î¯Î³Î¿":551,"ÏĩÎ½":552,"Î»Î¿Ïį":553,"ĠÏĨÎ¿ÏģÎ¬":554,"ÏĦÏĥ":555,"ĠÎĴ":556,"ĠÏĢÎ¿":557,"ĠÎŃÎºÎ±Î½":558,"ĠÎĿ":559,"ÏĩÎ±":560,"ĠÎ´Î¹Î±":561,"ĠÎºÎ±ÏĦÎ¬":562,"ĠÎ³Î¹Î±ÏĦÎ¯":563,"ĠÎºÎ±Î»Î¬":564,"ĠÎºÎ¿Î¹":565,"ĠÏĢÏģÎ¿Ïĥ":566,"ĠÏĦÏīÎ½":567,"ÎĮ":568,"Î³Ïİ":569,"Î´Î¯":570,"ÏĢÎŃ":571,"Î¼Î±Î¹":572,"ĠÎ¾Î±Î½":573,"ÎĪ":574,"Î¹ÎºÎ¬":575,"ÏģÎ¹Î±":576,"ĠÎºÎ±Î½":577,"ÏĪÎµ":578,"ĠÎ±ÏĢÎ¿":579,"Î¸ÎµÎ¯":580,"ĠÎ¹":581,"ĠÏĢÎ¬Î½Ïī":582,"ĠÎ¼Î±Î¶Î¯":583,"ĠÎ±ÏĨ":584,"Î»Î¿Ïħ":585,"ĠÎķÎ¯":586,"ĠÂµÎµ":587,"Î¿Î½ÏĦÎ¬":588,"Î¤Î¿":589,"Î³Î®":590,"Î¶Î±Î½":591,"Î´Ïİ":592,"ÏģÎ±Î³":593,"ĠÎ³Ïħ":594,"ÏĦÎ¹ÎºÏĮ":595,"ÏĥÏĦÎ±":596,"ÂµÎ±":597,"ÏİÎ½Î±":598,"ĠÎ§":599,"Î²Î¬":600,"ÏģÏį":601,"ĠÎºÎ±Î»":602,"ÎļÎ±Î¹":603,"ÏģÎµÎ¹":604,"ÏĥÎµÎ¹ÏĤ":605,"ÏĦÏģÎ±":606,"Î¸ÏģÏī":607,"ĠÏĨÎ¯":608,"ĠÏĥÎ±ÏĤ":609,"ĠÏĨÎ±":610,"ĠÎ»ÎŃ":611,"ĠÏĢÎ±Î¹Î´Î¹Î¬":612,"Î»ÎµÏĤ":613,"ĠÎŃÏĦÏĥÎ¹":614,"Î´ÎµÏĤ":615,"ĠÎµÏĢÎ¹":616,"ĠÎī":617,"ĠÏĥÏĦÎ¹":618,"ĠÎ¯":619,"ÎĿ":620,"Î¿Ïĩ":621,"ĠÎĨ":622,"ÏģÎ½":623,"ĠÎĶÎµÎ½":624,"ÎŃÏĨ":625,"ĠÎºÎ¬Î¸Îµ":626,"ĠÎ³Î¹":627,"ĠÎ¶Ïī":628,"Î¼ÎŃÎ½Î±":629,"ÏĦÎµÏĤ":630,"ÏĥÎº":631,"ÏģÎ¬ÎºÎ¹":632,"Î»Ïī":633,"ÏģÎ¯Î³ÎºÎ¹":634,"ĠÎŃÎ½Î±ÏĤ":635,"ĠÎŃÏĢ":636,"ĠÎ±ÎºÏĮ":637,"Î¿ÏįÎ»Î±":638,"ĠÎŃÎ²":639,"Î´Ïħ":640,"Î¾ÎµÎ¹":641,"ĠÏĦÎ¯":642,"ĠÎŃÎ½Î±Î½":643,"ÏĦÎ¹Î¬":644,"ĠÏĮÎ¼Î¿ÏģÏĨ":645,"ÏģÏĮÎ½":646,"ÏģÎ±Î½":647,"ĠÎ¤Î±":648,"ÎºÎ±Î¹":649,"ÏĦÏģÎµ":650,"ÏĦÎŃÏģÎ±":651,"ĠÏĦÏĮÏĦÎµ":652,"ĠÎ²Î¬":653,"Î¿Î½ÏĦÎ±Î½":654,"ÏģÎ¯Î³ÎºÎ¹ÏĢÎ±":655,"ÏĢÏĮÎ½":656,"Î»Î¿ÏĤ":657,"ÎŃÏģÎ¹":658,"ÏĥÏĦÎ·":659,"ĠÏĢÎ¯":660,"ÏĢÎ®":661,"ÏģÎ¸":662,"Î³Î¹Î±":663,"Î»Î¿ÏħÏĤ":664,"ÏĥÎ±Î¹":665,"ĠÎ´Ïį":666,"ÏģÎ¯ÏĤ":667,"ÎŃÏĥÏīÏĤ":668,"Î¿Î¹ÏĢÏĮÎ½":669,"ĠÎºÎµ":670,"ĠÏĢÎ±ÏģÎ¬":671,"ĠÎ±Î¼":672,"ĠÏĨÏīÎ½":673,"Î²Îµ":674,"ĠÏĢÏģÏĮ":675,"ÎºÎ®":676,"ÏĨÎ¹":677,"ĠÏĨÏį":678,"ĠÎ´ÏħÎ¿":679,"ÏĦÏħ":680,"ĠÎºÎ¬ÏĦÎ¹":681,"ĠÎºÎ¬Î½ÎµÎ¹":682,"ÏĥÏĦÎ·ÎºÎµ":683,"ĠÏĢÏģÎ¯Î³ÎºÎ¹ÏĢÎ±":684,"Î¼Î¹":685,"ĠÎ¼ÏĮÎ½Î¿":686,"ĠÏĦÏİÏģÎ±":687,"ĠÏİÏģÎ±":688,"ÏĮÎ»Î¹":689,"ĠÎ±ÏħÏĦÎ¬":690,"ĠÎ¬Î»Î»Î¿":691,"ĠÎµÎ¾":692,"ÏĥÎ¿":693,"ÏĨÎ¬":694,"ĠÎµÎ¯Î´Îµ":695,"Î¿Î¯ÏĦÎ±":696,"ÏĦÎ¿Ïħ":697,"ĠÏĥÎ·":698,"ÏĩÎ¹":699,"ĠÏģÏİ":700,"ÏģÎŃÏĢÎµÎ¹":701,"Î¼ÏĮ":702,"ĠÎ±Î³Î±":703,"Î³ÎµÎ¹":704,"ÏįÏĩ":705,"Î»Ïħ":706,"Î±ÏĨ":707,"ĠÎŃÏĩÎµÎ¹":708,"Î³ÎºÎ¯":709,"ĠÎ±ÏħÏĦÎ®":710,"ĠÎĽ":711,"ĠÎ±ÎºÎ¿Ïį":712,"ĠÎŃÎ»Îµ":713,"ÏĨÎµ":714,"ĠÏĮÎ»Î¿Î¹":715,"ĠÎ¸ÎŃÎ»":716,"ÏĦÎ¿Î¹":717,"ÎºÎ·":718,"Î¾Ïī":719,"Î¹ÎºÏĮ":720,"ĠÏĢÎŃ":721,"Î±Î¹Î½Îµ":722,"ÏħÏĦÏĮ":723,"ĠÏĢÎ®Î³Îµ":724,"ĠÎ¬Î½Î¸ÏģÏī":725,"ÎĶ":726,"Î¼Î¯":727,"ĠÎļÎ±":728,"Î½Î®":729,"ĠÎ·Î¼":730,"ĠÏĢÎ¿Î½":731,"ĠÎºÎ±Î¹ÏģÏĮ":732,"ĠÎ¬ÏģÏĩÎ¹ÏĥÎµ":733,"ÏĥÎ¯Î±":734,"Î³ÎºÎ¯ÏĢÎ¹":735,"Î½Î¬":736,"ĠÎ´ÎŃÎ½":737,"Î¬Î½ÏĦÎ·ÏĥÎµ":738,"ĠÎºÎ¬ÏĦÏī":739,"ĠÎ±ÏģÏĩ":740,"Î´Î·":741,"Î¬Î»Î±":742,"ĠÎľÎ±":743,"ĠÎ²ÏģÎ¬":744,"ÏĦÎ·ÏĤ":745,"ÏģÎ¯Î±":746,"ÏİÎ½ÏĦÎ±ÏĤ":747,"ĠÎµÎ´Ïİ":748,"ĠÎ´Î¯":749,"Î¿Î³":750,"ĠÎ¼ÎµÏĦÎ¬":751,"ĠÎ¡":752,"ĠÏĢÎ±Î½":753,"ĠÏĢÎ¹Î±":754,"ĠÏĮÏĢÏīÏĤ":755,"ĠÎ»Î¿Î¹ÏĢÏĮÎ½":756,"Î¼ÏĢÎ¬":757,"ĠÎŃÎºÎ±Î½Îµ":758,"ĠÏĨÏī":759,"ĠÏĩÎ¬":760,"ĠÎ¼ÏĢÎ±":761,"ĠÎĺÎ±":762,"ĠÏĥÏħÎ¼":763,"ÏĮÎ»Î¹ÏĤ":764,"Î»Î±Î½":765,"Î¼ÎŃÎ½Î¿":766,"ÏģÎ¹ÏĥÏĦ":767,"ĠÎ¼Î·":768,"Î¸Î®":769,"ÏİÏĥÎµÎ¹":770,"ĠÎ»Î±":771,"ÏģÏħÏĥ":772,"ĠÎ²Î±ÏĥÎ¹Î»Î¹Î¬ÏĤ":773,"ĠÏĦÎ¯ÏĢÎ¿":774,"Î¹Ïĥ":775,"ÏĥÏį":776,"ĠÏģÏİÏĦÎ·ÏĥÎµ":777,"Î½Î¿ÏĤ":778,"ĠÎ±Îº":779,"Î³ÎºÎ¯ÏĢÎ¹ÏĥÏĥÎ±":780,"ĠÎµÎ³Ïİ":781,"ĠÎŃÎº":782,"ÎŃÎ²":783,"ĠÎºÏĮÏĥ":784,"Î»Î¹Î±":785,"ĠÎŃÎ´":786,"Î»ÎµÏħ":787,"Î½ÏĮ":788,"ÏĦÎ¿ÏĤ":789,"ĠÏĥÏĩ":790,"ÏĩÏģÎ¹":791,"ĠÏĩÏģÏĮÎ½":792,"ĠÎľÎµ":793,"ĠÏĢÎµÎ¹":794,"ĠÎ²Î¿":795,"Î¾Î±Î½":796,"ĠÏĢÏģÏİ":797,"ĠÏĩÏīÏģÎ¯ÏĤ":798,"Îĵ":799,"ĠÎ¼ÎŃÏĩÏģÎ¹":800,"ĠÏĢÎ¬Î½ÏĦÎ±":801,"ÎŃÏĪ":802,"ĠÎ¼Î·Î½":803,"ĠÎ®Î¸Îµ":804,"ÏģÏĦÎ±":805,"ĠÎ´Ïī":806,"ĠÎ¬ÎºÎ¿Ïħ":807,"Î·ÏĥÎµ":808,"ÏĦÎ¿ÏįÏĥÎµ":809,"ÏĥÏĢ":810,"ĠÎµÏħÏĩ":811,"ĠÎ»Ïį":812,"ĠÏĢÏģÏī":813,"ĠÎ¿ÏįÏĦÎµ":814,"ĠÏĥÎ¹":815,"Î¸Ïħ":816,"ÎŃÏģÎ¹Î±":817,"Î½ÎµÎ¹":818,"ĠÎ»Î¹":819,"ĠÏĢÏģÎ¬":820,"ĠÏĮÎ»Î¿":821,"ÎµÎ¯Î¿":822,"ĠÎ¼Î¬ÏĦÎ¹Î±":823,"ĠÎ±Î¼ÎŃÏĥÏīÏĤ":824,"ĠÎºÎ¿Ïģ":825,"Î¿Îº":826,"ÎŃÎ»Î±":827,"ĠÎ²Î»ÎŃ":828,"ĠÏį":829,"ĠÎ¼Î±Îº":830,"ĠÏĢÎ¹":831,"Î¼Î¿ÏģÏĨ":832,"ĠÏĨÏİÎ½Î±":833,"ĠÎºÎ±Ïģ":834,"Î»Î·ÏĤ":835,"ÏģÎ¿Ïħ":836,"Î¼Î¿ÏĤ":837,"ĠÎŃÎ³Î¹":838,"ĠÎ´Î¬Ïĥ":839,"ĠÏĢÎ®ÏģÎµ":840,"ĠÏī":841,"ĠÏĢÎ¿ÏĦÎŃ":842,"ÂµÎŃÎ½":843,"Î¼ÎŃÎ½Î¿ÏĤ":844,"ĠÎīÏĦÎ±Î½":845,"ĠÎºÏģÎ±":846,"Î³Î¹Î¬":847,"ĠÏĢÎµÏģÎ¯":848,"ĠÏĥÏħÎ½ÎŃÏĩ":849,"ÎºÎ¿ÏĤ":850,"Î»Î¬ÎºÎ¹":851,"Î¼ÎŃÎ½Î·":852,"ĠÎ¼Ïħ":853,"ĠÏĨÎ¿Ïģ":854,"ĠÎ»Îµ":855,"Î¹ÎºÎ®":856,"Î´Î¿":857,"Î¿ÏįÏĤ":858,"ĠÎ¼ÏĢÎ¿ÏģÎ¿ÏįÏĥÎµ":859,"Î½Î¹":860,"ĠÏĢÏģÎŃÏĢÎµÎ¹":861,"ĠÎ¼Î±Î¼Î¬":862,"ĠÏĢÎ¬Î»Î¹":863,"Î¸Î¹":864,"ÏĨÎ±":865,"ĠÏĢÏģÎ¯Î³ÎºÎ¹ÏĢÎ±ÏĤ":866,"Î¶Î¿ÏħÎ½":867,"ÎľÎ¹Î±":868,"ĠÎºÎ¿Î½ÏĦÎ¬":869,"ĠÎ´ÏģÏĮ":870,"ĠÎ¦":871,"ĠÏĥÎ±":872,"ĠÎµÎ¼":873,"ĠÎ±ÏĢÎ¿ÏĨ":874,"ÎľÎ±":875,"Î»ÎµÎ¯":876,"Î´Î®":877,"ĠÎ²Î±ÏĥÎ¯":878,"ĠÏĢÎŃÏģÎ±":879,"ĠÏĢÏģÎ¿ÏĤ":880,"ĠâĢ":881,"Î¯Î¿":882,"ĠÏĢÏģÎ¹Î³ÎºÎ¯ÏĢÎ¹ÏĥÏĥÎ±":883,"ÏĦÏģÎ¿":884,"Î³Î¿Ïħ":885,"Î³ÏĮ":886,"Î¬ÎºÎ¹Î±":887,"ĠÎ¾Î±Î½Î±":888,"ĠÏĩÏģÏĮÎ½Î¹Î±":889,"Î½Ïī":890,"ĠÏĢÏģÎ¿":891,"ĠÎ¿Ïħ":892,"ĠÎ±ÏĢÎ¬Î½ÏĦÎ·ÏĥÎµ":893,"ĠÎĪÏĦÏĥÎ¹":894,"ĠÎ½ÎµÏģÏĮ":895,"ĠÎºÎ±Î»ÏįÏĦÎµ":896,"ÏĥÏĥ":897,"ÏĩÏī":898,"Î¸Î±":899,"ĠÎºÎ±Î¸ÏİÏĤ":900,"ĠÏĢÎ¯ÏĥÏī":901,"ĠÎ´Î¹":902,"ĠÏĢÎ¿Î»Î»Î¬":903,"ĠÎ±ÎºÏĮÎ¼Î±":904,"ĠÎ¬Î»Î»Î±":905,"ĠÎ³Î¯Î½":906,"Î¯Î½Î±Î¹":907,"ÏģÎ±Î³Î¼Î±":908,"ĠÎ¿ÏĢÎ¿":909,"ĠÎºÎ¬ÏĢÎ¿Î¹":910,"ĠÎºÎ¿Î¯ÏĦÎ±":911,"ĠÎ¼ÎµÏĦÎ±":912,"ĠÎ´Î¿Ïħ":913,"ĠÎ¤Î¹":914,"ĠÎ²ÏģÎ¬Î´Ïħ":915,"ÏģÎ¿Ïĩ":916,"ÏģÎ¿ÏĥÏĦÎ¬":917,"ĠÎ¼ÎµÎ³Î¬Î»Î·":918,"ÏĨÎ±Î½":919,"ĠÏĢÎ±ÏĦÎŃÏģÎ±":920,"ÎļÎ±":921,"ĠÎ´ÎµÎ¹":922,"ĠÎ³ÏģÎ®":923,"Î½Î±Î¯":924,"ÎºÎºÎ¹":925,"ÎŃÏģÏī":926,"Î¿ÏįÎ¼Îµ":927,"Î¤Î±":928,"ĠÎ¬Î»Î»Î·":929,"ĠÏĥÏĦÎ¹Î³":930,"ĠÎ±Î³Î¿":931,"ĠÏĨÎ¬":932,"Î¾Î·":933,"ĠÎĳÎ½":934,"Î®ÏĤ":935,"ÏģÎ¹Ïĥ":936,"ĠÏĦÎ¯ÏĢÎ¿ÏĦÎ±":937,"Î»Î¬Î²":938,"ÏĢÎ»Î±":939,"Î¿Î½ÏĦÎ±Î¹":940,"ĠÎµÎºÎµÎ¯Î½Î·":941,"ĠÎ²ÏģÎ®":942,"ĠÎ¶Î®":943,"Î¸Î·ÎºÎ±Î½":944,"Î¤Î¹":945,"ĠÎ¼ÎµÎ³Î¬Î»Î¿":946,"Î»Ïİ":947,"Î³Î¿ÏģÎ±":948,"ÏįÏģÏī":949,"ĠÎ»ÏĮ":950,"ÎĻ":951,"Î¯Î¿Ïħ":952,"ĠÎ´ÏħÎ½Î±":953,"ÏĢÎ±Î½":954,"ĠÎŃÎ²Î±":955,"ĠÎ¸Ïħ":956,"Î¼Î¬ÏĦÎ¹":957,"ĠÏĦÏģ":958,"ĠÎ³Î¹Î±Î³Î¹Î¬":959,"ĠÏĥÎºÎŃÏĨ":960,"ĠÏĢÎ±Î¹Î´Î¯":961,"ĠÎ»Î¿Ïħ":962,"ĠÎļÎ¹":963,"ĠÎķÎºÎµÎ¯":964,"ĠÎ³Î±":965,"ÏįÏģÎ¹ÏĥÎµ":966,"ĠÎ¼Î¹ÎºÏģÏĮÏĤ":967,"ĠÎ±ÏĥÏĦ":968,"ĠÎ±Î½Î¸":969,"Î¼Î¿Ïħ":970,"ÏĥÎµÏĤ":971,"Î¾Î¹":972,"ÏħÏĦÏħÏĩ":973,"ĠÏĩÏģÏħÏĥ":974,"ĠÎ¹ÏĥÏĦ":975,"ĠÎ³ÏħÎ½Î±Î¯":976,"Î½Î¿Ïį":977,"ĠÎŁÎ¹":978,"Î¯ÏĦ":979,"ÏĢÎ¿ÏĤ":980,"Î±ÏĨÎ½":981,"ĠÎµÎ¯ÏĥÎ±Î¹":982,"ĠÏĥÏĦÎ¹Î³Î¼Î®":983,"ÎŃÎ±":984,"ĠÎ±Î»Îµ":985,"Î¸ÎµÎ¹Î±":986,"ĠÏĦÏģÎ±":987,"ÏĦÎ¬ÎºÎ¹":988,"ĠÏĢÏĮÏģÏĦÎ±":989,"ĠÎºÎ¿ÏģÎ¹":990,"ĠÎŃÎ³Î¹Î½Îµ":991,"Î»Î¹ÏĥÏĥÎ±":992,"ĠÏĢÎ¬ÎµÎ¹":993,"ĠÎ¼Î¹ÎºÏģÎ®":994,"ĠÎ·Î¼ÎŃÏģÎ±":995,"ÏĦÎ¿Î½":996,"ÏĥÏħÏĩ":997,"Î¬ÏĥÎ¹":998,"ÎµÏģ":999,"ĠÏĨÏħ":1000,"ĠÏĪÎ·":1001,"ĠÎ»ÎŃÎµÎ¹":1002,"ĠÎ³ÏħÎ½Î±Î¯ÎºÎ±":1003,"ĠÎ³Î¯Î½ÎµÎ¹":1004,"ĠÎĮÏĦÎ±Î½":1005,"ĠÏĨÏīÎ½Î®":1006,"ĠÎ¼Î¹":1007,"Î³ÏģÎ±":1008,"ĠÏĢÎµÏģÎ½":1009,"ÎľÎµ":1010,"ĠÏĩÎ±ÏģÎ¬":1011,"ĠÎ¬Î½Î¿Î¹":1012,"ĠÎĴÎ±":1013,"ĠÎ³ÏģÎ®Î³Î¿ÏģÎ±":1014,"Î»Î»Î¬":1015,"ÏħÎ³Îµ":1016,"ĠÏĢÎ±Î»Î¬":1017,"ĠÎ¬Î½Î¸ÏģÏīÏĢÎ¿Î¹":1018,"ÎĶÎµÎ½":1019,"ĠÏĢÎ»Î·":1020,"Î¼ÏīÏĤ":1021,"ĠÎ³Î¬":1022,"Î¹ÏĥÎ±Î½":1023,"ĠÎĵÎ¹Î±":1024,"ĠÏĢÏģÏīÎ¯":1025,"ĠÎ±Î½Î¸ÏģÏİ":1026,"ĠÂµÎ±":1027,"ĠÎ±Î½Î¬":1028,"ÏģÎ¿ÏĨ":1029,"ÏĦÎµÎ¯":1030,"Î¾Î¯":1031,"ĠÎŃÏĨÏĦÎ±":1032,"ĠÎ´ÏįÎ¿":1033,"ĠÎ´Î¿ÏħÎ»ÎµÎ¹":1034,"ÎĽ":1035,"ĠÎ½ÏįÏĩ":1036,"ĠÎŃÎ¾Ïī":1037,"ĠÎµÎ¯Î¼Î±Î¹":1038,"ĠÏĮÎ»Î·":1039,"ÏĦÏĥÎ¬ÎºÎ¹":1040,"Î¬Î»Î±ÏĥÏĥÎ±":1041,"ĠÎ®Î¸ÎµÎ»Îµ":1042,"Î»Î±Î¹":1043,"ĠÎ´Ïİ":1044,"ĠÎºÎµÏĨÎ¬":1045,"ĠÎ±Î»ÎµÏĢÎ¿Ïį":1046,"ĠÎŃÏģÎ¸":1047,"Î»Î±Î²Îµ":1048,"ĠÏĢÏģÎ¹Î½":1049,"ĠÎ¾Î±Î½Î¬":1050,"ĠÎ±ÏĨÎ¿Ïį":1051,"ĠÎŃÎ»ÎµÎ³Îµ":1052,"ĠÎ´Î¬ÏĥÎ¿ÏĤ":1053,"ĠÏĢÏģÎ±Î³Î¼Î±":1054,"Î³Ïī":1055,"ĠÎ¼ÎµÎ³Î±":1056,"ÏģÎ¸Îµ":1057,"Î»Î¹ÎºÎ¬":1058,"ÂµÎµ":1059,"ĠÏĢÎ±Î¯":1060,"ĠÎ±ÏħÏĦÏĮÏĤ":1061,"ĠÎºÎ®":1062,"ÏħÎµ":1063,"ÏįÎ½":1064,"ÏĥÏĦÎµÎ¯":1065,"ĠÎµÏħÏĩÎ±":1066,"ĠÎŃÏĦÏģÎµ":1067,"ĠÎ³Î»Ïħ":1068,"Î²Î¿":1069,"ĠÎ¶Ïİ":1070,"ĠÏĨÎ±Î³Î·":1071,"ĠÎ¯Î´Î¹":1072,"ĠÎµÏĥÏį":1073,"ÏĪÎµÎ¹":1074,"Î·ÏĤ":1075,"ĠÏĢÎ·":1076,"Î²Î¹":1077,"ÏģÏĮÏĤ":1078,"ĠÎ¾Ïį":1079,"Îĺ":1080,"ÏĨÏħ":1081,"ÏģÏĩÎµ":1082,"ĠÎ³Î¿Î½":1083,"Î¿ÏģÎ¯Î±":1084,"ĠÎ¾ÎŃÏģ":1085,"ĠÎ¼ÏĢÏģÎ¿ÏĥÏĦÎ¬":1086,"ĠÎ²Î¿Î·":1087,"ĠÏĢÎ±Î»Î¬ÏĦÎ¹":1088,"ĠÎºÎ±ÎºÏĮ":1089,"ĠÏĥÏĦÎ¹ÏĤ":1090,"ĠÎ¶ÏīÎ®":1091,"ĠÏĢÏģÎ¬Î³":1092,"ĠÏĦÏģÎ¹":1093,"ĠÏĥÎºÎµ":1094,"ÏĨÎ¿":1095,"ĠÎºÎ±ÏģÎ´Î¹Î¬":1096,"Î½Ïİ":1097,"Î¶Î±":1098,"ĠÎ®Î¾Îµ":1099,"ÎµÏĦÎ±Î¹":1100,"ÏĦÎ¿Ïį":1101,"ĠÏĢÎ¿Î¹":1102,"ÏĮÎ½Î¿":1103,"ĠÎ¼Î±ÎºÏģÎ¹Î¬":1104,"ĠÎºÎ»Î±":1105,"ÏĩÎ¿":1106,"ÏĦÎ®ÏĥÎµÎ¹":1107,"ĠÏĢÎ®Î³":1108,"ÏĦÎ¿ÏįÏĥÎ±Î½":1109,"Î»ÎŃÏĤ":1110,"Î¶Ïī":1111,"Î±ÏĨÎ½Î¹ÎºÎ¬":1112,"ĠÎºÎ¿ÏģÎ¹ÏĦÏĥÎ¬ÎºÎ¹":1113,"ÏĥÏĦÎ®":1114,"ĠÎ¼ÏĢÎ¿ÏģÎµÎ¯":1115,"ÏģÎ³":1116,"Î»Î¯Î±":1117,"ĠÎ³ÏįÏģÏī":1118,"ÏĨÎ¹Î±":1119,"Î½Î¿Î¹":1120,"ĠÎµÏĢ":1121,"ĠÎŃÎ»Î±":1122,"ĠÎ´ÎŃÎ½ÏĦÏģÎ¿":1123,"ĠÏĥÎºÎŃÏĨÏĦÎ·ÎºÎµ":1124,"ÏĦÎ¶":1125,"ÏĥÏĩ":1126,"ĠÎ±Îµ":1127,"ĠÎŃÏĢÎµ":1128,"ĠÏĨÏĮ":1129,"ĠÎ´ÏģÏĮÎ¼Î¿":1130,"ÏĥÏĦÎ¹":1131,"ĠÎ»Î¿ÏħÎ»Î¿Ïį":1132,"ĠÎŃÏĩÏī":1133,"ĠÎ¼ÏĢÎ±Î¼ÏĢÎ¬":1134,"Î½ÎµÏĤ":1135,"ÏĢÏī":1136,"ÏĢÎ¿Ïģ":1137,"ĠÏĥÏĢÎ¹":1138,"ÏģÎ±ÏĤ":1139,"ÏģÎµÏĢÎµ":1140,"ĠÎļÎ¬":1141,"ÎŁÎ¹":1142,"ÏĢÎ¬ÏģÏĩ":1143,"ĠÏĨÏİÎ½Î±Î¾Îµ":1144,"ÏħÎ¸":1145,"ĠÎ´Î¹Î¬":1146,"ĠÏĪÎ¬":1147,"ĠÎºÎ±Î½ÎŃÎ½Î±":1148,"ĠÎºÎµÏĨÎ¬Î»Î¹":1149,"ÏģÎ¿ÏħÎ½":1150,"ÎºÎ¯Î½":1151,"ĠÏĥÏĦÎ¿ÏħÏĤ":1152,"Î¶Î¿Î½ÏĦÎ±ÏĤ":1153,"ĠÎºÏĮÏģÎ·":1154,"ÏĥÎ¼ÎŃÎ½Î·":1155,"ĠÎ´Î¯ÏĢÎ»Î±":1156,"ÏĮÎ½Î¹":1157,"ĠÎĳÏĢÏĮ":1158,"ÏĦÎµÎ¹":1159,"ÏĦÏį":1160,"ÏģÎ¿Î½":1161,"Î¯ÏĥÎµÎ¹":1162,"ĠÎ¼Î±Î³":1163,"ĠÎ£Îµ":1164,"ĠÎ±ÏĢÎ¿Îº":1165,"ĠÎŃÎ´ÏīÏĥÎµ":1166,"ÏĥÎ¹Î±":1167,"ÏĦÎ·Î½":1168,"ĠÎ¶Î·":1169,"ÎĮÏĦÎ±Î½":1170,"ÎĪÏĦÏĥÎ¹":1171,"ÏģÏĢÎ±":1172,"ĠÎµÎº":1173,"ÏģÎ¿ÏĢ":1174,"ĠÎ±ÏĢÎ¿ÏĨÎ¬ÏĥÎ¹":1175,"ĠÎºÎ±Î»ÏįÏĦÎµÏģÎ±":1176,"ÏģÏĨ":1177,"ĠÎŃÏĩÎ¿ÏħÎ½":1178,"ÎµÏį":1179,"ĠÎ»Î¬":1180,"ĠÎķÎ¯Î½Î±Î¹":1181,"ĠÎ³Î¿Î½ÎµÎ¯ÏĤ":1182,"ÏĢÎ¿ÏħÏĤ":1183,"ĠÎ²Î±ÏĥÎ¯Î»Î¹ÏĥÏĥÎ±":1184,"ÏĥÎºÎµ":1185,"ÏĢÏĢÎ¿Ïį":1186,"ĠÏĨÎ±Î½":1187,"Î¶Î¹":1188,"Î½Î·ÏĥÎµ":1189,"Î·ÎºÎµ":1190,"Î¼ÎµÎ¹":1191,"Î¼Î¿Î½":1192,"ĠÎ¿Î¹Îº":1193,"ĠÏħÏĢÎ®":1194,"ÏĥÎ¼Î±":1195,"ĠÎ¼Î¯Î±":1196,"ÏĨÎ¿Ïģ":1197,"ĠÎ®Î»Î¹":1198,"Î®Î¸ÎµÎ¹Î±":1199,"ĠÎ®ÏģÎ¸Îµ":1200,"Î¼ÎµÎ½Îµ":1201,"ĠÎŃÎ²Î»Îµ":1202,"ĠÎºÎ¿Î¯ÏĦÎ±Î¾Îµ":1203,"ÏĥÎ¿ÏħÎ¼Îµ":1204,"ĠÏĮÏĥÎ¿":1205,"ĠÎºÏĮÎºÎºÎ¹":1206,"ĠÏĦÏģÏĮ":1207,"ĠÏĥÏĦÎµ":1208,"ĠÏĩÎ¿Ïģ":1209,"ÏĥÏĦÎ¬":1210,"ÏģÎ¬ÎºÎ¹Î±":1211,"ĠÎ¸Î¬Î»Î±ÏĥÏĥÎ±":1212,"ĠÎ¤ÏĮÏĦÎµ":1213,"ÎŃÏģÎµÏĤ":1214,"ĠÎ½ÎµÏģÎ¬":1215,"ĠÎŃÏĢÎ±Î¹":1216,"ÏĥÏĥÏĮÏĦÎµ":1217,"ĠÏĦÏģÎŃ":1218,"ĠÏħÏĢ":1219,"ĠÎºÎ¬Î½Ïī":1220,"ĠÎºÎ±ÏĦÎ±Î»Î¬Î²":1221,"Î½ÏĮÏĦÎ±Î½":1222,"ÏĢÎ»Î·":1223,"ĠÏĩÎ±ÏģÎ¿Ïį":1224,"ĠÏĢÎ±Î¹Î´":1225,"ĠÎŃÏĩÎµÎ¹ÏĤ":1226,"ĠÏĩÏīÏģÎ¹":1227,"ĠÎ¬ÏģÏĩÎ¹ÏĥÎ±Î½":1228,"ĠÎµÎ½Ïİ":1229,"ÏĩÎ½Î¯":1230,"ĠÎºÎ±Î½ÎµÎ¯ÏĤ":1231,"âĪ":1232,"ĠÎºÏģÏį":1233,"ĠÎºÎ±Î»ÏĮ":1234,"ĠÎĿÎ±":1235,"ĠÎ±Î³Î¿ÏģÎ¬ÎºÎ¹":1236,"âĪĨ":1237,"ÏħÏĢ":1238,"ĠÏĩÎ¹":1239,"ÏĢÎ¿Î¹Î±":1240,"ĠÎ³ÎµÎ¼Î¬":1241,"ĠÏĨÎ±Î³Î·ÏĦÏĮ":1242,"ĠÎ¸ÎŃ":1243,"ÏĪÎ±":1244,"Î¿Î³ÎŃÎ½":1245,"ĠÎ¬ÎºÎ¿ÏħÏĥÎµ":1246,"ĠÎ´Î¿ÏħÎ»ÎµÎ¹Î¬":1247,"ĠÏĦÏģÎ±Î³":1248,"ÏĨÎ¿ÏĤ":1249,"ĠÂµÎ¹Î±":1250,"ĠÎµÎ¼ÎµÎ¯ÏĤ":1251,"ĠÎĻ":1252,"ÏĦÏĮÏĤ":1253,"Î»Î»Î±":1254,"ĠÎ±Î´Îµ":1255,"ĠÎ±ÏĢÎ±":1256,"ĠÏĩÏİ":1257,"Ġ\"":1258,"Î³ÏĮÏĤ":1259,"ĠÏĥÏĦÏģÎ±":1260,"ĠÎ¬ÏĨ":1261,"ĠÏĢÏĮÎ´Î¹Î±":1262,"ĠÏĢÎµÏģÎ¹ÏĥÏĥÏĮÏĦÎµ":1263,"ÏĥÎ¼ÎŃÎ½Î¿":1264,"ÏĥÎ¼ÎŃÎ½Î¿ÏĤ":1265,"ĠÏĦÎµÏģÎ¬":1266,"ĠÎŃÎ²Î±Î»Îµ":1267,"ĠÏĥÎ®":1268,"ĠÎ²ÏģÎµÎ¹":1269,"ĠÏģÎ¿Ïį":1270,"ĠÏĦÏĮ":1271,"Î¼Î¹Î¬":1272,"Î³Î³":1273,"ÏĦÎ·ÏĦÎ±":1274,"ĠÏħÏĢÎ¬ÏģÏĩ":1275,"ĠÎ¿Î»ÏĮ":1276,"ĠÏĨÏĦÎµ":1277,"Î³Î¬ÏĢÎ·":1278,"ĠÎ¶Îµ":1279,"ÎĿÎ±Î¹":1280,"ĠÎ¼Î¹ÎºÏģÎ¬":1281,"ĠÎ±ÏģÎºÎµ":1282,"ÏĦÎ¿ÏĢ":1283,"ĠÏĦÏĥ":1284,"Î¯ÎµÏĤ":1285,"ĠÏĦÎ±Î¾Î¯":1286,"ĠÎºÎ±ÏĦÎŃ":1287,"Î¬Î½Ïī":1288,"ÎºÎ¹Î¬":1289,"ĠÎ¼ÎŃÏģÎµÏĤ":1290,"Î¤Î·Î½":1291,"ÏĢÎ¿ÏħÎ»Î¿":1292,"ĠÎŃÏĢÏģÎµÏĢÎµ":1293,"ÏģÎ³Î±":1294,"ĠÏĦÎŃÎ»":1295,"Î»Î¿ÏĢ":1296,"ĠÏĥÎ¿":1297,"ĠÎ²Î¹":1298,"ĠÏĩÎŃÏģÎ¹Î±":1299,"ĠÏĢÎ±ÏĢÏĢÎ¿Ïį":1300,"ÎºÎ±Î»Î¹Î¬":1301,"Î¼ÎµÎ½Î·":1302,"ĠÎ¿ÏħÏģÎ±Î½":1303,"ĠÎ¿Î¹ÎºÎ¿Î³ÎŃÎ½":1304,"Î»Î»Î¿":1305,"ÎºÎŃÏĤ":1306,"Î¼Ïī":1307,"ĠÎ¼ÏĮÎ»Î¹ÏĤ":1308,"ÏĩÎµÎ¹":1309,"ĠÎ´Î¬":1310,"ÏģÎ¬ÏĥÎµÎ¹":1311,"ĠÎ²Î³Î®":1312,"ĠÏĩÎŃÏģÎ¹":1313,"ÎµÎ¯Î±":1314,"ÏĥÏĦÎµÏģÎ±":1315,"ĠÎºÎ±ÏĦÎ¬Î»Î±Î²Îµ":1316,"ĠÎµÏħÏĦÏħÏĩ":1317,"ÏĦÎ·ÏĥÎ±Î½":1318,"ÂµÎ¬":1319,"ÏĢÎ±Î¸":1320,"ĠÎºÏĮÏĥÎ¼Î¿":1321,"ĠÎ²ÏģÎ®ÎºÎµ":1322,"ĠÎºÏįÏģÎ¹":1323,"ÏĨÎŃÏģ":1324,"ĠÏĮÎ»Î¿ÏħÏĤ":1325,"ĠÏĢÎ¬ÏģÎµÎ¹":1326,"ĠÎ±ÏĨÎ®":1327,"ĠÏĥÏĩÎ¿Î»":1328,"ĠÎ¬Î½Î¿Î¹Î¾Îµ":1329,"Î½Î±ÏĤ":1330,"ĠÎ»ÎµÏĤ":1331,"ĠÎłÎ±":1332,"ĠÎ£ÏĦÎ±":1333,"ĠÎ¸ÎŃÎ»Ïī":1334,"ĠÎµÏħ":1335,"ĠÎµÏĢÏĮ":1336,"ĠÏĮÏĢÎ¿Ïħ":1337,"ĠÏĥÎºÎ¿":1338,"Î»Î®ÏĤ":1339,"ĠÎ±Î³Î±ÏĢ":1340,"ĠÎºÎ®ÏĢÎ¿":1341,"Î¯ÏĥÏĦÎ·ÎºÎµ":1342,"ĠÎ±Î´":1343,"ĠÏĨÎŃÏģ":1344,"ĠÎ´ÏīÎ¼Î¬ÏĦÎ¹":1345,"ĠÏģÎ¿ÏįÏĩÎ±":1346,"ĠÎĸ":1347,"Î¹Î¹":1348,"ĠÎºÏģÎµ":1349,"Î³ÎµÏĤ":1350,"Î¸ÎµÎ¹":1351,"ĠÏĩÏģÏİ":1352,".âĢ":1353,"ĠÎŀ":1354,"ÏĦÏİ":1355,"ÏģÎ·ÏĤ":1356,"Î±Î½ÏĦÎ¬":1357,"ÏħÏĨ":1358,"ĠÎ³ÏģÎ¬":1359,"ĠÏĨÏĦÎ¬":1360,"ÎŃÎ½Î±Î½":1361,"ĠÎ±Î³ÏĮ":1362,"ĠÎķÎ¯ÏĩÎµ":1363,"ÎĵÎ¹Î±":1364,"ĠÏīÏģÎ±":1365,"ĠÏĨÎ¿ÏģÎŃÏĤ":1366,"ĠÎŃÏĨÏĦÎ±ÏĥÎµ":1367,"ÏĦÏģÏī":1368,"Î·ÏĥÎ±Î½":1369,"ĠÎºÏģÏħ":1370,"Î¼Î¼Î±":1371,"ĠÏĨÏĦÎ¹Î¬":1372,"ĠÎ¸Îµ":1373,"ĠÎĳÏħÏĦ":1374,"ĠÏĥÏħÎ½ÎŃÏĩÎ¹ÏĥÎµ":1375,"ĠÎ¼ÎµÎ³Î±Î»":1376,"ĠÎ®Î¾ÎµÏģÎµ":1377,"ÎºÎ¿Î»":1378,"ÎŃÏĢ":1379,"ÏģÎµÏĥÎµ":1380,"ĠÏĢÎ¿Î»Î»ÎŃÏĤ":1381,"ĠÎ±Î³Î±ÏĢÎ·":1382,"ĠÎ¶ÏİÎ±":1383,".\"":1384,"Î¬Ïģ":1385,"ĠÎºÎ¿ÏħÎ½":1386,"ÏĮÎ»Î¿Ïħ":1387,"Î±Î¹Î½Î±Î½":1388,"ĠÏĥÏĦÏĮ":1389,"ĠÏĢÎ¿ÏħÎ»Î¹Î¬":1390,"ĠÎŃÏĨÎµ":1391,"Î»Î¿ÏįÏĥÎµ":1392,"ĠÎºÎ¿ÏĢ":1393,"ĠÏĢÏī":1394,"ĠÎ¬ÏĥÏĢ":1395,"ĠÎ¼ÏĢÎ®":1396,"ĠÎ±ÏħÏĦÎ¿Î¯":1397,"!.":1398,"Îŀ":1399,"ĠÎºÎ¿Î»":1400,"ÏģÎ¹Î²":1401,"Î¤ÏĮÏĦÎµ":1402,"ĠÏĥÎ¹Î³Î¬":1403,"ĠÎ¼Î®":1404,"ÎŃÎ½Îµ":1405,"ÎºÏĮÏĦÎ±Î½":1406,"ÏĢÎ¿ÏĦÎµ":1407,"ĠÎ±ÎºÏĮÎ¼Î·":1408,"Î¥":1409,"ĠÎ±Î³Î¬ÏĢÎ·":1410,"ĠÏĮÏĩÎ¹":1411,"ĠÎ¤Î·Î½":1412,"Î¯Î½Î¿ÏħÎ½":1413,"ĠÎµÎºÎµÎ¯Î½Î¿ÏĤ":1414,"ĠÎŃÎºÎ±Î½Î±Î½":1415,"ĠÎ»ÏĮÎ³Î¹Î±":1416,"ĠÎ¹ÏĥÏĦÎ¿ÏģÎ¯Î±":1417,"Î¿Î½Î±":1418,"ÏģÎ¹ÏĥÎµ":1419,"ÏĥÎ·ÏĤ":1420,"ĠÏĢÎ±Î¹ÏĩÎ½Î¯":1421,"ĠÎ¯Î´Î¹Î±":1422,"ĠÏĮÎ¼Î¿ÏģÏĨÎ±":1423,"Î±Î±":1424,"ĠÎ¼ÏĢÎ¿ÏģÏİ":1425,"ĠÏĨÏīÎ»Î¹Î¬":1426,"Î¿Î´Î¿":1427,"ĠÎºÎ»ÎµÎ¹":1428,"ÎŃÏĥÎ±":1429,"ĠÏĥÏī":1430,"Î¸Î¿Ïħ":1431,"ĠÎºÎ¬Î½Î¿ÏħÎ½":1432,"ĠÏĨÎ¿Î²":1433,"ĠÏĢÏģÏİÏĦÎ·":1434,"ĠÎ±Î½Î¸ÏģÏİÏĢÎ¿ÏħÏĤ":1435,"ĠÏĥÎºÎµÏĨ":1436,"Î´Î¬":1437,"Î¼Î±ÏĥÏĦÎµ":1438,"ĠÏĢÎµÏĦÎ¬":1439,"ĠÏĢÎµÏģÏĢÎ±":1440,"ĠÏĪÎ±":1441,"ÎķÎ¯":1442,"ĠÎ¾ÎµÎºÎ¯Î½":1443,"ĠÎ·Î¼ÎŃÏģÎµÏĤ":1444,"ĠâĢĺ":1445,"ĠÎ½ÏįÏĩÏĦÎ±":1446,"ĠÎŃÏģÎ¸ÎµÎ¹":1447,"Î»ÏīÏĥÎµ":1448,"ĠÏĢÎ»Î¬":1449,"ĠÏĥÏįÎ½":1450,"ĠÎ±ÎŃÏģÎ±":1451,"ĠÎŃÎ»ÎµÎ³Î±Î½":1452,"Î±ÏĢ":1453,"ÎºÏģÏħ":1454,"ĠÎ¼Î¿Î½":1455,"ĠÏĩÎµÎ¹":1456,"Î¾Ïį":1457,"ÏĥÏĦÏģÎ¿":1458,"ĠÎĳÎ»Î»Î¬":1459,"ĠÏĢÎ¬ÏģÎ±":1460,"ĠÎĮÎ¼ÏīÏĤ":1461,"ĠÏĪÎ·Î»Î¬":1462,"ÎĴ":1463,"ĠÏĦÏģÎ¿":1464,"Î»Î¿Î½":1465,"ĠÏĢÏĮÏĥÎ¿":1466,"ĠÎ¼ÎµÏģÎ¹":1467,"ĠÏĥÎºÏį":1468,"ĠÎ±Î³ÎºÎ±Î»Î¹Î¬":1469,"ĠÎ¯Î´Î¹Î¿":1470,"Î§":1471,"Î¼Î¯Î±":1472,"ĠÎµÏĢÎŃ":1473,"Î²Î¿Ïħ":1474,"ĠÎºÎ±Î»Î®":1475,"ÏĦÎ·ÎºÎ±Î½":1476,"Î¹ÎºÎ±":1477,"ĠÎĳÏħÏĦÏĮ":1478,"ĠÂµÎ¿Ïħ":1479,"ĠÎ¶Î¿ÏįÏĥÎµ":1480,"ĠÎŃÏĨÏħÎ³Îµ":1481,"ĠÏĢÎ±ÏģÎ¬Î¸Ïħ":1482,"ĠÎ´ÏīÎ¼Î¬ÏĦÎ¹Î¿":1483,"ÏĦÏĥÎ±":1484,"ÏĩÎ½Îµ":1485,"ÏģÎ±Îº":1486,"ĠÏĨÎ¹":1487,"ÏĦÎ¹ÎºÎ®":1488,"ĠÎºÎ¬Î¸":1489,"ÏĪÎ±Î½":1490,"ĠÎºÎ¿Î¼":1491,"ĠÏĮÎ¼Î¿ÏģÏĨÎ·":1492,"ÎŃÎ²Î±Î¹":1493,"ĠÏĢÎ±ÏĦÎŃÏģÎ±ÏĤ":1494,"Î¸Î¿ÏĤ":1495,"ĠÎ³ÏįÏģÎ¹ÏĥÎµ":1496,"ĠÎºÎ±Î»Î¿":1497,"ÎļÎ¹":1498,"ĠÏĮÎ¼Î¿ÏģÏĨÎ¿":1499,"ĠÏĢÏģÎ¬Î³Î¼Î±ÏĦÎ±":1500,"ĠÎºÎ»Î¿Ïħ":1501,"ĠÏĮÎ»ÎµÏĤ":1502,"ĠÎ»Ïħ":1503,"ĠÎ¼Î±Î»":1504,"ĠÎºÏħÏģ":1505,"ĠÎºÎ±ÏĦÎ¬ÏĨÎµ":1506,"ÏĥÎºÎ¿Î»":1507,"Î³ÏģÎ±ÏĨ":1508,"ĠÏĥÏĦÏģÎ±ÏĦÎ¹":1509,"ĠÏĥÏĩÎ¿Î»ÎµÎ¯Î¿":1510,"ÎĨ":1511,"Îī":1512,"Î¿ÏĪ":1513,"ÏĦÎµÏħ":1514,"Î¾ÎµÎ½":1515,"ĠÎľÎ¹Î±":1516,"ĠÏħÏĢÏĮ":1517,"ĠÎ¼Î·ÏĦÎŃÏģÎ±":1518,"ĠÎŃÏĢÎµÏĥÎµ":1519,"ÎµÎ³":1520,"ÎºÎ»Î·":1521,"ĠÏĢÎ¹Î¬":1522,"ÏİÎ¸Î·ÎºÎµ":1523,"ĠÏĩÏİÏģÎ±":1524,"âĢĿ":1525,"Î¶ÎµÏĦÎ±Î¹":1526,"ĠÎºÏħÎ½Î·":1527,"ĠÎŃÎ²Î³Î±":1528,"ĠÏĢÎ®Î³Î±Î¹Î½Îµ":1529,"ĠÎŃÎ¼ÎµÎ¹":1530,"ĠÎ³ÎµÎ½":1531,"ĠÎ¿Î¼Î¿ÏģÏĨ":1532,"ÏĦÎ¬ÎºÎ¹Î±":1533,"ĠÎºÎ¿Î¹ÏĦÎ¬":1534,"ĠÎ³ÏħÏģÎ¯":1535,"ĠÎ»Î¹Î¿Î½ÏĦÎ¬":1536,"ĠÏįÏĢ":1537,"ĠÎ±ÏĢÎ¿ÏĨÎ¬ÏĥÎ¹ÏĥÎµ":1538,"Î³Î¿Î½ÏĦÎ±ÏĤ":1539,"ĠÎ½ÏĮ":1540,"ĠÎ³Î½Ïī":1541,"ĠÎ²Îµ":1542,"ĠÎ²ÏĮ":1543,"ÏĥÏĦÎ¿":1544,"ĠÏĩÎ±Î¼Î¿":1545,"ĠÏĢÎ±ÏģÎ±Î¼":1546,"ĠÏĥÎ·Îº":1547,"ĠÎ»ÏįÎºÎ¿ÏĤ":1548,"ĠÏĢÏģÎ±Î³Î¼Î±ÏĦÎ¹ÎºÎ¬":1549,"ĠÏĦÎŃÎ»Î¿ÏĤ":1550,"ÏģÎŃÎ½":1551,"ÏĥÏħ":1552,"Î¯Î³Î¿Ïħ":1553,"Î³ÎµÎ½":1554,"Î±Î½Îµ":1555,"ĠÎµÎ¯Î´":1556,"ĠÏĨÎ¬Î½":1557,"ÏĥÏĦÏģÎµ":1558,"ĠÎľÎµÏĦÎ¬":1559,"ĠÏħÏĢÎ®ÏģÏĩÎµ":1560,"Î¸Î¿ÏįÎ½":1561,"ĠÎ´ÎµÎ¯":1562,"ÏģÎ¹Î¿":1563,"Î¿Î»Ïį":1564,"ĠÏģÎ¯":1565,"ĠÎķÎ¯ÏĢÎµ":1566,"ĠÎ»ÎµÏĢ":1567,"ĠÏĦÏģÎ±ÏĢÎŃ":1568,"ĠÎ¿ÏħÏģÎ±Î½ÏĮ":1569,"Î»ÏīÎ½":1570,"ÏĥÎ¬":1571,"ĠÎŃÎ½Î¹":1572,"ĠÏĩÏģÎ®":1573,"ĠÎ¬Î³":1574,"ĠÎ»ÎŃÎ½Îµ":1575,"ĠÎ¼ÎŃÏģÎ¿ÏĤ":1576,"ÏĦÏģÎ¹":1577,"ĠÏĦÎŃ":1578,"Î´ÏĮÎ½":1579,"ĠÎ³Î¿Ïħ":1580,"ÏĨÎ¿Ïį":1581,"ĠÎ²Î¿ÏħÎ½":1582,"ĠÏĢÎ±ÏģÎŃ":1583,"ÏĦÎ¿Î¼Î±":1584,"ÏĦÎ¹ÎºÏĮÏĤ":1585,"Î»ÎµÏħÏĦÎ±":1586,"Î¿Î¼Î¯":1587,"ÏĥÎ¿Ïħ":1588,"ĠÏĢÏħ":1589,"ÏħÎ¼Î±":1590,"Î¸ÏİÏĤ":1591,"ĠÎ²ÏģÎ¯":1592,"ÏĥÏĦÏĮ":1593,"Î»Î·ÏĥÎµ":1594,"Î²Î±Î¯Î½ÎµÎ¹":1595,"ÎĺÎ±":1596,"ĠÎ¼ÏĢÎ±Î¼ÏĢÎ¬ÏĤ":1597,"ĠÎ³ÎŃ":1598,"Î¿Î½ÏĦ":1599,"ÏĦÏīÏĩ":1600,"ĠÏĦÏģÎµÎ¹ÏĤ":1601,"ÎºÎ¿Î¯":1602,"ĠÎºÎ±Î¹Î½Î¿Ïį":1603,"ÏĥÎ¹Î¬":1604,"ĠÎ±Î½ÏĦÎ¯":1605,"Î¸Î·ÏĥÎµ":1606,"ÏİÎ½ÎµÎ¹":1607,"ĠÎ±ÎºÏģÎ¹Î²":1608,"ÏĩÎ¿ÏĤ":1609,"ĠÎŃÏĥ":1610,"ÏĦÎ¹Î¿Ïį":1611,"Î²Î¯":1612,"Î¯Î½Ïī":1613,"ÏĦÏĥÎ¹Î±":1614,"ĠÏĥÎ·Î¼Î±":1615,"ĠÎŃÎ²Î»ÎµÏĢÎµ":1616,"Î³ÎºÎ¬":1617,"Î¹Î±ÏĥÎµ":1618,"ĠÎ½ÎŃ":1619,"ĠÏĮÎ½Î¿":1620,"ĠÎºÎ±Î¸ÏĮÎ»Î¿Ïħ":1621,"ÏĢÎµÎ¹Î´Î®":1622,"ĠÏĨÏīÎ½Î¬":1623,"ĠÏħÏĢÎ¬ÏģÏĩÎµÎ¹":1624,"ÎŃÎ²Î±Î¹Î±":1625,"ĠÏĢÏİÏĤ":1626,"ĠÎ¼Î¿Î¹":1627,"Î±Î½Î±":1628,"Î¸Î¬":1629,"ÏģÏĮÎ½Î¿":1630,"ĠÎ¾Ïī":1631,"Î¼ÎµÏģÎ±":1632,"ÏĪÎ·":1633,"ĠÎ²Î¿Î·Î¸Î®":1634,"ĠÎ±Î´ÎµÏģÏĨ":1635,"ĠâĪĨ":1636,"Î±Î¼":1637,"Î±ÏħÏĦÏĮ":1638,"ĠÎ´Î·":1639,"ĠÎ¾ÎŃÏģÏī":1640,"Î³Î¬ÏģÎ¹":1641,"ÏīÎ½Î¯Î±":1642,"ÎķÎºÎµÎ¯":1643,"ĠÎ²Î±ÏĥÎ¹Î»ÏĮ":1644,"ÎĮÏĩÎ¹":1645,"ĠÏĦÏģÎ±ÏĢÎŃÎ¶Î¹":1646,";,":1647,"ÏĦÎŃÎ»":1648,"Î¯Î½Î±":1649,"ĠÏĢÎµÎ¯":1650,"ÎŃÎ±ÏĤ":1651,"ÏħÎ»Î¿":1652,"ĠÎ´ÏģÎ¬":1653,"ĠÏĩÏĦÏħ":1654,"Î¾ÎµÎ¹ÏĤ":1655,"ĠÎ¬Î»Î¿":1656,"ĠÏĥÎºÎŃÏĪ":1657,"ĠÏĥÏĦÎ±Î¼Î¬":1658,"ĠÎºÎ¬Î½ÎµÎ¹ÏĤ":1659,"ĠÏĦÎµÎ»ÎµÏħÏĦÎ±":1660,"ĠÏĨÎ±Î¯Î½":1661,"ĠÎ¬Î½Î¸ÏģÏīÏĢÎ¿ÏĤ":1662,"ÏĥÏĩÎ·":1663,"ĠÎ²Î¹Î²":1664,"ĠÎ»Î¹Î¿Î½ÏĦÎ¬ÏģÎ¹":1665,"ĠÎ¼Î¿Î½Î±":1666,"ĠÏĥÏĩÎµ":1667,"Î®ÏĥÎµÎ¹":1668,"ĠÎµÎ¯ÏĩÎ±":1669,"ÏĥÎ±Î¼Îµ":1670,"Î»ÎµÏį":1671,"Î¯Î±ÏĤ":1672,"Î¯Î½Î·":1673,"ĠÎ¹Î´":1674,"ĠÏĢÎŃÏĦÎ±":1675,"ÎŃÏĪÎµÎ¹":1676,"!!":1677,"ĠÏĦÏģÏİ":1678,"Î¯Î´Î±":1679,"ĠÏĥÎºÎ±":1680,"ĠÎ²ÏģÎŃ":1681,"ĠÎĮÎ»Î¿Î¹":1682,"ĠÏİÏĥÏĦÎµ":1683,"ÎĿÎ±":1684,"ĠÎ¾ÏįÏĢ":1685,"Î¼Î¼":1686,"ÏģÎ¹Î½":1687,"ĠÎµÎ¯ÏĢÎ±Î½":1688,"ĠÏĨÎµÎ³":1689,"Î¾Î±":1690,"Î¾Î¹Î¬":1691,"ĠÏĢÎ¿ÏħÎ»Î¬ÎºÎ¹":1692,"Î¼Î±ÏĦÎ¹":1693,"ĠÎ¤ÏİÏģÎ±":1694,"ĠÎľÏĢÎ±":1695,"ĠÎķÎ³Ïİ":1696,"ĠÎ²Î±Î¸":1697,"ĠÎ¼Î¬Î³Î¹":1698,"ĠÏĨÎ¯Î»Î¿ÏħÏĤ":1699,"ĠÎ±ÎºÎ¿Î»":1700,"ĠÏĢÎŃÏģÎ±ÏĥÎµ":1701,"ĠÏĢÏį":1702,"ĠÎ´Î±":1703,"ĠÏĨÏĦÏīÏĩ":1704,"Î¶ÏĮÏĦÎ±Î½":1705,"ĠÏĩÏģÎµÎ¹":1706,"Î¾Î¿ÏħÎ½":1707,"Î»Î¬ÎºÎ¹Î±":1708,"ÏģÎ¯Î¸Î·ÎºÎµ":1709,"ĠÎ¼Î¿ÏħÏĥ":1710,"ĠÏĨÏįÎ³ÎµÎ¹":1711,"ĠÏĥÎ·Î¼":1712,"ĠÎºÎ¿ÏģÎ¯":1713,"ĠÏĨÎ¬ÎµÎ¹":1714,"ĠÏĥÏĦÏĮÎ¼Î±":1715,"ĠÎ¼Î¬Î³Î¹ÏĥÏĥÎ±":1716,"\",":1717,"ÏĨÎ¬Î½":1718,"Î¿ÏģÏĦÎ¿":1719,"ĠÎłÎ®":1720,"Î¿ÏĢÎ¿Î¹":1721,"ĠÎŃÏĨÏĦÎ¹Î±":1722,"ĠÎ¬Î½ÏĦÏģÎ±":1723,"ĠÎ±ÏģÎ³Î¬":1724,"ĠÏĢÏģÏĮÏĥÏī":1725,"ĠÏīÏĤ":1726,"ĠÎµÏħÏĩÎ±ÏģÎ¹ÏĥÏĦ":1727,"ĠÎºÏį":1728,"ĠÏĥÎ¯Î³Î¿Ïħ":1729,"ĠÎ±Î½ÎŃÎ²":1730,"ĠÎºÎ¿ÏħÎ²":1731,"ĠÏĥÏĢÎ¹ÏĦÎ¬ÎºÎ¹":1732,"ĠÎ½ÎµÏģÎ¬Î¹":1733,"ĠÎµÎ¯Î´Î±Î½":1734,"Î»Ïį":1735,"ÎºÏĦÎ¹ÎºÎ¬":1736,"ĠÏĢÎ»Î¿Ïį":1737,"ĠÎ±Î¯":1738,"ÏĩÎ¬":1739,"ĠÎŃÏĦÎ¿Î¹":1740,"ĠÏĨÏīÏĤ":1741,"Î»Î¹ÏĥÏĦÎ±":1742,"....":1743,"ĠÎ±ÏħÏĦÏĮÎ½":1744,"ĠÏĥÏħÎ½Îµ":1745,"ĠÏĥÎºÏħ":1746,"ĠÎ±Î»Î®Î¸ÎµÎ¹Î±":1747,"ĠÎĹÏģÎ±Îº":1748,"ĠÏĦÎµÎ»ÎµÎ¯":1749,"ĠÎ²Î»ÎŃÏĢ":1750,"ÂµÎŃÎ½Î¿":1751,"ÎľÎµÏĦÎ¬":1752,"ĠÏĢÎ·Î³Î±":1753,"ĠÎ»Î¿ÏħÎ»Î¿ÏįÎ´Î¹Î±":1754,"ĠÏħÏĢÏĮÎ»Î¿Î¹":1755,"ÏĦÏģÎµÏĤ":1756,"ÏĥÎ¼Î±ÏĦÎ±":1757,"ÎºÎµÏĤ":1758,"ÎºÏģÎ·":1759,"ĠÎ®ÏģÎ¸":1760,"ĠÏģÎ¬":1761,"Î¿ÏĩÎ®":1762,"ĠÎŃÎ´ÎµÎ¹":1763,"ĠÎºÎ±ÏĦÎŃÎ²":1764,"ĠÎµÏĢÎŃÏĥÏĦÏģÎµ":1765,"ÏĦÏģÎ¬":1766,"ÏĦÎŃÏĤ":1767,"ÏĦÏİÎ½ÏĦÎ±ÏĤ":1768,"ÏģÎŃÏĤ":1769,"ĠÎ¼Î±Î½":1770,"ĠÏĥÏĦÎ¬":1771,"ĠÎºÎ¬ÏĢÎ¿Î¹Î±":1772,"ĠÎ±Î½Î¿Î¯":1773,"ĠÎ£ÏĦÎ¿":1774,"ĠÏĢÎµÏģÎ¹Î¼ÎŃÎ½":1775,"ÏĥÏĦÎ·ÎºÎ±Î½":1776,"ĠÎ´ÏįÎ½Î±":1777,"ĠÎ³Î¯Î½ÎµÏĦÎ±Î¹":1778,"ĠÎ¼ÎµÏĦÎ±Î¾Ïį":1779,"ĠÎ´ÏħÎ½Î±ÏĦÎ¬":1780,"ĠÏĢÎ¿Ïį":1781,"ĠÎľÏĮÎ»Î¹ÏĤ":1782,"ÎºÎ¿ÏħÎ²Î¬":1783,"ĠÏĢÏĮÎ»Î·":1784,"Î³Î·ÏĥÎµ":1785,"ĠÎ±ÏĥÏĦÎŃÏģÎ¹Î±":1786,"ĠÎ¿Î¹ÎºÎ¿Î³ÎŃÎ½ÎµÎ¹Î±":1787,"Î±Î½ÏĦÎ¬ÏĨÏħ":1788,"ĠÎ¼ÏĢÎ®ÎºÎµ":1789,"ĠÎ¿Î¼Î¿ÏģÏĨÎ¹Î¬":1790,"ÎµÏĦÎµ":1791,"ĠÏĦÏĮÏĥ":1792,"ĠÏĢÎ»Î±":1793,"Î¼Î¿ÏħÎ½":1794,"Î³Ïħ":1795,"Î³ÏģÎ¬":1796,"ĠÎŃÏĥÏĦ":1797,"ÏģÎ¹Î¿Ïį":1798,"Î¶Î¿":1799,"ĠÎ¼Î±Ïį":1800,"ÏĥÏĦÏħÏĩ":1801,"ĠÎ¾Î±ÏĨÎ½Î¹ÎºÎ¬":1802,"ĠÎ¤Î¿Î½":1803,"ĠÎ¼Î¹ÎºÏģÎ¿Ïį":1804,"ĠÎ¼ÎµÎ³Î¬Î»Î±":1805,"ĠÏĢÎ±Î½ÏĦÏģÎµ":1806,"ĠÎºÎ¬ÏĢÎ¿Î¹Î¿ÏĤ":1807,"Î¯ÏĦÏĥÎ±":1808,"ĠÎ¼Î±Î»Î»Î¹Î¬":1809,"!,":1810,"ĠÏĦÏģÎ¯Î±":1811,"Î»Î¿ÏįÏĥÎ±Î½":1812,"ÏĩÏĦÏħ":1813,"ÏĥÎµÏĦÎµ":1814,"ĠÏĮÂµ":1815,"ĠÎ²ÎŃÎ²Î±Î¹Î±":1816,"ÏģÎ·ÏĥÎµ":1817,"ÎļÎ¬":1818,"ĠÏģÏī":1819,"ĠÏĥÎºÎ¯Î¿Ïħ":1820,"ĠÎµÎºÎµÎ¯Î½Î¿":1821,"ÏĦÎ¿ÏħÏĥÎ±Î½":1822,"ĠÏĢÎµÏģÎ¯Î¼ÎµÎ½Îµ":1823,"Î¯ÏĦÏģÎ¹":1824,"ĠÏĦÏģÎ¹Î±Î½ÏĦÎ¬ÏĨÏħ":1825,"ÏĦÏįÏĢÎ·":1826,"ĠÎ¼ÎµÎ³Î±Î»ÏįÏĦÎµ":1827,"ĠÎ±ÎºÏģÎ¹Î²ÏİÏĤ":1828,"Î³Î¿ÏĤ":1829,"ĠÎ³Îº":1830,"ÎºÎ±ÏĤ":1831,"Î±ÏĨÎ±Î½":1832,"ÏģÎ¹ÏĥÎºÏĮÏĦÎ±Î½":1833,"ĠÎŃÎ»Î±ÏĦÎ¿":1834,"ÎĲ":1835,"ÏĦÎ¿ÏħÏĤ":1836,"ÏģÎµÎ¹ÏĤ":1837,"ĠÏĦÏħ":1838,"ĠÏĦÏģÎ¯":1839,"Î»ÏĢÎ¯":1840,"Î»ÏİÎ½ÏĦÎ±ÏĤ":1841,"Î¼Î¹Î±":1842,"Î´ÎµÎ¹":1843,"ĠÎ³Î½Ïİ":1844,"ĠÎºÎ±Î¼Î¹Î¬":1845,"ĠÎŃÏĨÎ±":1846,"ĠÏİÏģÎµÏĤ":1847,"ĠÏĦÎµÎ»Î¹ÎºÎ¬":1848,"ĠÎºÏħÏģÎ¯Î±":1849,"ĠÏĢÏģÎ¿ÏĥÏĢÎ±Î¸":1850,"ĠÏĨÎ¯Î»Î¿Î¹":1851,"ÎŃÎ»Î±ÏĥÎµ":1852,"ĠÏĢÎ»Î·ÏĥÎ¯Î±":1853,"ĠÏĥÏĦÎµÎ½Î±":1854,"ĠÏĩÏīÏģÎ¹ÏĮ":1855,"ĠÎ²Î±ÏĥÎ¹Î»ÏĮÏĢÎ¿ÏħÎ»Î¿":1856,"Î¯Î¶ÎµÎ¹":1857,"ĠÏĥÎºÎ¹":1858,"Î¬Î½Î¹":1859,"ÏģÎµÏħ":1860,"ĠÎ¤Î¿Ïħ":1861,"ÏĮÎ½ÏĦÎ¿ÏħÏĥÎ±Î½":1862,"Î¼ÎŃÎ½Î¿Î¹":1863,"ÏĮÏĦÎµÏĤ":1864,"ÏģÏħÏĥÎ±":1865,"ÎŃÏĩÏģÎ¹":1866,"ĠÎµÎ½ÏĮÏĤ":1867,"ĠÎŃÏĦÏģÎµÎ¾Îµ":1868,"ĠÎ»Î¿ÏħÎ»Î¿ÏįÎ´Î¹":1869,"ĠÎºÎ±Î½ÎŃÎ½Î±ÏĤ":1870,"ĠÏĦÎ±Î¾Î¯Î´Î¹":1871,"ĠÏĦÎ¿Ïį":1872,"ĠÎ²Î³Î¬":1873,"ÏĥÏĦÎ¹Î±":1874,"ĠÎĳÏĢ":1875,"ĠÏĢÎµÏģÎ¬ÏĥÎµÎ¹":1876,"ĠÂµÎ¹Îº":1877,"ĠÎłÎµ":1878,"ĠÎŃÏĩÎ¿ÏħÎ¼Îµ":1879,"ÎĳÏħÏĦÏĮ":1880,"Î£Îµ":1881,"Î¼Î®Î¸Î·ÎºÎµ":1882,"ĠÎ¸ÎŃÎ»ÎµÎ¹ÏĤ":1883,"ĠÏĩÏģÏħÏĥÎ¬":1884,"ĠÏĢÎµÏģÎ¹ÏĥÏĥÏĮÏĦÎµÏģÎ¿":1885,"ĠÏĦÎµÏģÎ¬ÏĥÏĦÎ¹":1886,"ĠÎ¾ÎµÎºÎ¯Î½Î·ÏĥÎµ":1887,"ĠÏĥÏĦÏģÎ±ÏĦÎ¹Ïİ":1888,"ĠÏĦÏĥÎ±":1889,"ĠÏĦÏģÏį":1890,"Î»ÎŃÎ½":1891,"ÎºÎ¿Î¹":1892,"ÏĨÏį":1893,"ÎµÎ½Î¬":1894,"ĠÎĳÏĥÏĢ":1895,"ĠÎ±ÏħÏĦÎ¿Îº":1896,"ÏħÏĩÎ®":1897,"ÏĦÎ®ÏĤ":1898,"ĠÎĺÎµ":1899,"Î»Î±Î½Î®":1900,"ĠÎ¿ÏĢÎ¿Î¯Î±":1901,"ĠÎ¿ÏĢÎ¿Î¯Î¿":1902,"ĠÎ±ÏĢÎ¿ÎºÏģÎ¯Î¸Î·ÎºÎµ":1903,"ĠÎ²Î³Î®ÎºÎµ":1904,"ĠÎµÏĢÏĮÎ¼ÎµÎ½Î·":1905,"ĠÏĩÏģÏİÎ¼Î±":1906,"ĠÏīÏģÎ±Î¯Î±":1907,"ĠÏĢÎ±Î¹ÏĩÎ½Î¯Î´Î¹Î±":1908,"ÏĥÏīÏĤ":1909,"ÏĢÎµÏĤ":1910,"ĠÎµÏĢÎµÎ¹Î´Î®":1911,"ĠÏĮÏĥÎ±":1912,"ÏĮÎ½ÎµÏĤ":1913,"ĠÎ±Î½ÏĦÎ¹":1914,"ĠÎ¬Î»Î»Î¿Î¹":1915,"ĠÏĥÏħÎ½ÎŃÏĩÎµÎ¹Î±":1916,"Î¦":1917,"ÏĬ":1918,"ĠÎµÎ»Î¬":1919,"ĠÎŃÎ´Î¹":1920,"ĠÎŃÏĦÏģÏī":1921,"ĠÏĥÏĦÎ¿Î»":1922,"ĠÏĮÎ½ÎµÎ¹":1923,"ÂµÎ®":1924,"Î¼ÎµÏĥÎ±":1925,"ĠÎļÎ±Î½":1926,"ĠÎķÏħ":1927,"Î´Î±ÏĨ":1928,"ĠÎĶÎµ":1929,"ÏĢÎµÎ¹ÏĦÎ±":1930,"ĠÎ³Î¹Î½ÏĮÏĦÎ±Î½":1931,"ĠÏĢÎµÏģÎ½Î¿ÏįÏĥÎµ":1932,"ĠÏĦÏģÎ±Î³Î¿Ïħ":1933,"Î»Î¿ÏĢÎ¿ÏįÎ»Î±":1934,"ĠÏĢÎ±ÏģÎ¬Î¸ÏħÏģÎ¿":1935,"ĠÏįÏĢÎ½Î¿":1936,"ÏģÎ¼Î±":1937,"ĠÏĦÎ¿ÏĢ":1938,"Î»Î»Î·":1939,"ĠÏĢÏĮÏĦÎµ":1940,"ÏĮÏģÎ±":1941,"ĠÎ±Î½Îµ":1942,"ĠÎ½Î·":1943,"ĠÎ½Î±Î¹":1944,"ĠÎ¿Î´Î·":1945,"ĠÎºÎ±ÏĦÎµ":1946,"ĠÎºÎ±ÏĦÏĥ":1947,"ĠÏĩÏģÏĮÎ½Î¿":1948,"ÏĥÎ¹Î»Î¹Î¬":1949,"ĠÎºÎ¿ÏħÏģÎ±":1950,"ĠÎĵÎ¹":1951,"ĠÎŃÎºÏĢÎ»Î·":1952,"ĠÏĨÏĦÎµÏģÎ¬":1953,"ĠÏĩÏģÎ®Î¼Î±ÏĦÎ±":1954,"ĠÏĥÏĩÎµÎ´ÏĮÎ½":1955,"ĠÏĥÏħÎ½ÎµÏĩ":1956,"Î©":1957,"Î±Î»ÏĮ":1958,"Î¿ÎºÎ¹":1959,"Î½ÏĦÎ¬":1960,"Î¼Î½Î·":1961,"ĠÎ±Î¹":1962,"ĠÎµÏĢÎ¯":1963,"ĠÎŃÏģÎ¹":1964,"ĠÏĩÏĮ":1965,"ĠÎ¼Î±Î¶Îµ":1966,"ĠÎ±Î½Î¿Î¹":1967,"ĠÎºÎ¬Î½Î¿ÏħÎ¼Îµ":1968,"ĠÎµÎ¾Î±ÏĨÎ±Î½":1969,"ĠÏĢÎ¿Î½ÏĦÎ¯":1970,"ĠÎ¡Î¿Î´Î¿":1971,"ĠÏįÏĥÏĦÎµÏģÎ±":1972,"Î½Î¿ÏįÏĥÎ±":1973,"ĠÎĴÎ±ÏĥÎ¯":1974,"ĠÎ®Î»Î¹Î¿ÏĤ":1975,"ĠÏĩÎ±ÏģÎ¿ÏįÎ¼ÎµÎ½":1976,"ĠÏĥÎ®Î¼ÎµÏģÎ±":1977,"ĠÎ¿Î»ÏĮÎºÎ»Î·":1978,"ĠÎ³Î½ÏīÏģÎ¯":1979,"Î´Î±ÏĨÎ½Î¿ÏįÏĥÎ±":1980,"ĠÎ¡Î¿Î´Î¿Î´Î±ÏĨÎ½Î¿ÏįÏĥÎ±":1981,"Î¡":1982,"ĠÏĦÎ¶":1983,"Î¯Î¿ÏĤ":1984,"Î¿ÏħÎ¸":1985,"ĠÏĥÏĢÎ·":1986,"ĠÎ±Î²":1987,"ĠÎµÎ¹":1988,"ĠÎµÎ¯ÏĢÎ±":1989,"ĠÎ²ÏģÎ¹ÏĥÎºÏĮÏĦÎ±Î½":1990,"ĠÎ¼ÏĢÎ¿Ïħ":1991,"Î¿Î¯ÏģÎ±":1992,"ÎķÎ¯Î½Î±Î¹":1993,"ĠÎ´ÎµÏįÏĦÎµ":1994,"Î£ÏĦÎ¿":1995,"ĠÎ±ÏģÎºÎ¿Ïį":1996,"ĠÏĢÎ±ÏģÎ±ÎºÎ±":1997,"ĠÎºÏįÏģÎ¹Î¿ÏĤ":1998,"ĠÏĩÏģÎµÎ¹Î¬":1999,"ÏĥÏĦÎ¹ÎºÏĮ":2000,"ÏĥÏĦÏģÎ±":2001,"ÏģÏīÏĦÎ®":2002,"ĠÎĪÎ½Î±":2003,"ĠÎºÎ¿Î¹Î¼Î·":2004,"ĠÎµÎ¼ÏĨÎ±Î½":2005,"ĠÎ¶Î®ÏĦÎ·ÏĥÎµ":2006,"ĠÎºÏģÎµÎ²Î¬":2007,"ĠÎŃÎ²Î³Î±Î»Îµ":2008,"ĠÎŃÎ¼ÎµÎ¹Î½Îµ":2009,"ÏģÎ¿Î¹":2010,"ÏĥÎ¼ÏĮ":2011,"Î¯ÏģÎ¹":2012,"ÏĢÎ¹Î±":2013,"ÏĩÏĦÎ·ÎºÎµ":2014,"Î´Ïī":2015,"Î¸Ïİ":2016,"Î²ÎµÎ¯":2017,"ĠÎ¬Ïģ":2018,"ÏĮÎ½Î·":2019,"ÎŁÎ¥":2020,"ĠÏĢÎ¯ÏĥÏĦÎµ":2021,"ĠÎ±ÏģÏĩÎ®":2022,"ÏĨÎ¿ÏģÎµ":2023,"Î±ÏĥÎµ":2024,"ÏĢÎ¿Î½":2025,"Î¼ÎŃÏģÎ±":2026,"ĠÎµÎ±ÏħÏĦÏĮ":2027,"ĠÎ³ÎŃÏģ":2028,"ĠÏĥÏĦÎŃ":2029,"ÂµÎ¿":2030,"ĠÎľÎ¬":2031,"ĠÎ²Î¬ÏĦÏģÎ±":2032,"ĠÎĵÎ¹Î±ÏĦÎ¯":2033,"ĠÎ¬ÏĨÎ·ÏĥÎµ":2034,"ĠÎ±Î³ÏĮÏģÎ¹":2035,"ĠÎ»ÏħÏĢÎ·":2036,"ÏĥÏĦÎ±Î½":2037,"ÏĥÎ¼ÎŃÎ½Î±":2038,"ĠÎºÎ¿Ïį":2039,"Î¼ÏĢÎµ":2040,"Î³Î¿ÏħÎ½":2041,"Î³Î³Îµ":2042,"ĠÎ½Î¿Î¼Î¯":2043,"Î¸Î¬Î½":2044,"ĠÎ´Î¹ÎºÏĮ":2045,"ĠÎ³Î¿Ïģ":2046,"ĠÏĩÏĦÏįÏĢÎ·":2047,"ÂµÎŃÎ½Î±":2048,"Î»Î¬ÎµÎ¹":2049,"ĠÏĢÏģÏİÏĦÎ¿":2050,"ĠÎ²Î±ÏĥÎ¯Î»ÎµÎ¹":2051,"ĠÎ¿ÏħÏģÎ¬":2052,"ĠÏĥÏĢÎ·Î»Î¹Î¬":2053,"Î±ÏĢÏĮ":2054,"ÏĦÏģÎ¯":2055,"ÏģÎ½Îµ":2056,"ÏĥÏĢÎ¿Ïħ":2057,"ĠÏĢÎµÎ½":2058,"ĠÏĢÎ»ÎŃ":2059,"Î³Î¹Î¿":2060,"ĠÎ½ÎŃÎ±":2061,"ÏĨÎ·":2062,"Î¶ÎµÎ¹ÏĤ":2063,"ĠÎ²ÏģÎ±":2064,"ĠÎ¬Î¼":2065,"ĠÏĢÎ¬Ïī":2066,"ĠÎ£Ïī":2067,"ÎĳÎ½":2068,"ĠÎºÎ±Î¸Î±":2069,"ĠÎºÎ±Î½ÎŃÎ½Î±Î½":2070,"ĠÎ±ÎºÎ¿ÏįÏĥÏĦÎ·ÎºÎµ":2071,"ĠÎŃÎºÎ»ÎµÎ¹":2072,"ĠÎ¸ÎŃÏĥÎ·":2073,"ĠÎ´Î¬ÎºÏģÏħ":2074,"ĠÏĩÎ±Î¼Î¿Î³Îµ":2075,"ÏħÎ»Î¿ÎºÏĮ":2076,"ĠÎºÏģÎµÎ²Î¬ÏĦÎ¹":2077,";.":2078,"Ġ(":2079,"ĠÏĦÏģÎµ":2080,"ĠÏĢÎ»Î±Î½Î®":2081,"Î¼Î¿Ïį":2082,"ÏħÏĦÎµÎ¯":2083,"ĠÎ´ÏİÏĥÎµÎ¹":2084,"ĠÎºÎ±ÏģÎ¬":2085,"Î¯Î½Î´Ïħ":2086,"ĠÏħÏĢÎŃ":2087,"ĠÎ²Î±ÏĥÎ¹Î»Î¿ÏĢÎ¿ÏįÎ»Î±":2088,"ĠÎºÎ±Î¸ÏĮÏĦÎ±Î½":2089,"ĠÏĢÏģÎ¿ÏĥÎµ":2090,"ĠÏĢÏģÎ¿ÏĥÏĢÎ¬":2091,"ĠÎŃÏĢÎ¹Î±ÏĥÎµ":2092,"ĠÎ±ÎºÎ¿ÏįÏĥÎµÎ¹":2093,"ĠÎ´ÎŃÎ½ÏĦÏģÎ±":2094,"ĠÏĢÎµÏģÎ½Î¿ÏįÏĥÎ±Î½":2095,"ĠÏĢÎ¿Î¹Î¿ÏĤ":2096,"ĠÎºÎ±ÏĦÎ±Î»Î¬Î²ÎµÎ¹":2097,".âĢĵ":2098,"ÎīÏĦÎ±Î½":2099,"Î¿ÏģÏĦÎ¿ÎºÎ±":2100,"ÏĮÎ»Î±":2101,"Î´ÏģÎ¿":2102,"ĠÎ³ÏģÎ±":2103,"ĠÎ¬ÏĥÏĩÎ·":2104,"Î¿Î»Î¿Î³":2105,"ĠÎ±ÏħÏĦÎŃÏĤ":2106,"ĠÏĢÎ®Î³Î±Î½":2107,"...,":2108,"ĠÏĢÎ¿Î½Î·":2109,"ĠÏĦÎ¯ÏĢÎ¿ÏĦÎµ":2110,"ĠÎºÏĮÏĥÎ¼Î¿Ïħ":2111,"ÎļÎ±Î»Î·":2112,"ĠÏĩÏģÏħÏĥÏĮ":2113,"ĠÏĦÏģÏĮÏĢÎ¿":2114,"ĠÎ±ÏģÎºÎ¿ÏįÎ´Î±":2115,"ĠÏĦÏįÏĩ":2116,"ĠÎµÏį":2117,"ĠÎ¸Î·":2118,"ĠÎ¬ÏģÎµÏĥÎµ":2119,"ĠÏĢÎµÏģÎ¹ÏĥÏĦ":2120,"ĠÎ¶ÏīÎ³ÏģÎ±ÏĨ":2121,"ĠÏĨÏīÏĦÎ¹Î¬":2122,"ĠÎ±ÏĢÎ¿ÏĨÎ±":2123,"ĠÎºÎ±ÎºÏĮÏĤ":2124,"ĠÏĥÎ¿Î²Î±":2125,"ĠÏĢÎ±ÏĢÏĢÎ¿ÏįÏĤ":2126,"ĠÎµÏħÏĦÏħÏĩÎ¹":2127,"ĠÏĨÏĦÎ¬ÏĥÎµÎ¹":2128,"ĠÎºÎ¿ÏĢÎŃÎ»Î±":2129,"ĠÎ¬ÏĥÏĢÏģÎ¿":2130,"ĠÎºÎ¬Î¸Î¹ÏĥÎµ":2131,"ÏĦÎŃÎ»Î¿ÏħÏĤ":2132,"ĠÎ²Î±Î¸Î¹Î¬":2133,"ĠÎ´ÏįÎ½Î±Î¼Î·":2134,"ĠÏĥÏĦÎµÎ½Î±ÏĩÏī":2135,"\".":2136,"ÏĦÏĮÏĦÎ±Î½":2137,"ĠÏĦÎ¬":2138,"Î¬Î½Î±":2139,"Î¼ÏĢÎ±":2140,"ĠÏĥÏİ":2141,"ĠÎ±ÏģÎŃ":2142,"ĠÎŃÎ¼ÏĢ":2143,"ĠÎ³Î·":2144,"ÏįÎµÎ¹":2145,"ÏĦÎµÎ»":2146,"ĠÎ²Î³Î±":2147,"Î»Î±Î²Î±":2148,"ÂµÎµÎ½":2149,"ĠÎ¬ÎºÏģÎ·":2150,"ĠÏĢÎ±ÏĢÎ¿Ïį":2151,"ÏĥÏĦÏģÎŃÎ½":2152,"ÎºÎ±ÏĦÎ±":2153,"ÎŃÎ»Î¹Î±":2154,"ĠÏħÏĢÎ¿":2155,"ĠÏĢÎ¬Î½Îµ":2156,"ÏįÏģÎ¹Î¿":2157,"ĠÎĽÎ¯":2158,"ĠÎ±Î½Î¬Î¼ÎµÏĥÎ±":2159,"ĠÎ¾ÎŃÏģÎµÎ¹":2160,"ĠÎ¼Î±Î³Î¹ÎºÏĮ":2161,"ĠÏĦÏģÎ±Î³Î¿Ïį":2162,"ĠÎºÎ»Î¿ÏħÎ²Î¯":2163,"ĠÏĢÎ±ÏģÎŃÎ±":2164,"ĠÏĨÎµÎ³Î³Î¬ÏģÎ¹":2165,"Î¹Î¿ÏĤ":2166,"ÏģÎ³Î¿":2167,"Î·Î³":2168,"ĠÎŃÎ¶":2169,"Î¿ÏįÏģ":2170,"ÏĦÎ·ÏĥÎ·":2171,"Î»ÎµÏĥÎµ":2172,"Î¼ÎµÎ½Î±":2173,"ĠÎľÏĮÎ½Î¿":2174,"ĠÎ£ÏĦÎ·Î½":2175,"ĠÎºÎ¿ÏħÏĦÎ¯":2176,"ĠÏĩÏīÏģÎ¬":2177,"ĠÎºÎ¿Î¹ÏĦÎ¿ÏįÏĥÎµ":2178,"ĠÏĦÏģÎŃÎ½":2179,"ĠÏĨÎ¬Î½Î·ÎºÎµ":2180,"ĠÎºÎ¿ÏħÎ²ÎŃÎ½":2181,"ĠÎĬ":2182,"Î¹Î¶Îµ":2183,"Î½Î¯":2184,"ÏĦÏģÎŃ":2185,"ÏĦÎ¿ÏįÎ½":2186,"ÏģÎ¿ÏįÏĥÎµ":2187,"Î¼Î¿ÏħÏĤ":2188,"Î³Î±Î¹Î½Îµ":2189,"ÏīÏģÎ¯ÏĤ":2190,"ÏĩÏİ":2191,"ĠÎµÎ¯Î¼Î±ÏĥÏĦÎµ":2192,"ĠÎ®Î´Î·":2193,"ÏĮÎ½Î¹Î±":2194,"Î³ÎµÏħÎ¼Î±":2195,"ÏĮÏĦÎµÏģÎ±":2196,"ÎŃÎ½Î±ÏĤ":2197,"ĠÎ¼ÏĮÎ½Î·":2198,"ĠÎ¼ÏĮÎ½Î¿ÏĤ":2199,"ĠÎµÏĢÎ¹ÏĥÏĦ":2200,"ĠÎ³Î¹Î¿Ïģ":2201,"ĠÎ´ÏįÏĥÎºÎ¿Î»":2202,"ĠÎ±ÏģÏĩÎ¯ÏĥÎµÎ¹":2203,"ĠÎ¾ÎŃÏģÎµÎ¹ÏĤ":2204,"ĠÎºÎ»Î±Î´Î¹Î¬":2205,"ÏģÎ¿ÏħÏĤ":2206,"Î¼ÎŃÏģÎ¹":2207,"ĠÏĥÎµÎ¹":2208,"Î³Î¿Ïģ":2209,"ÏįÎ¼Î±":2210,"Î²Î»Î·":2211,"ĠÏĩÎ±Î¹":2212,"ÏĦÎ¬ÏģÎ¹":2213,"Î»Î¹Î¿":2214,"Î¬Î½ÏĦÎ±":2215,"ĠÏĥÏħÎ½Î±Î½":2216,"ĠÏĩÎ±Ïģ":2217,"ĠÎ¼ÏĢÎ¿ÏģÎµÎ¯ÏĤ":2218,"ĠÎ»Î¯Î¼Î½Î·":2219,"ĠÎ±ÏħÎ»Î®":2220,"ĠÎ´Î¹Î±ÏĨÎ¿ÏģÎµ":2221,"ĠÎ§ÏģÎ¹ÏĥÏĦ":2222,"ĠÏĨÎ¯Î»Î·":2223,"ĠÎºÏĮÏĥÎ¼Î¿ÏĤ":2224,"ĠÎ»ÏįÏĥÎ·":2225,"ĠÏĢÏģÏīÎ¹":2226,"Î³ÏĮÎ½Î±":2227,"ĠÎºÏģÏįÎ¿":2228,"ĠÎºÎ¿ÏģÎ¯ÏĦÏĥÎ¹":2229,"Îĩ":2230,"Î¬ÏĢ":2231,"ĠÎ¼Î¯":2232,"ĠÏĥÏį":2233,"ÏīÏĥÎ±Î½":2234,"ĠÎ¼ÎµÏĥÎ·":2235,"Î²Î±Î½":2236,"ĠÏĩÎµ":2237,"ÂµÎ·":2238,"ĠÏĢÎµÏĦÎ±":2239,"ĠÎļÎ¿Î¯ÏĦÎ±":2240,"Î¼Î¬ÏĦÎ¹Î±":2241,"ÏģÏİÎ½":2242,"Î»Î®ÏĥÎµÎ¹":2243,"ĠÎĶÎ¹":2244,"ÏĢÎ¿Î¹Î¿ÏĤ":2245,"Î¼ÎµÎ½Î±Î½":2246,"Î¬ÏĥÏĦÎ·ÎºÎµ":2247,"ĠÏĥÏĩÎŃ":2248,"ÂµÎŃÎ½Î¿ÏĤ":2249,"ĠÎ¼ÏħÎ±Î»ÏĮ":2250,"ĠÎ±ÏĥÏĦÎŃÏģÎ¹":2251,"ĠÏĨÏħÎ»Î±":2252,"ĠÏĪÎ¬ÏĩÎ½":2253,"ĠÏĦÎµÏģÎ¬ÏĥÏĦÎ¹Î±":2254,"ĠÎ³Î¿ÏħÏģÎ¿ÏħÎ½":2255,"ĠÎ¾ÏīÏĦÎ¹ÎºÎ¬":2256,"ÎµÎµ":2257,"Î¬Î»":2258,"Î¯Î³Î±Î½":2259,"ĠÎºÏģÎŃ":2260,"ĠÎºÎ¯ÏĦÏģÎ¹":2261,"ÎŃÏģÎµ":2262,"ĠÏĥÎ¿ÏĨ":2263,"ĠÎµÏĦÎ¿Î¹":2264,"Î®ÏĢÏīÏĤ":2265,"Î¸Î¹Î±":2266,"Î¿ÏįÏĥÎ±":2267,"ĠÎ´Î¹Îº":2268,"ÏįÏĦÎ·ÎºÎµ":2269,"Î¶Î¿Î½ÏĦÎ±Î½":2270,"ÎµÎ¯ÏĦÎµ":2271,"ĠÎ¼ÏĢÎ¹Ïĥ":2272,"ÏĦÎ¿Î¯":2273,"ÎłÎŃÏģÎ±":2274,"ÏĥÎ¼ÎŃÎ½Î¿Î¹":2275,"ĠÏĢÎ±ÏģÎ¬Î¾ÎµÎ½":2276,"ĠÎ»ÎµÏħ":2277,"ĠÎºÎ¬ÏĢÎ¿Î¹Î¿":2278,"ĠÏĦÎŃÏĦÎ¿Î¹":2279,"ĠÏĥÏĦÎ±Î¼Î¬ÏĦÎ·ÏĥÎµ":2280,"ĠÎ¾ÏįÏĢÎ½Î·ÏĥÎµ":2281,"ÎºÎ¿ÏħÎ²Î¬Î³Î¹Î±":2282,"ĠÏħÏĢÎŃÏģÎ¿Ïĩ":2283,"Î½Î¬ÎºÎ¹":2284,"Î¬ÏĤ":2285,"Î¬ÎµÎ¹":2286,"ĠÏĥÎºÎ¬":2287,"Î³Î¼Î±":2288,"ĠÎ´Î¿ÎºÎ¹":2289,"ĠÎ³Î¬Î»Î±":2290,"ÏĨÏīÎ½":2291,"ĠÎ²ÏģÎ¿Ïĩ":2292,"Î¿Î¹Î¿ÏĤ":2293,"Î»Î¿Î¯":2294,"ĠÎľÎ¹":2295,"ĠÏĢÎ¬Î¼Îµ":2296,"ĠÎ±Î³ÏīÎ½Î¯Î±":2297,"ĠÏĦÎµÎ»ÎµÎ¹":2298,"ĠÎºÎ±ÏĦÎ±ÏĨÎŃÏģ":2299,"Î¿ÏĩÏī":2300,"ĠÎŃÏĨÏĦÎ±ÏĥÎ±Î½":2301,"ĠÎºÏĮÎºÎºÎ¹Î½Î¿":2302,"ĠÎĳÏħÏĦÎ®":2303,"ĠÏĢÎ±ÏģÎ±Î¼Ïį":2304,"ĠÏĮÎ½Î¿Î¼Î±":2305,"İÏĥÏĦÎµÏģÎ±":2306,"ÏĥÎ®":2307,"ÏĥÎŃÎ½Î±":2308,"ÎºÏħ":2309,"ÏīÎ¸Îµ":2310,"ÏħÏĦÎ¬":2311,"ĠÎŃÏģÏĩÎµ":2312,"ÏĨÎ®":2313,"Î»Î¹ÎŃÏĤ":2314,"ĠÎ±ÏĢÏĮÎ³ÎµÏħÎ¼Î±":2315,"ĠÎ¾ÏħÎ»Î¿ÎºÏĮ":2316,"ĠÎĳÏĨÎ¿Ïį":2317,"ĠÏĥÏħÎ³":2318,"ÏĦÎ¯Î½Î±":2319,"ĠÎĺÎŃÎ»":2320,"ĠÎĿÎ¯Î¿Ïħ":2321,"ÎºÎ·ÏĤ":2322,"ĠÎļÎ±Î¸ÏİÏĤ":2323,"ĠÏĥÏħÎ¼Î²Î±Î¯Î½ÎµÎ¹":2324,"Î¼Î¿ÏģÏĨÎ·":2325,"ĠÎ´ÏİÏģÎ¿":2326,"ĠÏĢÎ±Î¹Î´Î¬ÎºÎ¹":2327,"ĠÏĥÏįÎ½Î½Îµ":2328,"ĠÎºÎ±ÏĦÎ¬ÏĨÎµÏģÎµ":2329,"ĠÎ¹Î´ÎŃÎ±":2330,"ĠÎĹÏģÎ±ÎºÎ»Î®ÏĤ":2331,"Î¹Î´Îµ":2332,"ĠÏĦÏģÏħ":2333,"ÏĥÏĦÎ¹ÎºÎ¬":2334,"ĠÏĥÏĢ":2335,"ĠÎµÎ»Î±":2336,"ĠÎµÏģÏĩ":2337,"Î´ÎµÎ½":2338,"ĠÎ±ÏĢÎµ":2339,"Î¬Î½Îµ":2340,"ĠÎ¾Î·":2341,"ĠÎ¼ÏĢÎ¿ÏģÎ¿ÏįÏĥÎ±Î½":2342,"ĠÎ´ÏħÏĥÏĦÏħÏĩ":2343,"Î¶Î¯Î½Î±":2344,"ĠÏĥÏĢÎ¯ÏĦÎ¹Î±":2345,"ĠÎºÏħÏģÎ¬":2346,"ĠÎ±Î½Î±ÏĢ":2347,"ÎĮÎ¼ÏīÏĤ":2348,"ÎĪÎ½Î±":2349,"ĠÎĽÎ¿Ïħ":2350,"ĠÏĢÎŃÏĦÏģÎ±":2351,"ĠÏĢÎ±Î½ÎŃ":2352,"ĠÎµÏĢÎ¹Îº":2353,"ĠÏĦÏĮÏĥÎ±":2354,"ĠÎ±ÏģÎºÎµÏĦÎ¬":2355,"ĠÏĥÎ¿ÎºÎ¿":2356,"Î¹Î¹Î¹Î¹":2357,"ĠÎŃÏĨÎµÏģÎµ":2358,"ĠÎºÎ¿Î¼Î¼Î¬ÏĦÎ¹":2359,"Î¿ÏĪÎµ":2360,"ĠÏĮÂµÏīÏĤ":2361,"ĠÏĥÎºÎ¯Î¿ÏħÏģÎ¿ÏĤ":2362,"Î½ÏĦÎ±":2363,"ÏĦÏīÎ½":2364,"Î·Î¼Î±":2365,"Î¯ÏĤ":2366,"Î¼Î¹ÏĥÎµ":2367,"Î¼Î¼Î±ÏĦÎ±":2368,"ÎŃÎ»Î¹":2369,"ĠÎ±ÏģÎ¹":2370,"ÏĩÎ¿Î¹":2371,"ĠÎ´ÎµÎ¹ÏĤ":2372,"ÏįÎ¿ÏħÎ½":2373,"ĠÎ²Î¿Ïħ":2374,"ĠÎ²ÏģÎ¿ÏħÎ½":2375,"ĠÎ®ÏĥÏħÏĩ":2376,"Î»Î¿Î³Î¿":2377,"Î´Î¹Î¿":2378,"ĠÎ£Î±Î½":2379,"ĠÏĥÎºÎ¿Ïħ":2380,"ĠÎ¼Î¬Î¸":2381,"ĠÎ¼Î¬Î¸ÎµÎ¹":2382,"ĠÏĪÎ¹":2383,"ĠÏĪÏī":2384,"ĠÎ»Î¯Î³Î·":2385,"ĠÎĮÎ»Î±":2386,"ĠÎ±Î³ÎºÎ¬":2387,"ÂµÎ±ÏĦÎ±":2388,"ĠÏĩÎ¬ÏģÎ·":2389,"ĠÎ³Î»ÏħÎºÎ¬":2390,"ĠÎ³ÎµÎ¼Î¬ÏĦÎ¿":2391,"ĠÏĢÎŃÏĦÎ±Î¾Îµ":2392,"ĠÎµÏħÏĩÎ±ÏģÎ¹ÏĥÏĦÏİ":2393,"ĠÎ±Î½Î¿Î¹Ïĩ":2394,"ĠÎ¼ÏĢÎ¹ÏĥÎºÏĮ":2395,"Ġ1":2396,"Î½Î¹Î¬":2397,"Î»Î»Î¿Î½":2398,"ÏĥÏĥÎµÏĤ":2399,"Î¼Î²":2400,"Î¼ÎŃÏĥÏīÏĤ":2401,"ĠÎµÎºÎ±":2402,"ĠÎŃÎ¾":2403,"ÏĨÏİ":2404,"ĠÏĥÏĦÎµÎ½":2405,"ĠÎ±ÏĢÎ¬Î½":2406,"ĠÎ²ÏģÏī":2407,"ĠÎ·ÏĥÏħÏĩ":2408,"ĠÏĢÎ±ÏĤ":2409,"ĠÎºÎ¬Î¼ÏĢ":2410,"ĠÂµÏĢÎ¿Ïģ":2411,"ÎľÏĮÎ»Î¹ÏĤ":2412,"ÏĦÎ®ÏĥÎ¿ÏħÎ½":2413,"ĠÏħÏĢÎ·":2414,"ĠÎ¼Î¬Î»Î¹ÏĥÏĦÎ±":2415,"ĠÏĪÏħÏĩÎ®":2416,"ÎłÎ±":2417,"ĠÎ²Î»ÎŃÏĢÎµÎ¹":2418,"ĠÎĴÎ±ÏĥÎ¹Î»Î¹Î¬":2419,"ĠÏĨÏĮÎ²Î¿":2420,"ĠÏĨÎ±Î½ÏĦÎ±":2421,"ĠÏĢÎ±Î¹Î´Î¬ÎºÎ¹Î±":2422,"ĠÏĩÏİÎ¼Î±":2423,"ĠÏĥÎ®Îº":2424,"ÎĵÎ¹Î±ÏĦÎ¯":2425,"ÏĦÏģÎ¿ÏĨ":2426,"Î·Î³Î®":2427,"Î¼ÏĢÎ¹":2428,"ÎŃÏĥÎµÎ¹":2429,"Î±Î¹Î½ÏĮÏĦÎ±Î½":2430,"ÏĩÏģÏī":2431,"ĠÎŃÏĪÎ±":2432,"ĠÎ³Î¯Î³Î±Î½":2433,"Î²Î®":2434,"ÏģÎ¬Ïĩ":2435,"Î¿ÏģÎ¯ÎµÏĤ":2436,"ÎŃÎ½Î¹Î±":2437,"Î¿Î»ÏĮ":2438,"ÎºÎ¹Î½":2439,"ĠÏĢÎ±Î³Ïī":2440,"ÏĩÎµÏĦÎµ":2441,"Î¯Î½ÎµÎ¹ÏĤ":2442,"ÎºÎ¿ÏįÏĤ":2443,"ĠÏĢÏĮÎ´Î¹":2444,"Î£Î±Î½":2445,"ĠÎµÎ½Î¸Î¿Ïħ":2446,"ĠÎ¸ÎŃÎ»ÎµÎ¹":2447,"ĠÎ²Î¿Î®Î¸ÎµÎ¹Î±":2448,"ĠÎŃÎ³Î¹Î½Î±Î½":2449,"ĠÏĢÎ®Î³Î±Î¹Î½Î±Î½":2450,"ĠÏĨÎŃÏģÎµÎ¹":2451,"ĠÎ¼Î®ÏĢÏīÏĤ":2452,"ĠÎ¼Î¿ÏħÏĥÎ¹ÎºÎ®":2453,"ĠÎŃÏĨÎ±Î³Îµ":2454,"ĠÏĦÎµÏģÎ¬ÏĥÏĦÎ¹Î¿":2455,"ĠÎ½Î·ÏĥÎ¯":2456,"ĠÎŃÎºÎ»ÎµÎ¹ÏĥÎµ":2457,"ĠÏĦÏįÏĩÎ·":2458,"ĠÏĢÎ±ÏĢÎ¿ÏįÏĦÏĥÎ¹Î±":2459,"Î¹Ïİ":2460,"Î»Î»Ïī":2461,"ÏĥÏĮ":2462,"ÏĢÏģÎ¬":2463,"ÎºÎ¿ÏĢ":2464,"Î¼Î¿Î¹":2465,"Î¼ÏĮÏĦÎ±Î½":2466,"ÎŃÏĦÎ±":2467,"ĠÎ¼Ïį":2468,"ĠÎ±ÏĥÏĦÎµ":2469,"Î³Î½Ïī":2470,"Î¸Î±Î½":2471,"ÏĨÏĦÎ±":2472,"ÏĦÎ¹ÏĥÎµ":2473,"Î»Î±Î´Î®":2474,"ĠÎĳÏĥÏĦÏģÎŃÎ½":2475,"ĠÎ±Î½Î·":2476,"ĠÎ±Î½Î®":2477,"ĠÂµÎ¬":2478,"ĠÏĢÎ¬Ïģ":2479,"ÎĳÏħÏĦ":2480,"ÎĳÏĢÏĮ":2481,"ĠÎ¼Î¬Î¶Îµ":2482,"Î»Î¯Î¿":2483,"ĠÏĢÏģÏĮÏĥ":2484,"ĠÏĢÎ±Î½ÏĦÎ¿Ïį":2485,"ĠÏĥÏħÎ¼Î²ÎµÎ¯":2486,"ĠÏĥÏĩÎ®":2487,"ĠÎ³Î»ÏħÎºÏĮ":2488,"ĠÏĦÏģÎŃÏĩ":2489,"ĠÎ²ÏģÎ¯ÏĥÎº":2490,"ĠÎµÏĢÎŃÏĥÏĦÏģÎµÏĪÎµ":2491,"ÏĦÏģÏĮ":2492,"Î¯ÎµÎ¹":2493,"ÎŃÎ»Î·ÏĤ":2494,"ÏħÎ±Î½":2495,"ÏħÎ³Î±Î½":2496,"Î´Î¿ÏįÎ»Î±":2497,"ÏģÎ±Î»Î¿Î³Î¿":2498,"ĠÎ³ÏįÏģÎ¹":2499,"ĠÎ³Î»Ïİ":2500,"ÏģÎ¹Î¶Îµ":2501,"ÏģÎ¹ÏĥÏĦÎ·":2502,"ĠÎ¿Ïģ":2503,"Î²Î·":2504,"ĠÎ²Î¹Î±":2505,"ĠÎºÎ±ÏĢÎŃ":2506,"ĠÏĢÎ±Î»Î±":2507,"ĠÎľÏĢÎ¿Ïģ":2508,"ÏģÏĩÎ¹ÏĥÎµ":2509,"Î´Î¹ÏİÎ½":2510,"ÏħÏĩÎ±":2511,"ĠÏĩÎ±Î¼ÏĮ":2512,"ÏĢÎ¬ÎºÎ¹":2513,"ĠÎ³Î¹Î¿ÏĤ":2514,"ĠÏĢÎŃÏĦÏģÎµÏĤ":2515,"ĠÏĢÏģÎ¬ÏĥÎ¹":2516,"Î¿ÎºÎ¿ÏĨ":2517,"ĠÎ³Î¬ÏĦÎ¿ÏĤ":2518,"ĠÎ®Î»Î¹Î¿":2519,"ĠÏĥÎ·ÎºÏİÎ¸Î·ÎºÎµ":2520,"ĠÏĦÎµÎ»ÎµÏħÏĦÎ±Î¯Î±":2521,"ĠÎĳÏĥÏĢÏģÎ±Î»Î¿Î³Î¿":2522,"ĠÏĥÎµÎ¹ÏģÎ¬":2523,"ĠÎĳÏĥÏĢÏģÎ±Î»Î¿Î³Î¿Î³Î¹":2524,"Î¼ÏĮÏĤ":2525,"ÎŃÎº":2526,"ÎŃÎ»Î·":2527,"ĠÎ¼Î¹Ïĥ":2528,"ĠÎŃÎ¼Î±":2529,"ĠÎŃÎ´Î±":2530,"Î´ÏģÏĮ":2531,"ÏįÎ½Î·":2532,"ĠÎ¤Î¶":2533,"ÏģÎ¿Î¯":2534,"ĠÎ¶Î¿ÏįÏĥÎ±Î½":2535,"ĠÎłÏģÎ¹":2536,"ĠÎłÏģÎŃÏĢÎµÎ¹":2537,"ĠÎ¬Î»Î»Î¿ÏħÏĤ":2538,"ĠÏĥÏĦÎ±Î¼Î±":2539,"Î½Î®ÏĥÎµÎ¹":2540,"ĠÏĩÎ¬ÏĥÎµÎ¹":2541,"ĠÎ»Î±ÏĩÎ±Î½":2542,"ĠÏĢÎµÏģÎ¯ÎµÏģ":2543,"ĠÎºÎ¿Î»Ïħ":2544,"ĠÏĦÏĮÏĥÎ·":2545,"Î»ÏĢÎ¯Î´Î±":2546,"ĠÏĦÏģÏįÏĢÎ±":2547,"ĠÏĩÏĦÏįÏĢÎ·ÏĥÎµ":2548,"ĠÎ²Î±ÏĥÎ¯Î»ÎµÎ¹Î¿":2549,"ĠÎŃÎ´Î±ÏĨÎ¿ÏĤ":2550,"ÏĦÏģÎ¿ÏĢ":2551,"ÏĥÎ¹ÎºÎ¬":2552,"ĠÏĢÏģÎ¿Ïĩ":2553,"ĠÏĨÎ¿Ïħ":2554,"Î²Î¿Î»":2555,"Î¶Î·":2556,"ÏĦÎ¬ÎµÎ¹":2557,"Î»Î¹ÎºÎ®":2558,"ÏĢÎµÏģÎ¹":2559,"ÎºÎ¬Î»Î¹":2560,"Î³Î¿Î·":2561,"ÎŃÏģÏĨÎ¹Î±":2562,"ÎºÎ±Î½Îµ":2563,"ÏģÏĩÎ±Î½":2564,"ÏİÎ½Î¿ÏħÎ½":2565,"ĠÏĢÎ®ÏģÎ±Î½":2566,"ÏĢÎ¿ÏħÎ»Î±":2567,"ĠÏĥÏħÎ½ÎŃÎ²":2568,"Î»Î¯Î½Î±":2569,"ĠÎķÎ¯Î¼Î±Î¹":2570,"ĠÎ±Î³Î±ÏĢÎ¬":2571,"ĠÏĢÏģÏİÏĦÎ±":2572,"ĠÏĢÎ¿Î¹Î¿":2573,"ĠÎ¿Î¹ÎºÎ¿Î³ÎŃÎ½ÎµÎ¹":2574,"ĠÎ£ÏĦÎ±Ïĩ":2575,"ĠÎ²ÏĮÎ»":2576,"ĠÎľÏĢÎ±Î¼ÏĢÎ¬":2577,"ĠÏĢÏģÏĮÏĥÏīÏĢÎ¿":2578,"ĠÏĥÎ¯Î³Î¿ÏħÏģÎ±":2579,"ĠÎŃÏģÎ¹Î¾Îµ":2580,"ĠÏĢÎ±ÏģÎ±ÎºÎ±Î»Ïİ":2581,"ĠÎºÎ±ÏģÎ¬Î²Î¹":2582,"ĠÎ©":2583,"Î»ÏĨ":2584,"ÎºÎ¯":2585,"ÎºÎµÎ¹":2586,"ĠÏĦÎ¿Î¯":2587,"ĠÎŃÎ½":2588,"ĠÎ´Î¿ÏħÎ½":2589,"ĠÏĦÎ±Ïĩ":2590,"ÏģÎ¬ÏĤ":2591,"ĠÎ²ÏģÎµ":2592,"ÏģÎµÎ¼Î±":2593,"ĠÎºÎ¬ÏĥÏĦÏģÎ¿":2594,"ĠÎĳÎ»Î®":2595,"ĠÂµÎŃÏĥÎ±":2596,"ĠÎ£Î¿ÎºÎ¿ÏĨ":2597,"ÏĦÎ®ÏĥÎµÎ¹ÏĤ":2598,"ĠÎ¾ÎµÎºÎ¿Ïħ":2599,"ĠÎ¾ÎµÏĩÎ¬":2600,"ĠÏĢÎ¿Î½ÏĦÎ¹":2601,"ĠÎ±ÏģÏĩÎ·":2602,"ĠâĢĵ":2603,"ĠÎ²Î¿Î·Î¸":2604,"ĠÎļÎ¬Î¸Îµ":2605,"ĠÏĥÎºÎ¿ÏĦÎµÎ¹":2606,"ĠÏĨÏĦÎ¹Î¬Î¾ÎµÎ¹":2607,"ĠÏĥÎºÎŃÏĪÎ·":2608,"ĠÎ½ÎµÏģÎ¬Î¹Î´Î±":2609,"ĠÏĦÏģÎ¹Î±Î½ÏĦÎ¬ÏĨÏħÎ»Î»Î¿":2610,"ĠÏĥÎºÎ¹Î¿Ïħ":2611,"ĠÎºÎ±ÏĦÏĥÎ¹Îº":2612,"ĠÎ³Î¿ÏģÎ³ÏĮÎ½Î±":2613,"ĠÎŃÎ¶Î·ÏĥÎ±Î½":2614,"ĠÏĢÏģÏīÎ¹Î½ÏĮ":2615,"ĠÏĥÎ¿ÎºÎ¿Î»Î¬":2616,"Î½Î¹Î±":2617,"Î»ÏĮÏĤ":2618,"Î·Î´":2619,"ÏĢÎ±Î¹":2620,"Î´Î¹Îº":2621,"ĠÎ´ÏİÏģÎ±":2622,"ĠÏĨÎ±Î¹Î½ÏĮÏĦÎ±Î½":2623,"ĠÎ²Î®":2624,"Î»Î¹ÎºÏĮ":2625,"ÎŃÎ½ÏĦÎµ":2626,"Î¿Î»Î¿":2627,"ĠÎ¼ÏĢÎµÎ¹":2628,"ĠÏĥÏħÎ½Î¿":2629,"ĠÎłÎ¬":2630,"ÏģÎ®ÏĨÎ±Î½":2631,"ĠÎ¼Î¬Î³ÎµÎ¹":2632,"Î¿ÏįÎ½Î¹":2633,"Î¿ÏįÎ½ÏĦÎ±Î¹":2634,"ĠÎºÏĮÏĦÎ±":2635,"Î¿ÏĥÏĦÎ¬":2636,"ĠÎºÎ±Î¹ÏģÏĮÏĤ":2637,"ĠâĢľ":2638,"ĠÎµÏħÏĩÎ±ÏģÎ¯":2639,"ÏĦÎ¿ÏĢÎ¿Ïį":2640,"ĠÎ±Î³Î±ÏĢÎ¿ÏįÏĥÎµ":2641,"ĠÏĥÎºÎµÏĨÏĦÏĮÏĦÎ±Î½":2642,"ĠÏĥÎºÏįÎ»Î¿ÏĤ":2643,"ĠÎ½ÏĮÎ¼Î¹":2644,"ĠÎŃÎ½Î¹ÏīÏĥÎµ":2645,"ĠÎ±Î¯Î¸Î¿Ïħ":2646,"ĠÎ¬Î¼Î¼Î¿":2647,"ĠÎ³Î»ÏİÏĥÏĥÎ±":2648,"ÏĦÎ¯Î½":2649,"ĠÎºÎ»ÎŃ":2650,"ĠÎºÎ»ÎµÎ¯":2651,"Î¼Î¹Îº":2652,"Î¼ÎŃÏģÏī":2653,"ĠÎ±ÏĤ":2654,"ĠÎ±ÎºÎ¿Ïħ":2655,"ÏĩÎ½Î±Î½":2656,"ĠÎ´Î¹ÎºÎ®":2657,"ĠÎ³ÎµÎ¹":2658,"ÏĥÎµÎ¯ÏĤ":2659,"ĠÎ±ÏĢÎ»Î¬":2660,"ĠÎºÎ±ÏĦ":2661,"ÎµÎ½ÎŃ":2662,"Î¬Î½ÎµÎ¹":2663,"ÏĥÏĦÎŃÏĤ":2664,"ĠÎ±ÏħÏĦÎ¿ÏįÏĤ":2665,"ĠÎ±Î½ÏĦÎ±":2666,"ÏĪÏī":2667,"ÏģÎŃÏĨ":2668,"ĠÎ¬Î»Î»ÎµÏĤ":2669,"Î¿ÏįÎ½Î¹Î±":2670,"ĠÎ±Î³ÏģÎ¹":2671,"ĠÎ»ÎŃÎ³Î¿Î½ÏĦÎ±ÏĤ":2672,"ĠÎµÏĢÎ¹ÏĦÎŃÎ»Î¿ÏħÏĤ":2673,"ÏĥÎºÏħ":2674,"ĠÎŃÎ²ÏģÎ¹Ïĥ":2675,"ĠÎ²Î¬Î»ÎµÎ¹":2676,"ĠÎ¼Î±ÎºÏģÎ¹":2677,"ÏģÎ¿ÏĨÎ®":2678,"ÏģÎ¿Î½ÏĦÎ¯":2679,"ĠÎ±ÎŃÏģÎ±ÏĤ":2680,"ĠÏĩÎµÎ¹Î¼":2681,"ĠÎ²Î¿ÏħÎ½ÏĮ":2682,"ĠÏĨÎ±Î¯Î½ÎµÏĦÎ±Î¹":2683,"ĠÎ²Î¹Î²Î»Î¯Î¿":2684,"ĠÎ²ÏģÎŃÎ¸Î·ÎºÎµ":2685,"ĠÏĥÏĦÏģÎ±ÏĦÎ¹ÏİÏĦÎ·ÏĤ":2686,"ĠÏĢÎ»ÎŃÎ¿Î½":2687,"ĠÎ´Î¬ÎºÏģÏħÎ±":2688,"ĠÏĦÎŃÏĦÎ¿Î¹Î¿":2689,"ĠÏĩÎ±Î¼ÏĮÎ³Îµ":2690,"ĠÎ±Î¯Î¸Î¿ÏħÏĥÎ±":2691,"Î½Î¿ÏħÎ½":2692,"ÏĥÎ¿Î½":2693,"Î·Ïĥ":2694,"ÏĩÎ¿Ïħ":2695,"ÏĨÎ¯":2696,"ĠÎ¼ÎµÎ¯Î½ÎµÎ¹":2697,"ĠÏĢÎ±Î»Î¹":2698,"ĠÎ¾Î¬ÏĢ":2699,"ĠÎºÎ¬ÏĢÏīÏĤ":2700,"ÎºÎ±Î¯ÏģÎ¹":2701,"ĠÏĢÎµÏģÎ¬":2702,"ĠÏĥÎºÎ»Î·":2703,"ĠÎŃÏĩÎ±ÏĥÎµ":2704,"ĠÎµÏĢÎ¹Î¸Ïħ":2705,"ĠÎ¯ÏĥÏīÏĤ":2706,"ĠÏĢÎµÎ¹ÏģÎ¬":2707,"ĠÎ²Î»ÎŃÏĢÏī":2708,"ĠÎ¹ÏĥÏĦÎ¿ÏģÎ¯ÎµÏĤ":2709,"ĠÎ±Î´ÎŃÏģÏĨÎ¹Î±":2710,"ÎŀÎ±ÏĨÎ½Î¹ÎºÎ¬":2711,"ĠÎ¼ÎµÏģÎ¹ÎºÎŃÏĤ":2712,"ĠÎ¼Î¿Î¹Î¬":2713,"ĠÎ¬Î½ÏĦÏģÎ±ÏĤ":2714,"ĠÎµÎ¼ÏĨÎ±Î½Î¯ÏĥÏĦÎ·ÎºÎµ":2715,"ĠÎ´Î¿ÎºÎ¹Î¼Î¬":2716,"ĠÎŃÏģÏĩÎµÏĦÎ±Î¹":2717,"ĠÎµÏģÏĩÏĮÏĦÎ±Î½":2718,"ĠÎ¼ÏĢÎ¹ÏĥÎºÏĮÏĦÎ±":2719,"ĠÎ£ÏĦÎ±ÏĩÏĦÎ¿ÏĢÎ¿Ïį":2720,"ĠâĢĻ":2721,"ÎµÏħ":2722,"ÎºÏī":2723,"ÏħÎ³":2724,"Î´Ïį":2725,"ÏĨÏĦÎµ":2726,"ÏĦÎµÏģÎ¿":2727,"ĠÎ®Î¼Î¿ÏħÎ½":2728,"ÏģÎ¯ÏĥÎµÎ¹":2729,"ĠÎ¼Î±Î¶":2730,"Î»Î·Î¸Î¹":2731,"ĠÎļÎ¿Î¹":2732,"Î¼ÎŃÎ½ÎµÏĤ":2733,"ĠÎºÎ¹Î½":2734,"ĠÎ²Î±ÏģÎ¹Î¬":2735,"ÏĦÎ®ÏĥÏī":2736,"Î¼Î¿Î¹Î±":2737,"ĠÎŃÏĨÏĦÎ±Î½":2738,"ĠÎºÎ¿ÏħÎºÎ¿ÏħÎ²Î¬Î³Î¹Î±":2739,"ĠÎĵÎ±":2740,"ĠÎ¤Î¿Î¼":2741,"Î³ÎºÎ·":2742,"ÏģÎ¿ÏįÎ»Î·ÏĤ":2743,"ĠÎ´Î¹Î±Î²Î¬":2744,"ĠÎºÎ±Î»ÏĮÏĤ":2745,"ĠÎ¬ÎºÎ¿ÏħÎ³Îµ":2746,"ĠÎºÎ¿ÏģÏħÏĨ":2747,"ÂµÎŃÎ½Î·":2748,"ĠÎºÏģÎ±ÏĥÎ¯":2749,"ĠÏħÏĢÎ¿Ïĥ":2750,"ĠÎ²Î³Î®ÎºÎ±Î½":2751,"ĠÎ¼ÎµÏģÎ¹ÎºÎ¬":2752,"ĠÎ²Î¿Î·Î¸Î®ÏĥÎµÎ¹":2753,"ĠÏĢÎ»Î·ÏĥÎ¯Î±ÏĥÎµ":2754,"ĠÎŃÏĦÏģÏīÎ³Îµ":2755,"ĠÏĥÏĦÎ¿Î»Î¯":2756,"ĠÏĢÎ»Î±Î½Î®ÏĦÎ·":2757,"ĠÏĦÏģÎŃÎ½Î¿":2758,"ĠÏĪÏīÎ¼Î¯":2759,"ĠÏĩÎµÎ¹Î¼ÏİÎ½Î±":2760,"ÎĦ":2761,"ĠÎİÏĥÏĦÎµÏģÎ±":2762,"ÎµÏģÎ¬":2763,"ÏĦÎ¿Î»":2764,"ĠÏĦÎŃÏĥ":2765,"Î»ÏĢÎ¹":2766,"ĠÎºÏģÎ¬":2767,"ĠÎºÎ»Î¬":2768,"ÎºÎ»Î±":2769,"Î³Î¿Î½":2770,"Î³ÎŃÎ»Î±ÏĥÎµ":2771,"ĠÎ½Î¿Î¹":2772,"ĠÎ½ÏħÏĩ":2773,"ĠÎŃÏĢÎ¹":2774,"Î¸ÎµÎ½Î¬":2775,"ÏĨÏī":2776,"ĠÎ±ÏĢÎ±Î½":2777,"ĠÎ±ÏĢÎ¿ÏģÎ¯Î±":2778,"Î¿Î½ÏĦÎ±":2779,"Î»Î¹ÏİÏĤ":2780,"ÂµÏĮ":2781,"ĠÏĢÎ±Î»Î¹Î¬":2782,"ĠÎļÏħ":2783,"ĠÎ±Î½Ïħ":2784,"ÏĪÎ¿ÏħÎ½":2785,"ĠÎ¶ÏīÎ½":2786,"Î¼Î¬Î´Î±":2787,"ĠÏĥÏħÎ³Îº":2788,"ÎŃÏģÎ±ÏĤ":2789,"ÏģÎ·ÏĥÎ¹":2790,"ĠÎĪÎ»Îµ":2791,"ĠÎŃÏĨÏħÎ³Î±Î½":2792,"ĠÎ»Î¯Î³Î±":2793,"ĠÎ¼ÎµÎ³Î¬Î»Î¿ÏĤ":2794,"Î¿ÏĥÏįÎ½Î·":2795,"Î¼ÎµÎ½Î¿":2796,"ÎºÎ±Î¹ÏģÎ¯Î±":2797,"ĠÏĨÏįÎ»Î»Î±":2798,"ĠÎ¡ÎµÎ½ÎŃ":2799,"Î»ÎµÏħÎµ":2800,"ĠÏĢÎŃÏģÎ±ÏĥÎ±Î½":2801,"ĠÎ¶Î®ÏĥÎ±Î½":2802,"ĠÎ´Î¿ÏħÎ»ÎµÎ¹ÎŃÏĤ":2803,"ĠÎŃÏĢÎ±Î¹ÏģÎ½Îµ":2804,"ĠÏĩÎ¹Î¿Î½":2805,"ĠÏĩÎ¹ÏĮÎ½Î¹":2806,"ĠÎ¬Î»Î¿Î³Î±":2807,"ĠÏĢÏįÏģÎ³Î¿":2808,"ĠÏĢÎ»Î¿ÏįÏĥÎ¹":2809,"ĠÏĦÎµÎ»ÎµÎ¯ÏīÏĥÎµ":2810,"ĠÏĢÎµÎ½ÏĦÎ¬":2811,"ĠÏĢÏģÎ¿ÏĥÎµÎºÏĦÎ¹ÎºÎ¬":2812,"ĠÎ±ÏģÎŃÏĥÎµÎ¹":2813,"ĠÏĦÏģÎ±Î³Î¿ÏįÎ´Î¹":2814,"ĠÏĢÎµÏĦÎ±Î»Î¿Ïį":2815,"ĠÎ³Î¯Î³Î±Î½ÏĦÎ±ÏĤ":2816,"ĠÎµÎ½Î¸Î¿ÏħÏĥÎ¹Î±":2817,"ĠÎºÎ±ÏĢÎŃÎ»Î¿":2818,"ĠÏĦÎŃÏĥÏĥÎµ":2819,"Î¬ÏĩÎ±":2820,"ÏĥÎºÎ¿":2821,"ĠÎ¼ÏĢÎµ":2822,"Î³ÎŃÎ½":2823,"ĠÎµÎ¼ÎŃÎ½Î±":2824,"ĠÎµÎ¯Î´Î±":2825,"ÎµÎ¯ÏĩÎµ":2826,"ĠÏĢÎ±ÏģÏĮ":2827,"ÏĥÏĦÎ®ÏĤ":2828,"ÏģÎµÏĥÎ±Î½":2829,"ÏĢÎ±ÏĥÎµ":2830,"Î¼Î¬ÏĤ":2831,"ĠÎłÏİÏĤ":2832,"ĠÎºÏħÏģÎ¯":2833,"ÏĥÏĦÎ±ÏĥÎ·":2834,"ĠÏĨÎ¯Î»Î¿":2835,"ĠÎ²Î¬Î»":2836,"Î»ÎµÏħÎ¸Îµ":2837,"ĠÎ®Î¸ÎµÎ»Î±Î½":2838,"ĠÎ´Î¬ÏĥÎ¿ÏħÏĤ":2839,"ĠÎ¿ÏĢÎ¿Î¯Î¿ÏĤ":2840,"Î»Î¯Î±ÏĤ":2841,"ĠÎŃÏĢÎ±Î¹Î¶Î±Î½":2842,"ĠÎ³ÏħÏģÎ¯ÏĥÎµÎ¹":2843,"ĠÏħÏĢÏĮÎ»Î¿Î¹ÏĢÎ±":2844,"ĠÎŃÏĥÏĦÎµÎ¹":2845,"ĠÎ³Î¿ÏħÏģÎ¿ÏħÎ½Î¬ÎºÎ¹Î±":2846,"ĠÏħÏĢÎ·ÏģÎŃ":2847,"Î¯Îº":2848,"ÏĢÏģÎ¿ÏĥÏĦÎ¬":2849,"ĠÎ±Î¹Ïĥ":2850,"ĠÎ±ÏįÏģÎ¹Î¿":2851,"ĠÎµÏĥÎŃÎ½Î±":2852,"ÏįÏģÎ¿":2853,"Î¶Î¿ÏħÎ¼Îµ":2854,"ÏģÎ¬ÏĦÎ¿":2855,"ĠÎºÎ±Î¸Î·":2856,"Î¾Î¿ÏħÎ¼Îµ":2857,"ĠÏĢÎ¿ÏħÎ¸ÎµÎ½Î¬":2858,"Î¬Î½Î¸Î·":2859,"Î¯Î½Î¹":2860,"ĠÎºÎ¬ÏĢÎ¿ÏĦÎµ":2861,"ĠÎ¼ÎŃÏĥÎ·":2862,"ĠÎłÏīÏĤ":2863,"ÏĥÏĦÎµÏį":2864,"ÏģÏİÏĥÎµÎ¹":2865,"ÏĦÏīÏĥÎµ":2866,"ÎķÎ³Ïİ":2867,"ĠÏĢÎ¿ÏĦÎ¬":2868,"ĠÎķÎ¯ÏĩÎ±Î½":2869,"ÏģÎ½Î¿ÏįÏĥÎµ":2870,"Î»ÏīÎ½Îµ":2871,"ĠÏĢÎ¿Î½ÏĦÎ¹ÎºÎ¬":2872,"ĠÎ¼Î·ÏĩÎ±Î½":2873,"ĠÎ±Î³Î¿ÏģÎ¬":2874,"ÎĽÎ¿Î¹ÏĢÏĮÎ½":2875,"ĠÏĢÎ±Î¯ÏģÎ½":2876,"ĠÎ¯Î´Î¹Î¿ÏĤ":2877,"ÏĨÎ¿ÏģÎ¬":2878,"ĠÏĥÏĢÎ¹ÏĦÎ¹Î¿Ïį":2879,"ĠÏĦÏģÎŃÏĩÎµÎ¹":2880,"ĠÏĩÏīÏģÎ¹Î¿Ïį":2881,"ÎķÎºÎµÎ¯Î½Î·":2882,"ĠÎŃÎ´Î¹Î½Îµ":2883,"ĠÎºÎ¿Î¹Î¼Î·Î¸ÎµÎ¯":2884,"ÎļÎ±Î»Î·Î¼ÎŃÏģÎ±":2885,"ĠÎ²ÏģÎ¿ÏĩÎ®":2886,"ĠÏĥÎ®ÎºÏīÏĥÎµ":2887,"ĠÎłÏģÎ¹Î³ÎºÎ¯ÏĢÎ¹ÏĥÏĥÎ±":2888,"ĠÎºÎ¿Î»ÏħÎ¼ÏĢ":2889,"ĠÎ³ÎµÎ¹ÏĦÎ¿Î½":2890,",...":2891,"ÏģÎµÎ¹Î±":2892,"Î»ÏİÏĤ":2893,"Î»ÏĨÎ¹":2894,"ÏĢÏīÎ½":2895,"ÎºÏģÎ¹":2896,"ĠÏĢÎŃÎ½ÏĦÎµ":2897,"ĠÎ±ÏģÎ±":2898,"ÏħÎ¼Î¬":2899,"Î´ÏģÎ±":2900,"Î¸ÎµÎ¯ÏĤ":2901,"ÏĨÏĦÎ¬":2902,"ĠÏĩÎ¿":2903,"ÏĦÎ·ÏĥÎ±":2904,"ÂµÎ¯":2905,"ĠÏĢÎ±ÏģÎ¿Ïħ":2906,"ĠÎĳÎ¼ÎŃÏĥÏīÏĤ":2907,"Î¼Î¬ÎºÎ¹":2908,"ĠÎķÏĥÏį":2909,"Î»Î¹Î¬Î´ÎµÏĤ":2910,"ĠÎ£Ïħ":2911,"ĠÎĵÎ·":2912,"ÏģÎ¿ÏįÏĤ":2913,"ÎŃÏĩÏĦÎ·ÎºÎµ":2914,"ĠÏĨÏįÏĥÎ·":2915,"ÎĶÎµ":2916,"ĠÎ²ÏģÎ®ÎºÎ±Î½":2917,"ĠÎķÎºÎµÎ¯Î½Î·":2918,"ĠÎ¼Î¹Î»Î¬":2919,"ĠÎµÏħÏĩÎ±ÏģÎ¹ÏĥÏĦÎ·":2920,"ĠÎ±ÏĢÎ±Î»Î¬":2921,"ÎŃÏĢÏĢÎ±":2922,"ĠÎºÎ¿ÏħÎ½Îµ":2923,"ĠÎŃÎ´ÎµÎ¹Î¾Îµ":2924,"ĠÏĢÎ¯ÏĥÏĦÎµÏħÎµ":2925,"ÎłÎŃÏģÎ±ÏĥÎ±Î½":2926,"ĠÎ±Î½Î·ÏĥÏħÏĩ":2927,"Î½ÎŃ":2928,"Î½ÏīÎ½":2929,"ÏĦÏİÏĥÎµÎ¹":2930,"Î¼Î¿ÏįÏĤ":2931,"ÏĩÎ·":2932,"ÏĩÏĦÎ¬":2933,"ĠÎŃÏģÏĩ":2934,"ĠÎ³ÎŃÎ»Î¹Î±":2935,"ĠÏĦÎ±Î¾Î¹":2936,"Î¶ÎµÏĤ":2937,"ĠÎºÎ±Î·":2938,"Î»Î±Î¼ÏĢ":2939,"Î¹ÎºÎŃÏĤ":2940,"Î¹Î¬ÏĤ":2941,"ĠÎ¾Î±ÏĢ":2942,"Î·Î½Îµ":2943,"ĠÎ¼ÏĢÏĮ":2944,"ĠÎľÎ®ÏĢÏīÏĤ":2945,"ÏĢÎ¹Îµ":2946,"ĠÎłÎŃÏĢÏĢÎ±":2947,"ĠÎŃÏĨÎµÏģ":2948,"ÎłÎ®":2949,"ĠÎ³ÎµÏī":2950,"ĠÎ§ÏģÏħÏĥ":2951,"ĠÎ§ÏģÏħÏĥÎ±":2952,"ĠÏĥÎ¹Ïī":2953,"ĠÏĢÎ¹ÏĥÏĦ":2954,"ĠÎ±ÎµÏģÎ¿ÏĢ":2955,"ĠÏĪÎ¬ÏģÎ¹Î±":2956,"ĠÎºÏĮÎºÎºÎ¹Î½Î±":2957,"ĠÏĩÏģÏİÎ¼Î±ÏĦÎ±":2958,"ĠÎ³ÏģÎ¬Î¼Î¼Î±":2959,"ĠÏĢÎ±Î¹ÏĩÎ½Î¯Î´Î¹":2960,"âĢĿ,":2961,"ĠÎ»ÎµÏĢÏĦÎ¬":2962,"ĠÎ®ÏģÎ¸Î±Î½":2963,"ÎĲÏĥÏĦÏģÎ¿":2964,"ĠÏĩÏģÏħÏĥÎ¬ÏĨÎ¹":2965,"Î½ÏĦÎ¬Î¾ÎµÎ¹":2966,"ÏģÏīÏĦÎ®Î¸Î·ÎºÎµ":2967,"ĠÏĥÏİÎ¼Î±":2968,"ĠÎ·ÏĥÏħÏĩÎ¯Î±":2969,"Î³Î¿Î·ÏĦÎµÏħ":2970,"ĠÎ±ÏģÏĩÎ·Î³ÏĮÏĤ":2971,"ĠÎºÎ¿ÏģÏħÏĨÎ®":2972,"Î·ÎºÎ±Î½":2973,"Î¿ÏħÂµÎµ":2974,"ÎºÏģÏį":2975,"ĠÏĢÎµÎ¹ÏĤ":2976,"ÏĮÏģÏħ":2977,"ĠÎ±Î»Î·Î¸Î¹":2978,"Î®ÏĦÎ±Î½":2979,"Î´Î¿Ïħ":2980,"Î´ÎµÎ¯":2981,"Î´Î¬ÎºÎ¹Î±":2982,"ĠÎµÎ¯ÏĥÏĦÎµ":2983,"Î»Î±Î³":2984,"ĠÏĩÎ¿Î½ÏĦ":2985,"Î¾ÏĦÎµ":2986,"ĠÎ»Î±Î¹":2987,"ÏĥÎ±Ïħ":2988,"ĠÎ¾ÏħÏĢ":2989,"ĠÎ¼ÎŃÎ»Î¹":2990,"ĠÎ¼ÏĢÎ»Îµ":2991,"ĠÎ¼Î¹Î±ÏĤ":2992,"ÏĥÏĦÎµÏģÎ¬":2993,"Î´Î¹Î¿Ïį":2994,"ĠÎ£Îº":2995,"ÏĮÏĦÎµÏģÎ¿":2996,"ÏİÎ½ÎµÏĤ":2997,"ĠÏħÏĢÎµ":2998,"ĠÎĪÏĩÏī":2999,"Î»Î®ÏģÏī":3000,"ĠÏĢÎ±ÏģÎ±ÎºÎ¬":3001,"Î»Î¯ÏĦÏĥÎ±":3002,"ĠÎ³ÎµÎ»Î¬":3003,"ĠÎ½ÎµÎ±":3004,"Î»Î¿ÏįÏĤ":3005,"ĠÏĨÏīÎ½ÎŃÏĤ":3006,"ĠÏĢÏģÏĮÏĥÎµ":3007,"ĠÏĢÎŃÏĥÎµÎ¹":3008,"ĠÎ»Î±Î¼ÏĢÎµ":3009,"Î¸Î¹ÏĥÎ±Î½":3010,"ÎļÎ±Î»Î¬":3011,"ĠÎĴÎ±Î³Î³":3012,"ĠÎµÏĢÎ¬Î½Ïī":3013,"ĠÎ»Î¬Î¸Î¿ÏĤ":3014,"ĠÎ¶ÎµÏħ":3015,"ĠÎŀÎ±ÏĨÎ½Î¹ÎºÎ¬":3016,"ĠÏĢÎ»Î¬ÏĦÎ·":3017,"ĠÎ´ÏģÎ¬ÎºÎ¿ÏĤ":3018,"ĠÎ±ÏħÏĦÎ¿ÎºÎ¯Î½Î·":3019,"ĠÎºÎ¿ÏħÎ²ÎŃÎ½ÏĦÎ±":3020,"ĠÎ´ÏįÏĥÎºÎ¿Î»Î¿":3021,"ĠÎ¼ÎµÏĥÎ·Î¼ÎŃÏģÎ¹":3022,"ĠÏĢÎ±Î»Î±ÏĦÎ¹Î¿Ïį":3023,"ÏĦÏīÏĤ":3024,"ÏĦÏħÏĩ":3025,"ÏģÎ»":3026,"ÏģÎ³Î¬":3027,"ĠÏĦÎŃÏģÎ±ÏĤ":3028,"ĠÎºÎµÎ¹":3029,"Î¿ÏħÎ¸Î®":3030,"ÏĢÎ¹Î¬":3031,"Î¼Î±Î½":3032,"ĠÎŃÏģÎ·":3033,"Î´Î¿Ïį":3034,"Î´Î¹ÎºÎ±":3035,"ĠÎ´ÎŃÏģ":3036,"ĠÎ¿Î»Î¿":3037,"ĠÎ±ÏĢÎŃÎ½Î±Î½":3038,"ĠÏĨÏģÎ¿Î½ÏĦÎ¯":3039,"Î¶Î¿Î½ÏĦÎ±Î¹":3040,"Î¶Î¬Ïģ":3041,"ĠÎ²Î³ÎµÎ¹":3042,"ĠÎ²ÏħÎ¸":3043,"ĠÏĩÏĦÎ±":3044,"Î»Î¹Î¿Ïį":3045,"Î»Î¹Î³ÎºÎ¬":3046,"ĠÎ¬Î½Îµ":3047,"ÎºÎ±ÏĦÎ¬":3048,"ĠÎľÎ¿Ïħ":3049,"ĠÎķÏħÏĦÏħÏĩ":3050,"ĠÏĥÏħÎ¼ÏĢ":3051,"ÎľÏĢÎ±":3052,"ĠÎ¬Î»Î»Î¿ÏĤ":3053,"ĠÏģÎ¿":3054,"ĠÏĥÎºÎŃ":3055,"ĠÏĥÏĦÎ±Î¸":3056,"Î¿ÏĢÎ¬":3057,"Î¿ÏĢÏĮ":3058,"ĠÎ¼ÏĢÎ¿ÏģÎ¿ÏįÏĥÎ±":3059,"ÏĦÏīÎ¼Î±":3060,"ĠÎ´ÏħÏĥÎºÎ¿Î»":3061,"ĠÎĮÏĥÎ¿":3062,"ĠÎ¾ÎµÏĩÏī":3063,"ĠÎºÏĮÏģÎ±":3064,"ĠÎºÏĮÏģÎµÏĤ":3065,"ĠÏĥÏħÎ½Î®":3066,"ĠÎ³ÎµÎ¼Î¯":3067,"ĠÏĨÏįÎ»Î±":3068,"ĠÏĢÎµÏģÎ¯Î¼ÎµÎ½Î±Î½":3069,"ĠÎ»ÏĮÎ³Î¿":3070,"ĠÂµÎ±Î¶Î¯":3071,"ĠÎµÏĢÏĦÎ¬":3072,"ĠÎ±ÏĢÎ¿ÏĨÎ¬ÏĥÎ¹ÏĥÎ±Î½":3073,"Î¼Î¿Î½Î®":3074,"ĠÎŃÎ²Î»ÎµÏĢÎ±Î½":3075,"ÏĦÎ¿ÏĢÎ¿Î¹":3076,"ĠÎµÏħÎºÎ±Î¹ÏģÎ¯Î±":3077,"ĠÎĸÎ±Î¼":3078,"ĠÎ³ÏģÎ¬Î¼Î¼Î±ÏĦÎ±":3079,"ÎķÎ¯Î¼Î±Î¹":3080,"ĠÏĥÎºÏįÎ»Î¿":3081,"ĠÎºÎ±Î»Î¿ÎºÎ±Î¯ÏģÎ¹":3082,"ĠÎ½ÎŃÎ¿":3083,"ĠÏĥÎ·Î¼ÎµÎ¯Î¿":3084,"ĠÎ´ÎµÏįÏĦÎµÏģÎ·":3085,"ĠÎ±ÏĢÎ¿ÏĨÎ±ÏĥÎ¯":3086,"ĠÏĢÎ±Î½ÎŃÎ¼Î¿ÏģÏĨ":3087,"ĠÏĩÎ±Î¼ÏĮÎ³ÎµÎ»Î¿":3088,"ĠÎŃÏĥÏĦÎµÎ¹Î»Îµ":3089,"ĠÎ±ÏĢÎŃÎ½Î±Î½ÏĦÎ¹":3090,"Î¬ÏģÎ¹":3091,"ĠÏĢÎŃÏģ":3092,"ÏĮÎ½Î±":3093,"Î¼Î¼ÎŃÎ½Î¿":3094,"ĠÎ±Ïĥ":3095,"Î±Î½Î¬":3096,"Î´Î¬ÎºÎ¹":3097,"Î¸Î¹ÏĥÎµ":3098,"ĠÎ´ÏģÎ¿Ïĥ":3099,"ÏįÎ½Î±":3100,"ÏģÎ¹Î¬Î½":3101,"ÏĦÎµÏģÏĮ":3102,"ĠÎºÎ±ÏĨ":3103,"ĠÏĩÏģÎ·ÏĥÎ¹":3104,"Î¼Î±Î³":3105,"Î¼Î±ÏĦÎ¬":3106,"ĠÎ¬Î¼Î±":3107,"ĠÎ·Î»Î¹":3108,"ĠÎ¤Î¯":3109,"Î¯Î½Î¿Î½ÏĦÎ±ÏĤ":3110,"ÎºÎ±Ïģ":3111,"ĠÏĢÎµÏģÎ®ÏĨÎ±Î½":3112,"ĠÎ±Î½ÎŃ":3113,"ÏĪÎµÎ¹ÏĤ":3114,"ĠÎ¶Î±":3115,"ĠÎºÎ¹ÏĮÎ»Î±":3116,"Î¤ÏİÏģÎ±":3117,"ĠÎłÎ¯Î¿Ïħ":3118,"Î¸ÎµÏĥÎµ":3119,"ĠÎ±Î»Î»Î¹ÏİÏĤ":3120,"ĠÎĪÏĩ":3121,"ĠÎ¼ÏĢÎ¿ÏģÎ¿ÏįÎ¼Îµ":3122,"ÏĦÎŃÎ»Îµ":3123,"ĠÎºÎ¿ÏħÎ²Î±":3124,"ĠÎºÎ¿ÏħÎ¶Î¯Î½Î±":3125,"ĠÎĵÎº":3126,"ĠÎĺÎ·Ïĥ":3127,"ĠÎ±ÏģÎ³":3128,"ĠÏĢÎ±ÏģÎ±ÎºÎ¿Î»":3129,"ĠÎ±ÏĨÎµÎ½":3130,"Î»ÏīÏĥÎ±Î½":3131,"ĠÎ¡Ïİ":3132,"Î¸Î®ÎºÎ·":3133,"ĠÎŃÎºÎ»Î±Î¹":3134,"ĠÎµÏħÏĩÎ®":3135,"ĠÎ¼ÏħÏģÏī":3136,"ÏĨÎ±Î¯":3137,"ĠÎ´ÏħÎ½Î±ÏĦÏĮ":3138,"ĠÎ´ÏİÏĥÏī":3139,"ĠÎ¾ÏįÎ»Î¹":3140,"ÏģÎ³Î¿ÏĤ":3141,"ĠÎ´Î¹Î¬Î²Î±":3142,"ĠÏħÏĢÎ¬ÏģÏĩÎ¿ÏħÎ½":3143,"ĠÎ±ÏĨÎ®ÏĥÎµÎ¹":3144,"Î±Î±Î±Î±":3145,"Î»ÎµÏįÎ¸Îµ":3146,"ĠÏĦÏģÏİÎµÎ¹":3147,"ĠÎŃÏĨÏĦÎ¹Î±Î¾Îµ":3148,"ĠÎ±ÏħÏĦÎ¿ÎºÏģÎ¬ÏĦÎ¿":3149,"ĠÏĩÏģÎµÎ¹Î¬Î¶ÎµÏĦÎ±Î¹":3150,"ÎŃÏģÎµÏĦÎµ":3151,"ÏĨÏİÎ½Î·ÏĥÎµ":3152,"ÏĥÎºÏħÏĪÎµ":3153,"ĠÎ£ÏĦÎ±ÏĩÏĦÎ¿ÏĢÎ¿ÏįÏĦÎ±":3154,"Î¿ÏĦÎŃ":3155,"ÏĦÎ¯Î±":3156,"ĠÏĥÎŃÎ½Î±":3157,"ĠÏĥÏĢÎ¿Ïħ":3158,"ĠÏĥÏĢÎ¬":3159,"Î³ÏīÎ½":3160,"ÏīÎ¸ÎµÎ¯":3161,"ĠÎµÎ»ÎµÏħÎ¸Îµ":3162,"ÏĩÏĦÎ·ÎºÎ±Î½":3163,"ĠÎ½ÏĦÏģÎ¿ÏĢ":3164,"ĠÎ´ÎŃ":3165,"ĠÎ´Î¿ÏįÎ¼Îµ":3166,"Î²ÎµÎ¹":3167,"ĠÎ¬ÏĢ":3168,"ÏĥÎ¹Î³Î¬":3169,"ÏĥÏĦÎ¿ÏĤ":3170,"ĠÎ¤Î·ÏĤ":3171,"ÏģÎ¿Îº":3172,"ĠÎ¼ÎŃÎ½Î±":3173,"ĠÂµÎ±ÏĤ":3174,"Î¸Î·ÎºÎ±":3175,"ÏĦÎ¿Î¹Î±":3176,"ĠÏĢÎ¬ÏĢÎ¹Î±":3177,"ĠÎ£Î¿Ïħ":3178,"ĠÏģÎ±":3179,"ÎĳÏĨÎ¿Ïį":3180,"ÎłÎµ":3181,"ĠÎ´ÎµÎ¾Î¹Î¬":3182,"Î¬ÏĥÎ±Î¹":3183,"ĠÏĢÏģÎ¹Î³ÎºÎ¹":3184,"ĠÏĢÏģÎ¿ÏĥÎ¿ÏĩÎ®":3185,"ĠÎ»ÎŃÎ¾Î·":3186,"Î´Î·ÏĤ":3187,"ĠÎ¼ÏħÏĥÏĦÎ¹ÎºÏĮ":3188,"ĠÏĢÏģÎ¿Î»Î¬Î²":3189,"ÏģÎ±Î³Î¼Î±ÏĦÎ¹ÎºÎ¬":3190,"ĠÎ¼ÎµÏĦÎ±Î¼Î¿ÏģÏĨ":3191,"ĠÎ³Î»ÏħÎºÎ¹Î¬":3192,"ĠÏĢÎ·Î³Î¬":3193,"ĠÎºÎ»Î±Î¯ÎµÎ¹":3194,"ĠÎµÎºÏĦÏĮÏĤ":3195,"ĠÏħÏĢÎ®ÏģÏĩÎ±Î½":3196,"ĠÎłÎ±ÏģÎ±":3197,"ĠÏĨÏĦÎ¹Î¬ÏĩÎ½":3198,"ĠÎĳÏħÏĦÏĮÏĤ":3199,"ĠÎ¬ÏĥÏĢÏģÎ±":3200,"ĠÏĢÎµÏĦÎ¬ÏĩÏĦÎ·ÎºÎµ":3201,"ĠÏĥÎ·Î¼Î±Î¯Î½ÎµÎ¹":3202,"ĠÏĥÎ·Î¼Î±Î½":3203,"ÏĨÎ¬Î½ÎµÎ¹Î±":3204,"ĠÎºÏįÎº":3205,"ĠÏĢÎ¿Î½ÏĦÎ¯ÎºÎ¹Î±":3206,"ĠÎŃÎ¾ÏħÏĢ":3207,"ĠÎĳÏĥÏĢÏģÎ±Î»Î¿Î³Î¿Î³Î¹ÏĮÏĤ":3208,"ĠÎ²ÏĮÎ»ÏĦÎ±":3209,"ĠÎ¶ÏīÎ½ÏĦÎ±Î½":3210,"ĠÏĢÎµÎ½ÏĦÎ¬Î¼Î¿ÏģÏĨÎ·":3211,"Î¯ÎºÏĦÏī":3212,"ĠÎ±ÎµÏģÎ¿ÏĢÎ»Î¬":3213,"ĠÎºÎ¹ÏĮÎ»Î±ÏĤ":3214,"Î¿Î¼Î±Î¹":3215,"Î»ÎºÎ·":3216,"Î¯ÏĥÏī":3217,"ÏĢÎ¿Î»Ïį":3218,"ÎºÎ»ÎµÎ¹":3219,"ĠÏĢÎ¿ÏģÏĦÎ¿ÎºÎ±":3220,"ĠÎµÏģÎ³Î±":3221,"Î¿ÏįÎ³ÎµÎ½":3222,"ĠÎ³ÏīÎ½":3223,"ĠÎ³ÏģÎ¹Î¬":3224,"ÏĦÎµÏį":3225,"Î¶Î»":3226,"Î¶Î¹Î±":3227,"Î»Î±Î²Î±Î½":3228,"ÏĦÎ¬Î´Î¹":3229,"ĠÎ¸Ïį":3230,"ÂµÎ¿ÏģÏĨ":3231,"ĠÏĢÎ±Î¶Î»":3232,"ÏģÎ¯Î¶ÎµÎ¹":3233,"ĠÎ¤Î¿ÏħÏĤ":3234,"Î¼ÎµÏģÎ¹":3235,"ĠÎ®ÏĦÎ±Î½Îµ":3236,"Î½ÎµÏĦÎ±Î¹":3237,"ĠÎľÎ¿Î¯ÏģÎ±":3238,"ĠÎŁÏįÏĦÎµ":3239,"ĠÎ»Î¯Î³ÎµÏĤ":3240,"ĠÎĮÏĢÏīÏĤ":3241,"ÏĦÎŃÏĦÏĥÎ¹":3242,"ĠÎºÎ¿ÏħÏģÎ¬":3243,"ĠÏİÏĥÏĢÎ¿Ïħ":3244,"Î¿ÏĨÎ¬ÏĥÎ¹":3245,"ĠÎ±Î½Î±ÎºÎ±":3246,"ÏĩÎ½Î¿ÏįÎ»Î±":3247,"ĠÎĴÎ¯ÎºÏĦÏī":3248,"ĠÎĿÎ±Î¹":3249,"ĠÎ±ÏĢÎ¿Î¼Î±":3250,"ĠÎĨÎ½":3251,"ĠÏĢÏģÏĮÎ²Î»Î·":3252,"ĠÎŃÎºÎ¿ÏĪÎµ":3253,"ĠÎ»Î¹Î³":3254,"ĠÎ³Î±ÏģÎ³Î±":3255,"ĠÎ±Î½Î¸ÏģÏİÏĢÏīÎ½":3256,"ĠÎ±Î½Î¬Î³ÎºÎ·":3257,"ĠÎ¾ÏįÎ»Î±":3258,"ĠÎ£ÎµÎ»Î¯Î½Î±":3259,"ĠÏĢÎµÏģÎ¹ÏĥÏĥÏĮÏĦÎµÏģÎ±":3260,"ĠÎ±Î´ÏįÎ½Î±":3261,"ĠÎºÏģÏħÏĨÎ¬":3262,"ĠÏĥÎºÎµÏĨÏĦÎµÎ¯":3263,"ĠÎŃÏĥÎºÎ±":3264,"ĠÏĥÎ·Î¼Î±ÏĥÎ¯Î±":3265,"ĠÏĥÎºÎŃÏĪÎµÎ¹ÏĤ":3266,"ĠÎ±ÎºÎ¿Î»Î¿Ïį":3267,"ĠÎ¿Î´Î·Î³":3268,"ĠÎµÏĦÎ¿Î¹Î¼Î¬":3269,"ĠÎ¾ÏħÎ»Î¿ÎºÏĮÏĢÎ¿ÏĤ":3270,"ĠÂµÎ¬ÏĦÎ¹Î±":3271,"ĠÏĦÏģÎŃÏĩÎ¿Î½ÏĦÎ±ÏĤ":3272,"!...":3273,";\"":3274,"ĠÎ¥":3275,"ÏĦÏģÎ¿Ïħ":3276,"ÏģÎµÎ¯":3277,"Î»ÏįÏĦÎµ":3278,"Î·Î¸ÎµÎ¯":3279,"ÏĮÏĦÎ·ÏĦÎ±":3280,"ÎŃÏĦÎ±Î¹":3281,"ĠÎ¼Ïī":3282,"ĠÏĥÎºÎ±Î½":3283,"Î³Î¿Î½ÏĦÎ±Î½":3284,"Î±Î½ÏĮ":3285,"ĠÎ´Î¿Ïį":3286,"ĠÎ´Î¹ÎºÎ¬":3287,"ĠÎ³Î¹Î¿":3288,"ĠÎ²ÏģÎ¿Ïį":3289,"ĠÏĩÏģÎµÎ¹Î±":3290,"Î¾Î¯Î±":3291,"ĠÏĢÎ¿ÏħÎ»Î¯":3292,"ÂµÏĢÎ¬":3293,"ĠÎ¬ÏģÏĢÎ±":3294,"ĠÏĢÎ±ÏģÎ·":3295,"ĠÎ¼Î±Ïģ":3296,"ĠÎ¸Î±ÏįÎ¼Î±":3297,"ÏĥÏĦÎ¿ÏįÎ½":3298,"ÏģÎ¿Î½Î±":3299,"ĠÎ¶ÎµÎ¹":3300,"Î³Î±ÏĢÎ·":3301,"Î¸ÎµÎ»Îµ":3302,"ÎŃÎ»ÎµÏĤ":3303,"ĠÏĩÎ±Î¸ÎµÎ¯":3304,"ÎłÎ¿Î¹Î¿ÏĤ":3305,"ĠÏĨÎ¿Î²Î¬":3306,"ĠÎºÎ¿ÏħÎ´":3307,"Î£ÏĦÎ·Î½":3308,"Î´Î¯ÎºÎ·":3309,"Î³Î®ÏĤ":3310,"ĠÎ»ÎŃÏī":3311,"ĠÎµÏĢÎ¹ÏĥÎºÎµ":3312,"ĠÎŃÎ²Î³Î±Î¹Î½Îµ":3313,"ĠÎµÎ¾Î±":3314,"ĠÏĥÎ¹Î´Îµ":3315,"ĠÎŃÎ²Î±Î»Î±Î½":3316,"ĠÏĦÏģÎµÎ¯ÏĤ":3317,"ĠÎºÎ±ÏģÎ´Î¹Î¬ÏĤ":3318,"ÏĥÏĩÎ¿Î»":3319,"ĠÎ¶ÎµÏĥÏĦÎ±":3320,"ĠÎ¼ÏĢÎ®ÎºÎ±Î½":3321,"ĠÏĥÏįÎ½ÏĦÎ¿Î¼Î±":3322,"ĠÎºÏħÎ½Î·Î³":3323,"ĠÎ»ÎµÏĢÏĦÏĮ":3324,"ĠÎ²ÏģÎ¯ÏĥÎºÎµ":3325,"ĠÎ½ÎµÏģÎ¬Î¹Î´ÎµÏĤ":3326,"ĠÎŃÎºÏĢÎ»Î·Îº":3327,"ĠÎŃÎºÏĢÎ»Î·Î¾Î·":3328,"ĠÎĴÎ±ÏĥÎ¯Î»Î·ÏĤ":3329,"ĠÎ¸Î·ÏĥÎ±Ïħ":3330,"ĠÏĢÎµÏģÎ¹ÏĥÏĦÎŃÏģÎ¹Î±":3331,"ĠÎ²Î³Î±Î¯Î½ÎµÎ¹":3332,"ĠÎĬÏĥÎ¿Î½":3333,"ĠÎµÏĢÎ¹ÎºÎ¯Î½Î´Ïħ":3334,"ĠÎ¾ÎµÎºÎ¿ÏħÏģÎ±":3335,"ĠÎºÎ¿ÏħÎ½ÎµÎ»Î¬ÎºÎ¹":3336,"ĠÎ¡ÏİÏĦÎ·ÏĥÎµ":3337,"Î¿ÏįÎ³ÎµÎ½Î½Î±":3338,"Îĸ":3339,"Ġ2":3340,"Î±Âµ":3341,"Î½ÎŃÏĩ":3342,"ÏģÎ±Î¹":3343,"Î¿ÏĬ":3344,"ÏĥÏĦÎ·ÏĥÎµ":3345,"ÎºÏİÎ½":3346,"ÏħÎ±":3347,"ĠÎŃÎ¼Î¿Î¹Î±":3348,"ÏĨÎ¿Ïħ":3349,"ĠÏĨÏİ":3350,"Î²Î¬ÎºÎ¹":3351,"ÏģÎ¬Î½ÏĦÎ±":3352,"ĠÎ¸ÎµÎ¯Î±":3353,"ĠÎ¸ÏĮÏģÏħ":3354,"ÂµÎ±Î¹":3355,"ĠÎ»Î¿":3356,"ÏĥÏĦÏĮÏĥÎ¿":3357,"ÏģÎµÎ¾Î·":3358,"ĠÎºÎ¬Î»ÎµÏĥÎµ":3359,"ÎºÎ±Î¼Îµ":3360,"ĠÏĢÎ¿Î»Î»Î¿Î¯":3361,"ĠÂµÏĮÎ½Î¿":3362,"ĠÏĥÏħÎ³Î³":3363,"ĠÎ²Î±ÏģÎŃ":3364,"ÏģÎŃÏĪÎµÎ¹":3365,"ĠÏĢÎ¿Î»ÏįÏĩÏģÏī":3366,"ÏģÎ·ÏĥÎ±Î½":3367,"ÏģÎ®Î½Î·":3368,"ĠÏĢÎ±Î¹Î´Î¹ÏİÎ½":3369,"ÎĳÎĻ":3370,"Î³Î¹Î¿ÏĤ":3371,"Î¶Î¯ÏĦÎ¶":3372,"ĠÎ±ÏħÏĦÎ¹Î¬":3373,"ĠÎºÎ¿ÏĦÎŃÏĦÏĥÎ¹":3374,"ĠÎºÎ¿Î¹ÏĦÎ¿ÏįÏĥÎ±Î½":3375,"ÎĮÎ»Î±":3376,"ĠÎ§Î±":3377,"ĠÎµÏĢÎ¹ÏĥÎº":3378,"Î½Î®Î¸Î·ÎºÎµ":3379,"Î½Î¬Î´Î±":3380,"ĠÎ»Î±Î³ÏĮÏĤ":3381,"ĠÎ®Î¸ÎµÎ»Î±":3382,"ĠÏĨÏİÎ½Î±Î¾Î±Î½":3383,"ĠÏĨÎ¬Ïī":3384,"ĠÏĢÏģÎ±Î³Î¼Î±ÏĦÎ¹ÎºÏĮ":3385,"ĠÎŃÏĦÏģÎµÏĩÎµ":3386,"ĠÏĩÎ¹Î»Î¹Î¬Î´ÎµÏĤ":3387,"ĠÎ±Î³Î±ÏĢÏİ":3388,"ĠÎºÏģÏħÏĨ":3389,"ÎĴÎ±":3390,"ĠÎºÎ¿Î¼Î¼Î¬ÏĦÎ¹Î±":3391,"ĠÎ´ÎµÎ¯ÏĩÎ½":3392,"ĠÎłÎ®ÏģÎµ":3393,"Î¶Î¿Î¼Î±Î¹":3394,"ĠÎ¼Î±Î¶ÎµÏį":3395,"ĠÎļÎ¿Î¯ÏĦÎ±Î¾Îµ":3396,"ĠÏĦÏģÏħÏĨÎµ":3397,"ĠÎ±Î½Î¿Î¹ÏĩÏĦÏĮ":3398,"ĠÏĩÎ¿ÏģÏĮ":3399,".âĪĨ":3400,":\"":3401,"ĠâĢ¦":3402,"ÎµÎ»Î¹ÎºÎ¬":3403,"ÏģÎ½Î±Î½":3404,"Î¬Î»Î¹":3405,"Î·ÂµÎ®":3406,"ÎºÏģÎ¹ÏĥÎµ":3407,"ĠÏĢÎŃÏĨ":3408,"Î¼Ïİ":3409,"Î¼ÏĢÎ¿":3410,"ĠÎ¼Î¿Î¯ÏģÎ±":3411,"ĠÏĥÎ¬":3412,"Î³ÎµÎ¹ÏĤ":3413,"Î³ÎºÎ¿":3414,"ĠÎµÎ¾Îµ":3415,"ĠÎµÏĢÎ±Î½":3416,"ĠÎµÎ»ÏĢÎ¯Î´Î±":3417,"ĠÎµÏĥÎµÎ¯ÏĤ":3418,"ÏĩÎµÏĤ":3419,"Î´ÏīÏĥÎµ":3420,"ĠÎ´Î¹ÎºÎ±":3421,"ĠÎ¿Î½ÎµÎ¹":3422,"ÏĦÎµÎ¯Î±":3423,"ÎµÎ½ÏĦ":3424,"ĠÏĩÎµÎ¯":3425,"ĠÏĩÏģÎ¿Î½":3426,"ĠÏĢÎ¿ÏħÎ»Î¬ÎºÎ¹Î±":3427,"ÏĦÎ¬Î½Î¹":3428,"ÏĥÎ±Î½Îµ":3429,"ĠÎ¼ÎŃÏģÎ·":3430,"ĠÎĳÎ»Î¯":3431,"ĠÏĢÎ¿Î»Î»Î¿ÏįÏĤ":3432,"ĠÎľÎ¯Î´Î±":3433,"ÎºÏĮÎºÎºÎ¹":3434,"ĠÏĢÎ¬ÏģÏī":3435,"Î¼ÏĢÎ½ÏĦÎ¬":3436,"ÎºÎ¿Î»Î±":3437,"ÎŃÏĥÏĦÎ·":3438,"ÏĩÎ½Î¬":3439,"ĠÎºÎ¿Î¹Î»Î¹Î¬":3440,"ĠÎ±ÏĢÎ¿ÏĦÎŃÎ»Îµ":3441,"ĠÂµÎµÎ³Î¬":3442,"Î¿Î½ÏĦÎ¬ÏĤ":3443,"ĠÎ³ÏħÎ±":3444,"ĠÎ§Î¬Î½":3445,"ĠÎĨÎ½Î¿Î¹":3446,"ĠÎºÎ¬Î¸ÎµÏĦÎ±Î¹":3447,"ĠÎľÎ±ÎĲÏĥÏĦÏģÎ¿":3448,"ĠÎ¼ÏħÏģ":3449,"ĠÎ¦Î±":3450,"ĠÏĥÎ±Î»Î¹Î³ÎºÎ¬":3451,"Î´Î®ÏĢÎ¿ÏĦÎµ":3452,"ĠÏĨÎ¬ÏģÎ¼Î±":3453,"ĠÎķÎºÎµÎ¯Î½Î¿ÏĤ":3454,"ĠÏĨÏħÏĥÎ¹ÎºÎ¬":3455,"ĠÏĨÎ±Î³Î·ÏĦÎ¬":3456,"Î½ÏİÎ¼Î·":3457,"ÏĢÎ»Î·Îº":3458,"ĠÏĦÏĥÎ¿Ïħ":3459,".âĢľ":3460,"ĠÎ±Î³ÏĮÏģÎ±":3461,"ĠÎ¾ÎµÎºÎ¯Î½Î·ÏĥÎ±Î½":3462,"ĠÏĦÏģÎ¿Î¼Îµ":3463,"ĠÎŃÎ½Î¹ÏīÎ¸Îµ":3464,"ĠÏĩÏĦÏħÏĢ":3465,"ĠÎ²Î¹Î²Î»Î¯Î±":3466,"ĠÏĮÎ½ÎµÎ¹ÏģÎ¿":3467,"ĠÏĦÎ¶Î¬ÎºÎ¹":3468,"ĠÎ²Î¬ÏĦÏģÎ±ÏĩÎ¿ÏĤ":3469,"ĠÏĢÎ±ÏģÎ¬Î¾ÎµÎ½Î¿":3470,"ĠÏĥÏĩÎ®ÂµÎ±":3471,"ĠÏĢÏģÎ¿ÏĩÏī":3472,"ĠÏĥÏħÎ½Î¿Î´":3473,"ĠÎŃÎ²ÏģÎ¹ÏĥÎºÎµ":3474,"ĠÎ¾Î¬ÏĢÎ»ÏīÏĥÎµ":3475,"ĠÎĪÎ»ÎµÎ½Î±":3476,"ĠÎ±ÏģÎ³ÏĮÏĦÎµÏģÎ±":3477,"Î¼ÏĢÎ½ÏĦÎ¬Î»Î±":3478,"Î¹Î¿Ïį":3479,"ÏģÎ¿ÏįÏĥÎ±Î½":3480,"ĠÎºÎ»Ïī":3481,"ÎºÎ¯Î±":3482,"ÎºÎ¿Ïĥ":3483,"ĠÏĢÎ»Î¿":3484,"Î¼ÎµÎ¯":3485,"Î¼Î¬Î½":3486,"ĠÏĥÎ¿Ïį":3487,"Î³ÎµÎ¹Î±":3488,"ĠÎµÎ»ÎµÏįÎ¸Îµ":3489,"ĠÎŃÏĢÎ±":3490,"ĠÎŃÏĩÎµÏĦÎµ":3491,"ĠÎµÎ¯ÏĥÎ¿":3492,"ÏĦÎµÏģÎ±":3493,"ĠÏĨÎµÏį":3494,"ÏĦÎ·Î¼Î±":3495,"ÏĥÎ±ÏĦÎµ":3496,"ÎºÎ¹Î¿":3497,"ĠÏĢÎ±ÏĢÎ¬ÎºÎ¹":3498,"ĠÎ¼Î±Î³Î±":3499,"ĠÎ¸Î±ÏħÎ¼Î¬":3500,"Î»ÎµÏĦÎµ":3501,"ĠÎĳÎ¶Î¬Ïģ":3502,"ĠÎķÎ¹":3503,"ĠÎłÏģÎ¿Ïĥ":3504,"ÏĦÎ¯Î³":3505,"ĠÏĥÎºÎ¿Ïį":3506,"ÎŃÎ»ÏĨÎ¹Î±":3507,"ĠÎĪÎ»Î±":3508,"ĠÎ¾ÎµÎºÎ¹":3509,"ĠÎ´ÎµÎ»ÏĨÎ¹":3510,"ÎĮÎ»Î¿Î¹":3511,"ĠÎºÎµÎ»Î¬":3512,"ĠÎ±ÏģÏĩÎ±":3513,"ĠÏĥÏħÎ¼Î²Î¿Ïħ":3514,"ĠÎºÏģÎ±ÏĦÏİÎ½ÏĦÎ±ÏĤ":3515,"ÎļÎ±Î¸ÏİÏĤ":3516,"ĠÎ²ÏģÎ®ÎºÎ±":3517,"ĠÎ¸ÏħÎ¼Î¬":3518,"ĠÏĢÎ»Î·ÏĥÎ¹Î¬":3519,"ĠÎ³Î¬ÏĦÎ±":3520,"Î»Î±Î¹Î¿":3521,"ĠÎ®Î¾ÎµÏģÎ±Î½":3522,"ĠÎ±ÎµÏĦÏĮÏĤ":3523,"ĠÏĦÏģÏĮÎ¼Î±":3524,"ĠÏĥÏĦÎµÎºÏĮÏĦÎ±Î½":3525,"ĠÏĥÎºÎ¿ÏĦÎ¬Î´Î¹":3526,"ĠÎĸÎ®":3527,"ĠÏĨÏīÎ½Î¬Î¶ÎµÎ¹":3528,"ĠÎ´Î·Î»Î±Î´Î®":3529,"ĠÎ¼Î¿Î½Î±Î¾Î¹Î¬":3530,"ĠÎ±Î²Î³Î¬":3531,"ĠÎ¬ÏģÏģÏī":3532,"ĠÎĺÎŃÎ»Ïī":3533,"ĠÎµÎ»Î±ÏĨ":3534,"ĠÏĪÎ¹Î¸":3535,"ĠÎ±Î³ÎºÎ¬Î»Î¹Î±":3536,"ĠÎĳÏĥÏĦÏģÎŃÎ½Î¹Î¿ÏĤ":3537,"ĠÎ³ÏįÏģÎ¹ÏĥÎ±Î½":3538,"ĠÎŃÎ¼Î±Î¸Îµ":3539,"ĠÎ£Î¿ÎºÎ¿ÏĨÎ»Î®ÏĤ":3540,"ĠÎŃÏĨÏĦÎ±Î½Îµ":3541,"ĠÏĢÎµÏĦÎ±Î»Î¿ÏįÎ´Î±":3542,"ĠÎ±ÏģÎ±ÏĩÎ½Î¿ÏįÎ»Î±":3543,"ĠÎ´ÎŃÏģÎ¼Î±":3544,"ĠÎĺÎ·ÏĥÎŃÎ±ÏĤ":3545,"ĠÏĢÎ·Î³Î¬Î´Î¹":3546,"ĠÎĳÎ»Î¯ÎºÎ·":3547,"Î½Î¿Ïħ":3548,"ÏĦÏĮÎ½":3549,"Î»ÏĮÎ½Î¹":3550,"ĠÎºÎ¿Î½":3551,"ĠÎºÏĮÏĦÎµÏĤ":3552,"Î¿ÏħÎ»Î¬ÎºÎ¹":3553,"Î¿ÏħÎ³ÎµÎ½":3554,"ÏĢÎ¬Î½Ïī":3555,"ÎºÎ¬Î½":3556,"ĠÏĢÎµÏĤ":3557,"ÏĮÏĩÎ¿Î¹":3558,"Î¼Î¿ÏĢÎ¿Î¹":3559,"ĠÎ¼ÎŃÎ½":3560,"Î³ÏĮÏĦÎ±Î½":3561,"ÏīÎ½Îµ":3562,"ĠÎ½ÏĦÎ¿Ïħ":3563,"ĠÎŃÎ³":3564,"ĠÎ³ÎµÎ¯":3565,"ÏįÏĢ":3566,"ÏģÎ¹Î¿ÏĤ":3567,"ĠÏĨÏģÎ¬":3568,"ĠÏĨÏģÏĮÎ½":3569,"ÏĦÎ¹ÎºÎ¿":3570,"ÏģÎ¬ÎºÎ¿ÏĤ":3571,"ĠÎ²ÏģÎµÎ¹ÏĤ":3572,"ĠÎºÎ±ÏģÎ±":3573,"ĠÎºÎ±ÏģÎŃ":3574,"ĠÏĩÎ¯":3575,"ÏĦÎ¬ÏĤ":3576,"ÎµÎ¯Î½Î±Î¹":3577,"Î»Î¹ÏİÎ½":3578,"Î¼Î±ÏĥÎµ":3579,"Î¹ÎºÎ¿":3580,"ÏĥÎ¹Î¿":3581,"ĠÎ¾Î±":3582,"ĠÎ¾ÎŃÏĩ":3583,"ĠÎ¼ÎŃÎ»Î¹ÏĥÏĥÎ±":3584,"ĠÎĳÎ»ÎŃ":3585,"ĠÏĢÎµÏģ":3586,"ĠÎļÏĮ":3587,"ĠÎ¼Î¿ÏħÏģ":3588,"ĠÂµÎŃÏģÎ±":3589,"ÏĢÎ¿ÏĦÎ±":3590,"Î¼ÏĢÎ·ÏĥÎµ":3591,"ĠÏĩÎ±Î¯":3592,"ÎĳÏĩ":3593,"ĠÎºÎ±Î¸ÏģÎŃÏĨ":3594,"ĠÎºÎ¿ÏħÎ»Î¿Ïħ":3595,"ĠÎĵÎµ":3596,"Î¿ÏĥÎ¿":3597,"ĠÎ±ÏģÎ½Î¬ÎºÎ¹":3598,"ĠÎµÎ½Î¿Ïĩ":3599,"ÏĢÎ¿ÏįÏģ":3600,"Î³Î®ÏĥÎµÎ¹":3601,"ĠÎ¶ÏīÎ®ÏĤ":3602,"ĠÎ²Î¬Ïģ":3603,"ÏĢÎ®ÎºÎµ":3604,"ĠÎµÎ¾Î®":3605,"ĠÎĽÎ±":3606,"ÏĨÎµÏģÎµ":3607,"ĠÎ¸ÎŃÎ»Î¿ÏħÎ½":3608,"ĠÎ´Î¯ÏĩÏĦÏħ":3609,"ĠÏįÏĨÎ¿ÏĤ":3610,"ĠÏĨÏİÎ½Î±Î¶Î±Î½":3611,"ĠÎ´Î¬ÏĥÎºÎ±":3612,"ĠÎ³Î¯Î½Ïī":3613,"ĠÎºÎ¿Î¯ÏĦÎ±Î¶Îµ":3614,"ĠÎ³Î±Î»Î¬":3615,"ĠÏĢÏģÎ¬Î³Î¼Î±ÏĦÎ¹":3616,"ĠÎŃÎ»Î±ÏĦÎ±":3617,"ÏħÎ¸ÏįÎ½":3618,"ĠÎ±ÏģÎºÎµÏĦÎ®":3619,"ĠÎ±Î³Î±ÏĢÎ·Î¼ÎŃÎ½Î¿":3620,"ĠÎŃÎ¼ÎµÎ¹Î½Î±Î½":3621,"ĠÏĦÎŃÏĦÎ¿Î¹Î±":3622,"ĠÎºÎ±Î¹Î½Î¿ÏįÏģÎ¹Î±":3623,"ĠÎ´Î·Î¼Î¹":3624,"ĠÏĩÏĦÏħÏĢÎ¬":3625,"ĠÎ±Î½ÎŃÎ²Î·ÎºÎµ":3626,"ĠÎ±Î½Î¿Î¯Î¾ÎµÎ¹":3627,"ĠÂµÎ¹ÎºÏģÏĮ":3628,"ĠÎķÏħÏģÏħ":3629,"ĠÎµÎ¾Î±ÏĨÎ±Î½Î¯ÏĥÏĦÎ·ÎºÎµ":3630,"ĠÎ£ÏīÏĦÎ®":3631,"ĠÏĢÏģÎ¿ÏĥÏĢÎ¬Î¸Î·ÏĥÎµ":3632,"ĠÎ§ÏģÎ¹ÏĥÏĦÎ¿ÏįÎ³ÎµÎ½Î½Î±":3633,"ĠÏĢÎ±ÏģÎ±Î¼ÏįÎ¸Î¹":3634,"ĠÎ±ÏģÎ¹ÏĥÏĦÎµÏģÎ¬":3635,"ĠÎĴÎ±Î³Î³ÎŃÎ»Î·ÏĤ":3636,"Î±ÂµÏĢÎ¿ÏįÏģ":3637,"Î·ÂµÎ®ÏĦ":3638,"Î¹Î¶":3639,"Î½ÏĮÏĤ":3640,"ĠÏĦÏĥÎ¹":3641,"ĠÏĦÏħÏĨ":3642,"Î»Î¿ÏįÎ½":3643,"ÎºÏģÎ±":3644,"Î¼ÎµÏĤ":3645,"Î³ÎºÎ±":3646,"ĠÎµÎ¼ÏĢ":3647,"ÏĩÎŃ":3648,"ÏĩÏĦÎ±":3649,"ĠÎ½Î¹Ïİ":3650,"ĠÏĦÎ¿Î»":3651,"ĠÎŃÏĥÎºÏħÏĪÎµ":3652,"Î¸Î¿Ïį":3653,"ÏįÏģÎ±":3654,"ÏĥÎµÎ»":3655,"ÏĨÎ¯ÏĦÏĥÎ±":3656,"Î²Î»Îµ":3657,"Î¿Î½Î·":3658,"ĠÏĩÏģÏħÏĥÎ±":3659,"Î¬Î½Î¸ÏģÏī":3660,"Î¹ÎºÏĮÏĤ":3661,"ÏĥÎ¹Î¼Î¿":3662,"ÏĥÏĦÎ¿Î½":3663,"ĠÎ¤ÏĥÎ±":3664,"ĠÎºÎ¬Î¸Î¹ÏĥÎ±Î½":3665,"ÏģÏīÎ½":3666,"ĠÎĳÏĨ":3667,"ĠÏĢÎµÎ¸Î¬Î½":3668,"Î½ÎµÏħ":3669,"ĠÎľÎ·Î½":3670,"ĠÏĦÎ¹Î¼Ïī":3671,"ĠÎ±Î½Î¸ÏģÏī":3672,"ĠÎ¶Î¿ÏħÎ½":3673,"ĠÎķÎ´Ïİ":3674,"ĠÎłÎ¿Ïħ":3675,"ĠÏĢÎ¬ÏĦÏīÎ¼Î±":3676,"Î¶ÎµÏĦÎµ":3677,"ĠÏħÎ³":3678,"ĠÎĪÏĢÎµÎ¹ÏĦÎ±":3679,"ĠÎ¼Î¬Î»Î»Î¿Î½":3680,"âĢĻ.":3681,"Î´Î¹Î±Î¯":3682,"Î´Î¹Î±ÏĨÎŃÏģ":3683,"ĠÎĶÎ·":3684,"ĠÎºÏĮÎºÎ¿":3685,"ĠÏĢÎµÏģÎ¹ÎŃÏģ":3686,"ĠÏĢÎ±ÏģÎ±ÏĦÎ®":3687,"ĠÏĢÎ±ÏģÎ±ÏĢÎ¿Î½":3688,"ĠÏĢÎ¿ÏĦÎ®":3689,"ĠÎ±ÏĢÎ¿Î³Î¿Î·ÏĦÎµÏħ":3690,"ĠÎķÎ¯ÏĥÎ±Î¹":3691,"ĠÎĨÎºÎ¿Ïħ":3692,"ĠÎ´ÎŃÎ½ÏĦÏģÎ¿Ïħ":3693,"ĠÎ±ÏģÏĩÎ¯":3694,"ĠÏĩÎ¬Î¸Î·ÎºÎµ":3695,"ĠÎ²Î¿Î®":3696,"ĠÎ²Î»ÎŃÎ¼Î¼Î±":3697,"ĠÏĢÎ¹ÏĥÏĦÎµÏį":3698,"ĠÎ³Î¯Î½ÎµÎ¹ÏĤ":3699,"ĠÎºÎ¬ÏĢÎ¿Î¹Î¿Î½":3700,"ĠÎ±ÏĢÎ¿ÎºÎ¿Î¹":3701,"ĠÏĩÎ¿ÏģÎµÏį":3702,"ĠÏĩÎ±ÏģÎ¿ÏįÎ¼ÎµÎ½Î±":3703,"ĠÎµÏħÎ³ÎµÎ½":3704,"ĠÎ±Î³Î±ÏĢÎ¿ÏįÏĥÎ±Î½":3705,"ĠÏĨÎ¿Î²Î¬ÏĥÎ±Î¹":3706,"ĠÎºÎ¬Î¸Î¿Î½ÏĦÎ±Î½":3707,"âĢĿ.":3708,"ĠÏĩÎ±Î¼Î¿Î³ÎŃÎ»Î±ÏĥÎµ":3709,"ĠÏĢÏħÎº":3710,"ĠÎ³ÎŃÎ¼Î¹ÏĥÎµ":3711,"ĠÎ±Î½ÏĦÎ¯ÎºÏģÎ¹ÏĥÎµ":3712,"ĠÎ¼Î¿Î½Î±Î´":3713,"ĠÎłÎ®Î³Îµ":3714,"ĠÎļÎ±Î½ÎµÎ¯ÏĤ":3715,"ĠÎ£ÏīÏĦÎ¯Î³":3716,"ĠÎŃÎ¼ÏĢÎ¿Ïģ":3717,"ĠÏĦÎµÎ»ÎµÎ¹ÏİÏĥÎµÎ¹":3718,"ÏĦÏģÎ¿ÏĨÎ¹Î¬":3719,"ÏĦÎ¿Î»Î®":3720,"ĠÎºÏģÎ¬ÏĦÎ·ÏĥÎµ":3721,"ĠÎŃÏĨÎµÏģÎ½Îµ":3722,"ĠÏĥÎºÎ±Î½ÏĦÎ¶":3723,"ĠÎ²ÏģÎ¯ÏĥÎºÎµÏĦÎ±Î¹":3724,"Î¿ÏħÎ³ÎµÎ½Î½Î¹Î¬":3725,"Î±ÏħÏĦ":3726,"Î¹ÎŃÏĤ":3727,"ĠÏĦÏĥÎ¯":3728,"ÏĢÏĮÏĦÎµ":3729,"Î±Î¹ÏģÎµ":3730,"ĠÏĥÎºÏĮ":3731,"ĠÎ±Ïĩ":3732,"ĠÎ±Âµ":3733,"ĠÎ±Î¾Î¯":3734,"Î³ÏįÏģÏī":3735,"Î³ÏĮÎ½ÎµÏĤ":3736,"ĠÎŃÎ³ÏģÎ±":3737,"Î´ÎŃÎ½":3738,"Î´ÎµÎ¹Î±":3739,"Î¸ÎŃ":3740,"ÏģÎ±Î¯Î±":3741,"ÏģÎ±Î³Îµ":3742,"ÏĨÏĦÎµÏĤ":3743,"ĠÏĥÏĦÎµÎ¯":3744,"ĠÎ±ÏĢÎ¿Ïģ":3745,"ĠÏĩÎ¬Î½":3746,"Î»Î¹ÏĦÎ¶":3747,"ĠÎĳÎºÏĮ":3748,"ĠÎĳÎ¼ÏĢÎ½ÏĦÎ¬Î»Î±":3749,"ĠÏĢÎµÏĦÎ¿ÏįÏĥÎ±Î½":3750,"Î³ÎµÏĦÎ±Î¹":3751,"ĠÎ¶ÎŃÏĥÏĦÎ·":3752,"Î½Î·ÏĥÎ±Î½":3753,"ÎľÎ·Î½":3754,"Î´Î¹ÎŃÏĤ":3755,"ĠÏģÏĮ":3756,"Î²Î±Î»Îµ":3757,"ĠÎ¼ÏĢÎ¿ÏģÎ¿ÏįÎ½":3758,"ÎķÎĻ":3759,"ĠÏĢÏĮÎ»Îµ":3760,"ĠÏĢÏĮÎ»Î·ÏĤ":3761,"ĠÎĺÎ¬Î»Î±ÏĥÏĥÎ±":3762,"ÏįÏģÎ¹Î¶Îµ":3763,"ĠÎºÎ±ÏĦÎ±Î»Î±Î²Î±":3764,"ĠÎ§Î¬":3765,"Î¸ÏħÎ½":3766,"ĠÎºÏģÎ±ÏĦÎ¿ÏįÏĥÎµ":3767,"ĠÏĨÎ¿ÏģÎ¿ÏįÏĥÎµ":3768,"ĠÎ¸ÏħÎ¼Ïī":3769,"ĠÎ³Î±ÏĬ":3770,"ĠÏĩÎ¿ÏģÎ¿ÏĢ":3771,"ĠÎŃÏĢÎ±Î¹Î¶Îµ":3772,"ĠÏĦÎ±Î¾Î¯Î´Îµ":3773,"ĠÎ²Î¹ÏĦÏģÎ¯":3774,"ĠÎ±Î´ÎŃÎ»ÏĨÎ¹Î±":3775,"ÎºÎ¿Î»Î¿":3776,"ĠÏĪÎ±ÏģÎ¬ÎºÎ¹":3777,"ÎķÎ¯ÏĩÎµ":3778,"ĠÏĨÎ¬Î½Îµ":3779,"ĠÏĨÎ±Î¯Î½Î¿Î½ÏĦÎ±Î½":3780,"ĠÏĥÎºÎ±Ïģ":3781,"ĠÎ²Î»ÎŃÏĢÎµÎ¹ÏĤ":3782,"ĠÏĢÎ±Î½ÏĦÏģÎµÏħÏĦÎµÎ¯":3783,"ĠÏĦÏģÎ±Î³Î¿ÏħÎ´":3784,"Î¿ÏħÎ¸Î¿ÏįÏĥÎµ":3785,"ÎŁÎ¥ÎĿ":3786,"ĠÎµÏįÎºÎ¿Î»Î±":3787,"ĠÏĢÎµÏģÎ¹ÏĥÏĦÎŃÏģÎ¹":3788,"ĠÏĥÏĦÎµÎ½Î±ÏĩÏīÏģÎ·":3789,"ĠÏĩÏīÏģÎ¬ÏĨÎ¹Î±":3790,"ĠÏĥÏĩÎŃÎ´Î¹Î¿":3791,"ĠÎºÎ¯ÏĦÏģÎ¹Î½Î¿":3792,"ĠÏĥÏįÎ½Î½ÎµÏĨÎ¿":3793,"ĠÏĥÏĦÎµÎ½Î¿ÏĩÏī":3794,"ĠÎºÎ¬Î¼ÏĢÎ¿Ïĥ":3795,"ĠÎ±Î½Î®ÏĥÏħÏĩ":3796,"ÏħÏĩÎ±ÏģÎ¹ÏĥÏĦ":3797,"ĠÏĢÎ¿Î½ÏĦÎ¹ÎºÎ¬ÎºÎ¹":3798,"ĠÎ±ÏĢÎ¿ÏĦÎŃÎ»ÎµÏĥÎ¼Î±":3799,"ĠÎ§Î¬Î½ÏĥÎµÎ»":3800,"ĠÎµÎ¯ÏĥÎ¿Î´Î¿":3801,"00":3802,"ZÎ±Î¼":3803,"ıÏĥÏĢÎ¿Ïħ":3804,"Î¿Î¿":3805,"ÏĦÎµÎ¹Î±":3806,"ÏģÎ³Î¹":3807,"ÏģÎ³Î¿Ïħ":3808,"ĠÏĦÏģÎ¬":3809,"ĠÏĦÎ¶Î¯ÏĦÎ¶":3810,"Î¬Î¶Î±":3811,"Î»ÏĦÎ¹Î¬":3812,"ÏĢÏģÏĮ":3813,"ÎºÏģÎ¹Î¬":3814,"ĠÏĢÏĮÎ½Î¿":3815,"ĠÎµÎ»ÎŃ":3816,"ÏĩÎ¸":3817,"ÏĩÎ¿ÏħÏĤ":3818,"ÏĩÏĦÎµÎ¯":3819,"ĠÎ½ÏħÏĨ":3820,"Î®Î¸Î·ÎºÎµ":3821,"ĠÎŃÎ¼ÎµÎ½Îµ":3822,"Î´ÎŃÏģ":3823,"ĠÎ³Î»ÎŃÎ½":3824,"ÏĨÏĮ":3825,"ÏģÎ¹ÎºÎ®":3826,"ĠÎ¿Î½Î¿":3827,"ÏĦÎµÏģÎ·":3828,"ĠÏĮÎ»ÏīÎ½":3829,"ĠÎ±ÏĢÎ¿Ïĩ":3830,"ĠÏĨÎ¿ÏħÎ½":3831,"ÏĦÎ¹ÏĤ":3832,"Î²Î¿Ïį":3833,"ĠÎºÎ±Î»ÎŃ":3834,"ÎµÎ¯ÏĢÎµ":3835,"ĠÎ¸Î¬":3836,"ĠÎ±ÏĢÏĮÏĦÎ¿Î¼Î±":3837,"ĠÏĥÏĦÎ¿Î»Î¹":3838,"ĠÏĢÎ±Î³":3839,"ĠÏĢÎ±ÏĢÎ¿Ïħ":3840,"ĠÎ¼Î±ÏģÎ³Î±":3841,"ÏĢÎµÏĦÎµ":3842,"ĠÎ¾Î±ÏĨÎ½":3843,"ĠÎºÎ¬ÏĢÎ¿Ïħ":3844,"ĠÎļÎ¿Îº":3845,"ÏĢÎ¹ÎµÏĤ":3846,"Î³Î¿Î»Î±Î¼ÏĢ":3847,"ĠÎłÏĮÏĥÎ¿":3848,"ĠÎ²Î±ÏģÎ¹":3849,"ÏģÎŃÏĦÎµÎ»":3850,"ÎľÏĢÎ¿Ïģ":3851,"ÎļÎ¿Î¯ÏĦÎ±":3852,"ĠÎĪÏĢ":3853,"ÎºÎ¿ÏħÏĨÎ¯ÏĦÏĥÎ±":3854,"ĠÎĮÏĩÎ¹":3855,"ĠÎºÎ±Î¸ÎŃÎ½Î±":3856,"Î¿ÏĥÎºÎ¿ÏħÏĨÎ¯ÏĦÏĥÎ±":3857,"ĠÎ±ÏģÏģÏİ":3858,"ĠÎ³ÎµÎ»ÏİÎ½ÏĦÎ±ÏĤ":3859,"ĠÎŃÎºÎ±Î½ÎµÏĤ":3860,"ĠÎºÎ¿Î¹Î¼ÏĮÏĦÎ±Î½":3861,"ĠÏĢÏģÎ¿ÏĥÎŃÏĩ":3862,"ĠÎ¹Î´Î¹Î±Î¯":3863,"ÎŃÏĨÏĦÎ·ÎºÎµ":3864,"ĠÎ´Î¯ÎºÎ¹Î¿":3865,"Î¹ÏĥÎ¼ÎŃÎ½Î±":3866,"ĠÏĢÎµÎ¹Î½Î¬":3867,"ĠÏĨÏİÎ½Î±Î¶Îµ":3868,"ĠÎºÎ±Î»ÏįÏĦÎµÏģÎ¿":3869,"ĠÎ´Î¹ÏĢ":3870,"ĠÎ´Î¹Î·Î³Î®":3871,"ĠÎ³ÏģÎ®Î³Î¿Ïģ":3872,"ĠÏĦÏģÎ±ÏĢÎµ":3873,"ĠÏĪÎ·Î»ÏĮ":3874,"ĠÏĢÎ±Î¯Î¶ÎµÎ¹":3875,"ĠÎºÎ®ÏĢÎ¿Ïħ":3876,"ĠÏĨÏĮÏģÎµÎ¼Î±":3877,"ĠÎ³ÎµÎ¼Î¬ÏĦÎ·":3878,"ĠÎ¬ÏĨÎ·Î½Îµ":3879,"ĠÏīÏģÎ±Î¯Î¿":3880,"ĠÏĢÎ±ÏģÎ¬Î¸ÏħÏģÎ±":3881,"ĠÏĥÏĦÏģÎ±ÏĦÎ¹Ïī":3882,"ĠÏĢÏħÎ³Î¿Î»Î±Î¼ÏĢ":3883,"ĠÎ±Î´ÎµÏģÏĨÎ®":3884,"ĠÏĢÎµÎ¯Î½Î±":3885,"ĠÎ¬Î»Î¿Î³Î¿":3886,"!!!":3887,"ĠÎºÎ¿ÏģÎ¯ÏĦÏĥÎ¹Î±":3888,"ĠÎĹÏģÎ±ÎºÎ»Î®":3889,"ĠÎ²Î»ÎŃÏĢÎ¿Î½ÏĦÎ±ÏĤ":3890,"ĠÎŃÎ´ÎµÎ¹ÏĩÎ½Îµ":3891,"ĠÎºÎ±ÏĦÎŃÎ²Î·ÎºÎµ":3892,"ĠÏĥÏĦÎ¬Î²":3893,"ĠÎŃÏĥÏĦÏī":3894,"ĠÎ¼Î±ÏįÏģÎ¿":3895,"ĠÏĢÏģÎ¿ÏĥÏĢÎ±Î¸Î¿ÏįÏĥÎµ":3896,"ĠÎŃÏĦÏģÏīÎ³Î±Î½":3897,"ĠÎ½Î¿Î¼Î¯Î¶Ïī":3898,"ĠÏĨÏħÎ»Î±ÎºÎ®":3899,"ĠÎ²Î®Î¼Î±ÏĦÎ±":3900,"ĠÎºÎ±ÏĦÏĥÎ¯":3901,"ĠÏĢÎµÎ¹ÏģÎ¬Î¶ÎµÎ¹":3902,"Î¿ÏĢÎ¬ÏĦÎ¹":3903,"ĠÎºÎ±ÏĨÎŃ":3904,"ĠÎĵÎºÏģÎŃÏĦÎµÎ»":3905,"ĠÎ¬ÏģÏĢÎ±Î¾Îµ":3906,"ĠÎ¼ÏħÏģÎ¼Î®":3907,"ĠÎķÏħÏģÏħÎ´Î¯ÎºÎ·":3908,":âĢ":3909,"Î±ÏĢÎ¿":3910,"Î¹ÏĥÏĦÎµÎ¯":3911,"ÎµÏģÏĮ":3912,"ÏĦÎ¿ÏįÎ»Î±":3913,"Î»ÏİÎ½":3914,"ĠÎºÎ¯Î½Î´Ïħ":3915,"ĠÏĢÎ¿Ïģ":3916,"ĠÎŃÏĢÎµÎ¹ÏĦÎ±":3917,"ĠÎ´ÏĮÎ½":3918,"ÏģÎ¹ÏĥÎ±Î½":3919,"ĠÏĮÏģÎµÎ¾Î·":3920,"ĠÏĨÎ¿Ïį":3921,"ĠÏĨÏģÎ¿Ïį":3922,"ĠÏĨÏģÎ¿Ïħ":3923,"Î²ÎŃÎ»":3924,"ĠÎºÎ±Î¼Î¯Î±":3925,"ÏĦÎ¬ÏģÎ¹Î±":3926,"ĠÎ¸Î»Î¹":3927,"ĠÎ¬Î½Î±":3928,"ÏģÎ¯Î½Î±":3929,"ĠÏĢÎ¿Î»Ïħ":3930,"ĠÏĢÎ¿Î»Î»Î®":3931,"ĠÎľÎ¿Ïģ":3932,"ĠÂµÏĢÎ±":3933,"Î¸Î·ÏĥÎ±Î½":3934,"Î¤Î¿Î½":3935,"ĠÏĢÎ¬ÏģÎ¿ÏħÎ½":3936,"ĠÎŁÏģÏĨ":3937,"ÎĳÎ»Î»Î¬":3938,"ÎĳÏħÏĦÎ¬":3939,"ĠÎµÎºÎµÎ¯Î½Î±":3940,"ÎķÎ´Ïİ":3941,"ĠÎ¼ÎµÎ³Î¬Î»ÎµÏĤ":3942,"ĠÎ¬Î½ÏĦÎµ":3943,"Î¼Î·ÏĥÎµ":3944,"ĠÎ±Î³ÏģÏĮ":3945,"ĠÎ±Î³Î³Îµ":3946,"ĠÏĢÎ±ÏģÎ±ÏĦÎ·":3947,"ĠÏĥÏħÎ½ÏĦÏģÎ¿ÏĨÎ¹Î¬":3948,"ĠÏĢÏģÎ¿ÏĥÎŃ":3949,"ĠÎ¹ÎºÎ±Î½":3950,"ĠÏĨÎ¯Î´Î¹":3951,"ĠÏĨÎ¯Î»Î¿ÏĤ":3952,"ĠÎµÏĢÎ¹ÏĨÎ¬Î½ÎµÎ¹Î±":3953,"ĠÎĨÎ³Î³Îµ":3954,"ĠÎ³Î¹ÏĮ":3955,"ĠÏĦÎ¯Î³":3956,"ĠÎºÎµÎ»Î±":3957,"ĠÎļÎ±Î»Î¬":3958,"ÏĥÎ¯Î±ÏĥÎµ":3959,"ĠÎ»Î¹Î²Î¬":3960,"ĠÏĨÎ¬Î»Î±Î¹":3961,"ĠÎ´ÏħÎ½Î±ÏĦÏĮÏĤ":3962,"ĠÎ³Î±Î»Î±":3963,"ĠÎ¹ÏĥÏĦÏĮ":3964,"ĠÎ´Î¬ÏĩÏĦÏħ":3965,"ĠÎ±Î³Î±ÏĢÎ·Î¼ÎŃÎ½Î±":3966,"Î¬ÏģÏģÎ¿ÏĤ":3967,"ĠÏĥÎ¹Î³Î¬ÏĥÎ¹Î³Î¬":3968,"ĠÏĢÎ¹Î¬ÏĥÎµÎ¹":3969,"ĠÏģÎ¯Î¶ÎµÏĤ":3970,"ĠÎ²Î¿ÏħÎ½Î¬":3971,"ĠÏĥÏĦÎ±Î¼Î¬ÏĦÎ·ÏĥÎ±Î½":3972,"ĠÎŃÏĦÎ¿Î¹Î¼Î±":3973,"ĠÎŃÏĦÎ¿Î¹Î¼Î¿ÏĤ":3974,"ĠÏĥÎºÏħÎ»Î¬ÎºÎ¹":3975,"ĠÎ²Î»ÎŃÏĢÎ¿ÏħÎ½":3976,"ĠÏĢÎ·Î³Î±Î¯Î½ÎµÎ¹":3977,"ĠÏĥÏĦÎ¬Î¸Î·ÎºÎµ":3978,"ĠÏĥÏħÎ½ÎµÏĩÏİÏĤ":3979,"ĠÏĢÎ¿Î½ÏĦÎ¯ÎºÎ¹":3980,"ĠÎĴÎ±ÏĥÎ¯Î»Î·":3981,"ĠÎ³Î¹Î¿ÏģÏĦÎ®":3982,"ĠÎ»ÎµÏħÎºÏĮ":3983,"ĠÎľÎ¹Î»ÏĦÎ¹Î¬":3984,"ĠÏĢÎ±ÏģÎ±Î¼ÏįÎ¸Î¹Î±":3985,"ĠÎĽÎ¿ÏħÎºÎ¬":3986,"ĠÎĴÎ±ÏĥÎ¹Î»Î¹Î¬ÏĤ":3987,"ÎºÎ¹Î½Î¿ÏĥÎºÎ¿ÏħÏĨÎ¯ÏĦÏĥÎ±":3988,"Î²Î·Î¾Îµ":3989,"ĠÏĥÏħÎ½ÎŃÎ²Î·":3990,"ĠÎºÎ±ÏĦÏĥÎ¹ÎºÎ¿ÏįÎ»Î±":3991,"ĠÏĦÎŃÏĥÏĥÎµÏģÎ±":3992,"ĠÎ¼ÏĢÏĮÏģÎµÏĥÎµ":3993,"ĠÎŃÎºÎ»Î±Î¹Î³Îµ":3994,"ÏĨÎ±Î¯ÏĥÏĦ":3995,"ĠÏĥÎ·Î¼Î±Î½ÏĦÎ¹ÎºÏĮ":3996,"ĠÎ²ÏģÎ¿ÏįÎ¼Îµ":3997,"ĠÏĥÎºÎ±Î½ÏĦÎ¶ÏĮÏĩÎ¿Î¹":3998,"ĠÎļÎ¿ÎºÎºÎ¹Î½Î¿ÏĥÎºÎ¿ÏħÏĨÎ¯ÏĦÏĥÎ±":3999,"ÏĦÏĥÎµÏĤ":4000,"Î»ÎµÎ¹ÏĤ":4001,"ĠÎºÎ·":4002,"ÎŃÏĢÎ·":4003,"ÎŃÎ¼Î±ÏĦÎ±":4004,"ĠÏĥÎºÎ¹Î¬":4005,"ĠÎ±ÏĮÏģÎ±":4006,"ÏīÏī":4007,"ĠÎŃÎ»ÎµÎ¹":4008,"Î´Î¯Î±":4009,"Î¿ÏįÎ»ÎµÏĤ":4010,"ĠÏĮÏĥ":4011,"Î²Î¿ÏĤ":4012,"ĠÎºÎ±Î»Î±":4013,"Î»Î¹ÏĥÏĥ":4014,"ĠÎ¸ÎµÏĤ":4015,"ĠÎ¸Î¬ÏģÏģÎ¿ÏĤ":4016,"Î»Î¬Î´Î±":4017,"Î¿ÏģÏĦÎ¶":4018,"ĠÎ³Î¹Î±ÏĦ":4019,"ÏģÎ¯Î½Î¹Î±":4020,"ĠÎ¼Î±Î³ÎµÎ¹":4021,"Î»Î·ÏĥÎ±Î½":4022,"ĠÎľÏĢÎ¹":4023,"ĠÎľÎŃÏĥÎ±":4024,"ĠÎ¶Î¿Ïħ":4025,"ĠÎ¶Î¿Ïį":4026,"ĠÎķÏģ":4027,"Î¸Î·Î¼Î±":4028,"ĠÏĥÏħÎ¶Î·":4029,"ĠÎłÎ¿Î»":4030,"ĠÎłÏģÎ¹Î½":4031,"ÏĮÏĥÎº":4032,"ÏĮÏĥÏĦÎ¹":4033,"ĠÏĥÎºÎ¿ÏĢÏĮ":4034,"ĠÏĢÎ®Î´Î·":4035,"ĠÎĪÏĩÎµÎ¹":4036,"ĠÎĪÎ½Î±ÏĤ":4037,"ĠÎ¼Î¬Î³Î¿Ïħ":4038,"ĠÎµÎºÎµÎ¯Î½Î¿Î¹":4039,"Î¿ÏģÏĨÎ®":4040,"ĠÎ±Î»Î»Î¬Î¾ÎµÎ¹":4041,"ÎłÎ¬":4042,"ÎºÎ¿Î¼":4043,"Î£Î±ÏĤ":4044,"ÏģÎ¿ÏįÎ»Î·":4045,"ĠÏĥÏħÎ½Î¬Î½ÏĦÎ·ÏĥÎµ":4046,"Î³ÎºÎ¹Î¬Î½Î±":4047,"ĠÎ´Î¹Î±ÏĥÎºÎµ":4048,"ĠÎīÎ¸ÎµÎ»Îµ":4049,"ĠÎĨÎ¹":4050,"ÏĥÎºÎŃ":4051,"ĠÎ±ÎºÏĮÂµÎ±":4052,"ĠÏĨÏįÎ³Ïī":4053,"ĠÎ²ÏģÎ¬ÏĩÎ¿":4054,"ĠÎ¬ÎºÎ¿ÏħÏĥÎ±Î½":4055,"ĠÎļÎ¹Î½ÎŃ":4056,"ĠÎ±ÏĥÏĦÏģÎ±":4057,"ĠÎŃÏģÎ¸Î¿ÏħÎ½":4058,"ĠÎ¶ÏİÎ¿":4059,"ĠÎ¸ÎŃÎ»ÎµÏĦÎµ":4060,"ĠÏĦÏĥÎŃÏĢÎ·":4061,"ĠÎµÏĢÏĮÎ¼ÎµÎ½Î¿":4062,"ĠÎ¬Î³ÏģÎ¹Î±":4063,"ĠÏĦÎµÎ»ÎµÏħÏĦÎ±Î¯Î¿":4064,"ĠÏĢÏģÏĮÏĥÏīÏĢÏĮ":4065,"ĠÏĦÏģÎ¹Î±Î½ÏĦÎ¬ÏĨÏħÎ»Î»Î±":4066,"ÏģÎµÏħÎ±Î½":4067,"ĠÏĦÎ¶Î¯Î½Î¹":4068,"ĠÎ±Î²Î³ÏĮ":4069,"ĠÎ³ÎŃÏģÎ¿ÏĤ":4070,"ĠÎ±ÏĢÎ¿ÏĨÎ±ÏĥÎ¹":4071,"ĠÏĥÎ¿Î²Î±ÏģÏĮ":4072,"ĠÏĩÏīÏģÎ¬ÏĨÎ¹":4073,"ĠÏĥÏįÎ¼":4074,"ĠÎ±ÏĢÎ¬Î½ÏĦÎ·ÏĥÎ·":4075,"ĠÎŃÏĪÎ±ÏĩÎ½Îµ":4076,"ÏĢÏģÎ¬Î²Î¿":4077,"ĠÏĥÎºÎ¹Î¿ÏħÏģÎ¬ÎºÎ¹":4078,"Î¼ÎŃÏģÏīÏĥÎµ":4079,"ĠÏĢÎ¿ÏĦÎ¬Î¼Î¹":4080,"ÏģÎ»ÏĤ":4081,"ĠÎŃÏģÎ·Î¼Î¿":4082,"ĠÎĸÎ±Î¼ZÎ±Î¼":4083,"ĠÎ±ÏĨÎµÎ½ÏĦÎ¹ÎºÏĮ":4084,"ĠÏģÎ±Î²":4085,"ĠÎ±ÎµÏģÎ¿ÏĢÎ»Î¬Î½Î¿":4086,"ĠÏĢÏģÏĮÎ²Î»Î·Î¼Î±":4087,"ĠÏĢÎµÏģÎ¹ÎŃÏģÎ³ÎµÎ¹Î±":4088,"ĠÎľÎ¿ÏģÎ³ÎºÎ¹Î¬Î½Î±":4089,"!\"":4090,"ÎµÏĨÎ¬":4091,"Î½Î¿Î½ÏĦÎ±ÏĤ":4092,"ĠÏĦÎ¿Ïĥ":4093,"Î¬Î¹":4094,"ÏĥÎºÎ¬":4095,"Î¯ÏĥÏĦÎµ":4096,"ĠÎºÎŃÏģÎ±":4097,"ĠÎºÎ¿Ïĩ":4098,"Î¿ÏħÏģ":4099,"ÏĢÎ¿Î»":4100,"ĠÏĢÎ»ÎµÏħ":4101,"ĠÏĢÎ¿ÏįÎ¼Îµ":4102,"Î¼ÎµÎ¯ÏĤ":4103,"Î¼ÏīÏĥÎµ":4104,"ĠÎ±ÏĥÎ·":4105,"Î±Î½ÎŃ":4106,"ÏħÎ´Î±":4107,"ÏĩÎ¹Î±":4108,"ĠÎŃÎ½Î¿Î¹":4109,"Î¿ÏįÎ»Î¹Î±":4110,"ÏįÏģÎ¿ÏĤ":4111,"ÏĨÏĦÎ·ÎºÎµ":4112,"ÏģÎ¹ÏİÎ½":4113,"ĠÏĮÏģ":4114,"Î²ÎµÏĤ":4115,"ĠÎºÎ±ÏģÏĮ":4116,"Î»Î¹ÏĥÎµ":4117,"ĠÎ¬Î´ÎµÎ¹Î±":4118,"ĠÎ»ÎµÎ¯":4119,"ÏģÏĮÏĦÎ±Î½":4120,"ÏģÎ¯Î¼ÎµÎ½Îµ":4121,"ÏĥÏĦÎŃÎ½Î±":4122,"âĢ´":4123,"Î³Î¬ÏģÎ¹Î±":4124,"ÏĦÎ¿ÏĦÎµ":4125,"Î³Î±Î»ÎµÎ¹":4126,"ĠÏĥÏħÏĩÎ½Î¬":4127,"ĠÎłÎ¡":4128,"ĠÎłÎ¿ÏĦÎŃ":4129,"ÏĦÎ¯ÏĥÎµÎ¹":4130,"ĠÎ£ÏĦÎ·":4131,"ÎļÎµÏĨÎ¬":4132,"Î¼ÏĢÎ¿Ïģ":4133,"ÏĦÎ®ÏģÎ±":4134,"Î½Î¿Î¯":4135,"ĠÎ¼Î¬ÏĦÎ¹":4136,"ĠÎĶÎ®":4137,"ÎķÎ£":4138,"ÎķÎ½ÏĦÎ¬Î¾ÎµÎ¹":4139,"ĠÎ±Î³Î³":4140,"ĠÎĺÏī":4141,"ĠÏĢÎµÏģÎ¹ÏĢÎŃ":4142,"ĠÎ±ÏħÎ³Î¬":4143,"ĠÎµÎ½Î´Î¹Î±ÏĨÎŃÏģ":4144,"ĠÎºÎ±ÏĦÎ±ÏĥÏĦ":4145,"Î³Î±Î½Îµ":4146,"ĠÏĢÎ¿ÏĦÎ±":4147,"ĠÎŃÎºÎ±Î½Î±":4148,"ĠÎķÎ¯Î´Îµ":4149,"ĠÎ§ÏīÏģÎ¯ÏĤ":4150,"ĠÎļÎ±Ïģ":4151,"ĠÏĥÏħÎ¼ÏĢÎµÏģÎ¹":4152,"ÏģÏħÏĥÎ¸":4153,"ĠÎ³Î¹Î±Î³Î¹Î¬ÏĤ":4154,"ĠÎ±ÏĥÏĦÏħ":4155,"Î»Î»Î¬Î´Î±":4156,"ĠÎ±Î½Î¬ÏĥÎ±":4157,"ĠÎ¼ÎµÎ³Î±Î»Ïİ":4158,"ĠÎºÏĮÎºÎºÎ¹Î½Î·":4159,"ĠÎ¸Î¬Î»Î±ÏĥÏĥÎ±ÏĤ":4160,"ĠÎºÎ±ÏĦÎ±Î»Î¬Î²Î±Î¹Î½Îµ":4161,"ĠÎºÏįÏģÎ¹Îµ":4162,"ĠÎĸÏī":4163,"ĠÎºÎ»ÎµÎ¹Î´Î±":4164,"Î´Î¬ÎµÎ¹":4165,"ÏĦÎµÏħÎ¸ÎµÎ¯":4166,"ĠÎ³ÎŃÎ¼Î¹":4167,"ĠÏĦÏģÏİÎ½Îµ":4168,"Î¼Î¼Ïį":4169,"ĠÎ®ÏģÎ¸ÎµÏĤ":4170,"ĠÎ¼Î±ÏįÏģÎ±":4171,"ĠÏĮÂµÎ¿ÏģÏĨ":4172,"ĠÏĦÏħÏĩÎµ":4173,"ĠÏĦÏģÎ¯ÏĦÎ·":4174,"ĠÎµÎ»Î¬ÏĨÎ¹Î±":4175,"ĠÎķÏħÏģÏħÏĥÎ¸":4176,"ĠÎ¿Î»ÏĮÎºÎ»Î·ÏģÎ¿":4177,"ĠÎ²Î¬ÏĦÏģÎ±ÏĩÎ¿":4178,"ĠÏĩÎ±Î¼Î¿Î³ÎµÎ»ÏİÎ½ÏĦÎ±ÏĤ":4179,"ĠÎĽÎ¯Î³Î¿":4180,"ĠÏĩÎ±Î¹ÏģÎŃ":4181,"ÏĨÏīÎ½Î¿":4182,"ĠÏĥÏįÎ½Î½ÎµÏĨÎ±":4183,"ĠÎ±ÏĢÎµÎ»ÏĢÎ¹":4184,"ĠÎ®ÏĥÏħÏĩÎ±":4185,"ĠÎ¼ÏįÏĦÎ·":4186,"ĠÏĢÏģÏĮÏĥÎ¸ÎµÏĥÎµ":4187,"ĠÎ¤Î¶Î¿ÏģÏĦÎ¶":4188,"ĠÏĢÎ±Î»Î¹ÏĮ":4189,"ĠÎµÏĢÎ¹Î¸ÏħÎ¼Î¯Î±":4190,"ĠÎ±Î¹ÏĥÎ¸Î¬Î½":4191,"ĠÏĥÎ¹ÏīÏĢÎ·":4192,"ĠÏĢÏģÎ¹Î³ÎºÎ¹ÏĢÏĮ":4193,"ĠÏĪÎ¹Î¸ÏįÏģÎ¹ÏĥÎµ":4194,"ĠÎºÎ¿ÏħÎ»Î¿ÏħÏģÎ¬ÎºÎ¹Î±":4195,"ĠÎ¤ÏĥÎ±ÏģÎ»ÏĤ":4196,"ĠÎ´ÏĮÎ½ÏĦÎ¹Î±":4197,"ÎļÎµÏĨÎ¬Î»Î±Î¹Î¿":4198,"Ġ3":4199,"ĠK":4200,"Î¹Î¶Î±Î½":4201,"Î½Î¿ÏħÏĤ":4202,"Î½Î¿ÏħÎ¼Îµ":4203,"Î½Î¿ÏįÎ»Î±":4204,"ĠÏĦÏģÎ¿ÏĨÎ®":4205,"Î»ÏİÏĥÎµÎ¹":4206,"Î¯ÎºÎ·":4207,"ÎºÏį":4208,"ÏĮÎºÎ·":4209,"ĠÏĥÏĢÏĮ":4210,"ÏīÎ¼Î±":4211,"ÏīÏĦÎ¿":4212,"ĠÎµÏĦÎ¿Î¯":4213,"ĠÎ½ÏĦÏħ":4214,"ĠÎ½ÏĮÏĦÎµÏĤ":4215,"ĠÎ½ÏīÏģÎ¯ÏĤ":4216,"Î¸Ïī":4217,"ÏĨÏĦÎ±Î½":4218,"ĠÎ¿Î´Î®":4219,"ÏĦÎ¹Îº":4220,"ÏĦÎ¹ÎºÎ±":4221,"Î»Î±ÏĤ":4222,"ÏĦÎ¬Î¾ÎµÎ¹":4223,"ĠÎ¸Î»Î¯":4224,"ÂµÏīÏĤ":4225,"ĠÎ¬Î¸":4226,"ĠÎ·ÏĨÎ±Î¯ÏĥÏĦ":4227,"Î¿ÏģÎµ":4228,"Î¬Î½Î¹Î¿":4229,"ÏĥÎ±Î²ÎŃÎ»":4230,"ÏĥÎ¹Î¬ÏĥÏĦÎ·ÎºÎµ":4231,"ÏģÎ¯ÏĥÏĦÎµ":4232,"ÏģÎ¯Î¶Î¿Î½ÏĦÎ±ÏĤ":4233,"ĠÎ¾ÎŃÎ½":4234,"ĠÎ¤ÏĮÏĥÎ¿":4235,"ĠÎ¼ÏĢÎ¬":4236,"ĠÎļÎ¿Ïģ":4237,"ĠÎļÎ¿Î½ÏĦ":4238,"ĠÂµÎŃÏĩÏģÎ¹":4239,"Î¼Î¬Î´ÎµÏĤ":4240,"ĠÏĢÎ¿Î»ÏįÏĦÎ¹":4241,"ĠÏģÏħ":4242,"ĠÎ¼Î¹ÎºÏģÎŃÏĤ":4243,"ĠÎĹÎ»Î¯Î±ÏĤ":4244,"ÎłÏİÏĤ":4245,"ĠÎ¼ÎµÎ³Î¬Î»Î¿Î¹":4246,"ĠÎĵÏįÏģÎ¹ÏĥÎµ":4247,"âĢ¦.":4248,"ĠÎ±ÏħÎ³ÏĮ":4249,"Î³Î·ÏĥÎ±Î½":4250,"ĠÎºÎ±ÏĦÎ¬Î»Î±Î²Î±Î½":4251,"ĠÏĢÏģÎ¿ÏĥÏĦÎ±":4252,"ÎĮÏĥÎ¿":4253,"ÏİÎ½Î±Î¾Îµ":4254,"Î´ÏħÎ½Îµ":4255,"ÏĢÎ®ÏĥÎµÎ¹":4256,"ĠÎºÎµÏģ":4257,"ĠÏĩÎ¬Î¹Î´Îµ":4258,"ÏģÎ¹ÏĥÏĦÎ¿":4259,"ÏģÎ¹ÏĥÏĦÎ¿ÏħÎ³ÎµÎ½Î½Î¹Î¬":4260,"ÎŃÏĪÎ¿ÏħÎ½":4261,"ĠâĢ´":4262,"ĠÏĢÏģÎ¿Î²":4263,"ĠÎ´Î¿ÏħÎ»ÎµÏį":4264,"ĠÏĢÎ±Î¯Î¾ÎµÎ¹":4265,"ĠÎŃÏĦÏģÎµÏĩÎ±Î½":4266,"ÎĺÎŃÎ»":4267,"ĠÎ¾ÎŃÏģÎ¿ÏħÎ¼Îµ":4268,"ĠÎ²Î¿Î·Î¸Î¬":4269,"ĠÎºÎ»Î±Î´Î¯":4270,"ĠÏĩÎ±ÏģÎ¿ÏįÎ¼ÎµÎ½Î·":4271,"ĠÎµÏħÏĦÏħÏĩÎ¯Î±":4272,"ĠÎŃÏĨÎµÏħÎ³Îµ":4273,"ĠÎºÎ¿Î»Î¿Îº":4274,"ĠÏĢÎµÏģÏĢÎ±ÏĦÎ¿ÏįÏĥÎµ":4275,"Î±ÏĢÎ¿ÏħÎ½":4276,"ĠÏĦÏģÎ¿Î¼Î±Î³":4277,"ĠÏįÏĢÎ½Î¿ÏĤ":4278,"ĠÏĮÎ½Î¿Î¼Î¬":4279,"Î±Î½Î±ÏĥÎ¬":4280,"ĠÎľÏĢÎ±Î±ÂµÏĢÎ¿ÏįÏģ":4281,"ĠÎ±Î¯Î¼Î±":4282,"ĠÏĢÎµÏģÎ¹Î¼ÎŃÎ½ÎµÎ¹":4283,"ĠÎ²Î³Î¬Î»ÎµÎ¹":4284,"ĠÎµÎ»Î¬ÏĨÎ¹":4285,"ĠÏĩÏĮÏģÏĦÎ±":4286,"ĠÏĩÎ±ÏģÎ¿ÏįÎ¼ÎµÎ½Î¿Î¹":4287,"ĠÎ¬ÏģÎ³Î·ÏĥÎµ":4288,"ĠÎ¶ÏīÎ³ÏģÎ±ÏĨÎ¹Î¬":4289,"ĠÎŃÎ¼ÏĢÎ±Î¹Î½Îµ":4290,"Î·Î³Î¿Ïį":4291,"ĠÎºÎ±ÏĦÎ±ÏĨÎŃÏģÎµÎ¹":4292,"ĠÎ´ÏħÏĥÏĦÏħÏĩÏİÏĤ":4293,"ÎĳÏħÏĦÎ®":4294,"ĠÎ¿Î¹ÎºÎ¿Î³ÎŃÎ½ÎµÎ¹Î¬":4295,"ĠÏĥÎ¿ÎºÎ¿Î»Î¬ÏĦÎ±":4296,"ĠÎ¼Î±Î¶ÎŃÏĪÎµÎ¹":4297,"ĠÎ»Î±Î¹Î¼ÏĮ":4298,"ÏĦÏħÏĩÎ¯Î±":4299,"ÏģÎ¹Î¬Î½Î½Î±":4300,"ĠÏĢÏģÎ±Î³Î¼Î±ÏĦÎ¹ÎºÏĮÏĦÎ·ÏĦÎ±":4301,"ĠÏĩÎµÎ¯Î»Î·":4302,"ĠÎķÎ¹ÏģÎ®Î½Î·":4303,"ĠÎ¼Î±ÏģÎ³Î±ÏģÎ¹":4304,"ĠÎľÏĢÎ¹Î¶":4305,"Î±Î½ÎŃÏĥÏĥÎ±":4306,"Î¿Î´":4307,"ÏĦÏĥÎµ":4308,"ÏĦÏİÎ½":4309,"ÏģÏĦÎµÏĤ":4310,"ĠÎºÎ¿Î½ÏĦ":4311,"ÎºÎ»ÎµÏĤ":4312,"ĠÏĢÏĮÎ½":4313,"ĠÏĥÏĨÎ¹":4314,"ÏĦÎ±Îº":4315,"ÏģÎ¹Î¶Î±Î½":4316,"ĠÏĮÏĢÎ¿Î¹Î¿ÏĤ":4317,"ĠÎ±ÏĢÎ¿Ïĥ":4318,"ĠÎ±ÏĢÎ±Î½ÏĦÎ¬":4319,"ĠÏĨÎŃÏģÏī":4320,"ĠÏĨÎ¿ÏįÏģ":4321,"Î²Î¹Î¬":4322,"Î¶ÎŃÎ»":4323,"ĠÎ¬ÏĥÏĦÏģÎ±":4324,"ÏģÏĮÏĥÏĦÎ±":4325,"Î¬Î½Î¹Î±":4326,"ĠÎ¼Î±Î»Î±":4327,"ĠÎ¼Î±Î³Îµ":4328,"ÏĥÏĦÏİ":4329,"ĠÎ¾ÎŃÏĨ":4330,"ĠÎ¤Î·":4331,"Î»ÎµÏĪÎµ":4332,"Î¼ÎµÏģÏİÏĥÎµÎ¹":4333,"ĠÎĳÎ¹":4334,"ĠÏĢÎµÏģÎ±":4335,"ĠÏĢÎµÏĦÎ¿ÏįÏĥÎµ":4336,"ĠÎľÎ¬Ïģ":4337,"ĠÏĥÏħÎ½Î·":4338,"Î¤Î¯":4339,"ĠÎłÎ¿ÏģÏĦÎ¿ÎºÎ±":4340,"ĠÎ²Î±ÏģÏį":4341,"ÎŃÏģÎµÎ¹ÏĤ":4342,"ĠÏĢÎ¬ÏĢÎ¹ÎµÏĤ":4343,"ÏģÏİÏĦÎ·ÏĥÎµ":4344,"ĠÏĥÎºÎ¿Ïģ":4345,"ĠÏĥÎºÎ·Î½":4346,"ĠÎ±Î»Î»Î¿Ïį":4347,"ĠÎ¼ÏĢÎ¿ÏģÎŃ":4348,"ÏĦÏīÏĥÎ·":4349,"ÎķÏĥÏį":4350,"ÎºÎ¿ÏįÎ»Î±":4351,"ÏĥÎ¯Î¼":4352,"ÏĥÎ¯Î´Ïī":4353,"Î¿ÏįÎ½ÏĦÎ±Î½":4354,"ĠÎĵÎ¿Ïħ":4355,"Î£ÏĦÎ±":4356,"ÏĥÎ¼ÎŃÎ½ÎµÏĤ":4357,"Î´Î¯ÏĦÏĥÎ±":4358,"ĠÎºÎ±Î»Î»Î¹":4359,"ĠÎĨÎ»":4360,"ĠÎĨÏģÏĩÎ¹ÏĥÎµ":4361,"ĠÎ¶ÏīÎ¬ÎºÎ¹Î±":4362,"Î»ÏīÏĥÏĦÎµ":4363,"ĠÎºÎµÏĨÎ±":4364,"ÏĨÎ¬ÎºÎ¹Î±":4365,"ĠÎ¬Î½Î¸ÏģÏīÏĢÎ¿":4366,"ĠÎļÎ±ÏĦÎ¬":4367,"ĠÏĢÎ¿Î½ÏĦÎ¹ÎºÏĮÏĤ":4368,"ĠÏĢÎ¹ÎµÎ¹":4369,"ĠÏĢÎµÏģÎ¯ÏĢ":4370,"ĠÎ´ÏģÏĮÎ¼Î¿ÏħÏĤ":4371,"ĠÏĥÎ±ÎºÎ¯":4372,"ĠÏĨÏħÏĦÎ¬":4373,"ĠÎ¼Î¹Î»Î¿ÏįÏĥÎµ":4374,"ĠÎ±Î½Î¸ÏģÏİÏĢÎ¹":4375,"ĠÎŃÏĦÏģÎµÎ¾Î±Î½":4376,"ÏģÎ³ÏĮÏĤ":4377,"ÏĥÏĦÎ¹ÎºÎ®":4378,"ĠÏĩÎ¿ÏģÏĦÎ¬ÏģÎ¹":4379,"ĠÎ³ÎµÎ¼Î¬ÏĦÎ¿ÏĤ":4380,"ĠÎ¿Î»ÏĮÎ³Ïħ":4381,"ĠÏĨÏĦÎµÏģÏĮ":4382,"ĠÏĨÏĦÎµÏģÎ¿Ïį":4383,"ĠÎ±ÏģÎºÎµÏĦÏĮ":4384,"ĠÏĨÎ¿Î²ÏĮÏĦÎ±Î½":4385,"ĠÏĪÎ±ÏģÎ¬ÎºÎ¹Î±":4386,"ĠÏĢÎ»Î¬ÏĥÎ¼Î±ÏĦÎ±":4387,"ĠÎ¼Î¿Î½Î¿ÏĢÎ¬ÏĦÎ¹":4388,"ĠÏĦÏģÎ¿Î¼Î¬":4389,"ĠÎºÎ±Î»Î¿ÎºÎ±Î¹":4390,"ĠÎºÏħÎ½Î·Î³ÏĮÏĤ":4391,"ĠÎ¼Î¿Î¹ÏģÎ¬":4392,"ĠÎ¾ÏīÏĦÎ¹ÎºÏĮ":4393,"ĠÎ´ÏģÎ¬ÎºÎ¿":4394,"ĠÎ±ÎºÎ¿Î»Î¿ÏħÎ¸Î®":4395,"ĠÎ´Î±Î³Îº":4396,"ĠÏĢÎ»Î¿ÏįÏĦÎ·":4397,"ĠÏĢÏģÎ¿ÏĥÏĢÎ±Î¸ÏİÎ½ÏĦÎ±ÏĤ":4398,"ĠÎµÏĢÎ¯ÏĥÎ·ÏĤ":4399,"ĠÎ¿Î»ÏĮÎºÎ»Î·ÏģÎ·":4400,"ĠÎµÎ¹Î´":4401,"ĠÎ´ÎµÏįÏĦÎµÏģÎ¿":4402,"ĠÎ½Î¿Î¼Î¯ÏĥÎ¼Î±ÏĦÎ±":4403,"ĠÎ¬ÏĥÏĩÎ·Î¼Î¿":4404,"ĠÏĥÏĦÎµÎ½Î±ÏĩÏīÏģÎ¹":4405,"Î¹Î¹Î¹Î¹Î¹Î¹Î¹Î¹":4406,"ĠÏĦÎ¿Î¯ÏĩÎ¿":4407,"ĠÎ¾ÎµÏĩÎ¬ÏĥÎµÎ¹":4408,"ĠÏĥÎºÎ¿ÏĦÎµÎ¹Î½ÏĮ":4409,"ĠÎµÏħÏĩÎ±ÏģÎ¯ÏĥÏĦÎ·ÏĥÎµ":4410,"ÏĦÎ¯Î½ÎµÏĤ":4411,"ĠÎĵÎ±Î»Î¬":4412,"ĠÏħÏĢÎ¿ÏĥÏĩÎŃ":4413,"ĠÎºÎ»Î¬Î¼Î±ÏĦÎ±":4414,"ĠÏħÏĢÎ·ÏģÎŃÏĦÎµÏĤ":4415,"ĠÎ³ÎµÎ¹ÏĦÎ¿Î½Î¹Î¬":4416,"ĠÎ¶ÎµÏħÎ³Î¬ÏģÎ¹":4417,"ĠÏĩÏģÎ·ÏĥÎ¹Î¼Î¿ÏĢÎ¿Î¹":4418,"ĠÎ±ÏħÏĦÎ¿ÎºÏģÎ¬ÏĦÎ¿ÏģÎ±ÏĤ":4419,"ĠÎ´ÎŃÎºÎ±":4420,"ĠÎĴÎ¯ÎºÏĦÏīÏģÎ±ÏĤ":4421,"ĠÎ±ÎºÎ¿Î»Î¿ÏįÎ¸Î·ÏĥÎµ":4422,"ĠÏĦÏģÏħÏĨÎµÏģÎ¬":4423,"ĠÏĨÎ¬ÏģÎ¼Î±ÎºÎ±":4424,"ĠÎ½ÏĦÎ¿ÏħÎ»Î¬":4425,"ÏħÎ¸ÏįÎ½Î¸Î·ÎºÎµ":4426,"Î·ÂµÎ®ÏĦÏģÎ·ÏĤ":4427,"ĠÎ¿Î½Î¿Î¼Î¬":4428,"ĠÏĢÎ±ÏĢÎ¿ÏħÏĦÏĥ":4429,"ĠÏĨÏģÎ¿ÏįÏĦÎ±":4430,"ĠÎļÎ¿Î½ÏĦÎ¿ÏģÎµ":4431,"Î±ÏĢÎ¿ÏħÎ½Î¶ÎŃÎ»":4432,"Î¿ÎºÏĮ":4433,"ÎµÏĢÎ¹":4434,"ÏģÎ´Îµ":4435,"Î»ÎµÎ½":4436,"ÏĥÎŃ":4437,"ÏĥÎ¿ÏĤ":4438,"Î·Îº":4439,"ÏĢÎŃÏģÎ±":4440,"ÎºÎ¿ÏħÏĤ":4441,"ÎºÎ»ÎµÎ¯":4442,"ÏĮÏĦÎ¹":4443,"ÏĮÎ¼Î±ÏĥÏĦÎµ":4444,"Î¼Ïħ":4445,"Î¼Î¿ÏįÏĥÎµ":4446,"Î¼Î¹Î¿":4447,"ÎŃÎ´ÎµÏĤ":4448,"ĠÎ¼Î¿Ïį":4449,"Î±Î½ÏĦÎ±":4450,"ÎµÎ¹Î¬":4451,"ĠÎµÂµ":4452,"ĠÎµÎ½Î·":4453,"ĠÎµÏģÏīÏĦÎ®":4454,"ĠÎµÎ¼Î¬ÏĤ":4455,"Î®ÏĥÏī":4456,"ĠÎŃÎ´Îµ":4457,"ĠÎ³Î¿":4458,"ĠÎ³ÎŃÎ½":4459,"ÏĦÎ±Î³Î®":4460,"ĠÏĥÏĦÏģÎ¹":4461,"ĠÎ¿Î½ÏĮ":4462,"ĠÏĮÏģÎ¸":4463,"ĠÏĨÎ±ÏĤ":4464,"ĠÏĨÎ»Î¿Ïħ":4465,"ÏĦÎ¹Î¶Îµ":4466,"ĠÎ¼ÎµÏĦÎ±Î½":4467,"Î²Î¹Î±":4468,"Î²Î¿ÏħÎ½":4469,"Î²Î³Î¬":4470,"Î²Î´Î¿":4471,"ĠÎºÎ±ÏĢ":4472,"ĠÎºÎ±ÏģÏį":4473,"ĠÎºÎ±ÎºÎŃÏĤ":4474,"ĠÏĩÏģÏī":4475,"ÂµÏī":4476,"ÂµÎ¿Î½":4477,"ĠÎ¬Î´ÎµÎ¹":4478,"ĠÎ»Î·":4479,"ĠÎ±ÏĢÏĮÏĨÎ±":4480,"ÏģÏĮÎ¹Î´Îµ":4481,"Î¬Î½Î·":4482,"Î¬Î½ÎµÏĤ":4483,"Î¿Î»Ïħ":4484,"Î¹ÎºÎ±ÏĤ":4485,"ÏģÎµÏį":4486,"Î¯Î½ÎµÏĦÎµ":4487,"ÏģÏīÏĦÎ¹":4488,"ĠÎĳÏħÏĦÎ¬":4489,"ĠÎľÎ·":4490,"ĠÎľÎŃÏĩÏģÎ¹":4491,"ÎºÏĮÏĥÎ¹Î±":4492,"ĠÂµÎ·":4493,"ÏĪÎ¬":4494,"ĠÏĥÏħÎ»Î»Î¿":4495,"ĠÎłÏĮ":4496,"ÏģÎ®ÏĤ":4497,"ÏģÎ®ÏĥÎµÎ¹":4498,"ÏģÎ®Î³Î¿ÏģÎ±":4499,"ÎľÎ·":4500,"ÎľÎ¿Ïħ":4501,"ÎĳÎĿ":4502,"Î²Î±ÏĥÎµ":4503,"ĠÎºÎ¬Î½ÎµÏĦÎµ":4504,"ÏĢÏĮÎ´Î¹":4505,"Î³Î¹Î½Îµ":4506,"ĠÎ¼ÏĮÎ½Î¿Î½":4507,"ĠÎ§ÏİÏģÎ±":4508,"ÏĥÏĦÎ·Î½":4509,"ĠÎ±ÏħÏĦÎ®Î½":4510,"ĠÎ±ÎºÎ¿ÏįÎ¼ÏĢÎ·ÏĥÎµ":4511,"ĠÎļÎ±ÏĥÎ¯Î¼":4512,"Î½Î®ÏĥÎµÎ¹ÏĤ":4513,"ĠÎľÎ±ÏģÎ¹Î¬Î½Î½Î±":4514,"ĠÎ»ÏįÎºÎ¿Ïħ":4515,"ĠÏĥÎ¹ÏĦÎ¬ÏģÎ¹":4516,"ĠÎ³Î¯Î½Î¿ÏħÎ½":4517,"ĠÎ¸ÏħÎ¼Î¯":4518,"ĠÎ¸ÏħÎ¼Î®Î¸Î·ÎºÎµ":4519,"Î³ÏģÎ±ÏĨÎ¹":4520,"ĠÏĢÏģÎ¬Î³Î¼Î±":4521,"ÏĨÎ¿ÏģÎ±":4522,"ĠÎ»Î¬Î´Î¹":4523,"ĠÎ®Î»Î¹Î¿Ïħ":4524,"ĠÏħÏĢÏĮÏĥ":4525,"ĠÎºÎ±ÏĦÎ±Î»Î¬Î²Î¿ÏħÎ½":4526,"ĠÎ³ÎµÎ¼Î¬ÏĦÎ±":4527,"ĠÎĻÏĥÎ±Î²ÎŃÎ»":4528,"ĠÎ¶ÎµÏĥÏĦÏĮ":4529,"ĠÏĦÎ±Î¾Î¯Î´Î¹Î±":4530,"ĠÎ±Î³ÏĮÏģÎ¹Î±":4531,"ĠÎ±Î³Î±ÏĢÎ·Î¼ÎŃÎ½Î·":4532,"ĠÎ¼Î®Î½ÎµÏĤ":4533,"Î²Î¿ÏħÏģÎ½":4534,"ĠÎºÎ±Î»Î¿Î¯":4535,"ĠÏĢÎ¹Î¬ÏĦÎ±":4536,"ĠÎĺÎµÏĮÏĤ":4537,"ĠÏĩÏĮÏģÎµ":4538,"ĠÏĩÎ±ÏģÎ¿ÏįÎ¼ÎµÎ½Î¿ÏĤ":4539,"ĠÎ³ÎŃÏģÎ¿Î½ÏĦÎ±ÏĤ":4540,"ĠÏĩÎ±ÏģÏĦÎ¯":4541,"ĠÏħÏĢÎŃÏģÎ¿ÏĩÎ¿":4542,"ĠÎ¼Î¬Î¸Ïī":4543,"ÏģÎ¬ÏĩÎ½Î·":4544,"Î»Î»ÏīÏĥÏĦÎµ":4545,"ĠÏĢÎ¬ÏģÏĦÎ¹":4546,"ĠÎ²ÏģÎµÎ¸ÎµÎ¯":4547,"ĠÎ²Î¿Î·Î¸Î¿ÏįÏĥÎµ":4548,"ĠÎ¼Î¬Î³ÎµÎ¹ÏģÎ±ÏĤ":4549,"ĠÎ¼Î¿Î¹Î¬Î¶ÎµÎ¹":4550,"ĠÏĢÎ»Î¿ÏįÏĥÎ¹Î¿ÏĤ":4551,"ĠÎ§ÏģÏħÏĥÎ¬Î½Î¸Î·":4552,"Î»Î®ÏģÏīÏĥÎµ":4553,"ĠÎ²ÏħÎ¸ÏĮ":4554,"ĠÎ¾ÎµÏĩÏīÏģÎ¹ÏĥÏĦ":4555,"ĠÎºÏĮÏģÎ±ÎºÎ±":4556,"ĠÎ±ÏĢÎ¿ÏĨÎ±ÏĥÎ¯ÏĥÎµÎ¹":4557,"ĠÏĢÏģÎ¿Î»Î¬Î²ÎµÎ¹":4558,"ĠÎ³ÏīÎ½Î¹Î¬":4559,"ĠÎ±ÏĢÎ¿Î¼Î±ÎºÏģÏį":4560,"ĠÎ¸ÏĮÏģÏħÎ²Î¿":4561,"ĠÎĨÎ½Î¿Î¹Î¾Îµ":4562,"ĠÎ±Î³ÎºÎ¬Î»Î¹Î±ÏĥÎµ":4563,"ĠÏĢÎµÏģÏĢÎ¬":4564,"ĠÎ¼Î¿ÏħÏģÎ¼Î¿Ïį":4565,"ĠÎµÎ¾Î®Î³Î·ÏĥÎµ":4566,"ĠÏĢÎ±ÏģÎ±ÏĦÎ®ÏģÎ·ÏĥÎµ":4567,"ĠÎŃÎ¼ÏĢÎ¿ÏģÎ¿ÏĤ":4568,"ĠÎ²Î¹ÏĦÏģÎ¯Î½Î±":4569,"ÏħÏĩÎ±ÏģÎ¹ÏĥÏĦÏİ":4570,"ĠÎ½ÏħÏĨÎ¯ÏĦÏĥÎ±":4571,"ĠÎ´Î¹Î·Î³Î®Î¸Î·ÎºÎµ":4572,"ĠÎ¶Î¿ÏħÎ¶":4573,"ÏĥÎºÎŃÎ´Î±":4574,"ÏĦÏģÎ·":4575,"ÏĦÎ¯Î±ÏĤ":4576,"ÏģÏĦÎ·":4577,"ĠÏĦÏĥÎµ":4578,"Î»ÏĮÎ½ÎµÏĤ":4579,"ÏĥÎºÎ±":4580,"ÏĥÎºÏĮ":4581,"Î¯Î¼Î±":4582,"ÎºÎ¿ÏħÎ½":4583,"ĠÏĢÎ¹Îº":4584,"ĠÏĥÎ²":4585,"ĠÏĥÏĢÎ±Î¸":4586,"ĠÎ±Î¾Î¹":4587,"Î³ÎŃÏĤ":4588,"ÎµÎ¹Î¿":4589,"ĠÎµÎ³":4590,"ĠÎ½Î¿":4591,"Î´ÏīÎ½":4592,"Î¸Î¿":4593,"ĠÎ´ÎŃÏĩÏĦÎ·ÎºÎµ":4594,"ÏģÎ±ÏĥÎ·":4595,"ĠÎ³Î»Î¹":4596,"ĠÎ³ÎŃÎ»Î±ÏĥÎµ":4597,"ÏįÏĤ":4598,"ÏģÎ¹ÎºÎ¬":4599,"ÏģÎ¹ÎŃÏĤ":4600,"ĠÏĨÏĦÎ±":4601,"ÏĦÎ¹ÎºÎ¿Î¯":4602,"Î¶Î®":4603,"ĠÎºÎ±ÏĦÎ¿Î¹":4604,"Î¾ÎµÏĤ":4605,"Î¿Î¹ÎºÎ¿":4606,"Î»Î¹Î½":4607,"Î¼Î±Î¸Î·":4608,"ÂµÎ¹":4609,"ĠÎ±ÏĢÏĮÏĦÎ¿":4610,"Î¬Î½ÏĦÎµ":4611,"ĠÏĢÎ±ÏĢÎ±":4612,"ĠÏĢÎ±Î»Î¹ÎºÎ¬":4613,"ÎºÎ±Î»Î¬":4614,"ĠÎĳÏĩ":4615,"ĠÎĳÎ½Î±":4616,"ĠÎĳÎºÎ¿Ïį":4617,"ĠÎĳÎ¸Î®":4618,"ĠÎĳÎ³Î³Îµ":4619,"ĠÎ±Î½ÏĦÎŃ":4620,"Î¼ÎŃÎ½Î¿Ïħ":4621,"ÏĢÎ±ÏģÎ±":4622,"Î¾ÎµÏģÎµ":4623,"ĠÎķÎ»Î»Î¬Î´Î±":4624,"ÎºÎ¬ÎºÎ¹":4625,"ÎºÎ¬Î»Ïħ":4626,"ĠÎłÎµÏģ":4627,"ĠÎłÎ¿Î¹Î¿ÏĤ":4628,"ĠÎ²Î±ÏĦÏģÎ±":4629,"ĠÏĢÎ¬ÏĦÎµ":4630,"ĠÎ¬Î»Î»Î¿Î½":4631,"ĠÏģÎ¿Ïħ":4632,"ĠÎŃÏĩÎ¿Î½ÏĦÎ±ÏĤ":4633,"ĠÏĩÎ±Î»Î¬":4634,"Î¿ÏĢÎ±":4635,"ĠÎ¼Î¬Î³Î¹Î±":4636,"ĠÎ¼Î¬Î³Î¿ÏĤ":4637,"ÏĦÏīÏĥÎ±Î½":4638,"Î»ÎŃÏĨÏīÎ½Î¿":4639,"ÎłÎ¿Ïħ":4640,"ĠÎ¼ÎµÎ³Î¬Î»Î¿ÏħÏĤ":4641,"ĠÏĨÎ¿Î²Îµ":4642,"ĠÎ¾ÎµÏĨÏį":4643,"ĠÎºÎ¿ÏħÎ²Î¬":4644,"âĢ¦âĢ¦":4645,"Î¿ÏĥÏĦÎ±":4646,"ĠÎĴÎ¹":4647,"ĠÎĴÎ±Î½ÎŃÏĥÏĥÎ±":4648,"ĠÏĢÎ¿Î¹Î±":4649,"ĠÎºÎ±ÏĦÎ¬Î»Î»Î·":4650,"ĠÎºÎ±ÏĦÎ¬ÏĥÏĦÎ±ÏĥÎ·":4651,"ĠÎºÎ¿Î¹Î¼Î¬":4652,"ĠÎ±ÏĢÎ¿Î¸Î®ÎºÎ·":4653,"ĠÎ²Î¬Î¸Î¿ÏĤ":4654,"ĠÏĢÎ±ÏģÎ¬ÏĢÎ¿Î½":4655,"ĠÏĨÏįÎ³Î¿ÏħÎ½":4656,"ÏĦÎ¿ÏħÎ²Î¿ÏħÏģÎ½":4657,"ÏįÏĩÏĦÎ±":4658,"ĠÎ±ÎºÎ¿ÏįÎµÎ¹":4659,"ĠÎ»Î±Î¼ÏĢ":4660,"ĠÎŃÎºÏģÏħ":4661,"Î»ÎµÏħÎ±Î½":4662,"ĠÏĢÏģÏİÏĦÎ¿ÏĤ":4663,"ĠÎ¬ÎºÎ¿ÏħÎ³Î±Î½":4664,"ĠÎ»Î¹Î¼":4665,"ÎŃÎ»Î±Î²Îµ":4666,"ÂµÎŃÎ½Î¿Î¹":4667,"ĠÎºÏģÎ±ÏĦÎ®ÏĥÎµÎ¹":4668,"ĠÏĥÏħÎ½ÎŃÏĩÎ¹ÏĥÎ±Î½":4669,"ĠÎ»ÎµÎ¼Î¿Î½":4670,"ĠÏĥÎ±ÏģÎ¬Î½ÏĦÎ±":4671,"ĠÎºÎ¬ÏĢÎ¿Î¹Î¿Î¹":4672,"ÏģÎ¹ÏĥÏĦÎ¬":4673,"ÎĻÎ£":4674,"Î¾Î¹Î¼Î¿":4675,"ĠÏĩÏģÏħÏĥÎ®":4676,"ĠÎ¼Î¹Î»Î¬ÎµÎ¹":4677,"ĠÎ¼Î¹Î»Î®ÏĥÎµÎ¹":4678,"ÎĽÎ¯":4679,"ĠÏĢÎ±Î¯Î¶Î¿ÏħÎ½":4680,"ĠÎ±ÎµÏģÎ¬ÎºÎ¹":4681,"ĠÎļÎ¬ÏĦÎ¹":4682,"ĠÎºÏĮÏģÎ·ÏĤ":4683,"ĠÎ¼Î±Î³Î¹ÎºÎ¬":4684,"ĠÎ¼Î±Î³Î¹ÎºÎ®":4685,"ĠÎ¶Î·ÏĦÎ®ÏĥÎµÎ¹":4686,"ÎµÏįÏĦÎ·ÎºÎµ":4687,"ĠÎ»Î¬Î¼":4688,"Î¼ÎµÎ¹Î½Îµ":4689,"ĠÎ±Î´ÎµÎ»ÏĨ":4690,"ĠÏĩÏİÏģÎ¿":4691,".âĢĶ":4692,"ĠÏĢÎµÏģÏĢÎ±ÏĦÎ¬":4693,"ĠÎºÎ»Î¿ÏħÎ²Î¹Î¬":4694,"ĠÎ½ÏĮÎ·Î¼Î±":4695,"ĠÎ´Î±ÏĥÎºÎ¬":4696,"ĠÎŃÏĨÏĦÎ¹Î±ÏĩÎ½Îµ":4697,"ĠÏĥÎ¯Î³Î¿ÏħÏģÎ¿ÏĤ":4698,"Î³ÏģÎ¬ÏĨÎ¿ÏĤ":4699,"ĠÏĢÎ±Î½ÏĦÏģÎµÏħÏĦ":4700,"ĠÎ¼ÎµÎ³Î±Î»ÏįÏĦÎµÏģÎ¿":4701,"ĠÏĦÎ¿ÏĢÎ¿":4702,"ĠÎµÎ¾Î±ÏĨÎ±Î½Î¹ÏĥÏĦÎµÎ¯":4703,"Î´ÏģÎ¿Î¼Î®":4704,"ĠÏĦÎ¬Î¾Î·":4705,"ĠÎ¼Î¯Î»Î·ÏĥÎµ":4706,"ĠÎ±ÏĢÎ¬Î½ÏĦÎ·ÏĥÎ±Î½":4707,"ĠÎ¤Î¶ÏĮÎ½Î¹":4708,"ĠÎ¾Î±ÏĢÎ»Ïī":4709,"ĠÎ±Î»Î·Î¸Î¹Î½Î®":4710,"ĠÎķÏħÏĦÏħÏĩÏİÏĤ":4711,"ĠÏģÎ¿Î¶":4712,"ĠÎ¼ÏħÏģÏīÎ´Î¹Î¬":4713,"ĠÎŃÎ¼Î¿Î¹Î±Î¶Îµ":4714,"ĠÎľÎ¯Î´Î±ÏĤ":4715,"ĠÎ³ÎµÎ¯ÏĦÎ¿Î½":4716,"ĠÎ¾ÎŃÏĩÎ±ÏĥÎµ":4717,"ĠÏĦÏħÏĨÎ»Î¿ÏĢ":4718,"ĠÏĩÏģÏħÏĥÎ±ÏĨ":4719,"ĠÏĢÏħÎ³Î¿Î»Î±Î¼ÏĢÎ¯Î´Î±":4720,"ĠÎºÎ±ÏĦÏĥÎ¯ÎºÎ±":4721,"ĠÏĨÎ¬Î»Î±Î¹Î½ÎµÏĤ":4722,"ĠÎĻÏĥÎ±Î²ÎŃÎ»Î»Î±":4723,"ĠÎ¶Î¿ÏħÎ¶Î¿ÏįÎ½Î¹Î±":4724,"ĠÎĳÎ³Î³ÎµÎ»Î¹ÎºÎ®":4725,"Î±Î³Î¿":4726,"ÎµÎºÎµÎ¯":4727,"Î¬Î¶ÎµÎ¹":4728,"Î»Î¿ÏħÎ½":4729,"ÏĥÏĢÎ¹":4730,"ĠÎºÏģÎ¯":4731,"ÎºÎŃ":4732,"ÎºÏģÎ¯":4733,"ÎŃÎ³":4734,"Î±Î¹Î¿":4735,"Î³Î¿Ïį":4736,"Î³Î¼Î±ÏĦÎ±":4737,"ÏħÏģÎ±":4738,"ÏħÎ¸Î¹":4739,"ĠÎµÎ³Î³":4740,"ĠÎµÏģÎ³Î¬":4741,"ĠÎµÎ²Î´Î¿":4742,"ĠÎ½Î¹":4743,"ĠÏĦÎ¿ÎºÎ¿":4744,"ĠÎŃÎ¾Î¹":4745,"ĠÏĦÎ·Î»Îµ":4746,"ÏĦÎµÏģÎ®":4747,"ĠÏĮÏĥÎ·":4748,"ĠÏĮÏĢÎ¿Î¹":4749,"ĠÏĨÏħÏĦ":4750,"ĠÏĨÏģÎ¬Ïĩ":4751,"ĠÎ¼ÎµÏģÎ¹Î¬":4752,"ĠÎ²ÏģÏİ":4753,"ĠÎ²Î³Î¿ÏħÎ½":4754,"ĠÏĩÏħ":4755,"ÏĦÎ·ÎºÎ±":4756,"Î¼Î±ÏĦÎ¿ÏĤ":4757,"ĠÎ¸ÏģÏĮÎ½":4758,"ĠÎ¸ÎŃÎ±":4759,"ÂµÎµÎ¹":4760,"ĠÎ¬ÏģÎµÏĥÎ±Î½":4761,"Î»Î¬ÏĦÎµ":4762,"ĠÎ±ÏĢÏĮÏĪÎµ":4763,"ĠÎ®ÏģÎµ":4764,"ĠÎ®ÏĢÎ¹Îµ":4765,"ÏģÎ¯Î¶":4766,"ĠÎ¼Î±ÏĦÎ¹Î¬":4767,"ĠÎ¾ÎŃÏģÎµÏĦÎµ":4768,"ÎºÎ±ÏģÏĮ":4769,"ĠÎĳÎ»":4770,"ÏĢÎ¿Î¼Î¿Î½":4771,"Î³Î¿Î¯":4772,"ĠÎłÎŃÏģÎ±":4773,"ÎºÎ±Î½Î±Î½":4774,"ÎľÎŃÏĥÎ±":4775,"ĠÏģÎµ":4776,"ĠÎ±Î»Î»Î±":4777,"ÎŃÎ»Î»Î·":4778,"ĠÏĢÎ¬Î½ÏĦÎ¿ÏĦÎµ":4779,"ÎłÏģÎŃÏĢÎµÎ¹":4780,"ĠÎ´ÏħÎ½Î¬":4781,"ÏĢÎ¬ÎºÎ¹Î±":4782,"ĠÎĮÎ»Î¿":4783,"ĠÎºÎ±Î¸ÎŃÎ½Î±ÏĤ":4784,"ÏĥÎ¯ÎµÏĤ":4785,"ĠÎ±ÏħÏĥÏĦÎ·":4786,"ĠÎºÎ¿ÏģÏĮÎ¹Î´Îµ":4787,"Î»Î¯Î´Î±":4788,"ĠÎºÏħÎ½Î®":4789,"ĠÎ½ÎµÏģÎ¿Ïį":4790,"ĠÎ±Î½Î±Î³ÎºÎ¬":4791,"ĠÎ±Î½Î±ÏģÏīÏĦÎ®Î¸Î·ÎºÎµ":4792,"ĠÎ±Î½Î±ÏĥÏĦÎŃÎ½Î±":4793,"ĠÎĴÎ»ÎŃ":4794,"ĠÎĿÎĳ":4795,"ÎĪÎ»Î±":4796,"ĠÎ±ÏĢÎ¿ÎºÎ±":4797,"Î³Î®ÎºÎµ":4798,"ĠÏĨÎ±ÏģÎ¼Î±":4799,"ĠÎ¶ÏīÎ¿Î»Î¿Î³":4800,"ĠÏĢÎŃÏĦÏģÎ¹":4801,"ĠÎ¡Î±ÏĢÎ¿ÏħÎ½Î¶ÎŃÎ»":4802,"ĠÎºÎ¿ÏģÏħÎ´Î±":4803,"ĠÏįÏĪ":4804,"ĠÏĥÏħÎ½ÎŃÏĩÎ¹Î¶Îµ":4805,"ĠÏĨÎ¿ÏģÏĦÏī":4806,"ĠÏĢÏģÎ¹Î³ÎºÎ¯ÏĢÎ¹ÏĥÏĥÎ±ÏĤ":4807,"ĠÎ¾Î±Î½Î±Î³":4808,"ĠÎ¾Î±Î½Î±Î´ÎµÎ¯":4809,"ĠÎ±Î³Î¿ÏģÎ¬ÏĥÎµÎ¹":4810,"ĠÎ´ÏħÎ½Î±ÏĦÎ®":4811,"Î¯ÏĦÎ»Î¹Î½":4812,"ĠÎ³Î¬Î¼Î¿ÏĤ":4813,"ĠÎ½ÏįÏĩÏĦÎµÏĤ":4814,"Î²Î¹Î¸Î¿Ïį":4815,"ĠÎ±ÎµÏģÏĮÏĥÏĦÎ±":4816,"ĠÎŃÏĢÎµÏĨÏĦÎµ":4817,"ĠÎļÎ¬ÏĢÎ¿Î¹Î±":4818,"ĠÎ¼Î±Î³ÎµÎ¯":4819,"ĠÎĻÏĥÎ¯Î´Ïī":4820,"ĠÏĨÎŃÏģÎµÎ¹ÏĤ":4821,"ĠÎ³ÏģÎ¬ÏĨ":4822,"ĠÎ¼Î¿Î½ÏĮ":4823,"ĠÎ²ÎµÎ»ÏĮÎ½ÎµÏĤ":4824,"Î¿Î¼Î¯Î¶Ïī":4825,"ĠÏĢÎµÎ¯ÏĦÎµ":4826,"ĠÎµÎ¯ÏĩÎ±Î¼Îµ":4827,"Î¯Î½Î·ÏĥÎ·":4828,"ĠÏĥÎºÏħÎ»Î¹Î¬":4829,"ĠÎ¼Î±Î½Î¿ÏįÎ»Î±":4830,"ĠÏģÏīÏĦÎ®ÏĥÎµÎ¹":4831,"ĠÎ¼ÎµÎ³Î±Î»ÏįÏĦÎµÏģÎ·":4832,"ĠÎ³ÎºÏģÎµ":4833,"ĠÏĦÏħÏģÎ¯":4834,"ĠÏĢÏģÎ¿ÏĥÏĢÎ±Î¸Î¿ÏįÏĥÎ±Î½":4835,"ĠÎĳÏĢÎ¿ÏĨÎ¬ÏĥÎ¹":4836,"ĠÏĮÎ½ÎµÎ¹ÏģÎ±":4837,"ĠÎļÎ±Î½ÎŃÎ½Î±ÏĤ":4838,"ĠÎ¼ÏĢÎ¿ÏħÎºÎ¬Î»Î¹":4839,"ĠÎµÏħÏĦÏħÏĩÎ¹ÏĥÎ¼ÎŃÎ½Î·":4840,"ĠÎ²Î³Î±Î¯Î½Î¿ÏħÎ½":4841,"ÂµÎµÎ½Îµ":4842,"ĠÎĬÏĥÏīÏĤ":4843,"ĠÎºÏģÎŃÎ±ÏĤ":4844,"ĠÎ´Î¹ÎºÎ±Î¹":4845,"ĠÏĨÎ±Î½ÏĦÎ±ÏĥÏĦÎµÎ¯":4846,"ĠÏĢÎ±Î³ÏīÏĦÏĮ":4847,"ÎŃÏĦÎ±Î¾Îµ":4848,"ĠÎ¼Î¬Î¶ÎµÏĪÎµ":4849,"ĠÎ»Î±ÏĩÎ±Î½ÏĮÎºÎ·":4850,"ĠÏĢÎµÏģÎ¯ÎµÏģÎ³Î¿":4851,"ĠÎ¼Î¬Î³ÎµÎ¹ÏģÎ±":4852,"ĠÎµÏħÏĩÎ±ÏģÎ¯ÏĥÏĦÎ·":4853,"ĠÎ½ÏĮÎ¼Î¹Î¶Îµ":4854,"ĠÎµÎ½Î¸Î¿ÏħÏĥÎ¹Î±ÏĥÎ¼ÏĮ":4855,"ĠÏĢÎ±ÏģÎ±ÎºÎ¬Î»ÎµÏĥÎµ":4856,"ĠÏĢÎ±Î½ÎŃÎ¼Î¿ÏģÏĨÎ¿":4857,"ĠÏĢÎ¿ÏģÏĦÎ¿ÎºÎ±Î»Î¯":4858,"ĠÎµÏĢÎ¹ÏĥÎºÎµÏĨ":4859,"ĠÎ¾ÎµÎºÎ¿ÏħÏģÎ±ÏĥÏĦÎµÎ¯":4860,"ĠÎµÏĢÎ¹ÏĥÎºÎŃÏĢ":4861,"ĠÏĥÎ±Î»Î¹Î³ÎºÎ¬ÏģÎ¹":4862,"ĠÏĩÎ¯Î»Î¹Î±":4863,"ĠÎ³Î»ÎŃÎ½ÏĦÎ¹":4864,"ĠÎ»Î¹Î²Î¬Î´Î¹":4865,"ĠÎľÎ¹Î»ÏĦÎ¹Î¬Î´Î·ÏĤ":4866,"ĠÎ¶Î¿ÏįÎ³Îº":4867,"ĠÎķÏģÎ¼Î¹":4868,"ĠÏģÎ±Î²Î´Î¯":4869,"ÏĦÎµÏħÎ¸ÎµÎ¯Î±Î½":4870,"ĠÎ¸Î»Î¯ÏĪÎ·":4871,"ĠÎĵÎ¿ÏħÎ¯ÏĦÎ»Î¹Î½":4872,"ĠÎļÎ¿Î½ÏĦÎ¿ÏģÎµÎ²Î¹Î¸Î¿Ïį":4873,"ĠÎµÏģÏīÏĦÎ®ÏĥÎµÎ¹ÏĤ":4874,"ĠÎĵÎ¿ÏħÎ¯ÏĦÎ»Î¹Î½Î³Îº":4875,"Î¹Î³Î¬":4876,"ÏĦÏģÎ¹Î¬":4877,"ÏģÏĦÎ¿":4878,"Î¿ÏĮ":4879,"ÏĥÂµÎŃÎ½Î¿":4880,"Î¯ÏĥÏĦÎ·ÎºÎ±Î½":4881,"Î¿ÏħÏĥÏĮ":4882,"Î¿ÏħÎ³ÎŃÎ½":4883,"ÏĢÏģÎ¿Ïĥ":4884,"Î¼Î¼ÎŃÎ½Î±":4885,"ĠÏĥÏĨ":4886,"ĠÎ±ÏĥÏĩÎ·":4887,"ĠÎ±ÏģÎ¬ÏĩÎ½Î·":4888,"Î³ÎºÎ¹Î±":4889,"Î³Î½Ïİ":4890,"Î³Î±Î¹Î½Î±Î½":4891,"ÏħÎ´ÏģÏĮ":4892,"ĠÎµÏĩÎ¸":4893,"ĠÎŃÎºÎ±":4894,"ĠÏĦÎ·Î»ÎŃÏĨÏīÎ½Î¿":4895,"Î¸Ïį":4896,"Î¸ÎµÏĤ":4897,"ĠÎ³Î»Î¯":4898,"ĠÎ³ÎŃÏģÎ¹":4899,"ĠÎ³ÏįÏģÎ¿":4900,"ÏĦÎ±Î¾Ïį":4901,"ÏİÎ¸Î·ÎºÎ±Î½":4902,"ÏįÏĥÎ·":4903,"ÏįÎ¼Î±ÏĦÎ±":4904,"ÏįÏĦÎ·ÎºÎ±Î½":4905,"ĠÏĥÏĦÎ®":4906,"ĠÏĥÏĦÎŃÎ»":4907,"ÏĦÎµÏģÎ¬":4908,"ÏĦÎµÎ»ÎµÎ¯":4909,"ĠÏĨÏģÎŃ":4910,"ÏĦÎ¹Î³":4911,"ĠÎ¼ÎµÏĦÎŃ":4912,"Î²Î³Î±":4913,"ĠÎºÎ±Î¼Î¬":4914,"ĠÎºÎ±Î¼ÏĢ":4915,"ĠÎºÎ±ÎºÎ¿Ïį":4916,"ĠÎºÎ±ÎºÎ®":4917,"Î»Î±Î³Î¹Î¬":4918,"Î»Î±ÏĢÎ»Î±":4919,"ĠÏĩÏģÎ¹ÏĥÏĦÎ¿ÏħÎ³ÎµÎ½Î½Î¹Î¬":4920,"ĠÏĢÎ¿ÏħÎ»Î¹ÏİÎ½":4921,"ĠÎ¬ÏģÎ±Î³Îµ":4922,"Î»Î¬Î½Îµ":4923,"Î¬Î½Î¿ÏĤ":4924,"ĠÎ¤ÎµÎ»Î¹ÎºÎ¬":4925,"ÏĮÎ½Ïħ":4926,"ĠÎ¼ÏĢÎŃ":4927,"ÏģÏīÎ¼Î±":4928,"ĠÎľÏĢÎ®ÎºÎµ":4929,"ÏĢÎ±ÏĤ":4930,"ÏĢÎ±ÏģÎ¬":4931,"ĠÂµÎ·Î½":4932,"ĠÂµÏĮÎ»Î¹ÏĤ":4933,"ÏĦÎ¿Î¼Î¼Ïį":4934,"Î¤Îĳ":4935,"ĠÎłÎ¿Î»Ïį":4936,"ĠÏĢÎ¬ÏģÎµÎ¹ÏĤ":4937,"Î½Î·Î¸ÎµÎ¯":4938,"ÏģÏİÏĦÎ·":4939,"Î´Î±ÏĤ":4940,"ÎŃÎ»Î¿ÏĤ":4941,"Î½Î¿Î¹Î±":4942,"ĠÏĩÎ±ÏģÎ¹":4943,"ĠÏħÏĨÎ¬Î½":4944,"Î¿ÏĢÎ¿Î¯":4945,"ÎĳÎ³Î±ÏĢÎ·":4946,"ÏĦÎ¹Î±Î³":4947,"ĠÎºÏĮÎ»":4948,"ĠÎ±Î³ÎºÎ±":4949,"Î¿ÏĥÏĩÎ¿":4950,"ĠÏĢÎ±ÏģÎ±Î¾ÎµÎ½":4951,"ĠÎºÎ¿ÎºÎºÎ¹":4952,"ÎŃÏĥÎ±Î¹":4953,"ĠÎºÎ±ÏĦÎ±ÏĢÎ»Î·Îº":4954,"ĠÏĢÏģÎ¹Î³ÎºÎ¯ÏĢÎ¹":4955,"ĠÏĢÎ¿Î´Î¹Î¬":4956,"ĠÎĿÏĦÎ¿ÏħÎ²Î¿ÏħÏģÎ½":4957,"ĠÎ´Î¹Î±Î»ÎŃ":4958,"ÎĪÏĨÏĦÎ±":4959,"Î¹ÎºÎ¬ÎºÎ¹Î±":4960,"ĠÎ¯ÏĥÎ±":4961,"Î¿ÏĩÎ±":4962,"Î¿ÏĩÏİÏģÎ±":4963,"ĠÎ³Î¹ÏĮÏĤ":4964,"ĠÏĢÏģÏĮÎ»Î±Î²Îµ":4965,"ÏĦÏħÏĢÏī":4966,"ĠÏģÏİÏĦÎ·ÏĥÎ±Î½":4967,"ĠÎ±ÎºÎ¿ÏįÎ³Î¿Î½ÏĦÎ±Î½":4968,"ĠÏĢÎŃÎ¸":4969,"Î½Î¬ÎºÎ¹Î±":4970,"ĠÎ¡Î¯Î½Î±":4971,"ĠÎ¡Î¿ÏħÏĥÏĮ":4972,"ĠÎŃÎ´ÏīÏĥÎ±Î½":4973,"ĠÏĢÎµÎ¹ÏģÎ±":4974,"ÎŃÏĪÎµÎ¹ÏĤ":4975,"ĠÎ»ÏįÎºÎ¿":4976,"ĠÎ»ÎµÏĨÏĦÎ¬":4977,"ĠÎ´Î¹ÏĥÏĦÎ±":4978,"ĠÎ´Î¹ÎŃÎº":4979,"ĠÎ³Î¯Î½Î¿Î½ÏĦÎ±Î¹":4980,"ĠÎºÎ¬ÏĢÎ¿Î¹ÎµÏĤ":4981,"Î¾Î¹Î¿ÏĤ":4982,"ĠÎ¬Î½Î¿Î¹Î¾Î·":4983,"ĠÎ½ÏįÏĩÏĦÎ±ÏĤ":4984,"Î»Î±Î¹Î½":4985,"ĠÎŃÏģÎ¸ÎµÎ¹ÏĤ":4986,"ĠÏĢÏģÎ±Î³Î¼Î±ÏĦÎ¿ÏĢÎ¿Î¹":4987,"ĠÎŃÏĢÎµÏĨÏĦÎ±Î½":4988,"ĠÎ»Î¬Î¼ÏĢ":4989,"ĠÎ±ÏĢÎ±ÏĦÎµ":4990,"ĠÏĩÏİÏģÎµÏĤ":4991,"ĠÎ¶ÎµÏĥÏĦÎ®":4992,"ĠÎºÏįÏģÎ¹Î¿":4993,"ĠÏĨÎŃÏģÎ½ÎµÎ¹":4994,"Î¸ÎµÎ¹Î¬":4995,"ĠÎŃÏĨÎµÏģÎ±Î½":4996,"ĠÎ±Î³Î¬ÏĢÎ·ÏĤ":4997,"ĠÏĥÏīÏģÏĮ":4998,"ĠÎ¼Î¿Î½Î¬ÏĩÎ±":4999,"ĠÎºÎ¿Î¹ÏĦÎ¬ÏĩÏĦÎ·ÎºÎ±Î½":5000,"Î»ÏīÎ½Î±Î½":5001,"ĠÎ¬Î³Î³Îµ":5002,"ĠÎ³ÎŃÏģÎ¿":5003,"ĠÎºÎ±Î¹Î½Î¿ÏįÏģÎ¹Î¿":5004,"ĠÎ½ÎŃÎ¿ÏĤ":5005,"ĠÎ²Î¿Î·Î¸Î®ÏĥÎ¿ÏħÎ½":5006,"ĠÎ²ÏģÎŃÎ¸Î·ÎºÎ±Î½":5007,"ĠÎºÏįÎ¼Î±ÏĦÎ±":5008,"ĠÏĢÎ»Î±ÏĦÎµÎ¯Î±":5009,"ÎļÎ¬Î¸Îµ":5010,"ĠÏĥÎºÎ¹ÎŃÏĤ":5011,"ĠÎĺÎµÏĮ":5012,"ĠÎºÎ¿ÏħÏģÎ±Î¼ÏĢÎ¹":5013,"ĠÏĢÏģÎ¿ÏĥÏĢÎ¬Î¸ÎµÎ¹Î±":5014,"ĠÎ´Î¹Î±ÏĨÎ¿ÏģÎµÏĦÎ¹ÎºÎ¬":5015,"ĠÏĥÎºÎ¬Î»Î±":5016,"ĠÎľÏĢÎ¿ÏģÎµÎ¯":5017,"ĠÏĥÏħÎ½ÎŃÎ²Î±Î¹Î½Îµ":5018,"ĠÎ¼Î±ÎºÏģÎ¹Î½ÏĮ":5019,"ÏĨÏīÎ½Î±":5020,"ĠÎŃÏģÏĩÎ¿Î½ÏĦÎ±Î½":5021,"ĠÎ±ÏħÏĦÎ¿ÎºÎ¯Î½Î·ÏĦÎ¿":5022,"ĠÏĩÏĦÎ±ÏĢÏĮÎ´Î¹":5023,"ĠÎ´ÏħÏĥÎºÎ¿Î»Î¯Î±":5024,"ĠÎ³ÎµÎ¼Î¯ÏĥÎµÎ¹":5025,"ĠÎ½ÏĦÏģÎ¿ÏĢÎ®":5026,"ĠÎ¼ÏīÏģÏĮ":5027,"ĠÏĥÎ¹Î´ÎµÏģÎŃÎ½":5028,"ĠÎ´ÎµÎ¯ÏĩÎ½Î¿Î½ÏĦÎ±ÏĤ":5029,"ĠÎ±Î³ÏĮÏģÎ±ÏĥÎµ":5030,"ĠÎºÎ±ÏģÎŃÎºÎ»Î±":5031,"ĠÎºÎ±Î¸ÏģÎŃÏĨÏĦÎ·":5032,"ĠÎ´Î¯ÏĩÏĦÏħÎ±":5033,"ĠÎ£ÏīÏĦÎ®ÏģÎ·ÏĤ":5034,"ĠÏĦÎ¶Î¯ÏĦÎ¶Î¹ÎºÎ±ÏĤ":5035,"ĠÎºÎ·ÏĢÎ¿Ïħ":5036,"ĠÎ³Î¹Î±ÏĦÏģÏĮÏĤ":5037,"ĠÎļÎ¹Î½ÎŃÎ¶":5038,"ĠÎĸÏīÎ·":5039,"ĠÎºÎ¿Î»Î¿ÎºÏħÎ¸":5040,"ĠÏĥÎºÎ·Î½Î®":5041,"Î¿Î¹ÎºÎ¿Î³ÎŃÎ½":5042,"ĠÏĢÎ±Î»Î¹ÎºÎ¬ÏģÎ¹":5043,"ĠÎ²Î±ÏĦÏģÎ±Ïĩ":5044,"ĠÎ¸ÏģÏĮÎ½Î¿Ïħ":5045,"ĠÎķÏģÎ¼Î¹ÏĮÎ½Î·":5046,"Î¿ÏħÎ³ÎŃÎ½Î½ÏīÎ½":5047,"Î»Î±ÏĢÎ»Î±ÏĥÎ¹Î±":5048,"ÏĦÎ¿Î¼Î¼ÏįÏģÎ¹Î±":5049,"ĠT":5050,"Î¿Î¼ÏĢÎ¬":5051,"Î¹Î¿Î½":5052,"Î½Î¿Î½":5053,"Î¬ÏĨ":5054,"ÏĥÎ¸Î·":5055,"ÏĮÎ·":5056,"ÏĮÎ³Î·":5057,"Î¼ÎŃ":5058,"Î¼Î¿Î¯":5059,"ÏħÏģÎ¿":5060,"ĠÎ½Î±Î½":5061,"ĠÎ½ÏĮÏĥÏĦÎ¹":5062,"ĠÎ½Î¯ÎºÎ·":5063,"Î¸ÏģÎ±":5064,"ÏįÎ³":5065,"ĠÎ¿Îº":5066,"ĠÏĮÎ»Î¿ÏĤ":5067,"ĠÎ±ÏĢÎŃÏģ":5068,"ÏĦÎ¹ÎºÎŃÏĤ":5069,"ĠÎ¼ÎµÎ»Î¿":5070,"Î²Î±Î¹":5071,"ÏģÎ¬ÎºÎ¿":5072,"ĠÎºÎ±Î»Î¿Ïį":5073,"Î¿Î½ÏĦÎµÏĤ":5074,"Î»Î±Ïį":5075,"Î»Î¹Î³":5076,"Î»Î¬ÏĤ":5077,"ÏģÏĮÏĢÎ¿ÏħÎ»Î¿":5078,"ÎŃÎ½Î¹":5079,"Î¬Î½Î¿Î¹":5080,"ÎºÎ¹Î¿Ïį":5081,"ĠÎ¸Î±Ïģ":5082,"Î»Î·ÏĥÎ¯Î±ÏĥÎµ":5083,"Î¯Î½Î¿ÏħÎ¼Îµ":5084,"ĠÎĳÏĢÎ¿":5085,"ĠÏĢÎ¿Î»Î»Î±ÏĢÎ»Î±ÏĥÎ¹Î±":5086,"ĠÎľÏĢÎŃ":5087,"ĠÎľÏĢÏģÎ¿ÏĥÏĦÎ¬":5088,"Î³Î¬ÎºÎ¹":5089,"ÏīÎ½Î±Î½":5090,"ÏīÎ½ÏĥÏĦÎ±Î½":5091,"ĠÎķÎ»ÎŃÎ½":5092,"ÎºÎ¬ÏģÎ¿Î½Î±":5093,"ĠÎłÏģÎ¯Î³ÎºÎ¹ÏĢÎ±":5094,"ÏĮÏĥÎ·":5095,"ÎľÎŃÏĩÏģÎ¹":5096,"Î´Î¹ÏĮ":5097,"ÎļÎ±Î½":5098,"Î¶ÎµÏĥÎ±Î¹":5099,"ĠÎŃÏĩÎ±":5100,"ĠÏĥÏĦÎ±ÏĨÏį":5101,"âĢĻ,":5102,"Î»Î®Î½Î·":5103,"ÎºÎ¿ÏħÎ´Î¯ÏĦÏĥÎ±":5104,"ÎłÎ¿Î»Ïį":5105,"ĠÎ¼ÎµÎ³Î¬Î»ÏīÎ½Îµ":5106,"ĠÎ¾ÎµÏĩÎ½":5107,"ĠÎ¼ÏĮÎ½Î¿Î¹":5108,"ĠÎºÎ±ÏĦÎ±ÎºÏĮÎºÎºÎ¹":5109,"ĠÎĿÎŃÎ»Î»Î·":5110,"ĠÎ´Î¹Î±ÏĥÎºÎŃÎ´Î±":5111,"ĠÂµÎµÏĦÎ¬":5112,"ĠÎ³ÏħÏģÎ½":5113,"ÏĥÏĦÎ±Î¼Î¬":5114,"ĠÎ¶ÏīÎ³ÏģÎ±ÏĨÎ¹":5115,"ÏĦÏģÎµÎ¾Îµ":5116,"ÏĥÏĦÎ·Î¼Î±":5117,"ĠÎ¬Î»Î»Î¿ÏĦÎµ":5118,"ĠÏģÏİÏĦÎ·ÏĥÎ±":5119,"ĠÎĽÎµ":5120,"ĠÎĽÎ¬Î¶Î±":5121,"ĠÏĨÏīÏĦÎµÎ¹":5122,"ĠÎ¼ÏĢÎ±Î¿Î¼ÏĢÎ¬":5123,"ĠÎ´ÏīÎ¼Î¬ÏĦÎ¹Î±":5124,"ĠÎµÏħÏĩÎŃÏĤ":5125,"ĠÎºÎ¿ÏģÎ¿ÏĬ":5126,"ĠÎºÏģÎ±ÏĦÎ¿ÏįÏĥÎ±Î½":5127,"ĠÎ¦Î¹":5128,"Î¸Î±Î¼Î®":5129,"ĠÎ´ÏħÎ½Î±ÏĦÏĮÎ½":5130,"ĠÎ¼Î¹Î»Î®":5131,"ĠÎ¬Î½Î¿Î¹Î¾Î±Î½":5132,"Î»Î±Î¹ÏĢÏī":5133,"Î²Î¹Î¿Ïį":5134,"ĠÎ¾ÎŃÏģÎ¿ÏħÎ½":5135,"ĠÏĦÏģÎ¹Î³ÏįÏģÏī":5136,"ĠÏĥÎºÎµÏĢ":5137,"ĠÎ±ÎµÏĦÏĮ":5138,"ĠÏĨÏĮÏģÎµÏĥÎµ":5139,"ĠÎ´Î¹Î¬ÏĨÎ¿ÏģÎ±":5140,"ĠÎ¶Î·ÏĦÎ¿ÏįÏĥÎµ":5141,"ĠÎ»Î¬Âµ":5142,"ĠÏĨÎ±Î½Î¿ÎºÏĮ":5143,"Î¶Î¹ÏģÏĮÏĢÎ¿ÏħÎ»Î¿":5144,"ĠÎºÏģÏįÏĨÏĦÎ·ÎºÎµ":5145,"ĠÎŀÎµ":5146,"ĠÎ¼ÎµÎ³Î±Î»ÏİÏĥÎµÎ¹":5147,"ĠÎºÎ¿ÏĢÎ¬":5148,"ĠÏĢÎµÏĦÎ¬ÎµÎ¹":5149,"ĠÏĢÎµÏģÏĢÎ±ÏĦÎ¬ÎµÎ¹":5150,"ĠÏĩÎµÎ¹ÏģÏĮ":5151,"ĠÏĩÎµÎ¹ÏģÎ¿Îº":5152,"ĠÏĨÎ¹Î»Î¯":5153,"ĠÎ²ÎµÎ¶Î¹ÏģÏĮÏĢÎ¿ÏħÎ»Î¿":5154,"ĠÎ¬Î³Î½Ïī":5155,"Î´ÏĮÎ½Î¹Î±":5156,"ĠÎŃÏĥÎ²":5157,"ĠÏĨÏīÎ½Î¬Î¶Î¿Î½ÏĦÎ±ÏĤ":5158,"ĠÎ±Î´ÎµÏģÏĨÎŃÏĤ":5159,"ĠÎ¼Î¿Î½Î±Ïĩ":5160,"Î³ÏģÎ¬ÏĨÎ¹":5161,"ĠÂµÎ¹ÎºÏģÎ®":5162,"ĠÏĩÏĮÏģÎµÏħÎ±Î½":5163,"ĠÎ³ÏģÎ±ÏĨ":5164,"ĠÎ¬ÏĥÏĩÎ·Î¼Î±":5165,"ĠÏĢÎ¿Î½Î·ÏģÎ®":5166,"ĠÎ±ÏģÎŃÏĥÎ¿ÏħÎ½":5167,"ĠÎ´Î¹Î±ÏĨÎ¿ÏģÎµÏĦÎ¹ÎºÏĮ":5168,"ĠÏĩÎµÎ»":5169,"ĠÏħÏĢÎŃÏģÎ¿ÏĩÎ±":5170,"ĠÎ±Î³ÎºÎ¬Î¸Î¹Î±":5171,"ĠÎµÎºÎ±ÏĦÏĮ":5172,"ÏĢÏģÎ¬ÏĥÎ¹":5173,"ĠÎ»Î±ÏĩÎ±Î½Î¹ÎºÎ¬":5174,"ĠÎ±Î³Î±ÏĢÎ¬ÎµÎ¹":5175,"ĠÎ±ÎºÎ¿ÏħÎ³ÏĮÏĦÎ±Î½":5176,"ĠÎºÎ¹Î½Î´ÏħÎ½Îµ":5177,"ĠÏĢÎ±ÏģÏĮÎ»Î¿":5178,"ĠÏĢÎ¹ÏĥÏĦÎŃÏĪÎµÎ¹":5179,"ĠÎ¾ÏħÏĢÎ½Î®ÏĥÎµÎ¹":5180,"ĠÏĢÏģÏĮÏĥÎµÎ¾Îµ":5181,"ĠÏĢÎŃÏģÎ´Î¹ÎºÎ±":5182,"ĠÏĢÎ±ÏģÎ±ÎºÎ¿Î»Î¿ÏħÎ¸Î¿ÏįÏĥÎµ":5183,"ĠÏĨÏĦÎ¹Î¬ÏĩÎ½ÎµÎ¹":5184,"ĠÏĩÏģÎµÎ¹Î±Î¶ÏĮÏĦÎ±Î½":5185,"ĠÏĢÎ±ÏģÎ·Î³Î¿Ïģ":5186,"ĠÎºÎ¿ÏħÎ´Î¿ÏħÎ½":5187,"ĠÏĥÏħÎ³Î³Î½ÏİÎ¼Î·":5188,"ĠÏĩÏĦÏħÏĢÎ¿ÏįÏĥÎµ":5189,"ĠÏĢÎ»Î¿Î¯Î¿":5190,"ĠÏĦÏģÏĮÎ¼Î±Î¾Îµ":5191,"Î²Î»ÎµÏĢÎµ":5192,"ĠÎºÏĮÎºÎ¿ÏģÎ±ÏĤ":5193,"ĠÎ±ÂµÎŃÏĥÏīÏĤ":5194,"ĠÎĪÏĢÏģÎµÏĢÎµ":5195,"ĠÎ´Î¹ÏĢÎ»Î±Î½":5196,"ĠÎ±ÏĮÏģÎ±ÏĦÎ±":5197,"ĠÎºÎ¿ÏĩÏį":5198,"ĠÏģÏħÎ¬ÎºÎ¹":5199,"ĠÏĨÎ¿ÏįÏģÎ½Î¿":5200,"ĠÎĵÎ±Î»Î¬ÏĦÎµÎ¹Î±":5201,"ĠÎ³ÎŃÎ½Î½Î·ÏĥÎµ":5202,"ĠÎµÎ³ÎºÎ±ÏĦÎ±":5203,"ĠÏĩÎ±ÏģÎ¹ÏĦÏī":5204,"ĠÏħÏĨÎ¬Î½ÏĦÏģÎ±":5205,"ĠÎ¼ÎµÎ»Î¿Î¼Î±":5206,"ĠÎ¼ÏĢÎ±Î¿Î¼ÏĢÎ¬Î¼ÏĢ":5207,"\".\"":5208,"Î¹Î´Î±":5209,"Î½ÎµÎ¹ÏĤ":5210,"ÏĦÎ¿Î½ÏĦÎ±Î½":5211,"ÏĥÎ¼ÏĮÏĤ":5212,"Î¯Î¶Î¿Î½ÏĦÎ±ÏĤ":5213,"ĠÎºÎµÎ½":5214,"ĠÎºÎµÎ¯":5215,"Î¿ÏħÎ¿Ïħ":5216,"Î¿ÏħÏĥÎ¯Î±":5217,"ÏĢÎµÎ¹ÏĤ":5218,"ÏĢÎ¬Î½ÏĦÎ·ÏĥÎµ":5219,"ÎºÏĦÎ¹ÎºÏĮ":5220,"ĠÏĢÏģÎ¯Î³ÎºÎ¹":5221,"ÏĮÏĦÎ±":5222,"ĠÏĥÎ¬Î»":5223,"ĠÎ±ÏĥÏĩÎ¿Î»":5224,"ÏĩÏĦÎ¯":5225,"ĠÎ½ÏĦÏį":5226,"Î´ÏĮ":5227,"Î¸ÎµÎ½":5228,"ÏģÎ±Î¾Îµ":5229,"ÏİÏģÎ·ÏĥÎµ":5230,"ĠÎµÎ¯ÏĢÎµÏĤ":5231,"ĠÎ¿Î¼Î¬Î´Î±":5232,"ÏĦÎ¹ÎºÎ¿Ïį":5233,"ĠÎ²Ïģ":5234,"ĠÎºÎ±ÏĦÎ·":5235,"ĠÎºÎ±Î»Îµ":5236,"ĠÎºÎ±Î¼Î®":5237,"ĠÎºÎ±ÏĦÎµÏħÎ¸ÎµÎ¯Î±Î½":5238,"ĠÎ®ÏĥÎ¿ÏħÎ½":5239,"ĠÎ¼Î±Î¸Î®":5240,"ĠÎ¤Î¶Î¯Î½Î±":5241,"Î¼ÎµÎ³Î¬":5242,"ÎºÎ±Î»Î¿":5243,"ĠÎļÏīÎ½ÏĥÏĦÎ±Î½":5244,"Î¾ÎµÎ½Î±":5245,"ÎºÎ¬Î»Î¹Î±":5246,"ÏĢÎ¹ÏĥÎµ":5247,"ĠÎłÏģÎ±Î³Î¼Î±ÏĦÎ¹ÎºÎ¬":5248,"ĠÎ²Î±ÏģÎµ":5249,"ÏģÏĩÎ·ÏĤ":5250,"ĠÏĢÎ¬Î³ÎºÎ¿":5251,"ÏģÏİÏĦÎ±":5252,"ÏģÏİÎ½ÎµÎ¹":5253,"ĠÎ£ÏĦÏģÎ¬":5254,"ĠÎ¬Î»Î»ÏīÏĥÏĦÎµ":5255,"ĠÏĥÎ¿ÏħÏĢÎ¹Î¬":5256,"ÎĳÏĢ":5257,"ĠÎŃÏĨÎ¸Î±":5258,"Î»ÎŃÎº":5259,"ĠÎ²Î±ÏĥÎ¹Î»Î¹ÎºÏĮ":5260,"ĠÎ¾ÎµÏģÎ¬":5261,"ĠÎºÎ±Î¸Î¯":5262,"ĠÎºÎ±Î¸Î¯ÏĥÎµÎ¹":5263,"ĠÎĵÎºÎ±ÏģÏĮ":5264,"Î£ÏĦÎ·":5265,"ĠÎ¼Î¹ÎºÏģÏĮÏĦÎµÏģÎ·":5266,"ĠÏĥÏħÎ½Î½Îµ":5267,"ĠÎºÎ¿ÏģÎ¬ÎºÎ¹":5268,"ĠÎºÎ¿ÏĦÎ¿ÏĢ":5269,"ĠÎºÎ¿ÏĦÎ¿ÏįÎ»Î±":5270,"Î»Î¯Î³Î¿":5271,"ĠÎ³ÎµÏģÎ¬":5272,"ĠÏĢÏģÎ¿ÏĥÏĢÎ±":5273,"ĠÎ§Î»ÏĮ":5274,"ĠÏĨÎ±Ïģ":5275,"ĠÏĨÎ±ÏĥÎ±":5276,"ĠÎ»ÎŃÏĦÎµ":5277,"ĠÎ»ÎŃÎ¾ÎµÎ¹ÏĤ":5278,"ÎĿÎĳ":5279,"Î´ÏħÎ½Î±":5280,"Î³Î¹Î±ÏĦÎ¯":5281,"ĠÎ±ÎºÎ¿ÏįÏī":5282,"ĠÎ±ÎºÎ¿ÏįÏĥÎ¿ÏħÎ½":5283,"ÏĨÎµÏģÎ±Î½":5284,"ĠÎ¸ÎŃÎ»Î¿ÏħÎ¼Îµ":5285,"ĠÎ¡Ïī":5286,"ĠÏĥÏħÎ¼Î¼Î±Î¸Î·":5287,"ĠÎ»Î±ÏĩÏĦÎ±":5288,"ĠÎ±ÎºÎ¯Î½Î·":5289,"ĠÎºÎ¿ÏģÎ´":5290,"ĠÎ²Î»ÎŃÏĢÎµÏĦÎµ":5291,"ÏģÎ¿ÏħÏĢÎ¿":5292,"ĠÏĢÏģÎ¿Î·Î³Î¿Ïį":5293,"ĠÎºÎ±Î»ÏįÏĦÎµÏģÎ¿ÏĤ":5294,"Î¸Î±Î¯Î½ÎµÎ¹":5295,"ĠÎ¶Î®ÏĦÎ·ÏĥÎ±Î½":5296,"ÎĻÎļ":5297,"ÎĻÎĳ":5298,"ĠÎ¸ÏħÎ¼":5299,"ĠÏĩÏģÏħÏĥÏĮÏĥÎº":5300,"ĠÎ³Î¬ÏĦÎ¿":5301,"ĠÎ³Î¬Î¼Î¿":5302,"ĠÎºÎµÏĨÎ¬Î»Î¹Î±":5303,"ÏĨÏħÎ»":5304,"ÏĥÏĦÎ®ÏģÎ¹Î¿":5305,"ĠÎĳÏĢÏĮÎ»Î»Ïī":5306,"ĠÎµÎºÎ½ÎµÏħ":5307,"ĠÎŃÏĢÎ±Î¹ÏģÎ½Î±Î½":5308,"ĠÏĦÏĮÏĥÎµÏĤ":5309,"Î¼Î¹Î¬ÏĤ":5310,"ĠÏĥÎºÎ¿ÏĦÏİÏĥÎµÎ¹":5311,"ĠÎºÏģÎµÎ²Î±":5312,"ĠÏĥÏīÏĥÏĦÏĮ":5313,"ĠÎ¼Î¿Î½Î¬":5314,"ÎĴÎ»ÎŃ":5315,"ĠÏĢÎ¹Î¬ÏĦÎ¿":5316,"ĠÎºÎ¿Î¹ÏĦÎ¬Î¶ÎµÎ¹":5317,"ÏĥÎ¿ÏħÂµÎµ":5318,"ĠÎ±ÎºÎ¿Î»Î¿ÏħÎ¸":5319,"ĠÏĦÎµÎ»ÎµÎ¯ÏīÏĤ":5320,"ĠÏĢÎ·Î³Î±Î¯Î½Î¿ÏħÎ½":5321,"ĠÎ®ÏģÎ¸Î±":5322,"ĠÎŃÏĨÎ±Î³Î±Î½":5323,"ĠÎĳÏĢÎ¬Î½ÏĦÎ·ÏĥÎµ":5324,"ĠÎŃÎ´Î¹Ïī":5325,"ĠÎºÎ±ÏĦÏĥÎ¹ÎºÎ¬ÎºÎ¹Î±":5326,"ÎŁÎ¥Î£":5327,"ĠÏĥÏĦÎŃÎ³Î·":5328,"ĠÎ²ÏģÎ±Î´Î¹Î¬":5329,"ĠÎµÏįÎºÎ¿Î»Î¿":5330,"ĠÎµÏħÏĦÏħÏĩÎ¹ÏĥÎ¼ÎŃÎ½Î¿ÏĤ":5331,"ĠÏĩÎ±Î¹ÏģÎµ":5332,"ĠÎ§ÏģÎ¹ÏĥÏĦÎ¿ÏħÎ³ÎŃÎ½Î½ÏīÎ½":5333,"ĠÎĶÎ¹Î´Ïİ":5334,"ĠÏĥÏĩÎŃÎ´Î¹Î±":5335,"ĠÏĨÏħÎ»Î±ÎºÎ¹":5336,"ĠÎ±ÏģÎ¹Î¸":5337,"ĠÎºÎ¬Î¼ÏĢÎ¹Î±":5338,"ĠÏĦÎ±ÏĩÏħÎ´ÏģÏĮ":5339,"ĠÎºÎ±ÏĦÏĥÎ¹ÎºÎ¬ÎºÎ¹":5340,"Î¿ÏĥÏĦÎ¬Î¸Î·ÎºÎµ":5341,"ĠÏĩÎµÎ¹Î¼ÏİÎ½Î±ÏĤ":5342,"ĠÎ±Î½ÏħÏĢÎ¿Î¼Î¿Î½":5343,"ĠÎ¼ÏĢÎµÏģÎ´Îµ":5344,"ĠÎ³ÎµÏīÎ³ÏģÎ¬ÏĨÎ¿ÏĤ":5345,"ĠÏĥÏĦÎ±Î¸Î¼ÏĮ":5346,"ĠÎ¬Î¼Î±Î¾Î±":5347,"ĠÏĥÏĢÎ¬ÏĥÎµÎ¹":5348,"Î»ÎºÎ·ÏĪÎ±":5349,"ĠÎ±Î½Î±ÎºÎ±Î»Ïį":5350,"ĠÎĨÎ½Î¸ÏģÏī":5351,"ĠÎ´Î¿ÏįÎ»ÎµÏħÎµ":5352,"ĠÎ¸Î·ÏĥÎ±ÏħÏģÏĮ":5353,"ĠÎ»Î¿Î³Î®ÏĤ":5354,"ĠÏĢÎŃÏĨÏĦÎµÎ¹":5355,"ĠÎ¼Î±Î³Î±Î¶Î¯":5356,"ĠÎºÎµÎ»Î¬ÏģÎ¹":5357,"ĠÎ²Î¬ÏģÎºÎ±":5358,"ĠÏĩÏĦÏħÏĢÎ¬ÎµÎ¹":5359,"ĠÏĢÎ¿ÏĦÎ®ÏģÎ¹":5360,"ĠÏĦÏĥÎ¯Ïģ":5361,"ĠÏĩÎ¿ÏģÎ¿ÏĢÎ·Î´":5362,"ĠÏĦÏģÎ¬Î²Î·Î¾Îµ":5363,"Î´ÎŃÏģÎ±Î¹Î¿":5364,"ĠÎĽÎ¿ÏħÎºÎ¬ÏĤ":5365,"ĠÏĢÎµÏģÎ¹ÏĢÎŃÏĦÎµÎ¹":5366,"ĠÎķÏħÏģÏħÏĥÎ¸ÎŃÎ±ÏĤ":5367,"ĠÎºÎµÏģÎ´Î¯":5368,"ĠÎ¼Î±ÏģÎ³Î±ÏģÎ¹ÏĦÎ¬ÏģÎ¹Î±":5369,"ĠÏĥÏĨÎ¹ÏĩÏĦÎ¬":5370,"ĠÎ»Î¬Î¼ÏĪÎ·":5371,"ĠÎ´Î±ÏĥÎºÎ¬Î»Î±":5372,"Î±Î³Î¿ÏģÎ¬ÎºÎ¹":5373,"ĠÎºÎ¿ÏĦÎ¿ÏĢÎ¿ÏħÎ»Î¬ÎºÎ¹":5374,"Î¿Î¹Î±":5375,"Î½ÏįÏĩÏĦÎ±":5376,"ÏĦÏĤ":5377,"ÏĦÏĥÏī":5378,"ÏĦÏģÎ¹Î±":5379,"ÏģÎº":5380,"ÏĥÎ¬Î½":5381,"ÏĥÏĥÎ¹":5382,"ÏĥÎ¿ÏįÏĥÎµ":5383,"ÏĥÎ¼Î¿Ïħ":5384,"ÏĥÏĦÎ¹ÎºÏĮÏĤ":5385,"ÏĥÂµÎŃÎ½Î±":5386,"Î¯Î¶ÎµÏĦÎ±Î¹":5387,"ÏĢÏģÎ¿":5388,"ÎºÎºÎ¿Ïį":5389,"ÎºÏģÎ¹Î²":5390,"ÎºÎ¿ÏĢÎ¿Î¹":5391,"ĠÎ¼Î¿":5392,"ĠÏĥÏĨÏħ":5393,"ĠÎ±ÏĦ":5394,"ĠÎ±ÏģÎ¬":5395,"ĠÎ±Î³Îµ":5396,"ĠÎ±Î¾Î¯Î±":5397,"ÏīÎ¼ÎŃÎ½Î¿ÏĤ":5398,"ÏħÏĥÏĦÏħÏĩ":5399,"ÏĩÏīÏĤ":5400,"Î´Î¿ÏĤ":5401,"Î´ÎŃÏĩÏĦÎ·ÎºÎµ":5402,"ĠÎ´Î¯Î½ÎµÎ¹":5403,"ĠÎ´ÎŃÏĥÎµÎ¹":5404,"ĠÎ³ÏģÏį":5405,"ÏİÏĥÎ¿ÏħÎ½":5406,"ĠÎ±ÏĢÎ»ÏİÏĤ":5407,"ĠÏĨÎ»ÏĮ":5408,"ĠÏĨÏĦÎ¹Î±Î³":5409,"ĠÎ¼ÎµÎ»Ïī":5410,"ĠÎ²Î¿Ïĥ":5411,"ĠÎºÎ±ÎºÎ¬":5412,"ĠÎºÎ±ÎºÎ¿":5413,"Î¼Î±ÏĤ":5414,"Î¼Î±ÏĥÏĦÎ±Î½":5415,"ĠÎ·ÏģÎµ":5416,"Î¿ÏģÎ´":5417,"ĠÎ®ÏĩÎ¿ÏĤ":5418,"ÎŃÎ½Î¹Î¿":5419,"Î¬Î½Î¿":5420,"ÏĥÎ±ÏĥÏĦÎµ":5421,"Î¹ÎºÏģÏĮ":5422,"ĠÏĢÎ±Î³ÎºÎ¬":5423,"Î¯Î½Îµ":5424,"ĠÎ¼ÎŃÏĦÏī":5425,"ĠÎ¼ÏĢÎ¿ÏħÎ½":5426,"ĠÎ¼ÏĢÎ¹Î¶":5427,"ÎºÎ±ÏĦÎµ":5428,"ĠÎĳÏħ":5429,"ĠÎĳÎ¼Î±":5430,"ĠÏĢÎµÏį":5431,"ĠÎļÎ¿Ïħ":5432,"ĠÂµÏħ":5433,"ĠÎķÏĢÎ¹":5434,"ĠÎķÎ»ÏĢÎ¯Î´Î±":5435,"Î³Î±Î¼Îµ":5436,"ĠÎłÎ¬Î½ÏĦÎ±":5437,"Î¸ÎµÏĥÎ·":5438,"ĠÏĢÎ¬ÏģÎµ":5439,"ÏģÎ®Î¸Î·ÎºÎµ":5440,"ÎľÏĢÏģÎ¬Î²Î¿":5441,"ĠÎ£Î®":5442,"Î¼ÏĢÏĦÎ¹":5443,"ĠÏĩÎ±Î¼Î·":5444,"Î¿ÏĢÎ»Î±Î³Î¹Î¬":5445,"Î´ÎµÎºÎ±":5446,"Î´ÎµÏģÏĨ":5447,"ĠÎĶÏĮÎ³Î·":5448,"Î»ÎŃÏĪÎµÎ¹":5449,"ĠÎ²Î±ÏĥÎ¹Î»ÎµÎ¯":5450,"ÎºÎ¿ÏįÏģÎ¹":5451,"ĠÎĮÏĢÎ¿Î¹Î¿ÏĤ":5452,"ĠÎ¾ÎµÏĩ":5453,"ÎºÎ¿Î²Îµ":5454,"ĠÎºÎ¿ÏħÏĦÎ±":5455,"ĠÎºÏĮÏĢÎ¿":5456,"ĠÎĺÎ±Î½Î±ÏĥÎ¬":5457,"Î£Îº":5458,"ÏįÏģÎ¹Î¶Î±Î½":5459,"Î¿ÏĥÏħ":5460,"ĠÎ±ÏģÎ³Î±Î»ÎµÎ¹":5461,"ĠÏĢÎµÏģÎ¹Î´ÎŃÏģÎ±Î¹Î¿":5462,"ĠÏĩÏīÏģÎ¹Î¬":5463,"ÏĥÎ¼ÎŃÎ½Î¿ÏħÏĤ":5464,"ĠÎ³ÎµÂµÎ¬":5465,"ĠÎ³ÎµÎ³Î¿Î½":5466,"ĠÎµÎ½ÏĦÎ¬Î¾ÎµÎ¹":5467,"ÏģÎ¹Î¬ÏĤ":5468,"Î¬ÏĥÎ¼Î±ÏĦÎ±":5469,"ĠÎ±Î½Î±Î³Î½Ïī":5470,"ĠÎ±Î½Î±ÏģÏīÏĦÎ¹":5471,"ĠÎĴÎ¿":5472,"ĠÎĿÎµ":5473,"ĠÎ´Î¹Î±ÎºÏģÎ¯":5474,"ĠÎºÎ±ÏĦÎ¬Î»Î±Î²Î±":5475,"Î¶Î±Î½Îµ":5476,"ÏİÎ½Î±ÏĤ":5477,"ĠÏĨÎ¯Î»Î·ÏĥÎµ":5478,"ĠÏĮÎ¼Î¿ÏģÏĨÎ¿ÏĤ":5479,"ĠÎµÎ¾Î·Î³Î®":5480,"ĠÎ²ÏģÎ¬ÏĩÎ¹Î±":5481,"ĠÏĨÏīÏĦÎ¹":5482,"ĠÎ¼Î·ÏĦÏģÎ¹Î¬":5483,"ĠÎ»Î±ÎºÎºÎ¿Ïį":5484,"ĠÏĩÏģÏĮÎ½Î¿ÏĤ":5485,"ĠÎ»ÏįÏĢÎ·":5486,"ĠÎºÎ¿ÏģÎ¼ÏĮ":5487,"ĠÏįÏĨÎ±":5488,"ĠÎºÏģÎ±ÏĦÎ®":5489,"ĠÎ´ÏģÏĮÎ¼Î¿ÏĤ":5490,"ĠÎ¦ÏİÎ½Î±Î¾Îµ":5491,"ĠÎºÎ±Î»ÏįÏĦÎµÏģÎ·":5492,"ĠÎ¼ÎµÏĦÎ±ÏĨÎŃÏģ":5493,"ĠÎ¶Î®ÏĥÎµÎ¹":5494,"ĠÂµÎ±ÎºÏģÎ¹Î¬":5495,"ĠÎ¶ÏİÏīÎ½":5496,"ĠÏĢÎ·Î³Î®":5497,"ĠÎ´Î¹Î¬ÏĨÎ¿Ïģ":5498,"ĠÎ´Î¹Î¬Î´ÏģÎ¿":5499,"ĠÏĪÎ¬ÏģÎ¹":5500,"ĠÎ¶Î·ÏĦÎ¹":5501,"ĠÎºÏĮÎºÎºÎ¹Î½ÎµÏĤ":5502,"ĠÎ±ÏģÎºÎµÏĦÎŃÏĤ":5503,"ĠÎºÎ¿ÏħÎ½ÎŃÎ»Î¹":5504,"ĠÎºÎ±ÏĦÎ¬ÏĨÎµÏģÎ±Î½":5505,"ĠÎ¼Î·ÏĦÎŃÏģÎ±ÏĤ":5506,"ĠÏĩÏİÏģÎ±ÏĤ":5507,"ÏĥÏħÎ½ÎŃÏĩ":5508,"ĠÎ´ÎµÎ¯ÏĦÎµ":5509,"ĠÎ²Î¿ÏħÎ½Î¿Ïį":5510,"ĠÎ¼Î¿Î¹ÏģÎ±":5511,"ĠÎ¬Î»Î¿Î³ÏĮ":5512,"ĠÏĨÎµÎ³Î³Î±":5513,"ĠÎ²Î±Î¸Ïį":5514,"ÎļÎ¬ÏĢÎ¿Î¹Î±":5515,"ĠÏĦÏģÎ¯ÏĦÎ¿":5516,"ĠÎ³Î½ÏİÏģÎ¹Î¶Îµ":5517,"ĠÏĥÏĦÏģÎ±ÏĦÎ¹ÏİÏĦÎµÏĤ":5518,"ĠÎºÎ±ÏĦÎµÏħÎ¸ÏįÎ½Î¸Î·ÎºÎµ":5519,"ĠÏĩÎ±ÏģÎ¿ÏįÎ¼ÎµÎ½Î¿":5520,"ĠÏĢÎ»Î±Î½Î®ÏĦÎ·ÏĤ":5521,"ĠÎºÎ±ÏģÎ¬Î²Î¹Î±":5522,"ĠÎºÎ¿ÏħÎ²ÎŃÎ½ÏĦÎ¹Î±":5523,"ĠÎĺÎŃÎ»ÎµÎ¹ÏĤ":5524,"ĠÏĥÎºÎ¿ÏħÏĢÎ¯":5525,"ĠÎ²Î¹Î±ÏĥÏĦÎ¹ÎºÎ¬":5526,"ĠÏĢÏģÎ¬ÏĥÎ¹Î½Î±":5527,"ĠÎ£Î¿ÎºÎ¿ÏĨÎ»Î®":5528,"ĠÏĢÎµÏģÎ¬ÏĥÎ¿ÏħÎ½":5529,"ĠÎļÎ¿Î¹ÂµÎ¯":5530,"ĠÎ½Î¿Î¹Î¬Î¶ÎµÎ¹":5531,"ĠÎµÏħÏĩÎ±ÏģÎ¹ÏĥÏĦÎ·Î¼ÎŃÎ½Î¿ÏĤ":5532,"ĠÏĦÎ±Î¾Î¹Î´":5533,"ĠÎ§ÏģÏħÏĥÎ±Î»":5534,"ĠÎ±ÏħÏĦÎ¿ÎºÎ¯Î½Î·ÏĦÎ±":5535,"ĠÏĥÏħÎ¼ÏĢÎ»Î®ÏģÏīÏĥÎµ":5536,"ĠÏĥÎºÎŃÏĢÎ±":5537,"ĠÏĨÏįÎ»Î±ÎºÎ±ÏĤ":5538,"ĠÎ¾ÏįÎ»Î¹Î½Î¿":5539,"ĠÎ²Î±ÏģÎŃÎ»Î¹":5540,"ÎºÎ¿ÏĥÎ¹":5541,"ĠÎ´ÎµÎ»ÏĨÎ¹Î½Î¬ÎºÎ¹":5542,"ĠÏĨÏģÎ¬Î¿Ïħ":5543,"ĠÏĢÎµÎ¸Î¬Î½ÎµÎ¹":5544,"ĠÎ±ÏĢÎ¿ÎºÎ¿Î¹Î¼Î®Î¸Î·ÎºÎµ":5545,"ĠÎ£ÏīÏĦÎ¯Î³ÏģÎ·ÏĤ":5546,"ĠÎµÎ»ÎŃÏĨÎ±Î½":5547,"ĠÏĢÎµÎ¹Î½Î¬ÎµÎ¹":5548,"ĠÏĥÏĦÏģÎ±ÏĦÎ¹ÏīÏĦÎ¬ÎºÎ¹":5549,"ĠÎ¼ÏħÏģÎ¼Î®Î³ÎºÎ¹Î±":5550,"ĠÎŃÎ»ÎµÎ¹ÏĢÎµ":5551,"âĢ´.":5552,"ĠÏĢÏģÎ¹Î³ÎºÎ¹ÏĢÏĮÏĢÎ¿ÏħÎ»Î±":5553,"ĠÏĢÎµÏģÎ¯ÏĢÏĦÏīÏĥÎ·":5554,"ĠÏĩÏģÏīÎ¼Î±ÏĦÎ¹":5555,"ĠÎ±ÏĢÏĮÏĨÎ±ÏĥÎ·":5556,"ĠÎ±ÏĢÎ¿Î¼Î±ÎºÏģÏįÎ½":5557,"ĠÏĢÎ±ÏĢÎ±Î³Î¬":5558,"ĠÏĨÏģÎ¬ÏĩÏĦÎ·":5559,"ĠÎ»Î±ÏĩÎ±Î½ÏĮÎºÎ·ÏĢÎ¿":5560,"ĠÏĥÏĦÎ±ÏĨÏįÎ»Î¹Î±":5561,"ĠÏĨÎ±ÏĥÎ±ÏģÎ¯Î±":5562,"ĠM":5563,"ĠÎıÏĥÏĢÎ¿Ïħ":5564,"Î½Î¿ÏįÏĥÎµ":5565,"ÏĦÎ¿ÏħÎ½":5566,"ÏģÎ³Î·":5567,"ĠÏĦÏį":5568,"Î¬ÏģÎ¹Î±":5569,"Î¯Î»Î·":5570,"Î¯ÏģÎ¹Î±":5571,"Î¯Î´ÎµÏĤ":5572,"ĠÎºÏĦÎ®":5573,"ĠÎºÎ¿Ïĥ":5574,"ĠÎºÎ¿ÏįÎ½Î¹Î±":5575,"ĠÏĢÏģÎ¿ÏĨ":5576,"ĠÏĢÎ¿ÏģÏĦÎ¿":5577,"ÏĮÏĥÎ±":5578,"ÏĮÎ»Ïħ":5579,"Î¼Î¿Ïĥ":5580,"ĠÏĥÏİÏĥÎµÎ¹":5581,"Î³Î¿ÏħÏĤ":5582,"ÏīÏĥÎ±":5583,"ÏħÏĥÎµ":5584,"ÎµÎ¹Î´":5585,"ĠÎµÏĥÎ¬":5586,"ÏĩÏģÎ¿Î½Î±":5587,"Î®Î¸Î·ÎºÎ±Î½":5588,"ĠÎŃÏĥÏī":5589,"Î´ÏģÎ¿ÏĤ":5590,"ÏģÎ±Î¼Î¯":5591,"ĠÎ³ÎŃÎ»Î±":5592,"ĠÎ³Î·ÏĤ":5593,"ĠÎ³Î»Ïį":5594,"ÏĥÎµÎ½":5595,"ÏģÎ¹ÏĮ":5596,"ĠÎ±ÏĢÎŃ":5597,"ĠÎ±ÏĢÎ»Ïİ":5598,"ÏĦÎ¹Î½ÏĮ":5599,"Î²ÏĮ":5600,"Î¶Î¬ÎºÎ¹":5601,"ĠÎºÎ±Î»Î·":5602,"ĠÎºÎ±ÏģÏħ":5603,"ĠÎºÎ±Î¼Î¹":5604,"ĠÎºÎ±ÎºÎ¹Î¬":5605,"ÎµÎ½ÏĦÎ¹Î¬":5606,"Î¿Î¹Î½Î¯":5607,"ÎµÎ¯ÏĦÎ±Î¹":5608,"ÎµÎ¯ÏĩÎ±Î½":5609,"ÂµÎ¿ÏĤ":5610,"ÏģÏĮÏĥÎµ":5611,"ĠÎ³Î¹Î±ÏĦÏģÏĮ":5612,"ĠÏĢÎ±Ïģ":5613,"ĠÏĢÎ±Ïĩ":5614,"ĠÏĢÎ±ÏĦÏģÎ¯":5615,"ÏģÎ¯ÎµÏĤ":5616,"ÏģÎ¯Î¶Î¿ÏħÎ½":5617,"Î»Î¿Î³":5618,"ĠÎºÎ¬ÏĦÎ¿Î¹":5619,"ÏĮÎ½Î¿ÏĤ":5620,"ĠÎ¼ÏĢÏĮÏĦÎµÏĤ":5621,"ÏģÏīÏĦÎ¬":5622,"ĠÏĢÎ¿Î»Îµ":5623,"ĠÏĢÎµÎ»Ïİ":5624,"ĠÏĦÎ¹Î¼Î®":5625,"ÏĢÎ±ÏĢÎ¿":5626,"ÏĪÎ¿ÏħÎ¼Îµ":5627,"Î¸Î·ÎºÎµÏĤ":5628,"ĠÎºÎ¹Î½Î®ÏĥÎµÎ¹ÏĤ":5629,"Î³Î±ÏĢ":5630,"ÏĢÎ¹Î¿":5631,"ÏĢÎ¹ÏĥÏĦ":5632,"ÎľÎ¬":5633,"ĠÎ£Î±ÏĤ":5634,"Î¼ÏĢÏĮ":5635,"Î¼ÏĢÎ±Î½":5636,"ĠÏĥÏĦÎ±Ïħ":5637,"ĠÏħÏĢÎ¬":5638,"ĠÎ¼Î¬Î½Î±":5639,"ĠÏĪÎ¯":5640,"ĠÏĪÏħÏĩ":5641,"ÎłÎ¿Ïį":5642,"ĠÎ¼ÎµÎ³Î¬Î»ÏīÏĥÎµ":5643,"ĠÏĨÎ¿Î²Î¹":5644,"ĠÏİÎ¼Î¿":5645,"ĠÎ±ÏģÏĥÎµÎ½":5646,"ĠÏĢÎµÏģÎ¹ÏĨ":5647,"Î¿ÏĨÏĮ":5648,"ĠÏĥÏħÎ½ÏĦÎ±Î³Î®":5649,"Î»Î¯Î¶ÎµÎ¹":5650,"Î¼ÎµÎ½Î¿ÏĤ":5651,"Î¼ÎµÎ½ÎµÏĤ":5652,"ĠÎ¬ÏģÏĩÎ¿Î½ÏĦÎ±ÏĤ":5653,"ĠÎµÎ½Ïħ":5654,"ĠÎµÎ½ÏĦÏħÏĢÏī":5655,"ĠÎ±Î½Î±ÎºÎ¬Î»Ïħ":5656,"ĠÏĢÎ¿Î»Î¹":5657,"ĠÎºÎ¿Î¹Î¼Î®Î¸Î·ÎºÎµ":5658,"ÎĪÏĢÎµÎ¹ÏĦÎ±":5659,"ĠÎ±ÏĨÏĦÎ¹Î¬":5660,"ĠÏĨÎ¯Î´Î¹Î±":5661,"ĠÎ»ÎŃÎ¼Îµ":5662,"ĠÎĨÎ³Î¹Î¿":5663,"ĠÎĨÎ»Î»ÏīÏĥÏĦÎµ":5664,"Î¿ÏįÎ»Î±ÏĤ":5665,"ÏĥÏĦÎ·ÏĤ":5666,"ĠÏĢÎ±ÏģÎ¬Î¾ÎµÎ½Î±":5667,"Î¼ÏĮÏĢÎ±ÏĢÎ¿":5668,"ÏĨÎµÏĦÎ±Î¹":5669,"Î¹ÎºÏĮÎ½Î±":5670,"ÏħÏĦÏĮÏĩÏģÎ¿Î½Î±":5671,"ÏĥÎ¯Î±ÏĤ":5672,"ĠÏĨÏīÏĦÎ¯":5673,"ĠÎ¼ÏĢÎ±Î¼ÏĢ":5674,"ĠÏĥÏħÎ¼ÏĨÏīÎ½":5675,"ĠÏĥÏħÎ¼ÏĨÏİÎ½Î·ÏĥÎµ":5676,"ÏĥÏįÏĩÎ±":5677,"ĠÏĩÏģÏĮÎ½Î¿Ïħ":5678,"ĠÏĢÎµÎ¹Î½Î±":5679,"ÎĵÎµÎ¹Î±":5680,"ĠÏĥÎ¹Î³Î¿Ïħ":5681,"Î¸Î¹Î¶Îµ":5682,"ĠÎ´ÏģÏĮÎ¼Î¿Ïħ":5683,"ĠÏĢÏģÎ¿Î²Î±":5684,"ĠÎ´Î¹Ïİ":5685,"ĠÎºÎ¿Î¯ÏĦÎ±Î¶Î±Î½":5686,"ĠÎ¤Î¹ÏĤ":5687,"ĠÎ»ÏĮÏĨÎ¿":5688,"ÏįÎ½ÏĦÎ¿Î¼Î±":5689,"ĠÏĦÏģÎ¹Î³Ïħ":5690,"ÏĦÎ¿ÏįÏĥÎ±":5691,"ĠÏĨÎ±Î½ÏĦÎ¬":5692,"ĠÏħÏĢÎ¿ÏĪ":5693,"ĠÏĦÏĮÏĢÎ¿":5694,"ĠÏĦÏĥÎ¿ÏĢ":5695,"ĠÎºÎ±ÏĦÎŃÎ»Î·":5696,"ĠÏĦÎŃÎ»ÎµÎ¹":5697,"ĠÎ´Î¬ÏĥÎ·":5698,"ÎŀÎµ":5699,"ĠÎºÎ¿Î»Î»Î·":5700,"ĠÎºÎ»ÎµÎ¹Î´Î¯":5701,"ĠÎºÎ¿Î¹ÏĦÎ¬Î¶Î¿Î½ÏĦÎ±ÏĤ":5702,"ĠÎ²ÎµÎ»Î±Î½":5703,"ĠÎ³ÎŃÎ»Î¹Î¿":5704,"ĠÎºÎ±Î¹Î½Î¿ÏįÏģ":5705,"ÏĦÎŃÎ»ÎµÎ¹":5706,"Î¼Î¼Î¼":5707,"ĠÎŃÏĨÏĦÎ¹Î±Î¾Î±Î½":5708,"ĠÏĢÎ»Î¿ÏįÏĥÎ¹Î±":5709,"ĠÎ´ÏįÎ½Î±ÂµÎ·":5710,"ĠÎ³Î½ÏİÏģÎ¹":5711,"Î»Î»Î·Î½":5712,"ĠÏĥÏĦÎŃÎº":5713,"ĠÎľÎ¬Î»Î¹ÏĥÏĦÎ±":5714,"ĠÏĥÎ¿Î²Î±ÏģÎ¬":5715,"ÏĦÎµÎ»ÏİÏĤ":5716,"ĠÎĶÎ¹ÏĮÎ½Ïħ":5717,"ÎłÎŃÏģÎ±ÏĥÎµ":5718,"ĠÏĥÏħÎ³ÏĩÏī":5719,"ĠÎµÎ»Î±ÏĨÎ¹":5720,"ĠÎµÎºÎ±ÏĦÎ¿Î¼Î¼ÏįÏģÎ¹Î±":5721,"ÎĳÏħÏĦÏĮÏĤ":5722,"ĠÎ¿ÏģÏĨÎ±Î½":5723,"ĠÎ©ÏĥÏĦÏĮÏĥÎ¿":5724,"ÎµÏħÎ¸ÏħÎ½":5725,"ĠÏĥÏĦÎ¿Î»Î¯Î´Î¹Î±":5726,"ĠÎ½Î¿Î¹ÎºÎ¿":5727,"ĠÎºÎ±Î¸Î·Î¼ÎµÏģÎ¹":5728,"ĠÎ»Î±Î¼ÏĢÎµÏģÎ¬":5729,"ĠÎ»Î±Î¼ÏĢÎµÏģÏĮ":5730,"ĠÏĩÏĦÎ±ÏĢÎ¿":5731,"ĠÎ¬Î½ÎµÎ¼Î¿ÏĤ":5732,"ĠÎºÏĮÏģÎ±ÎºÎ±ÏĤ":5733,"ĠÎ¸ÏįÎ¼ÏīÏĥÎµ":5734,"ĠÏĨÎ¿Î²Î¬Î¼Î±Î¹":5735,"ĠÏĩÏģÎ¿Î½ÏİÎ½":5736,"ĠÏĥÎ¿ÏįÏģÎ¿ÏħÏĢÎ¿":5737,"ĠÏħÎ³ÏģÏĮ":5738,"ĠÏĢÎ¹ÏĥÏĦÎµÏįÏī":5739,"ĠÎ±ÏĢÎ¿ÏĩÎ±Î¹ÏģÎµ":5740,"ĠÎ¸Î¬Î¼":5741,"ĠÎŁÏģÏĨÎŃÎ±":5742,"ĠÎĨÎ³Î³ÎµÎ»Î¿ÏĤ":5743,"ĠÏĥÎºÎ±Î½ÏĦÎ¶ÏĮÏĩÎ¿Î¹ÏģÎ¿ÏĤ":5744,"ĠÏĥÏįÎ¼Î²Î¿Ïħ":5745,"ĠÎºÎŃÏģÎ±ÏĦÎ±":5746,"ĠÏĢÎ»ÎµÏħÏģÎ¬":5747,"ĠÎµÎ½Î´Î¹Î±ÏĨÎŃÏģÎ¿Î½":5748,"ĠÏĥÏħÎ¼ÏĢÎµÏģÎ¹ÏĨÎ¿ÏģÎ¬":5749,"ĠÎ±ÏĥÏĦÏħÎ½Î¿":5750,"ĠÎ¼ÏĢÎ¬Î»ÎµÏĤ":5751,"ÎĺÎŃÎ»Ïī":5752,"ĠÎºÎ¿Î½ÏĦÎ¿ÏĥÏĦÎ¬Î¸Î·ÎºÎµ":5753,"ĠÎļÎ±ÏĦÎ¬Î»Î±Î²Îµ":5754,"ĠÏĢÎ±ÏĢÎ¿ÏħÏĦÏĥÎ®ÏĤ":5755,"ĠÎ¸ÏħÎ¼Î¯Î¶ÎµÎ¹":5756,"ĠÏĦÏĥÎµÎºÎ¿ÏįÏģÎ¹":5757,"ÏĥÏĢÎ¹Î¸Î±Î¼Î®":5758,"ĠÎļÎ¿Î½ÏĦÎ¿ÏģÎµÎ²Î¹Î¸Î¿ÏįÎ»Î·ÏĤ":5759,"ĠÎ±ÏĥÏĩÎ·Î¼ÏĮÏĢÎ±ÏĢÎ¿":5760,"ĠÎ±ÏĢÎŃÏģÎ±Î½":5761,"ĠÎķÎ»ÎŃÎ½Î·":5762,"ĠÎ³ÏģÎ±ÏĨÎµÎ¯Î¿":5763,"ĠÎ¼ÎµÎ»Î¿Î¼Î±ÎºÎ¬ÏģÎ¿Î½Î±":5764,"ĠÎ§Î»ÏĮÎ·":5765,"ĠÏĩÏģÏħÏĥÏĮÏĥÎºÎ¿Î½Î·":5766,"ÏħÏĥÏĦÏħÏĩÏİÏĤ":5767,"ĠÎ²Î±ÏĥÎ¹Î»ÎµÎ¯Î¿Ïħ":5768,";âĢ":5769,"ck":5770,"ol":5771,"Î±Ïģ":5772,"Î±Î»Î»Î¬":5773,"ÏĦÎ¿ÏįÎ¼Îµ":5774,"ÏģÎ¿ÏįÎ½":5775,"Î»Î¿ÏĨ":5776,"ÏĥÏĥÎµ":5777,"ÏĥÂµÎ±":5778,"ÏĥÂµÎŃÎ½Î¿ÏĤ":5779,"Î·Î¼ÎŃÎ½Î¿ÏĤ":5780,"Î¯Î¶Î¿ÏħÎ½":5781,"ĠÎºÎ¹Î±":5782,"ĠÎºÎ¯Î½Î·ÏĥÎ·":5783,"ÏĮÎ¼ÏīÏĤ":5784,"ĠÎ¼Î¿ÏģÏĨÎ®":5785,"ĠÎ¼Î¿Î»Ïħ":5786,"ĠÎ±Î·Î´":5787,"Î±Î½Î¸":5788,"ĠÎµÏģÏī":5789,"ĠÎµÏģÏİ":5790,"ÏĩÎ¿Î»":5791,"ĠÎ½Î¿Ïħ":5792,"ĠÎ½Ïį":5793,"ĠÎŃÏĥÏĢ":5794,"Î¸ÏīÏĤ":5795,"ĠÎ´Î¿Îº":5796,"ÏģÎ±Ïİ":5797,"ÏģÎ±Î¶Îµ":5798,"ĠÎ³ÏĮÎ½Î±":5799,"ÏĦÎ±Ïĩ":5800,"ÏĨÏĦÎ¹Î±":5801,"ĠÏĥÏĦÏģÏİ":5802,"ÏģÎ¹ÎµÏĤ":5803,"ÏģÎ¹ÎºÏĮ":5804,"ĠÎµÎ¯ÏĦÎµ":5805,"ĠÎµÎ¯ÏĩÎµÏĤ":5806,"ĠÎ¿ÏĢÏĮÏĦÎµ":5807,"ÏĦÎµÏħÎµ":5808,"ĠÏĮÏĢÎ¿ÏĦÎµ":5809,"ĠÎ±ÏĢÎ¬Î½Ïī":5810,"ĠÎ±ÏĢÎŃÎº":5811,"ĠÏĨÎŃ":5812,"ĠÏĦÎ±Îº":5813,"Î²Ïī":5814,"Î¶Ïħ":5815,"ÏģÎ¬ÏĨÎ·":5816,"ĠÎºÎ±ÏĢÎµ":5817,"Î¿Î½Î¿":5818,"ĠÏĩÏģÏħ":5819,"Î¾Î®":5820,"Î»Î¹Î¿ÏĤ":5821,"ĠÎ¸ÏģÏĮÎ½Î¿":5822,"ĠÎ¬Ïĩ":5823,"ĠÎ¬ÏĦÎ±Îº":5824,"Î»Î¬Î´ÎµÏĤ":5825,"Î»Î¬Î¼Î²":5826,"ĠÎ»Î¿Î³":5827,"Î¿ÏģÎ¯":5828,"ĠÎ®ÏģÎµÎ¼Î±":5829,"ĠÎ¸Î±ÏħÎ¼Î±":5830,"ÏĥÏĦÏģÏī":5831,"ÏĥÏĦÏĮÏĤ":5832,"ÏģÎµÏħÎµ":5833,"ĠÎ¤ÎŃÎ»Î¿ÏĤ":5834,"Î¯Î½Î¿Î½ÏĦÎ±Î½":5835,"ÏĮÎ½ÏĦÎ¹":5836,"ÏģÏīÎ½Îµ":5837,"ÏģÏīÎ¼ÎŃÎ½Î¿":5838,"ĠÎĳÎ»Î±Î½":5839,"ĠÎĳÏħÎ³Îµ":5840,"ĠÎĳÏģÎ¹ÏĥÏĦÎ¿":5841,"ĠÎĳÎ»ÎºÎ·ÏĪÎ±":5842,"ĠÎļÎ¿":5843,"ĠÎ±ÏħÏĦÎ¿Ïį":5844,"ĠÏĥÎµÎ²Î±":5845,"ĠÎ±Î½ÏĮÎ·":5846,"Î¼ÎŃÎ½Î¿ÏħÏĤ":5847,"ĠÂµÎŃ":5848,"ÏĢÎ¿Î´Î±":5849,"ĠÎķÎ½ÏĦÎ¬Î¾ÎµÎ¹":5850,"ĠÎķÎ¼ÎµÎ¯ÏĤ":5851,"Î½Î·ÏĤ":5852,"ÎľÏĢÎŃ":5853,"ÎľÎ®ÏĢÏīÏĤ":5854,"ĠÎ£ÏĮ":5855,"ĠÎ£Î·Îº":5856,"ÎļÎĻ":5857,"ĠÏĥÎºÏĮÎ½Î·":5858,"ÏİÎ½Î¹Î±":5859,"ÏĦÎ®ÏģÎ¹Î¿":5860,"Î½Î¿Î®":5861,"ĠÏĩÎ±ÏĬ":5862,"ĠÏĩÎ±ÏĥÎ¼Î¿Ïħ":5863,"Î¿ÏĢÎµ":5864,"ÎĳÎºÎ¿Ïį":5865,"ĠÎĪÎº":5866,"ĠÎĪÎºÎ±Î½Îµ":5867,"Î´ÎµÏħ":5868,"ĠÎĶÎ¹Î±":5869,"ĠÎ¬Î½ÏĦÏģÎµÏĤ":5870,"ĠÎ¾ÎµÏĢÎµ":5871,"ĠÎºÎ±Î¸Î¬":5872,"ĠÎºÎ±Î¸Ïħ":5873,"ĠÏĢÏĮÎ»ÎµÎ¹ÏĤ":5874,"ĠÏĢÏĮÏģÏĦÎµÏĤ":5875,"Î¿ÏĥÎº":5876,"ĠÎ±ÏģÎ½Î®Î¸Î·ÎºÎµ":5877,"ĠÎ±ÏģÎºÎ¿ÏħÎ´Î¯ÏĦÏĥÎ±":5878,"ĠÏĢÎµÏģÎ¹Î¿ÏĩÎ®":5879,"Î»Î¯Î´Î¹":5880,"ĠÎ¬ÏģÏĩÎ¿Î½ÏĦÎµÏĤ":5881,"ĠÎ½ÎµÏħ":5882,"ĠÎºÎ±ÏĦÎ±ÏĨ":5883,"ĠÎ±Î½Î±ÎºÎ¿":5884,"ĠÎ±Î½Î±ÏĨÏİÎ½Î·ÏĥÎµ":5885,"ĠÎ±Î½Î±Î³Î½Ïİ":5886,"ĠÎĴÎ¿ÏħÎ½":5887,"ĠÎºÎ¿Î¹Î¼":5888,"ÎĪÎ½Î±ÏĤ":5889,"ĠÎºÎ±Î½Î±":5890,"Î¸ÎµÎ¯ÏĦÎµ":5891,"ĠÎ¹ÏĢ":5892,"ĠÎ³ÏħÎ¬Î»Î¹":5893,"ÂµÎ±ÏĥÏĦÎµ":5894,"ĠÎºÎ±Î»Î¿ÏĥÏįÎ½Î·":5895,"ĠÎĨÎ³Î¹Î¿ÏĤ":5896,"ĠÏĢÎ¯Î½Î±":5897,"ĠÎľÎ±Î¶Î¯":5898,"ĠÎ²ÏģÎ¬Î´Î¹Î±":5899,"ĠÎ´Î¯ÎºÎ±Î¹":5900,"Î¿Î³ÏģÎ±":5901,"ĠÎ¼ÎµÏĦÎ¬Î¾Î¹":5902,"ĠÏĨÏīÎ»Î¹ÎŃÏĤ":5903,"ĠÎ¼ÏĢÎ±Î»ÏĮÎ½Î¹":5904,"ĠÏĥÏħÎ¼Î²Î¿Ïį":5905,"ĠÎľÎµÏģÎ¹":5906,"Î¾Î±Î½Î±":5907,"ÎĵÎ¹Ïİ":5908,"ĠÎ¬ÎºÎ¿ÏħÏĥÎ±":5909,"ĠÏĥÎ±ÎºÎ¹Î¬":5910,"ĠÎ¬Î»Î»Î±Î¾Îµ":5911,"ĠÎ³Î¯Î½Î¿Î½ÏĦÎ±Î½":5912,"ĠÎºÎ¿Î¯ÏĦÎ±Î¾Î±Î½":5913,"ĠÎĳÎ½ÏĦÎ¹Î³":5914,"ÎĻÎĵ":5915,"ĠÎŃÎ²Î±Î¶Îµ":5916,"ĠÎ»Î¿ÏħÎ»Î¿Ïħ":5917,"ĠÏĦÏģÎ±Î²":5918,"ĠÎºÎ¿ÏģÎ¹ÏĦÏĥÎ¹":5919,"ĠÏĢÎµÏģÎ½Î¬":5920,"ĠÏĢÎµÏģÎ½Î¿ÏįÎ½":5921,"ĠÂµÎ±ÂµÎ¬":5922,"ÏģÎ¿ÏĨÎ®ÏĤ":5923,"ĠÎ½ÏįÏĩÏĦÏīÏĥÎµ":5924,"ĠÎ´ÏİÏĥÎµÎ¹ÏĤ":5925,"ĠÎºÎ®ÏĢÎ¿ÏĤ":5926,"ÏĦÎ¿ÏįÎ»ÎµÏĤ":5927,"ĠÎºÎ»Î±Î¯":5928,"ĠÎŃÏĢÎµÏĥÎ±Î½":5929,"ĠÏĥÏĢÎ¹ÏĦÎ¬ÎºÎ¹Î±":5930,"ĠÎ¸ÎŃÎ»Î·ÏĥÎµ":5931,"ĠÎĻÎ½":5932,"ĠÎĻÎ¿ÏģÎ´":5933,"ĠÎ±ÏĢÎ±ÏĥÏĩÎ¿Î»":5934,"ĠÎ¬ÏĨÎ·ÏĥÎ±Î½":5935,"ĠÎ£ÏĦÎ±ÏįÏģÎ¿ÏĤ":5936,"ĠÎ´ÏīÎ¼Î¬ÏĦÎ¹ÏĮ":5937,"ĠÎºÏģÎµÎ¼Î¬":5938,"ĠÏĨÏĦÎ¬Î½ÎµÎ¹":5939,"ĠÎ¸ÎµÏī":5940,"ĠÎ¸ÎµÏģÎ±":5941,"ĠÎ¸ÎµÏĮÏĤ":5942,"ĠÎºÎ¿ÏħÎ½Î¹":5943,"ĠÏĢÎ»Î¬Î¹":5944,"ĠÏĨÎ¹Î»":5945,"ÎĨÎºÎ¿Ïħ":5946,"ĠÎŃÎ²Î³Î±Î¶Îµ":5947,"ĠÎ³ÎµÎ½Î½Î®Î¸Î·ÎºÎµ":5948,"ĠÎ³ÏħÏģÎ¯ÏĥÏī":5949,"Î¯Î³Î¿ÏħÏģÎ±":5950,"ĠÎ´ÎµÎ¯Î¾ÎµÎ¹":5951,"ĠÏĢÏħÏģÎ±Î¼Î¯":5952,"ĠÏĨÏīÎ½Î¬Î¶Î¿ÏħÎ½":5953,"ĠÏĩÏģÎµÎ¹Î¬ÏĥÏĦÎ·ÎºÎµ":5954,"ĠÎ±Î½ÎŃÎ²Î±Î¹Î½Îµ":5955,"ĠÎ±Î½ÎŃÎ²Î·ÎºÎ±Î½":5956,"ĠÎºÎ¿ÏħÎ²ÎµÎ½ÏĦÎ¹Î¬":5957,"ĠÎºÎ±ÏĦÎŃÎ²ÎµÎ¹":5958,"ĠÎµÏĢÎŃÏĥÏĦÏģÎµÏĨÎµ":5959,"ĠÏĢÎµÏģÎ¹Î¼ÎŃÎ½Ïī":5960,"Î³ÏģÎ¬ÏĨ":5961,"ĠÏĢÎ»Î·ÏĥÎ¯Î±Î¶Îµ":5962,"ĠÎĺÎµÎ¿Ïį":5963,"ĠÏĥÏĦÎ¿Î»Î®":5964,"ĠÏĦÏģÎ±Î³Î¿ÏħÎ´Î¬ÎµÎ¹":5965,"ĠÏĩÎ±Î¼Î¿Î³ÎµÎ»Î±":5966,"ĠÎµÏĢÎ¹ÏĥÏĦÏģÎŃÏĪÎµÎ¹":5967,"ĠÏĩÎ±Î¹ÏģÏĮÏĦÎ±Î½":5968,"ĠÏĪÎ¬ÏĩÎ½Î¿ÏħÎ½":5969,"ĠÏĥÎ¿ÏĨÏĮÏĤ":5970,"ĠÎµÏĦÎ¿Î¹Î¼Î±":5971,"ĠÏĢÎ±ÏģÎ¬Î¾ÎµÎ½Î·":5972,"ÏĨÏİÎ½Î·ÏĥÎ±Î½":5973,"ĠÂµÏĢÎ¿ÏģÎ¿ÏįÏĥÎµ":5974,"ĠÎŃÏĪÎ±ÏĩÎ½Î±Î½":5975,"ĠÏĥÏĩÎ®Î¼Î±":5976,"ĠÎ³ÏįÏģÎ¹Î¶Îµ":5977,"ĠÏĢÏģÎ¬ÏĥÎ¹Î½Î¿":5978,"ĠÎĳÏĥÏĢÏģÎ±Î»Î¿Î³Î¿Î³Î¹ÏĮ":5979,"ĠÏĥÏĦÎ±Î¼Î±ÏĦÎ®ÏĥÎµÎ¹":5980,"ĠÎ±Î³ÏģÎ¹ÏĮ":5981,"ĠÎ¼Î¿Î¹Î¬Î¶Î¿ÏħÎ½":5982,"ĠÎ¼Î·ÏĩÎ±Î½Î®":5983,"ĠÏĢÎ±Î¯ÏģÎ½ÎµÎ¹":5984,"ĠÎºÎ¿Î»ÏħÎ¼ÏĢÎ¿ÏįÏĥÎ±Î½":5985,"ĠÏĨÏįÏĥÎ·Î¾Îµ":5986,"ĠÎ¶ÎµÏħÎ³Î¬ÏģÎ¹Î±":5987,"ĠÎ»Î¹Î³Î¿Ïĥ":5988,"Î»ÏįÏĦÎµÏģÎ±":5989,"ÎĴÎ±ÏĥÎ¹Î»Î¹Î¬":5990,"ĠÎµÎ¾ÎµÏģÎµÏħ":5991,"ĠÎµÏĢÎ±Î½ÎŃÎ»Î±Î²Îµ":5992,"ĠÎ¦Î±ÏģÎ±Ïİ":5993,"ĠÎ±ÏģÏĩÎ±Î¯Î±":5994,"ĠÏĥÏħÎ¼Î²Î¿ÏħÎ»Î®":5995,"ĠÎ³Î±Î»Î¬Î¶Î¹Î±":5996,"ĠÏĩÎ¿ÏģÎµÏįÎ¿ÏħÎ½":5997,"ĠÏĢÏħÎºÎ½ÏĮ":5998,"ĠÎ¼Î¿Î½Î±Î´Î¹ÎºÎ®":5999,"ĠÎŃÎ³ÏģÎ±ÏĨÎµ":6000,"ĠÎĳÎºÏĮÎ¼Î·":6001,"ĠÏĥÎºÎ±ÏģÏĨÎ±":6002,"ĠÏĥÏĦÎµÎ½Î¿ÏĩÏīÏģÎ·":6003,"ĠÏĥÏĦÎ¬Î²Î»Î¿":6004,"ĠÂµÏĢÎ±ÂµÏĢÎ¬":6005,"ĠÎ³Î±Î»Î±ÏĦÎ¬ÎºÎ¹":6006,"ĠÎ±ÏĥÎ·Î¼ÎŃÎ½":6007,"ĠÎļÎ±ÏģÎ´Î¿ÏįÎ»Î±":6008,"ĠÏĩÎ±Î¹ÏģÎŃÏĦÎ·ÏĥÎµ":6009,"ĠÏĥÏĢÏĮÏģÎ¿ÏħÏĤ":6010,"ĠÎ¿Î´Î®Î³Î·ÏĥÎµ":6011,"ĠÏĩÎ¬Î¹Î´ÎµÏĪÎµ":6012,"ĠÏħÏĢÎ¿ÏĥÏĩÎŃÎ¸Î·ÎºÎµ":6013,"ĠÎŃÎ´ÎµÏĥÎµ":6014,"ĠÎ¬Î´ÎµÎ¹Î¿":6015,"ĠÏĥÏĢÎ±Î¸Î¯":6016,"ĠÎ¾ÎµÏĨÏįÎ³ÎµÎ¹":6017,"ĠÎºÎ¿Î¹Î¼Î¬ÏĦÎ±Î¹":6018,"ÎĽÎ¯Î³Î¿":6019,"ĠÎ³ÎµÎ¯ÏĦÎ¿Î½ÎµÏĤ":6020,"ĠÏĮÏĢÎ¿Î¹Î¿Î½":6021,"ÂµÎµÎ¹Î½Îµ":6022,"ĠÏĨÎ±ÏģÎ¼Î±ÎºÎ¿ÏĢÎ¿Î¹":6023,"ĠÎ¶ÏīÎ¿Î»Î¿Î³Î¹ÎºÏĮ":6024,"ĠÎ¶Î¿ÏįÎ³ÎºÎ»Î±":6025,"ĠÎ¼ÏĢÎŃÎµÎµ":6026,"ĠÏĢÎŃÎ¸Î±Î½Îµ":6027,"ĠÎ±ÏĢÎ±ÏĦÎµÏİÎ½ÎµÏĤ":6028,"ĠÏĢÎ¿Î»Î»Î±ÏĢÎ»Î±ÏĥÎ¹Î±ÏĥÎ¼ÏĮ":6029,"ĠÎľÏĢÎŃÏĦÏħ":6030,"ĠÏĩÎµÎ»ÏİÎ½Î±":6031,"ĠÎµÏĥÎ¬ÏĤ":6032,"ĠÎµÎ½ÏħÎ´":6033,"ĠÎºÎ±Î¹Î½Î¿ÏįÏģÎ³Î¹Î±":6034,"ĠÎŃÏĥÏĢÏģÏī":6035,"Î»Î¬Î¼Î²Î±Î½Îµ":6036,"ĠÎĳÎ»Î±Î½ÏĦÎ¯Î½":6037,"ĠÎĳÏģÎ¹ÏĥÏĦÎ¿Î¼ÎŃÎ½Î·":6038,"ÎľÏĢÎŃÎµÎµ":6039,"Î¹Î´Î¹Î¬":6040,"ÎµÏħÏĦÏħÏĩ":6041,"ÎµÏģÏīÏĦÎ®Î¸Î·ÎºÎµ":6042,"Î½ÏĦÎµ":6043,"Î½Î¯Î±":6044,"ÏĦÏİÎ½ÎµÎ¹":6045,"ÏģÏĨÎ¬ÎºÎ¹Î±":6046,"Î»Î¸Îµ":6047,"ÏĥÎ¼Î¿ÏįÏĤ":6048,"Î·ÏĥÎ±":6049,"Î¯Î´Î¹Î±":6050,"ĠÎºÎŃÏģ":6051,"ÏĢÎ¿ÏĨ":6052,"ĠÏĢÎ»Î®":6053,"ĠÏĢÎ»Î¿Ïħ":6054,"ÏĮÎ´Î¿":6055,"Î¼Î¼ÎŃÎ½Î¿ÏĤ":6056,"Î¼ÎŃÏĥÎ±":6057,"ÎŃÎºÎ±Î½Îµ":6058,"Î±Î¹Î´Î¹Î¬":6059,"ĠÎ¼ÏĮÎ½Î±":6060,"ĠÎ±Î»Î±":6061,"Î³Î¿ÏħÎ¼Îµ":6062,"Î³Î¹ÎºÏĮ":6063,"Î³Î»Ïį":6064,"Î±Î½Î±Î½":6065,"ÏħÏĢÎ®":6066,"ÏħÏĥÎ¹ÎºÎ¬":6067,"ĠÎµÏĨÎ±":6068,"Î¹Î±ÏĥÎ±Î½":6069,"ÏĩÏĦÏĮ":6070,"ĠÎ½Î¹Îº":6071,"Î®ÏĥÎ¿ÏħÎ½":6072,"ĠÎŃÎºÎ±Î¹":6073,"ĠÏĦÎ¿ÏħÏģ":6074,"Î¸Î¿ÏįÎ¼Îµ":6075,"Î¸Î¬Î½Ïī":6076,"ĠÎ´ÏĮ":6077,"ĠÎ´Î±Î½":6078,"ĠÎ³ÏīÎ½Î¯Î±":6079,"ĠÎ³Î¿ÏįÏģ":6080,"ÏİÏĥÏī":6081,"ÏĨÎ·ÏĥÎµ":6082,"ÏĨÏħÎ³Îµ":6083,"ÏĨÎ¬ÏĥÎ¼Î±ÏĦÎ±":6084,"ĠÏĥÏĦÎ¿Î¹":6085,"ĠÏĥÏĦÎ¿Ïĥ":6086,"ĠÎµÎ¯ÎºÎ¿ÏĥÎ¹":6087,"ÏĦÎµÏįÏĦÎ·ÎºÎµ":6088,"ĠÏĨÎ¸Î¹":6089,"ÏĦÎ¹Î½":6090,"ĠÏĦÎ±Î»Î±Î¹ÏĢÏī":6091,"ĠÎ²ÏģÎ¿Î½":6092,"ĠÎºÎ±ÏģÎ¿":6093,"ĠÎºÎ±ÎºÎ¯Î±":6094,"Î¾Î¬Î½Î·":6095,"ĠÏĢÎ¿ÏħÎ½":6096,"ÏĦÎ¬Ïī":6097,"Î¼Î±Ïģ":6098,"ĠÎ¸Î¬Î»Î±":6099,"ÂµÎ¹Î±":6100,"ĠÎ¬ÏĥÏĦÎµ":6101,"ĠÎ»Î¬Ïĥ":6102,"ĠÎ±ÏĢÏĮÎ»Ïħ":6103,"Î¿ÏģÎ³":6104,"Î¹ÎºÎ¿Î½":6105,"Î¹ÎºÏģÎ®":6106,"ÎºÎµÎ»Î±":6107,"ÏĥÎ¹ÎŃÏĤ":6108,"ĠÏĢÎ±ÏĢÎ¬ÎºÎ¹Î±":6109,"ÏħÏĦÎ¿":6110,"ÏħÏĦÎ®":6111,"ÏģÎ¯ÏĥÏī":6112,"ĠÎ¸Î±Î»Î±":6113,"ÏĥÏĦÎ¿Î»":6114,"ÏĥÏĦÎ¿ÏįÎ¼Îµ":6115,"Î»Î·ÏĦÏĮ":6116,"ÏģÎµÏĪÎµ":6117,"Î»ÎµÎ³Îµ":6118,"Î·Î½Î±Î½":6119,"ĠÎ¼ÎŃÏĦÏģÎ±":6120,"ÎºÎ±Î»Î±":6121,"ĠÎ±ÏħÏĦÎ¿ÎºÎ¹":6122,"ĠÎľÎ±ÏĤ":6123,"ĠÏĥÎµÎ»Î¯Î´Î±":6124,"ĠÂµÏĢÏģÎ¿ÏĥÏĦÎ¬":6125,"ÏĪÎ¹Î¬":6126,"ÏĢÎ¿Î¯":6127,"ÎºÎ¬ÏĦÏī":6128,"ĠÏĥÏħÎ»":6129,"ĠÏĥÏħÂµ":6130,"Î¤Î·ÏĤ":6131,"ĠÎłÎ¿Î¹":6132,"ĠÎłÎ¬Î½Ïī":6133,"Î»Î¹Î¬ÏĤ":6134,"ÏģÎ·ÏĥÎ·":6135,"ÏĥÏĦÎµÏĤ":6136,"ÎŁÎĻ":6137,"ÏģÏİÏĥÏī":6138,"ĠÎ£ÏĦÎ¿Î½":6139,"ĠÎ¬Î»Î»Î¿Ïħ":6140,"ĠÏĥÏĦÎ±Î³ÏĮÎ½ÎµÏĤ":6141,"ÏĦÎ±Î¹Î±":6142,"ĠÏĢÎ±Î¹Î´Î¹Î¿Ïį":6143,"ÏĢÎ¯ÏĥÏĦ":6144,"ÎĳÎ»Î®":6145,"Î´ÎµÏįÎ¿ÏħÎ½":6146,"ÏģÏħÏĢ":6147,"Î²Î±Î¯":6148,"ĠÎºÎ¬Î½Î¿Î½ÏĦÎ±ÏĤ":6149,"ĠÏĪÎŃÎ¼Î±ÏĦÎ±":6150,"ÎķÎ½":6151,"ÎķÏħÏĦÏħÏĩ":6152,"Î»ÎŃÎ±":6153,"ĠÎ²Î±ÏĥÎ¹Î»Î¹ÎºÎ®":6154,"ĠÎ±Î»Î»Î¬Î¶ÎµÎ¹":6155,"ÎºÎ¿ÏįÏģÎ±":6156,"ĠÎ´ÏħÏĮ":6157,"ÏĢÎ¬Î¸Î·ÏĥÎµ":6158,"Î¼Î·ÏĩÎ±Î½":6159,"ĠÎ´ÎµÎ»ÏĨ":6160,"ĠÏĢÎ±ÏģÎ±Î¼Î¿Î½Î®":6161,"Î»Î¯Î´ÎµÏĤ":6162,"ĠÏĦÎµÏĦÏģÎ¬":6163,"ĠÎ³ÎµÎ»Î¿ÏįÏĥÎ±Î½":6164,"ĠÎ³ÎµÏįÏĥÎ·":6165,"ĠÎºÏħÎ»Î¿ÏįÏĥÎ±Î½":6166,"ĠÎµÎ½Î½Î¿":6167,"ĠÎµÎ½ÏĦÎµÎ»ÏİÏĤ":6168,"Î¬ÏĥÎ¿ÏħÎ¼Îµ":6169,"ĠÏĢÎ¿Î´Î±":6170,"ĠÎºÎ±ÏĦÎ¬Î»ÎµÏħ":6171,"ÎĪÏĩÏī":6172,"Î³Î®Î¸Î·ÎºÎµ":6173,"ĠÎ³ÏħÎ¼":6174,"ÏģÏįÏĥÎ·":6175,"ĠÎ¶ÏīÎ·":6176,"ĠÎ²Î¬Î¶ÎµÎ¹":6177,"ĠÎ±Î¼Î¯Î»Î·":6178,"ĠÏĨÏįÎ³ÎµÎ¹ÏĤ":6179,"ÏĦÏħÏĩÎµ":6180,"ĠÎµÎ¾Î·":6181,"ĠÎµÎ¾ÎŃÏĦÎ±":6182,"ÏĩÎ¹Î¿Î½":6183,"ĠÎĽÎ¿Ïį":6184,"ĠÎĽÎµÏĤ":6185,"ĠÎļÎ±Î¸":6186,"ĠÎļÎ±Î»Î·":6187,"ĠÎ±ÏģÏĩÎ¿Î½":6188,"ĠÎ¡Î¿":6189,"ĠÎ¡ÏĮ":6190,"ĠÏĩÎ¬Î¸Î·ÎºÎ±Î½":6191,"ĠÎ»Î±Î³ÏĮ":6192,"Î¹ÏĥÏĦÎ¬":6193,"ĠÎľÎµÎ»Ïī":6194,"ÎŃÏĪÏī":6195,"ÏĥÏĢÎŃÏģÎ±":6196,"ĠÎ»Î¹Î³Î¬ÎºÎ¹":6197,"ĠÎ¼Î±ÎºÏģÏį":6198,"ĠÎºÎ±ÏģÏĢÎ¿Ïį":6199,"ĠÎºÎ±ÏģÎ´Î¿ÏįÎ»Î±":6200,"ĠÎ¼Î±Î¼Î¬ÏĤ":6201,"ĠÎ´Î¹ÎŃÏĦÎ±Î¾Îµ":6202,"ĠÎ¿ÏĢÎ¿Î¯":6203,"ĠÏĥÏĦÎ¹Î³ÂµÎ®":6204,"ĠÎ»ÏĮÎ³Î¿ÏĤ":6205,"ĠÎ¸ÏħÎ¼ÏĮÏĦÎ±Î½":6206,"ĠÏĥÎºÎŃÏĨÏĦÎµ":6207,"ĠÎ±Î½Î¸ÏģÏİÏĢÎ¿Ïħ":6208,"ĠÎ´ÏİÏĥÎ¿ÏħÎ½":6209,"ĠÎ´ÏİÎ´ÎµÎºÎ±":6210,"ĠÎ¯Î´Î¹Î¿Î¹":6211,"Î²Î¹Î²":6212,"ĠÏĦÏģÎ¹Î±Î½ÏĦÎ±":6213,"ĠÏĥÎºÎµÏĢÎ¬":6214,"ĠÎ®Î¾ÎµÏģÎ±":6215,"ÏĥÏĦÎ®ÏģÎ¹":6216,"ÏģÎ³Î¯Î±":6217,"ÏģÎ³Î¹Î¿":6218,"ĠÎŃÎ»Î±Î¼ÏĢÎµ":6219,"ĠÎļÎ¬Î¸Î¹ÏĥÎµ":6220,"ÏĢÎ¬ÏģÏĩÎµÎ¹":6221,"ĠÎ¼Î±Î³Î¹ÎºÎŃÏĤ":6222,"ĠÎ¸ÎŃÎ¼Î±":6223,"ĠÎ±Î´ÎµÏģÏĨÎ¬ÎºÎ¹Î±":6224,"ĠÎ±ÏĢÎ±Î»ÏĮ":6225,"Î³Î³Ïħ":6226,"ĠÏĦÏĥÎ¬Î½ÏĦÎ±":6227,"ĠÎ±ÏĨÎ®ÏĥÎ¿ÏħÎ¼Îµ":6228,"ĠÎ£ÏĦÎ±ÏįÏģÎ¿":6229,"ÏĦÏģÏīÎ½":6230,"ÎºÎ¿Î»Î¿Ïį":6231,"ÎŃÏĢÎ±Î¹":6232,"ÎŀÎŃÏģÎµÎ¹ÏĤ":6233,"ÏĥÏĦÏģÎ¿ÎĵÎ¹Ïİ":6234,"ĠÎºÎ¿Î¹ÏĦÎ¬Î¾ÎµÎ¹":6235,"ĠÎ³ÏħÏģÎ¯ÏĥÎ¿ÏħÎ½":6236,"ĠÏģÎ¯ÏĩÎ½":6237,"ĠÎŃÏĥÏĢÎ±ÏĥÎµ":6238,"ĠÎ²Î¿Î·Î¸Î®ÏĥÏī":6239,"ÎķÎºÎµÎ¯Î½Î¿ÏĤ":6240,"ĠÏĢÎŃÏĦÎ±Î¾Î±Î½":6241,"ĠÏĥÎºÎ±Î¼":6242,"ĠÏĨÏĦÏīÏĩÏĮÏĤ":6243,"Î¿ÏĢÎ¿Î¹Î®ÏĥÎµÎ¹":6244,"ĠÎŃÏĦÎ¿Î¹Î¼Î·":6245,"ÎºÏģÎ·ÏĦÎ¯Î±":6246,"ĠÎºÎ±ÏĦÎŃÎ²Î±Î¹Î½Îµ":6247,"ĠÎ³Î½ÏİÎ¼Î·":6248,"ĠÏĥÏĦÎµÎ½Î±ÏĩÏİ":6249,"ĠÏĦÎ¿ÏįÏĦÎ¿":6250,"ĠÏĥÏĦÏģÎ±ÏĦÎ¹ÏİÏĦÎ·":6251,"ĠÏĦÏĥÎ±Î»Î±":6252,"ÏĮÏģÎ±ÏĥÎ·":6253,"ĠÎ¿Î´Î·Î³ÏĮÏĤ":6254,"ĠÎºÎ±Î¸Î±ÏģÏĮ":6255,"ÂµÎµÎ½Î·":6256,"ĠÏħÏĢÎ¿Î¼Î¿Î½Î®":6257,"ĠÎµÏĢÎ¹ÏĥÏĦÏģÎ¿ÏĨÎ®ÏĤ":6258,"ĠÎ»Î¯Î¼Î½Î·ÏĤ":6259,"ĠÏĩÎµÎ»Î¹":6260,"ĠÏĪÎ¬ÏĩÎ½Î¿Î½ÏĦÎ±ÏĤ":6261,"ĠÎ´ÏħÏĥÏĦÏħÏĩÎ¹":6262,"ĠÎ±ÏĥÏĦÎµÎ¯Î¿":6263,"ÏĨÏĦÎ±ÏĥÏĢÎ¹Î¸Î±Î¼Î®":6264,"ĠÏĦÏģÎŃÏĩÎ¿ÏħÎ½":6265,"ĠÎ²ÏģÎ¯ÏĥÎºÎ¿Î½ÏĦÎ±Î¹":6266,"ĠÎ¼Î¹ÏĥÏĮ":6267,"ĠÏĨÎ¿ÏħÏĥÎº":6268,"ĠÏĨÎ¿ÏħÏĥÏĦÎ¬":6269,"ÎºÎµÎ¹ÏĦÎ±Î¹":6270,"ĠÏĦÎ±ÏĩÏį":6271,"ĠÎ¾ÎµÎºÎ¿ÏħÏģÎ¬":6272,"ĠÏĢÎ¿Î½ÏĦÎ¹ÎºÎ¿Î¯":6273,"ĠÎłÎ¬Î¼Îµ":6274,"ĠÎºÎ»ÎŃÏĨÏĦÎµÏĤ":6275,"ĠÏĥÎºÎ»Î·ÏģÎ¬":6276,"ĠÎŃÏĢÎ¹Î½Îµ":6277,"ĠÎ±ÏĢÎ±Î½ÏĦÎ¿ÏįÏĥÎµ":6278,"ĠÎļÏħÏģÎ¹Î¬":6279,"ĠÎ²Î¬Î»ÏĦÎ¿":6280,"ĠÏĢÎ±ÏģÎ¿ÏħÏĥÎ¹Î¬ÏĥÏĦÎ·ÎºÎµ":6281,"ĠÎ£ÏħÎ½ÎŃÏĩ":6282,"ĠÎ§ÏģÏħÏĥÎ±ÏĨ":6283,"ĠÏĥÎ¹ÏīÏĢÎ®":6284,"ĠÏĩÎ¿Î½ÏĦÏģÏĮ":6285,"ĠÎ½ÎµÎ±ÏģÏĮÏĤ":6286,"ĠÏĥÏĦÎ±Î¸Î¼Î¬":6287,"ĠÎ·Î»Î¹ÎºÎ¯Î±":6288,"ĠÎ¤Î¯Î³":6289,"ĠÎ¤Î¯ÏĢÎ¿ÏĦÎ±":6290,"ĠÎ¶Î±ÏĩÎ±":6291,"ĠÎ¬ÏĢÎ»ÏīÏĥÎµ":6292,"ĠÎ¶ÎµÏĥÏĦÎ±ÏĥÎ¹Î¬":6293,"ĠÎµÏĢÎ¹ÎºÎ¯Î½Î´ÏħÎ½Î¿":6294,"ĠÏĢÎ¿Î»ÏįÏĩÏģÏīÎ¼Î±":6295,"ĠÎµÎ¾ÎµÏĦÎ¬":6296,"ĠÎ´Î¹ÎºÎ±ÏĥÏĦÎ®ÏĤ":6297,"ĠÏĩÏģÎ¿Î½Î¹Î¬":6298,"ĠÎ³ÏħÎ±Î»Î¹Î¬":6299,"ĠÏĥÏħÎ½Î¿Î´ÎµÎ¯Î±":6300,"Î¼ÎµÎ¯Î½ÎµÎ¹":6301,"ĠÎµÎ»ÎµÏįÎ¸ÎµÏģÎ¿":6302,"ĠÏĨÏģÏĮÎ½ÏĦÎ¹Î¶Îµ":6303,"ĠÎĳÎ»ÎŃÎ¾Î±Î½":6304,"ĠÎµÎ¼ÏĢÏĮ":6305,"ĠÎ±ÏĢÎ¿Î³Î¿Î·ÏĦÎµÏħÎ¼ÎŃÎ½Î¿ÏĤ":6306,"ĠÎ²Î¿Î®Î¸Î·ÏĥÎµ":6307,"ĠÎ¼Î¿Î½Î±Î´Î¹ÎºÏĮ":6308,"Î»Î¹ÏĦÎ¶Î¬Î½ÎµÏĤ":6309,"ĠÎºÎ¯Î½Î´ÏħÎ½Î¿":6310,"ĠÎ´Î¹Î±ÏĥÎºÎµÎ´Î¬":6311,"ĠÎĺÏīÎ¼Î¬ÏĤ":6312,"ĠÏĮÂµÎ¿ÏģÏĨÎ¿":6313,"ĠÎ·ÏĨÎ±Î¯ÏĥÏĦÎµÎ¹Î¿":6314,"ĠÎļÎ¿ÏģÏīÎ½":6315,"ĠÏĢÏģÎ¿Î²Î»Î®":6316,"ĠÏĥÎºÎ¿ÏģÏĢÎ¯":6317,"ĠÏĨÎ»Î¿ÏħÏģÎ¯":6318,"ĠÎºÎ±ÏģÏįÎ´Î¹Î±":6319,"ĠÏĦÎ¿ÏĢÎ¿Î¸Îµ":6320,"ĠÎºÏħÎ½Î®Î³Î¹":6321,"ĠÎ±Î½Î±ÏĥÏĦÎŃÎ½Î±Î¾Îµ":6322,"ĠÎ³ÎºÏģÎµÎ¼Î¯":6323,"ĠÏĢÏģÎ¹Î³ÎºÎ¯ÏĢÎ¹ÏĥÏĥÎµÏĤ":6324,"ĠÎ´Î¹ÎŃÎºÎ¿ÏĪÎµ":6325,"ĠÎºÎ¿ÏħÏģÎ±Î¼ÏĢÎ¹ÎŃÎ´ÎµÏĤ":6326,"ĠÎ½Î¯ÎºÎ·ÏĥÎµ":6327,"ĠÎ¦Î¹Î»Î±":6328,"ĠÎŃÏĥÎ²Î·ÏĥÎµ":6329,"ĠÎ´Î¹ÏĢÎ»Î±Î½ÏĮ":6330,"ĠÎļÏīÎ½ÏĥÏĦÎ±Î½ÏĦÎ¯Î½Î±":6331,"ĠÎ¡ÏīÎ¾Î¬Î½Î·":6332,"ÎºÏģÎ¹Î²ÏİÏĤ":6333,"ĠÎĳÎ¼Î±Î»Î¯Î±":6334,"ĠÎ»Î±ÎºÎºÎ¿ÏįÎ²ÎµÏĤ":6335,"ĠÎ´Î¹Î¬Î´ÏģÎ¿Î¼Î¿":6336,"ĠÎºÎ±Î¼Î¹Î½Î¬Î´Î±":6337,"ĠÏĢÎ±ÏĦÏģÎ¯Î´Î±":6338,"ĠÎµÏģÏİÏĦÎ·ÏĥÎ·":6339,"ĠÎĳÎ½ÏĦÎ¹Î³ÏĮÎ½Î·":6340,"ĠÎµÏĨÎ±Ïģ":6341,"ĠÎ¸Î¬Î»Î±ÏĥÏĥÎµÏĤ":6342,"ĠÏĦÏģÎ¹Î±Î½ÏĦÎ±ÏĨÏħÎ»":6343,"ÏĥÏĦÏģÎ¿ÎĵÎ¹ÏİÏģÎ³Î·":6344,"ai":6345,"ge":6346,"ÎİÏĥÏĦÎµÏģÎ±":6347,"Ġ5":6348,"Î¿Î´Ïī":6349,"Î¹ÎµÏĤ":6350,"ÎµÏĦÎ¹ÎºÎ¬":6351,"ÏĦÎ¿Ïĩ":6352,"ÏģÎµÎ¯Î¿":6353,"ĠÏĦÏģÎ¿Ïĩ":6354,"Î¬Î»Î»Î¿":6355,"Î»Î»Î¹":6356,"Î»Î»Î¹Î±":6357,"Î·ÏĥÎ¯Î±":6358,"Î¯ÏĥÏĥÎ±":6359,"ÏĢÎ»Î¬":6360,"ÏĢÏģÎµ":6361,"ÎºÏīÎ½":6362,"ÎºÎ¿ÏįÏĥÎµ":6363,"ÎºÏĦÏħ":6364,"ÎºÎ¯ÏĦÏģÎ¹":6365,"Î¼ÎŃÎ»":6366,"Î¼Î¼ÎŃÎ½Î·":6367,"ĠÏĥÎ¯":6368,"ĠÎ±Î·":6369,"Î³ÎŃ":6370,"Î³Î¿Î¹":6371,"Î³ÎµÎ¯":6372,"ÏīÏĥÎ·":6373,"ÏħÏĮÏĦÎ±Î½":6374,"ĠÎµÏģÎ·":6375,"ĠÎµÎ»ÏĢÎ¯":6376,"ĠÎµÎ¹ÎºÏĮÎ½Î±":6377,"ĠÎ½Î®":6378,"ĠÎ½Î¹ÎºÎ®":6379,"ĠÎ½Î¿ÏĥÎ¿":6380,"Î®ÏĥÎµÎ¹ÏĤ":6381,"ĠÎŃÎºÎ¿Î²Îµ":6382,"Î¸Î·Î½":6383,"Î¸ÏģÎ¿":6384,"Î¸ÎµÎ¹ÏĤ":6385,"ĠÎ´ÏģÎ¿":6386,"ÏģÎ±Î¯":6387,"ÏģÎ±ÏĦÎ¿ÏįÏĥÎµ":6388,"ĠÎ³Ïį":6389,"ÏİÏģÎ·ÏĥÎ±Î½":6390,"ÏĨÎ¿Î³":6391,"ĠÏĥÏĦÏģÎ¿":6392,"ĠÎµÎ¯Î´ÎµÏĤ":6393,"ĠÎ¿ÏĢÏī":6394,"ĠÏĮÏĢÎ¿Î¹Î±":6395,"ĠÎ±ÏĢÎ»ÏĮ":6396,"ĠÏĨÎ¿Î¹":6397,"ĠÏĦÎ±ÎĲ":6398,"ĠÎ¼ÎµÏĦ":6399,"ĠÎ¼ÎµÎ»Î±Î³":6400,"Î²Î¬Î½Î¹":6401,"Î¶Î¹Î¿":6402,"ĠÎºÎ±ÏĨÎµ":6403,"ĠÎºÎ±Î²Î¿Ïħ":6404,"ĠÎºÎ±ÎºÎ¿Î¯":6405,"ÎµÎ½ÎŃÎ»Î±":6406,"Î»Î±Î³Îµ":6407,"Î»Î±Î¼Î²":6408,"ĠÏĩÏĦÎ¹":6409,"Î¾ÏħÏĢ":6410,"ÂµÎ¿Ïħ":6411,"ÂµÎ¿Î³":6412,"ĠÎ¬ÏģÏīÎ¼Î±":6413,"Î»Î¬ÏĦÎ¹":6414,"Î»Î¬ÏĩÎ¹":6415,"ĠÎ®ÏĩÎ¿":6416,"Î¹ÎºÎ¿Ïį":6417,"ÎºÎµÏĨ":6418,"ÏģÎ¯ÏīÎ½":6419,"ÏģÎ¯Î¶Ïī":6420,"ĠÎ¼Î±ÏĦÎ±Î¹":6421,"ĠÎ¼Î±ÏĩÎ±":6422,"ÏĢÎµÏģÎ¯":6423,"ÏĥÏĦÎ¿ÏħÏĤ":6424,"ĠÎ¾ÎµÎ½":6425,"ĠÎ¾ÎŃÏĥ":6426,"ÏĩÎµÏĥÎ±Î¹":6427,"Î»Î¿ÏģÎ¹Î¬Î½":6428,"ĠÎĳÏĤ":6429,"ĠÏĢÎµÏģÎ·":6430,"ĠÏĢÎµÎ¸Î¬Î½Ïī":6431,"ĠÎļÎĳÎĻ":6432,"ĠÎ¼Î¿ÏħÏĥÎµ":6433,"Î½ÎµÏĪÎµ":6434,"ĠÎľÎŃ":6435,"ĠÏĦÎ¹Î½Î¬":6436,"Î³ÎµÎ»Î¬":6437,"ĠÂµÎ¹":6438,"ÏĦÎ¿Î½Î±":6439,"Î¤ÎµÎ»Î¹ÎºÎ¬":6440,"ĠÎłÏģÎ¿":6441,"Î¸ÎµÎ»Î±":6442,"ÎŃÏģÎ·":6443,"ĠÏĢÎ¬ÏĦÎ·ÏĥÎµ":6444,"ÎŁÏįÏĦÎµ":6445,"ÎľÏĮÎ½Î¿":6446,"ĠÎ£Î¿ÏĨ":6447,"ĠÏģÏħÎ¸":6448,"Î¶ÎµÏĪÎµ":6449,"Î´Î±ÏģÎ¬ÎºÎ¿ÏĤ":6450,"ĠÏĩÎ±Î»Î¬ÎºÎ¹":6451,"ĠÏĩÎ±ÏģÎ±Îº":6452,"ĠÏħÎ¹Î¿":6453,"ĠÏħÏĨÎ¬ÏĥÎ¼Î±ÏĦÎ±":6454,"Î´ÎµÏį":6455,"Î´ÎµÏįÎµÎ¹":6456,"ĠÎ¼ÏĢÎ¿ÏģÎŃÏĥÎµÎ¹":6457,"ÎºÎ¿ÏħÎºÎ¿ÏħÎ²Î¬Î³Î¹Î±":6458,"ÏįÏĦÎµÏĤ":6459,"ÎķÎł":6460,"ÎłÏģÎ¹Î½":6461,"Î³Î¹ÏĥÎ¼Î±":6462,"ÏĦÎŃÎ²":6463,"Î¼Î·Î¸ÎµÎ¯":6464,"Î£Ïħ":6465,"Î£Î¹Î³Î¬":6466,"ÏįÏģÎ¹ÏĥÎ±Î½":6467,"ÏģÎ¿ÏįÎ»Î±":6468,"ĠÎ¬ÏģÏĩÎ¹Î¶Îµ":6469,"ĠÎ³ÎµÏģÎ¿":6470,"ĠÎµÎ½ÏĦÎ¿Î»Î®":6471,"ĠÎºÎ±ÏĦÎ±ÏĢÏģÎ¬ÏĥÎ¹":6472,"ĠÎµÎ¯ÏĩÎ±Î½Îµ":6473,"ÏĦÏĥÎ¬ÎºÎ¹Î±":6474,"ĠÎ´Î¹Î±ÎºÎ¿ÏĢ":6475,"ĠÎ´Î¹Î±Î¼Î¬Î½":6476,"ĠÎ´Î¹Î±Î´ÏģÎ¿Î¼Î®":6477,"ĠÎ´Î¹Î±ÏĢÎ¯ÏĥÏĦ":6478,"ĠÏĢÏģÎ¿ÏĥÎ³ÎµÎ¹":6479,"ÎĮÏĢÏīÏĤ":6480,"ĠÎķÎ¯ÏĩÎ±":6481,"ÏģÎ±Î³ÂµÎ±":6482,"ĠÎ§ÏģÎ®":6483,"ĠÎºÎ±Î»Ïį":6484,"ĠÎºÎ±Î»Î¿ÏĥÏħ":6485,"ÎŃÏĨÎ±":6486,"ĠÎ¶ÏīÎ³ÏģÎ¬ÏĨÎ¹":6487,"ĠÎ²Î¬Î»Ïī":6488,"ÏģÎ¸Î±Î½":6489,"ĠÎµÎ¾Ïİ":6490,"ĠÎµÎ¾ÏħÏĢ":6491,"Î¿Î¯ÏĦÎ±Î¾Îµ":6492,"ĠÏĥÎ·ÂµÎ±":6493,"Î»ÏħÎ½Îµ":6494,"ĠÏĢÎ¿Î½Î¬ÎµÎ¹":6495,"ĠÎ´ÎŃÎ½Î´ÏģÎ±":6496,"ĠÎ´Î¯ÏĩÏīÏĤ":6497,"ĠÏĨÏīÏĦÎ¿":6498,"ĠÏĩÎ¬ÏģÏĦÎ·":6499,"ĠÎ¼ÏĢÎ±Î»":6500,"ĠÎ±ÎºÏģÎ¿":6501,"Î½ÏĮÏĢÏī":6502,"ÎĵÏģÎ¬":6503,"ÎĵÏįÏģÎ¹ÏĥÎµ":6504,"ĠÏĢÎ¹ÏĦÏĥÎ¹":6505,"ĠÎ¼ÎµÏĦÎ±Î¾":6506,"ĠÎ¼ÎµÏĦÎ±Î¾Ïī":6507,"ÎļÎ±ÏĦÎ¬":6508,"ĠÎĳÎ½ÏĦÏģÎŃ":6509,"ÏģÎ¹ÏĥÎ¼ÎŃÎ½Î±":6510,"ĠÎ¸ÏħÎ¼ÏĮ":6511,"ĠÎ±Î»ÎµÏįÏģÎ¹":6512,"ĠÏĢÎ·Î³":6513,"ĠÏĢÎ¿Î¹Î¿Î½":6514,"ĠÏĨÏĮÎ²Î¿ÏĤ":6515,"ÏĢÏīÏĥÎ·":6516,"ÏĦÎµÎ¹Î½Îµ":6517,"ÏĦÏįÏĢÏīÏĥÎ·":6518,"ĠÎ¶Î·Î¼Î¹Î¬":6519,"ÏĥÎºÎµÏĨ":6520,"ĠÎµÏħÏĦÏħÏĩÏİÏĤ":6521,"ĠÏīÏģÎ±Î¯Î¿ÏĤ":6522,"ĠÎĳÏħÏĦÎŃÏĤ":6523,"ÎŀÏįÏĢ":6524,"ĠÏĢÎµÏģÏĢÎ±ÏĦÎ¿ÏįÏĥÎ±Î½":6525,"ÎķÎ¯ÏĥÎ±Î¹":6526,"ÎºÏģÏħÎ½":6527,"ĠÏĩÎµÎ¹Âµ":6528,"Î¿ÏĪÎ¹":6529,"ĠÎ³ÎµÎ½Î½Î®ÏĥÎµÎ¹":6530,"ĠÏĢÎ±ÏģÎ±Î¼ÏħÎ¸":6531,"ĠÏĥÎ·ÎºÏīÎ¸ÎµÎ¯":6532,"ĠÏģÎ¯Î¾ÎµÎ¹":6533,"ĠÎºÎ±Î¹Î½Î¿ÏįÏģÎ³Î¹Î¿":6534,"ĠÎ½ÎŃÎ¿ÏħÏĤ":6535,"ĠÎ±Î´ÎµÏģÏĨÏĮÏĤ":6536,"ĠÎ´ÏģÎ¬ÎºÎ¿Î¹":6537,"ĠÎ²ÏģÎŃÏĩÎµÎ¹":6538,"ĠÏĢÏįÏģÎ³Î¿ÏĤ":6539,"ĠÏĥÎºÏħÎ»Î¯":6540,"ĠÏģÎ¬ÏĨÎ¹":6541,"ĠÎµÏĢÎŃÏĥÏĦÏģÎµÏĪÎ±Î½":6542,"ĠÏĢÎµÏģÎ¹Î¼ÎŃÎ½Î¿ÏħÎ¼Îµ":6543,"ÎºÎ¿ÏħÎ²Î¬Î³Î¹Î¿ÏĤ":6544,"ĠÎ³ÎºÏģÎ¯":6545,"ĠÏĦÏħÎ»Î¯":6546,"ĠÎĳÏĥÏĢÏģÎ¿ÏįÎ»Î·ÏĤ":6547,"ĠÎ±Î½ÎµÎ²Î±Î¯Î½ÎµÎ¹":6548,"ĠÎĵÎ¹Ïİ":6549,"ĠÎ¼Î±Î¶ÎµÏħÏĦÎµÎ¯":6550,"ĠÎ³Î½ÏīÏģÎ¯ÏĥÎµÎ¹":6551,"ĠÏĦÎ¶Î¬":6552,"ĠÎºÎ¿ÏįÎ½Î·ÏĥÎµ":6553,"ĠÎºÎ¿ÏįÏģÎ±ÏĥÎ·":6554,"ĠÏĥÏĢÎ·Î»Î¹Î¬ÏĤ":6555,"ĠÎ¬Î¼Î¼Î¿ÏĤ":6556,"ĠÏĩÎ±Î¼Î¿Î³ÎµÎ»Î¿ÏįÏĥÎµ":6557,"ĠÏĢÎ¿Î½Î·ÏģÎ¬":6558,"ĠÎµÏħÏĦÏħÏĩÎ¹ÏĥÎ¼ÎŃÎ½Î¿":6559,"ĠÏĦÏģÎŃÎ½Î¿Ïħ":6560,"ĠÏĥÎ¿ÏĨÎ®":6561,"ĠÎ»ÎµÏħÎºÎ®":6562,"ĠÎ¾Î·Î¼ÎµÏģÏİÏĥÎµÎ¹":6563,"ĠÎ´ÏħÏĥÏĦÏħÏĩÎ¯Î±":6564,"ĠÎ®ÏĥÏħÏĩÎ¿":6565,"ĠÏĪÎ¹Î¸Ïħ":6566,"ĠÎ±Î½Î¿Î¹ÏĩÏĦÎ®":6567,"ĠÂµÏĢÎ¿ÏģÎµÎ¯":6568,"ĠÎ¼Î¬Î¶ÎµÏħÎµ":6569,"Î´ÏģÏĮÎ¼Î¹Î¿":6570,"ĠÏĢÎµÏģÎ¯ÎµÏģÎ³Î±":6571,"ĠÎ±Î³Î±ÏĢÎ¬ÏĤ":6572,"ĠÎ²ÏĮÎ»ÏĦÎµÏĤ":6573,"ĠÏĥÎºÎ¹Î¿ÏħÏģÎ¬ÎºÎ¹Î±":6574,"ĠÏĥÎ¿ÎºÎ¿Î»Î¬ÏĦÎ±ÏĤ":6575,"ĠÎ²Î®Î¼Î±":6576,"ĠÎºÎ»ÎŃÏĨ":6577,"ĠÎºÎ»ÎµÎ¯ÏĥÎµÎ¹":6578,"ĠÎŃÎ²ÏģÎ¹ÏĥÎºÎ±Î½":6579,"ĠÎ¼Î±ÎºÏģÎ¹Î½Î®":6580,"ĠÎŃÏĨÏĦÎ±Î½Î±Î½":6581,"ĠÎ±Î½ÏħÏĢÏĮ":6582,"ĠÎºÏħÏģÎ¯Î¿Ïħ":6583,"ĠÏĢÎ¿Î½ÏĦÎ¹ÎºÎ¬ÎºÎ¹Î±":6584,"ĠÎºÎ¿Î»ÏħÎ¼ÏĢÎ¿ÏįÏĥÎµ":6585,"ĠÎŃÏģÏĩÎ¿Î½ÏĦÎ±Î¹":6586,"ĠÎ½ÎµÎ±ÏģÏĮ":6587,"ĠÏĢÏģÏĮÏĥÎµÏĩÎµ":6588,"ĠÏĥÎºÎŃÏĢÎ±ÏĥÎµ":6589,"ĠÎĪÏĩÎµÎ¹ÏĤ":6590,"ĠÎĪÏĩÎ¿ÏħÎ¼Îµ":6591,"ĠÎ±ÏħÏĦÎ¿ÎºÏģÎ¬ÏĦÎ¿ÏģÎ±":6592,"ĠÎłÎ±ÏģÎ±Î¼":6593,"ĠÎ¶ÏīÎ½ÏĦÎ±Î½ÏĮ":6594,"ĠÎ¥ÏĢÎ®":6595,"Î±Î½ÏĮÏĢÎ¿ÏħÎ»Î¿":6596,"ĠÏĢÎ±ÏģÎ·Î³Î¿":6597,"ĠÏĨÏİÏĦÎ±":6598,"ĠÏĥÏħÎ³Î³ÎµÎ½":6599,"ĠÎ¼Î±Î¶ÎµÏįÏĦÎ·ÎºÎ±Î½":6600,"ĠÂµÎµÎ³Î¬Î»Î·":6601,"ĠÏĨÎµÏįÎ³ÎµÎ¹":6602,"ĠÎ¸ÏħÎ¼Î¬ÏĥÎ±Î¹":6603,"ĠÎ¼ÎŃÎ½ÎµÎ¹":6604,"ĠÎļÏĮÎºÎºÎ¹":6605,"ĠÎĵÎµÏģÎ¬ÎºÎ¹":6606,"Î´ÎŃÎ½Î¹Î¿ÏĤ":6607,"ĠÎºÎ±ÏĦÎ±Î»Î±Î²Î±Î¯Î½Ïī":6608,"ĠÎ±Î³ÏģÏĮÏĦÎ·ÏĤ":6609,"ĠÎ±Î³Î³ÎµÎ»Î¬ÎºÎ¹Î±":6610,"ĠÏĮÏĥÎ¿ÏħÏĤ":6611,"ĠÎĶÎ®Î¼Î¿ÏĤ":6612,"ĠÎ¼ÎµÎ³Î±Î»ÏİÏĥÎ¿ÏħÎ½":6613,"ÏĦÎ¹ÎºÎ¯Î½Î±":6614,"ĠÎ¬Î¸Î»Î¿ÏĤ":6615,"ĠÎľÏĢÎ¹Î¶ÎŃÎ»Î·ÏĤ":6616,"ĠÎĨÎ»Î»Î¿Î¹":6617,"ĠÎ±ÎºÎ¿Î»Î¿ÏħÎ¸Î®ÏĥÎµÎ¹":6618,"ĠÎ³Î»Î¹ÏĥÏĦ":6619,"ĠÏĢÎ±ÏģÎ¬ÏĢÎ¿Î½Î¿":6620,"ĠÏĦÏħÏĨÎ»Î¿ÏĢÏĮÎ½ÏĦÎ¹":6621,"ĠÎµÎ²Î´Î¿Î¼Î¬Î´Î±":6622,"ĠÏĦÎ¿ÎºÎ¿Î³Î»Ïį":6623,"ĠÎ±ÎµÏģÏĮÏĥÏĦÎ±ÏĦÎ¿":6624,"ĠÎ´Î¹ÎºÎ±Î¹Î¿Î»Î¿Î³":6625,"ĠÎ³Î»Î¯ÏĥÏĦ":6626,"ĠÎĿÏĦÎ¿ÏħÎ²Î¿ÏħÏģÎ½Î¬ÏĤ":6627,"ĠÎ´Î¹ÏĥÏĦÎ±ÎºÏĦÎ¹ÎºÎ¬":6628,"ĠÎĸÏīÎ·ÏģÎ¿ÏįÎ»Î·ÏĤ":6629,"ĠÎºÎ¿Î»Î¿ÎºÏħÎ¸Î¬ÎºÎ¹Î±":6630,"Î¿Î¹ÎºÎ¿Î³ÎŃÎ½ÎµÎ¹Î±":6631,"ÏįÎ³Î´Î±":6632,"ĠÎ¿ÎºÏĦÏİ":6633,"ĠÎºÎ¿ÏĢÎ¬Î´Î¹":6634,"ĠÏĦÎ±ÏĩÏħÎ´ÏģÏĮÎ¼Î¿ÏĤ":6635,"ĠÏĦÏĥÎ¯ÏģÎºÎ¿":6636,"ĠÏĢÎ±Î³ÎºÎ¬ÎºÎ¹":6637,"ĠÎ§ÏģÏħÏĥÎ±Î»ÎŃÎ½Î±":6638,"ĠÏĦÏĥÎ¿ÏĢÎ±Î½ÏĮÏĢÎ¿ÏħÎ»Î¿":6639,"ÎĳÎ»Î®Î¸ÎµÎ¹Î±":6640,"ĠÏĢÎ¿Î´Î±ÏģÎ¬ÎºÎ¹Î±":6641,"ĠÎ¡ÏĮÎºÏħ":6642,"ĠÏĥÏĦÎµÎ½Î±ÏĩÏİÏģÎ¹Î±":6643,"ĠÏĨÎ¿ÏħÏĥÏĦÎ¬Î½Î¹":6644,"Î»Î¬ÏĩÎ¹ÏĥÏĦÎ¿Î½":6645,"Î½ÏĮÏĢÏīÏģÎ¿":6646,"ĠÏĦÏħÏĨÎ»Î¿ÏĢÏĮÎ½ÏĦÎ¹ÎºÎ±ÏĤ":6647,").":6648,";âĢĿ":6649,"ni":6650,"os":6651,"ÎĬ":6652,"ÎıÏĥÏĢÎ¿Ïħ":6653,"ĠE":6654,"Î±ÏĥÎ·":6655,"Î¹Î¿Ïħ":6656,"Î¹Î»Î¿Î½":6657,"Î½Î¹Î¿":6658,"ÏĦÎ¿ÏįÏĤ":6659,"ÏģÎ¼Î·":6660,"ĠÏĦÎ±Î¹":6661,"Î¬Î³Î¿ÏĤ":6662,"Î»Î»Î¹Î¬":6663,"Î»Î»ÏĮ":6664,"ÏĥÎ¼Î¬":6665,"ÏĥÏĥÎ¿":6666,"ÏĥÎ´Î®ÏĢÎ¿ÏĦÎµ":6667,"Î·Î³Î·":6668,"Î¯Ïĩ":6669,"Î¯ÎºÎ¿ÏĤ":6670,"Î¯Î¶Î¿Î½ÏĦÎ±Î½":6671,"ĠÎºÎ»Ïİ":6672,"ĠÏĢÎ¯Î½Î¿ÏħÎ½":6673,"ĠÏĢÎ½Î¯":6674,"Î¼ÎµÎ¹ÏĤ":6675,"Î¼ÎŃÏģ":6676,"Î¼Î¿ÏĥÏįÎ½Î·":6677,"ĠÎ¼Î¿Î»Ïį":6678,"ĠÎ¼Î¿ÏĥÏĩÎ¿":6679,"ĠÏĥÎµÎ½ÏĦ":6680,"ĠÎ±Î¼ÏĢ":6681,"ĠÎ±ÏĩÎ½":6682,"ĠÎ±ÏĦÎµÎ»ÎµÎ¯":6683,"ĠÎ±ÏĥÏĦÎ±Î¼Î¬":6684,"ÏīÎ¼ÎŃÎ½Î±":6685,"ÏīÎ¼ÎŃÎ½Î·":6686,"ÏīÎ¸Î±Î½":6687,"ÏħÏĢÏĮ":6688,"ĠÎµÏĨÏĦÎ¬":6689,"ĠÎµÎ»Î»Î·Î½":6690,"ÏĩÎµÎ¹ÏĤ":6691,"ĠÎŃÂµÎµÎ¹Î½Îµ":6692,"Î´ÎŃÏĩ":6693,"Î´Î¿Ïĩ":6694,"ĠÏĦÎ·Î½Î±":6695,"ÏģÎ±ÎºÎ¿Ïħ":6696,"ĠÎ³Î¿Ïį":6697,"ĠÎ³ÎŃÎ½Î¹Î±":6698,"ÏİÏĦÎ·ÏĤ":6699,"ÏĨÎ¿ÏħÏĤ":6700,"ÏĨÏīÎ½Î¯Î±":6701,"Î½Î±Î³":6702,"ÏģÎ¹ÏĤ":6703,"ÏģÎ¹Î½ÏĮ":6704,"ĠÎ¿ÏģÎ¸":6705,"ĠÎ¿ÏģÎ¯Î¶":6706,"ÏĦÎµÏģ":6707,"ÏĦÎµÏĪÎµ":6708,"ĠÎ±ÏĢÎ¯ÏĥÏĦÎµ":6709,"ÏĦÎ¹Î½Î¬":6710,"ÏģÎ¬Î³":6711,"ĠÎ²ÎŃÎ²Î±Î¹":6712,"Î¼Î±ÏĦÎ¯":6713,"ÂµÎ¯Î±":6714,"ÂµÎ¿ÏħÏĤ":6715,"ĠÎ»ÏħÏĩ":6716,"ĠÎ·Î»Î¹Î¿":6717,"Î¿ÏģÎ¸Ïİ":6718,"ĠÎ®ÏģÏī":6719,"ĠÎ®Î¼Î±ÏĥÏĦÎ±Î½":6720,"ÎŃÎ½ÏĦÏģÎ¿":6721,"ĠÏĢÎ±ÏĦÎ¬":6722,"ĠÎ¼Î±Î¸Î·":6723,"ĠÎ¼Î±ÏĦÎ¬ÎºÎ¹Î±":6724,"ÏģÎµÏĢ":6725,"ÏģÎµÏįÏĦÎ·ÎºÎµ":6726,"Î¹Î¬ÏĥÏĦÎ·ÎºÎµ":6727,"Î»ÎµÏĢ":6728,"âĢľ":6729,"ĠÎºÎ¬Î½Î±":6730,"ĠÎºÎ¬ÏĥÏĦ":6731,"ĠÎ¼ÏĢÎ¬Î½Î¹Î¿":6732,"ÏģÏīÎ¸ÎµÎ¯":6733,"ĠÎĳÎ³Î¬ÏĢÎ·":6734,"ĠÎĳÎ¸Î·Î½":6735,"ĠÏĢÎ¿Î»ÎŃ":6736,"ĠÏĢÎµÎ»Î¬":6737,"ĠÏĢÎµÎ¶Î¿":6738,"ĠÎľÏħ":6739,"ÏĢÎ±Î¯":6740,"ĠÂµÏĢ":6741,"ĠÎķÏĨÏĦÎ±ÏĥÏĢÎ¹Î¸Î±Î¼Î®":6742,"ÎºÎ¬ÏģÎ¹":6743,"ĠÎºÎ¹ÏĮÏĥ":6744,"ĠÎºÎ¹Î½Î·":6745,"Î³Î±ÏĤ":6746,"Î³Î±ÏĢÎ¬":6747,"ĠÎłÎµÏĤ":6748,"ĠÎłÎ¿ÏįÎ»Î¹Î±":6749,"ÎŃÏģÏĦÎ±":6750,"ÏĮÏĥÏĢÎ¹":6751,"ÏģÎŃÏĪÎ¿ÏħÎ½":6752,"ÏģÏĩÎ¹ÏĥÎ±Î½":6753,"ĠÏĢÎ¬Î¸ÎµÎ¹":6754,"Î´Î¹Î¿Îº":6755,"ĠÎ£ÏįÎ½ÏĦÎ¿Î¼Î±":6756,"ÏĮÏĦÎµÏģÎ·":6757,"ÏħÏĩÏĦÎ±":6758,"ÎļÎ¿Î¹":6759,"ĠÏģÎ¿Î´Î¿":6760,"ĠÎŁÏħ":6761,"Î¶ÎµÏħÎµ":6762,"Î¼ÏĢÎ¿Ïį":6763,"ĠÏĥÏĦÎ±Î¸ÎµÎ¯":6764,"ÏİÎ½Ïī":6765,"ĠÏĩÎ±Î¶":6766,"ĠÏĩÎ±ÏĦÎ¯":6767,"ÎĳÎ¼ÎŃÏĥÏīÏĤ":6768,"ĠÎĪÎ½Î¹":6769,"Î´ÎµÏħÎµ":6770,"Î²Î±Î¶Îµ":6771,"ĠÎ¼Î¬Î¸Î·Î¼Î±":6772,"ĠÎĶÏģÎ±ÎºÎ¿Ïħ":6773,"Î»ÎµÎ¹Î¬":6774,"ÎķÎ»Î¬ÏĦÎµ":6775,"Î»ÎŃÎ¿Î½":6776,"ÏĢÎ¿ÏħÎ»Î¿ÏĤ":6777,"ÎłÏĮÏĥÎ¿":6778,"ÎłÏģÎ±Î³Î¼Î±ÏĦÎ¹ÎºÎ¬":6779,"ÏĢÎ¬ÏĦÎ·ÏĥÎµ":6780,"ĠÎĮÎ»Î·":6781,"ĠÎĮÂµÏīÏĤ":6782,"ĠÎ¬Î½Î´ÏģÎ±":6783,"ĠÎ¾ÎµÏĩÏİ":6784,"ĠÎ¾ÎµÎºÎ¹Î½":6785,"ĠÎ¾ÎµÎºÎ»ÎµÎ¯":6786,"ĠÎºÏĮÏĪÎµÎ¹":6787,"ĠÎ´ÎµÏĩ":6788,"ĠÎ´ÎµÎºÎ¬":6789,"Î£ÏĦÎ¿Î½":6790,"Î¿ÏĨÎ±":6791,"ĠÎºÎ¿Îº":6792,"Î¼Î®ÏĥÎµÎ¹":6793,"ĠÎµÎ½ÏĦÏįÏĢÏīÏĥÎ·":6794,"ĠÎ½ÎµÎº":6795,"ĠÎ²Î±ÏĥÎ¹Î»Î¹Î¬Î´ÎµÏĤ":6796,"ÏĢÎ¿ÏįÎ´Î±":6797,"ÏĩÎ½ÎµÏĤ":6798,"ÏĦÏĥÎ¿":6799,"ĠÎĴÎ¬Î¹":6800,"ĠÏĢÎ¿ÏĦÎ¯":6801,"ĠÎĿÏĮ":6802,"ĠÎºÎ¿Î¹ÏĦÏİÎ½ÏĦÎ±ÏĤ":6803,"ĠÎºÎ±Î½Î¬":6804,"ĠÎ±ÏĢÎ¿Î¼ÎµÎ¯Î½ÎµÎ¹":6805,"ĠÎ¹ÏĥÏĩ":6806,"ĠÂµÎµÏĦÎ±":6807,"ĠÂµÎµÎ³Î±":6808,"ĠÎ³ÏħÏģÎ½Î¿ÏįÏĥÎµ":6809,"ĠÏĨÎ¯Î»":6810,"ÎŃÏĨÎµ":6811,"ĠÎŃÎ²Î³Î±Î¹Î½Î±Î½":6812,"ĠÏĦÎ¯Î½Î±":6813,"ĠÎ²Î¬ÏĥÎ±Î½":6814,"ĠÎ²Î¬ÏģÎ¿ÏĤ":6815,"ÏĥÏĦÎ·ÎºÎ±":6816,"ĠÎºÎµÏģÎ±":6817,"ĠÏĢÎ±ÏģÎ¬Î´ÎµÎ¹":6818,"ĠÏĢÏģÏĮÏĥÏĦÎ±":6819,"ĠÏĢÏģÏĮÎºÎµÎ¹ÏĦÎ±Î¹":6820,"ĠÏĨÏįÎ³Î¿ÏħÎ¼Îµ":6821,"Î¼Î¹ÏĥÏĦ":6822,"ĠÎµÎ¾Î®ÏĤ":6823,"ÏĨÎ¬Î»Î¹":6824,"ÏĦÎ¿ÏħÎºÎ¹Î¬":6825,"ĠÎĽÎŃ":6826,"ĠÎ±ÎºÎ¿ÏįÏĤ":6827,"ÎĶÎ·":6828,"ĠÏĩÎ¬ÏģÎ¹ÏĥÎµ":6829,"Î¹ÏĥÂµÎŃÎ½Î¿":6830,"ĠÎ±ÎºÏĦÎ®":6831,"ĠÎºÏĮÏĥÂµÎ¿":6832,"ĠÎ®Î¸ÎµÎ»ÎµÏĤ":6833,"ĠÎµÏħÏĩÎ¬":6834,"ĠÎ»Î¹Î¿Î½ÏĦÎ±":6835,"ĠÏĢÏģÎ¬Î¾Î·":6836,"ĠÏĢÏģÎ¬Î¾ÎµÎ¹ÏĤ":6837,"ĠÎºÎ¿ÏģÎ¼Î¯":6838,"ĠÏĢÎ¹ÎµÎ¯":6839,"ĠÎ´ÏģÏĮÂµÎ¿":6840,"ĠÎ¾Î±Î½Î±Î²":6841,"ĠÎ¾Î±Î½Î±ÎºÎ¿Ïį":6842,"ĠÏĢÏģÎ¿ÏĦÎµ":6843,"ĠÏĢÏģÎ¿ÏĦÎ¹":6844,"ĠÎ´Î¹Î·Î³":6845,"ÎļÎ±Î»ÏİÏĤ":6846,"ĠÎ¶Î®ÏĥÎ¿ÏħÎ½":6847,"ĠÎ»ÏĮÏĨÎ¿Ïħ":6848,"Î¾Î¹Î»Î¬":6849,"ĠÏĨÏħÏĥÎ¿ÏįÏĥÎµ":6850,"ĠÎ¼Î¹Î»Î¿ÏįÏĥÎ±Î½":6851,"ĠÏĩÎ±ÏģÎ¬ÏĤ":6852,"ÏģÎ¿ÏĨÎŃÏĤ":6853,"ĠÎ½ÏįÏĩÎ¹Î±":6854,"ÏĥÏĦÎµÎ¯ÏĤ":6855,"ĠÎ¼ÏĢÎ¿ÏģÎµÎ¯ÏĦÎµ":6856,"ÏĢÎ¿ÏģÏĦÎ±":6857,"ĠÎļÎ¬ÏĦÏī":6858,"ÏĢÎ¬ÏģÏĩÎ¿ÏħÎ½":6859,"ÏħÎ¸Î¿Ïį":6860,"ĠÎ±ÏĢÎ¿ÎºÏĦÎ®ÏĥÎ¿ÏħÎ½":6861,"ĠÎµÎºÎºÎ»Î·":6862,"ÏĥÎºÎµÏĪÎ·":6863,"ĠÏĨÎ±Î½ÎµÎ¯":6864,"ĠÏĥÏĦÎµÏģÎ¹Î¬":6865,"ĠÏĩÎ¿ÏģÏĦÎ±":6866,"ĠÏĦÏĮÎ»":6867,"ĠÏĢÎ±ÏĢÏĢÎ¿ÏįÎ»Î·ÏĤ":6868,"ĠÎ¿ÏħÏģÎ±Î½Î¿Ïį":6869,"Î¼ÏīÎ½Îµ":6870,"ĠÎ±ÏĨÎ®ÏĥÏī":6871,"ĠÎłÎ±Ïį":6872,"ĠÎ±Î³Î±ÏĢÎ¿ÏįÎ½":6873,"ÎŃÏĢÎµÏĤ":6874,"ĠÎ±Î³Î±ÏĢÎ·Î¼ÎŃÎ½Î¿Î¹":6875,"ĠÎŃÏĨÎµÏģÎ±":6876,"ĠÎºÎ¿ÏĢÎŃÎ»ÎµÏĤ":6877,"ĠÏĥÏīÏĥÏĦÎ¬":6878,"ĠÏĦÏģÎ¿Î¼Î±":6879,"ĠÎºÏħÏģÎºÎ¿Ïħ":6880,"ĠÎºÏħÎ½Î·Î³Î¬":6881,"ĠÎ³ÏħÏģÎ¯ÏĥÎµÎ¹ÏĤ":6882,"ĠÎ²ÎµÎ²Î±Î¹":6883,"ĠÎ´ÎµÎ¯Î¾Ïī":6884,"ÏĦÏģÎ¹ÎºÎ®":6885,"ĠÎ½ÎŃÎ¿Î¹":6886,"Î¸Î¬Î½Î±":6887,"ĠÎ±Î´ÎµÏģÏĨÏĮ":6888,"ĠÎ¾ÏįÏĢÎ½Î·ÏĥÎ±Î½":6889,"ÏģÎ¹Î½Î¹Î¬":6890,"ĠÎ´Î±ÏĩÏĦÏħ":6891,"ĠÏĨÏĦÏīÏĩÎ®":6892,"ĠÏĦÎµÎ»ÎµÎ¯ÏīÏĥÎ±Î½":6893,"ĠÏģÎ¬Î¼":6894,"ĠÎºÎ±ÏĦÎŃÎ²Î·ÎºÎ±Î½":6895,"ĠÎ¼Î±Î½ÏĦÎ±":6896,"ĠÎ±Î½Î¿Î¯Î³ÎµÎ¹":6897,"ĠÏĢÎµÏģÎ¹Î¼ÎŃÎ½Î¿Î½ÏĦÎ±ÏĤ":6898,"ĠÏĦÏĮÏĥÎ¿Î¹":6899,"ĠÎ¼Î±ÏįÏģÎ·":6900,"ĠÎ¼ÎµÎ³Î±Î»ÏįÏĦÎµÏģÎ¿ÏĤ":6901,"ĠÎ³ÎºÏģÎ¹":6902,"ĠÎ³ÎºÏģÎ¯Î½Î¹Î±":6903,"ĠÎ³Î½ÏİÏģÎ¹ÏĥÎµ":6904,"ĠÎ²Î³Î¬Î¶ÎµÎ¹":6905,"ĠÎłÎµÏģÎ¹":6906,"Î»ÎŃÎ½Î¹Î±":6907,"ĠÎ±Î½ÏĦÎ¹Î´":6908,"ĠÎµÎ»Î¬ÏĦÎµ":6909,"ĠÏĮÎ½ÎµÎ¹ÏģÎ¬":6910,"ĠÏĥÏħÎ½ÎµÏĩÎ¯ÏĥÎµÎ¹":6911,"ĠÎ±Î¹ÏĦÎ¯Î±":6912,"ĠÎ¿Î»ÏĮÎºÎ»Î·ÏģÎ±":6913,"ĠÏĢÎ¯ÏĥÏĦÎµÏĪÎµ":6914,"ĠÎľÎ¬Î¾Î¹":6915,"ĠÎ»ÏħÏĢÎ·Î¼ÎŃÎ½Î¿ÏĤ":6916,"ĠÎ»ÏħÏĢÎ·Î¼ÎŃÎ½Î·":6917,"ĠÎºÎ±Î¸Î±ÏģÎ¬":6918,"ÎļÎ±Î»Î·ÏĥÏĢÎŃÏģÎ±":6919,"ĠÏĦÎ¬ÏĨÎ¿":6920,"ĠÎ´ÏįÏĥÎºÎ¿Î»Î·":6921,"ĠÏĥÏħÎ½Î±Î½ÏĦÎ®":6922,"ÏģÏİÎ½Î¿ÏħÎ½":6923,"ĠÏĪÎ¬ÏĩÎ½ÎµÎ¹":6924,"ĠÎ¾Î·Î¼ÎŃÏģÏī":6925,"ĠÎ¾Î·Î¼ÎŃÏģÏīÏĥÎµ":6926,"ĠÎºÏħÏģÎ¬ÎºÎ¿ÏħÎºÎ¿ÏħÎ²Î¬Î³Î¹Î±":6927,"ĠÎ±Î½Î±ÏĢÏĦÎ®ÏģÎ±":6928,"ĠÎµÎºÎ±ÏĦ":6929,"ĠÎ·ÏĥÏħÏĩÎ¬":6930,"ÎłÎ±ÏģÎ±":6931,"ĠÎ±ÏĥÏĦÎµÎ¯Î±":6932,"ĠÎ²ÏģÎ¯ÏĥÎºÎµÎ¹":6933,"ĠÎ²ÏģÎ¯ÏĥÎºÎ¿Î½ÏĦÎ±Î½":6934,"ĠÎ½ÏĮÎ¼Î¹Î¶Î±Î½":6935,"ĠÎ±Î½ÏĦÎ±ÏĢÎ¬Î½ÏĦÎ·ÏĥÎµ":6936,"ĠÎ±Î³ÏģÎ¹Î¿Î³":6937,"ĠÎ´Î¿ÎºÎ¹Î¼Î¬ÏĥÎµÎ¹":6938,"ĠÎĵÎ±Î»Î®Î½Î·":6939,"ĠÎ½ÏħÏĩÏĦÎµ":6940,"ĠÎ½ÏħÏĩÏĦÏİÏĥÎµÎ¹":6941,"ĠÎŃÏĢÎ¹Î±Î½Îµ":6942,"ĠÏĥÏħÎ³ÎºÎµÎ½ÏĦ":6943,"ĠÏĩÎ¹Î¿Î½Î¬Î½Î¸ÏģÏī":6944,"ĠÏĢÎ»Î¿ÏįÏĥÎ¹Î¿":6945,"ĠÏĢÎµÏĦÎ±Î»Î¿ÏįÎ´ÎµÏĤ":6946,"ĠÎ²Î¬Î»ÎµÎ¹ÏĤ":6947,"ĠÏĢÎ¿ÏĦÎ¬Î¼Î¹Î±":6948,"ĠÎ¼Î¹Î»Î¬Î½Îµ":6949,"ÎłÎ®Î³Îµ":6950,"ÎłÎ®Î³Î±Î¹Î½Îµ":6951,"ĠÎ£ÎºÎŃÏĨÏĦÎ·ÎºÎµ":6952,"ĠÎķÏħÏĦÏħÏĩÎ¯Î±":6953,"ĠÎ±ÏĥÏĨÎ±":6954,"ĠÎ´Î¹Î¬Î²Î±ÏĥÎµ":6955,"ĠÎ´Î¹Î¬Î²Î±Î¶Îµ":6956,"Î±Î±Î±Î±Î±Î±Î±Î±":6957,"ĠÏĥÏĢÎ¿ÏħÎ´Î±":6958,"ĠÏĨÏĦÎ¹Î¬ÏĩÎ½Î¿ÏħÎ½":6959,"ĠÎºÎ¿ÏħÏģÎ¬Î³Î¹Î¿":6960,";\"\"":6961,"ĠÎ¸Î±ÏįÎ¼Î±Î¶Î±Î½":6962,"ĠÏĨÎ¿Î²Î¬ÏĦÎ±Î¹":6963,"ĠÎºÎ¿ÏħÎ´Î¿ÏįÎ½Î¹":6964,"ĠÎŃÎºÏĢÎ»Î·ÎºÏĦÎ¿ÏĤ":6965,"ĠÎŃÎ¼Î¿Î¹Î±Î¶Î±Î½":6966,"ĠÏĥÎ±Î»Î¹Î³ÎºÎ¬ÏģÎ¹Î±":6967,"ĠÎ¾ÎµÎºÎ¹Î½Î®":6968,"ĠÏĨÏģÎ¬ÏĥÎ·":6969,"ĠÎĵÎµÏī":6970,"ĠÎ´Î¬ÏĥÎºÎ±Î»Î¿ÏĤ":6971,"ĠÎ´Î·Î¼Î¹Î¿ÏħÏģ":6972,"ĠÏĦÏĥÎ¹Î¼ÏĢ":6973,"ĠÏħÎ³ÎµÎ¯Î±":6974,"ĠÏĢÎ¿ÏĦÎ®ÏģÎ¹Î±":6975,"ĠÎ£ÏīÏĦÎ¯Î³ÏģÎ·":6976,"ĠÏĥÎºÏĮÏģ":6977,"ĠÎ±Î¾Î¯Î¶ÎµÎ¹":6978,"ĠÏĢÏĮÎ»ÎµÎ¼Î¿":6979,"ĠÏĦÏģÎ±Î³Î¿ÏħÎ´Î¿ÏįÏĥÎµ":6980,"ÎľÏĢÎ¿ÏģÎµÎ¯":6981,"ĠÎ¹Î´Î¹Î±Î¯ÏĦÎµÏģÎ±":6982,"ĠÏĢÎ¿ÏģÎµÎ¯Î±":6983,"ĠÏĢÎ±ÏģÎ±ÏĦÎ·ÏģÎ¿ÏįÏĥÎµ":6984,"ĠÎ´Î¬ÏĩÏĦÏħÎ»Î±":6985,"ĠÎ±ÏĥÏĦÏģÎ±ÏĢÎ®":6986,"ĠÎ»ÎµÎ¯ÏĢÎµÎ¹":6987,"ĠÎłÎ¡ÎĻÎĵ":6988,"ĠÏĥÏħÎ½Î·Î¸":6989,"ĠÏĥÏĦÏģÎ¹ÏĨÎ¿Î³":6990,"ĠÎ¿Î½ÏĮÎ¼Î±ÏĦÎ±":6991,"ĠÏĥÏħÎ»Î»Î¿Î³Î¹":6992,"ĠÎĳÎ¸Î®Î½Î±":6993,"ĠÎĴÎ¹ÏģÎ³Î¹":6994,"ĠÎºÎ±ÏĦÎ¬Î»Î»Î·Î»Î·":6995,"ĠÎµÎ³Î³Î¿Î½":6996,"ĠÎ²ÏģÏİÎ¼Î¹Îº":6997,"ĠÏĩÏħÎ»ÏĮ":6998,"ĠÎ±Î»Î»Î±Î³Î®":6999,"ĠÏįÏĪÎ¹Î»Î¿Î½":7000,"ĠÎĳÏĢÎ¿ÏĨÎ¬ÏĥÎ¹ÏĥÎµ":7001,"ĠÎ³ÎŃÏģÎ¹ÎºÎ¿":7002,"ĠÏĩÎµÎ¹ÏģÎ¿ÎºÏģÎ¿":7003,"ĠÏĢÏģÎ¿ÏĥÏĢÎ±Î¸Î®":7004,"ĠÏĥÏĨÏħÏģÎ¯":7005,"ĠÎ´Î¹Î¬ÏĨÎ¿ÏģÎµÏĤ":7006,"ĠÏĥÎºÎ¿ÏħÏĢÎ¯Î´Î¹Î±":7007,"ĠÎļÎ¿Î¹ÂµÎ¯ÏĥÎ·ÏĤ":7008,"ĠÎºÎ±ÏģÏħÎ´Î¹Î¬":7009,"ĠÎºÎ¬ÏĦÎ¿Î¹ÎºÎ¿Î¹":7010,"ĠÏĢÏģÎ¿Î²Î±ÏĦÎ¬ÎºÎ¹Î±":7011,"ĠÎ±Î·Î´ÏĮÎ½Î¹":7012,"ĠÏĩÏģÏħÏĥÎ¿":7013,"ĠÎ¬ÏĦÎ±ÎºÏĦÎ¿":7014,"ÎļÎĻÎł":7015,"ĠÏĨÎ¹Î»ÎµÎ½Î¬":7016,"ĠÎµÎ¾ÎµÏģÎµÏħÎ½Î·":7017,"ÏĮÎ´Î¿Î¾":7018,"ĠÏĥÏħÎ»Î»ÎŃÎº":7019,"ĠÎļÏħÏģÎ¹Î¬ÎºÎ¿ÏĤ":7020,"ÎķÎłÎķÎĻ":7021,"ĠÎºÎ±Î»Î¿ÏĥÏħÎ½Î¬":7022,"ĠÎ¿ÏģÎ¯Î¶Î¿Î½ÏĦÎ±":7023,"ĠÎ·Î»Î¹Î¿Î²Î±":7024,"ĠÎºÎ¹ÏĮÏĥÎºÎ¹":7025,"ĠÎĶÏģÎ±ÎºÎ¿ÏħÎ¼ÎŃÎ»":7026,"ĠÎ¾ÎµÎºÎ»ÎµÎ¯Î´ÏīÏĥÎµ":7027,"ĠÎłÎ¡ÎĻÎĵÎļÎĻÎł":7028,"co":7029,"gm":7030,"Î¨":7031,"Îı":7032,"ĠA":7033,"Ġge":7034,"Î¿Î¼Îµ":7035,"Î¿Î³Î¹":7036,"ÏĦÏģÏİ":7037,"ÏĦÏĮÏĦÎµ":7038,"ÏĦÏįÏĩ":7039,"ĠÏĦÎ®ÏĤ":7040,"Î¬ÏģÏĩÎ¹ÏĥÎµ":7041,"Î»Î»Îµ":7042,"Î»ÏİÎ½ÎµÎ¹":7043,"ÏĥÂµÎŃÎ½Î·":7044,"Î·Î¼ÎŃÏģÎ±":7045,"ĠÎºÎ¯Î½":7046,"ĠÎºÎ»Î±Î¹":7047,"Î¿ÏħÏģÎ³":7048,"ÏĢÏħ":7049,"ÎºÏĦÎ¹":7050,"ÎºÏģÎ¯Î¸Î·ÎºÎµ":7051,"ĠÏĢÎ»Îµ":7052,"ĠÏĢÎ½Îµ":7053,"ÏĮÏĦÎ·":7054,"ÏĮÎ¼Î¿ÏħÎ½":7055,"Î¼ÏĮÏĥ":7056,"ÎŃÏĦÏģÎ·":7057,"ĠÏĥÎ²Î®":7058,"ĠÎ±Î´ÏħÎ½Î±":7059,"ÏħÎ»Î±":7060,"ĠÎµÎ¹Îº":7061,"ĠÎµÏģÎ®":7062,"ÏĩÎ½Î±":7063,"ÏĩÎ¿ÏħÎ½":7064,"ĠÏĦÎ¿Îº":7065,"ĠÏĦÎ¿Î¼Îµ":7066,"ĠÎŃÎ»Î¹":7067,"Î´ÎŃ":7068,"Î¸Î¹Î¬":7069,"Î¿ÏįÎ´Î±":7070,"ĠÎ´Î¯Î½Ïī":7071,"ÏĦÎ±ÏĥÏĢ":7072,"ÏĦÎ±ÎºÏĮÏĥÎ¹Î±":7073,"ÏİÏĦÎ±":7074,"ÏİÎ»Î·":7075,"ĠÏĥÏĦÏĮÎ»Î¹":7076,"ÏģÎ¹ÏĦÏĥÎ¬ÎºÎ¹":7077,"ĠÎ±ÏĢÎµÎ¹":7078,"ĠÏĨÎ»Î¹ÏĦÎ¶":7079,"ÏĦÎ¹ÏİÎ½":7080,"ĠÏĦÎ±Î¯ÏģÎ¹":7081,"ĠÏĦÎ±ÏħÏĦÏĮÏĩÏģÎ¿Î½Î±":7082,"ĠÎ¼ÎµÎ»Î¹ÏĥÏĥ":7083,"Î¶Î¹Î¬":7084,"ĠÎºÎ±Î¼Î±":7085,"Î¿Î½Î¬":7086,"Î¾ÎŃ":7087,"ĠÏĢÎ¿ÏħÎ³ÎºÎ¯":7088,"Î¿Î¹Î½Î¹Î¬":7089,"ÏĦÎ¬Î¸Î·ÎºÎµ":7090,"ÏĦÎ·Î¾Îµ":7091,"Î»Î¹ÎµÏĤ":7092,"ĠÎ¸ÎµÎ¯":7093,"ĠÎ¸Î¬Î½Î±":7094,"ÂµÏĢ":7095,"ÏģÏĮÎ»Î±":7096,"ĠÏĢÎ±Î»":7097,"ÏĥÏĦÎ¿Î¹":7098,"ĠÎ¤ÎŁÎ¥Î£":7099,"Î»ÎµÎº":7100,"Î¼ÎµÏĦÎ±Î¾Ïį":7101,"Î¯Î½Î¹Î±":7102,"Î¯Î½ÏīÏĥÎµ":7103,"ÏģÎ¿Î´Î¯":7104,"ĠÎºÎ¬Ïģ":7105,"ĠÎºÎ¬Î»":7106,"ĠÎºÎ¬Î¼ÏĢÎ¿":7107,"ÏĮÎ½Î¹ÏĥÎµ":7108,"ĠÎ¼ÏĢÎ¬Î»Î±":7109,"ÏģÏīÏĥÎµ":7110,"ĠÎĳÏħÎ³":7111,"ĠÎļÏħÏĢ":7112,"ĠÎļÎ¯Î½Î±":7113,"Î½ÎµÏĦÎµ":7114,"ĠÎ±ÏħÏĦÎ¯":7115,"ĠÎľÎ¯Î½Ïī":7116,"ĠÎľÏĮÎ»Ïħ":7117,"ĠÎľÎµÎ½ÎŃÎ»Î±":7118,"ĠÎ±Î½Î¹":7119,"ĠÎ±Î½ÏĦÎ¬":7120,"Î¼ÎŃÎ½Îµ":7121,"Î³ÎµÏĦÎµ":7122,"ĠÎ¶Î¬ÏĩÎ±":7123,"Î¼Î¬ÏĦÎµÏĤ":7124,"ĠÎķÎ½":7125,"ĠÎķÏĢÎ¯":7126,"ĠÎķÎ½Ïİ":7127,"ĠÎķÏĥÎµÎ¯ÏĤ":7128,"ÎºÎ¬ÎºÎ¹Î±":7129,"Î¤Î·":7130,"ĠÎłÎ±Î½":7131,"ĠÎłÎ¿Ïį":7132,"ĠÎłÏģÏī":7133,"ĠÎłÏĮÏĦÎµ":7134,"ÎŃÏģÎ½Î±":7135,"ĠÏĢÎ¿Î»ÏįÏĤ":7136,"ÏģÎ·Î¼Î±":7137,"ÏģÎ®ÎºÎµ":7138,"ÏĥÏĦÎµÎ»":7139,"ÏĥÏĦÎµÎ¯Î±":7140,"ÏģÏİÏĥÎµÎ¹ÏĤ":7141,"ĠÎ£ÏĦÎµ":7142,"ĠÏģÎ¿Î»ÏĮ":7143,"ĠÎŁÏģÎ¯ÏĥÏĦÎµ":7144,"ĠÎ¼Î¹ÎºÏģÎ¿Ïĥ":7145,"ĠÎ±Î»Ïħ":7146,"ĠÎ±Î»Î»Îµ":7147,"ÏİÎ½Î¿Î½ÏĦÎ±ÏĤ":7148,"ĠÏĢÎ±Î¹ÏĩÎ½":7149,"ĠÏĢÎ®ÏģÎ±":7150,"ĠÏĢÎ®Î³Î±":7151,"ÎĳÏĥÏĦÏģÎŃÎ½":7152,"ÎĳÎºÏģÎ¹Î²ÏİÏĤ":7153,"Î´ÎµÏĪÎµ":7154,"ÏģÏħÎ¬":7155,"ĠÎµÎºÎµÎ¯Î½Î¿Î½":7156,"Î»Î®Î»Î¿ÏħÏĤ":7157,"ĠÏĪÎ®":7158,"ĠÏĪÎµÏį":7159,"Î»ÏĮÏĢÏģÎµ":7160,"ÎłÎ¬ÎµÎ¹":7161,"ĠÎĵÎ»Î±Ïį":7162,"ĠÏĢÏĮÏĥÎ±":7163,"ĠÎ´ÎµÏħ":7164,"ĠÎ±ÏģÎºÎµÎ¯":7165,"ĠÏĢÎµÏģÎ¹ÏĢÎ¿Î¹":7166,"ĠÏĢÎµÏģÎ¹Î³ÏģÎ¬":7167,"ĠÎ±ÏħÎ»Î¹":7168,"ĠÏĢÎ±ÏģÎ±Î»Î¯Î±":7169,"Î¼Î®Î¸Î·ÎºÎ±Î½":7170,"ĠÎºÎ±ÏĦÎ±ÏĥÎºÎµ":7171,"ĠÎ±Î½Î±ÏĥÏĦÎ±":7172,"ĠÎ±Î½Î±Î»Î¬Î²":7173,"ÏĦÏĥÎ¿Ïħ":7174,"ĠÎ´Î¹Î±ÏĦÎ¬":7175,"ĠÎ´Î¹Î±ÏĥÏĩ":7176,"ĠÎºÎ±ÏĦÎ¬ÏĥÏĦÎ·Î¼Î±":7177,"ĠÎºÎ±Î»Î¬Î¸Î¹":7178,"ĠÏĢÏģÎ¿ÏĥÏĦÎ¬":7179,"Î´Î¯ÎµÏĤ":7180,"ĠÎ¾Î±Î½Î±ÏĨ":7181,"ÏģÎ¹Î±ÎºÎ®":7182,"ĠÎ±ÏĢÎ¿Î»Î¬Î¼Î²Î±Î½Îµ":7183,"Î¿Î½ÏĦÎ¬Î´ÎµÏĤ":7184,"ĠÏĨÎ±Î»Î±Î¹Î½":7185,"ĠÎīÏģÎ¸Îµ":7186,"ĠÎīÎ¾ÎµÏģÎµ":7187,"ÎĿÎ¿Î¼Î¯Î¶Ïī":7188,"ÎĿÎ¯ÎºÎ¿ÏĤ":7189,"ĠÎĨÏĥÎµ":7190,"ĠÎ³Î¹Î±Î½Î±":7191,"ÏģÎ±Î½ÏĮ":7192,"ĠÎ²Î¬Î¶Î¿ÏħÎ½":7193,"ÏĢÎ®ÎºÎ±Î½":7194,"ĠÎºÎµÏģÎ¬":7195,"ĠÏĨÏīÎ½Î¿ÏįÎ»Î±":7196,"ĠÏĢÏģÏĮÏĦÎµÎ¹Î½Îµ":7197,"Î¼Î¹Î¶Îµ":7198,"ĠÎµÎ¾Ïī":7199,"ÏĨÎ¬Î´ÎµÏĤ":7200,"Î¼ÏĮÎ½Î±":7201,"ĠÎ±Î³Î±ÏĢÎ®ÏĥÎµÎ¹":7202,"ĠÎ±ÎºÎ¿ÏįÏĥÏī":7203,"ĠÎŃÎ»ÎµÎ³Î±":7204,"ÎĶÎ¹Î¿Î½":7205,"ĠÎļÎ±ÏģÎ¬":7206,"Î´Î·ÏĥÎµ":7207,"Î´Î·ÏĥÎ·":7208,"ĠÎľÎ±ÏģÎ¹":7209,"ĠÎľÎ±ÏĥÏĦÏģÎ¿ÎĵÎ¹ÏİÏģÎ³Î·":7210,"ĠÎ´Î¯ÏĪÎ±":7211,"Î¸Î®ÎºÎ±Î¼Îµ":7212,"ĠÎ±ÎºÏĦÎ¯Î½ÎµÏĤ":7213,"ĠÎŃÎ´ÏīÏĥÎ±":7214,"ĠÏĢÎµÎ¹ÏĥÎ¼Î±":7215,"ĠÏĢÏģÏİÏĦÎµÏĤ":7216,"ĠÎ¼Î±ÎºÏģÏħÎ¬":7217,"ĠÏīÎºÎµ":7218,"ĠÎ¼ÏħÏĦÎµÏģÏĮ":7219,"ĠÏĨÎ¿ÏģÎŃÏĥÎµÎ¹":7220,"ĠÏĨÎ¿ÏģÎŃÎ¼Î±ÏĦÎ±":7221,"ĠÎ¼ÏĢÎ¿ÏģÎ¿ÏįÏĥÎµÏĤ":7222,"Î¸Î¹ÏĥÎ¼ÎŃÎ½Î·":7223,"ĠÎ¦Î¿Ïį":7224,"ĠÎ¦Î»Î¿ÏģÎ¹Î¬Î½":7225,"ĠÏĥÎ±Î»ÏĮÎ½Î¹":7226,"ÏĦÏģÎ¿Î¯":7227,"ĠÎ¾Î±Î½Î±Îº":7228,"ĠÎ¾Î±Î½Î±ÏģÏİÏĦÎ·ÏĥÎµ":7229,"ĠÏĢÏģÎ¿ÎºÎ±":7230,"ĠÎ´Î¹ÎµÏħÎ¸ÏħÎ½":7231,"ÏĨÎ±Î½Î¯ÏĥÏĦÎ·ÎºÎµ":7232,"ĠÏĨÎ¬Î¼Îµ":7233,"Î¤Î¹ÏĤ":7234,"Î¯Î¿ÏħÏģÎµ":7235,"ĠÏĦÏģÎ±Î²Î®":7236,"ĠÏĨÏħÏĥÎ¬":7237,"ĠÏĪÎ·Î»ÏĮÏĤ":7238,"ĠÎĴÎ±Î»ÎŃ":7239,"ĠÏĢÎ»Î·ÏģÎ¿ÏĨ":7240,"ĠÏĢÎ»Î·Î³Ïī":7241,"ĠÎ´ÏİÎ¸Îµ":7242,"ĠÎŃÏģÎ¸Ïī":7243,"ĠÏĢÏģÎ±Î³Î¼Î±ÏĦÎ¹ÎºÎ®":7244,"ĠÏĢÎ±Î¯Î¾Ïī":7245,"ĠÏĢÎ±Î¯Î¾Î¿ÏħÎ½":7246,"ĠÎ¾ÏįÎ»Î¿":7247,"Î¶Î±Î¼Îµ":7248,"ĠÎµÏĢÎ¿ÏĩÎ®":7249,"ĠÏĨÏĮÏģÎ±":7250,"ÎºÎ¯Î½Î¿":7251,"ĠÎ±ÏĢÎ¿ÏĨÎ¬ÏĥÎ¹ÏĥÎ±":7252,"ÎµÏįÎµÎ¹":7253,"ĠÏĨÎ±Î½Îµ":7254,"ĠÏħÏĢÎ¿Ïĩ":7255,"ÏĢÎ»Î·ÎºÏĦÎ¹ÎºÎ¬":7256,"ĠÎĻÎ¿Ïħ":7257,"ĠÏĩÏİÎ¸Î·ÎºÎµ":7258,"ĠÎ¶ÎµÏĥÏĦÎ¬":7259,"ĠÏĦÏĥÎ¬Î¹":7260,"ĠÏĦÏĥÎŃÏĢÎµÏĤ":7261,"ĠÎºÎ±ÏĦÎŃÎ²Î±ÏĥÎµ":7262,"ĠÎ¿ÏħÏģÎ±Î½ÏĮÏĤ":7263,"ĠÎ±ÏĨÎ®ÏĥÎµÎ¹ÏĤ":7264,"ĠÎłÎ±ÏģÎ¬":7265,"ĠÏĨÏĦÎ¹Î¬Î¾Î¿ÏħÎ½":7266,"ĠÎºÎ»ÎµÎ¹Î´Î¹Î¬":7267,"ĠÏĥÏīÏĥÏĦÎ®":7268,"ĠÏĨÎ¿Î²Î®Î¸Î·ÎºÎµ":7269,"ĠÏĢÎµÏĦÎ¬Î¾ÎµÎ¹":7270,"ĠÎ±Î³ÎºÎ±Î»Î¹Î¬ÏĥÎµÎ¹":7271,"Î§Î±":7272,"Î§ÏīÏģÎ¯ÏĤ":7273,"ĠÏĨÎ¹Î»Î¿":7274,"ĠÎºÏħÏģÎĶÎ¹Î¿Î½":7275,"ĠÎ²ÎµÎ»Î¿Ïį":7276,"ĠÎ²ÏĮÎ»Î¿":7277,"ĠÎ´ÎµÎ¯ÏĢ":7278,"ĠÎ»ÎµÏĢÏĦÎ¿":7279,"ĠÎ¬Î³Î³Î¹":7280,"ĠÎ³Î¿ÏħÏģ":7281,"ĠÏĢÎ±ÏģÎŃÏĥÏħ":7282,"ĠÏĩÏĦÏħÏĢÎ®":7283,"ÏģÎ¹Î½ÏĮÏĤ":7284,"ĠÏĢÏįÎ»Î·":7285,"ĠÏĨÏĦÏīÏĩÏĮ":7286,"ĠÎ¼Î¬Î³Î¹ÏĥÏĥÎ±ÏĤ":7287,"ĠÏĥÎ¯Î³Î¿ÏħÏģÎ·":7288,"ĠÎ¼Î¹ÎºÏģÎ¿ÏįÏĤ":7289,"ĠÎ¼Î¹ÎºÏģÎ¿ÏįÎ»Î·ÏĤ":7290,"ĠÏĢÎ±Î½ÏĦÏģÎµÏįÏĦÎ·ÎºÎµ":7291,"ÏĦÏįÏĢÎ·ÏĥÎµ":7292,"ĠÏĢÎ»Î·ÏĥÎ¯Î±ÏĥÎ±Î½":7293,"ÏģÎµÏħÏĮÏĦÎ±Î½":7294,"ĠÂµÎ¹ÎºÏģÏĮÏĤ":7295,"ÏĬÎ´":7296,"ĠÏĦÏģÎ±Î³Î¿ÏħÎ´Î¹":7297,"ĠÏĦÎ¿ÏĢÎ¿ÏħÎ»Î¬ÎºÎ¹":7298,"ĠÎ±Î¹Ïĩ":7299,"ĠÏĩÏģÎµÎ¹Î¬Î¶Î¿Î½ÏĦÎ±Î¹":7300,"ĠÎºÎ¿Î¹Î¼Î·Î¸Î¿ÏįÎ½":7301,"ĠÏĥÏĦÎŃÎ¼Î¼Î±":7302,"ĠÎ³Î¿ÏģÎ³ÏĮÎ½ÎµÏĤ":7303,"ĠÏĦÏģÎµÎ»Î¬":7304,"ĠÎ³ÏģÎ±Î¯Î±":7305,"ĠÎ¬ÏĥÏĩÎ·Î¼Î·":7306,"ĠÎµÏħÏĦÏħÏĩÎ¹ÏĥÎ¼ÎŃÎ½Î¿Î¹":7307,"ĠÏħÏĢÎ¿Î¼Î¿Î½":7308,"ĠÎŃÎ¶Î·ÏĥÎµ":7309,"Î½Î¯ÎºÎ·":7310,"ĠÏĪÎ¬ÏĩÎ½ÎµÎ¹ÏĤ":7311,"ĠÎ¾ÏīÏĦÎ¹ÎºÎ¬ÎºÎ¹Î±":7312,"ĠÎºÏģÎŃÎ¼Î±":7313,"ÏĨÎ®ÏĥÏĦÎµ":7314,"ĠÎĽÎ¿ÏħÎºÏģÎ·ÏĦÎ¯Î±":7315,"ĠÎ¼Î¬Î¸ÎµÎ¹ÏĤ":7316,"ĠÏĥÏĦÎµÎ½ÏĮ":7317,"ÎłÎ±ÏĢÏĢÎ¿Ïį":7318,"ĠÏĨÎ±Î½ÏĦÎ±Ïĩ":7319,"ÏĥÏĮÏĢÎ¿ÏħÎ»Î¿ÏĤ":7320,"Î¸Î±Î½ÏĮÏĦÎ±Î½":7321,"ĠÏĢÎ¬ÏģÎ¿ÏħÎ¼Îµ":7322,"ĠÎ¿Î¹ÎºÎ¿Î³ÎŃÎ½ÎµÎ¹Î±ÏĤ":7323,"ĠÏĥÎ¿ÎºÎ¿Î»Î¬ÏĦÎµÏĤ":7324,"Î¿Î»Î¿Î³Î¹":7325,"ĠÎ±ÎºÎ¿ÏħÎ¼ÏĢ":7326,"ĠÏĥÎºÎ»Î·ÏģÏĮ":7327,"Î´ÏįÎ½Îµ":7328,"ĠÎļÏħÏģÎ¹Î±ÎºÎ®":7329,"ĠÏĩÎ¹Î¿Î½Î¹Î¿Ïį":7330,"ĠÏĦÎ±Î¾Î¹Î´Î¹":7331,"ĠÎ¼ÎŃÎ»Î¹ÏĥÏĥÎµÏĤ":7332,"ĠÏĢÎ±ÏģÎ±ÎºÎ¬ÏĦÏī":7333,"ĠÎ³ÎµÎ»Î¬ÏĥÎµÎ¹":7334,"ĠÎ¿Î»Î¿Î¼ÏĮÎ½Î±":7335,"ĠÎ¬Î½ÎµÎ¼Î¿":7336,"ÎºÎ±ÏĦÎ¬Î»Î±Î²Îµ":7337,"ĠÏĥÏħÎ½Î®Î¸Î¹Î¶Îµ":7338,"ĠÏĢÎµÏģÎ®ÏĨÎ±Î½Î±":7339,"ĠÏĥÏĢÎ¿ÏħÎ´Î¬":7340,"ĠÏĢÏģÎ¹Î³ÎºÎ¹ÏĢ":7341,"ĠÎŃÎ¾ÏħÏĢÎ½Î¿":7342,"ĠÎ±ÏĢÎ¿Î¼Î±ÎºÏģÏħÎ½":7343,"ĠÎĨÎ½Î½Î±":7344,"ĠÎ±ÎºÎ¿Î»Î¿ÏįÎ¸Î·ÏĥÎ±Î½":7345,"ĠÎ¿Î´Î·Î³Î¿ÏįÏĥÎµ":7346,"ĠÎ¿Î´Î·Î³Î¯ÎµÏĤ":7347,"ĠÎ¼Î±ÏģÎºÎ®":7348,"ĠÎºÏģÏħÏĨÏĦÏĮ":7349,"ĠÎºÏģÏħÏĨÏĦÎµÎ¯":7350,"ĠÏĢÎŃÏĨÏĦÎ¿ÏħÎ½":7351,"ĠÏĢÏģÎ¿ÏĩÏīÏģÎ¿ÏįÏĥÎµ":7352,"ĠÏĢÎ»Î·ÏĥÎ¹Î¬ÏĥÎµÎ¹":7353,"ĠÏĢÎ»Î·ÏĥÎ¹Î¬Î¶ÎµÎ¹":7354,"ĠÎºÎ±ÏģÎŃÎºÎ»ÎµÏĤ":7355,"ĠÎ³Î±Î»Î¬Î¶Î¹Î¿":7356,"ĠÎ£ÏīÏĦÎ®ÏģÎ·":7357,"ĠÎĳÏĨÏģÎ¹ÎºÎ®":7358,"ĠÎĳÏĨÏģÎ¿Î´Î¯":7359,"ĠÏĦÎ¹Î¼ÏīÏģÎ¯Î±":7360,"ĠÎ±Î½Î¸ÏģÏīÏĢÎ¿ÏĨ":7361,"ĠÎºÏĮÎºÎ¿ÏģÎ±":7362,"ĠÎµÏħÎ³ÎµÎ½Î¹ÎºÎ¬":7363,"ĠÏĥÏĦÎµÎ¯Î»ÎµÎ¹":7364,"ĠÎĳÎºÏĮÎ¼Î±":7365,"ĠÏĦÎ±Î¾Î¯Î´ÎµÏħÎµ":7366,"ĠÎ±Î½Î®ÏĥÏħÏĩÎ¿ÏĤ":7367,"ÏģÎ³Î¿ÏħÏĥÏĮÏĢÎ¿ÏħÎ»Î¿ÏĤ":7368,"ĠÎ¼ÏħÏģÎ¼Î®Î³ÎºÎ¹":7369,":âĢľ":7370,"ĠÏĨÎ¿ÏįÏĦÎµÏģ":7371,"ĠÎŁÏģÏĨÎŃÎ±ÏĤ":7372,"ÎłÎ¬Î¼Îµ":7373,"ÎºÎ¿Î¼ÎµÎ¯Î¿":7374,"ĠÎŃÎ½Î¿Î¹ÏīÏĥÎµ":7375,"ĠÎĺÏīÎ¼Î¬":7376,"ĠÎ³ÎŃÎ¼Î¹ÏĥÎ±Î½":7377,"ĠÎ³ÎŃÎ¼Î¹Î¶Îµ":7378,"ĠÎ±Î¹ÏĥÎ¸Î¬Î½Î¸Î·ÎºÎµ":7379,"ĠÎµÏĦÎ¿Î¯Î¼Î±ÏĥÎµ":7380,"ĠÎ´Î¿ÏħÎ»ÎµÏįÎµÎ¹":7381,"ĠÎľÏĢÎ¹Î¶ÎŃÎ»Î·":7382,"ĠÎ¾ÎŃÏĨÏīÏĦÎ¿":7383,"ĠÎľÎ¬ÏģÎ»Î±":7384,"ĠÎºÎµÏĨÎ±Î»Î¬ÎºÎ¹":7385,"ĠÎ±Î½Î¸ÏģÏİÏĢÎ¹Î½Î·":7386,"ĠÎ½ÏĦÎ¿ÏħÎ»Î¬ÏĢÎ¹":7387,"ĠÎ¼ÎµÏĦÎ±Î½Î¹":7388,"ĠÎ¼Î¿ÏħÏģÎ¼Î¿ÏįÏģÎ¹ÏĥÎµ":7389,"ĠÏĨÎ¿Î²ÎµÏģÏĮ":7390,"Î¿ÏĥÏĦÎ±Î»":7391,"ĠÏĢÎ±Î½ÏĦÏģÎµÏħÏĦÎ¿ÏįÎ½":7392,"ĠÏĦÎ·Î»ÎµÏĮÏģÎ±ÏĥÎ·":7393,"ĠÎ±ÏħÏĥÏĦÎ·ÏģÏĮ":7394,"ĠÎºÎ¿ÏģÏĮÎ¹Î´ÎµÏħÎ±Î½":7395,"ĠÏĢÎŃÏĦÏģÎ¹Î½Î¿":7396,"ĠÎ¼Î¿Î½ÏĮÎºÎµ":7397,"ĠÎµÏħÏĩÎ±ÏģÎ¯ÏĥÏĦÎ·ÏĥÎ·":7398,"ĠÏĥÏĦÎ®Î¸Î¿ÏĤ":7399,"ĠÎ¬Î³Î³ÎµÎ»Î¿ÏĤ":7400,"ĠÎļÎ¹Î½ÎŃÎ¶Î¿ÏĤ":7401,"ĠÎ¾ÎµÏĩÎ½Î¬ÏĤ":7402,"ĠÎĽÎ¬Î¶Î±ÏģÎ¿ÏĤ":7403,"ĠÎºÎ¿ÏĩÏįÎ»Î¹":7404,"ĠÎĳÏĢÏĮÎ»Î»ÏīÎ½Î±":7405,"ĠÎ±Î½ÏħÏĢÎ¿Î¼Î¿Î½Î·ÏĥÎ¯Î±":7406,"ĠÏĢÎµÏģÎ¹ÏĢÎŃÏĦÎµÎ¹ÎµÏĤ":7407,"ĠÎ±Î³ÎµÎ»Î¬Î´Î±":7408,"ĠÎ¼ÏĢÎ¹Î¶ÎŃÎ»Î¹Î±":7409,"ĠÎĳÏħÎ³Î¿Ïħ":7410,"ĠÎĶÏĮÎ³Î·ÏĤ":7411,"ĠÎºÏĦÎ®Î¼Î±":7412,"ĠÏĥÏĦÎ±ÏħÏģÏĮ":7413,"ĠÎ½Î¿Î¹ÎºÎ¿ÎºÏħ":7414,"ĠÏĩÏĦÎ±ÏĢÎ¿Î´Î¬ÎºÎ¹Î±":7415,"ckgm":7416,"olos":7417,"ĠÎ´Î¿ÎºÎ¯":7418,"ĠÎ±ÏĢÎŃÎºÏĦÎ·ÏĥÎµ":7419,"ĠÎĳÎ»ÎºÎ·ÏĪÎ±ÏģÎ¿ÏįÎ»Î·ÏĤ":7420,"ĠÎºÎ±Î¸Î¬ÏģÎ¹ÏĥÎµ":7421,"ĠÎ±Î½Î±ÎºÎ¿Î¯Î½ÏīÏĥÎµ":7422,"ĠÎļÎ±ÏģÎ´Î¿ÏįÎ»Î±ÏĤ":7423,"ĠÎµÎ½ÏħÎ´ÏģÎµÎ¯Î¿":7424,"ĠÎºÎ±ÏģÎ¿ÏĦÎ¬ÎºÎ¹Î±":7425,"ÎķÏħÏĦÏħÏĩÏİÏĤ":7426,"ĠÏĦÎ±ÏĩÏįÏĦÎ·ÏĦÎ±":7427,"ĠÎ¦Î¹Î»Î±ÏģÎ¬ÎºÎ¿ÏĤ":7428,"ail":7429,"ĠÎ¿ÏĢÏīÏĥÎ´Î®ÏĢÎ¿ÏĦÎµ":7430,"ĠÏĨÎ¿Î¹ÏĦÎ·":7431,"ÂµÎ¿Î³ÎŃÎ»Î±ÏĥÎµ":7432,"ĠÎ¼Î±ÏĦÎ±Î¹ÏĮÎ´Î¿Î¾":7433,"ĠÎ¼Î±ÏĩÎ±Î¯ÏģÎ¹":7434,"ĠÏħÎ¹Î¿Î¸Îµ":7435,"ÏĦÎŃÎ²Î·ÎºÎµ":7436,"ĠÎ´Î¹Î±ÎºÎ¿ÏĢÎŃÏĤ":7437,"ĠÏĥÏħÎ³Î³ÎµÎ½ÎµÎ¯ÏĤ":7438,"nickgm":7439,"ĠÎºÎ¬ÏĥÏĦÏģÎ¿Ïħ":7440,"ĠÎĳÎ¸Î·Î½Î¬":7441,"ĠÎ»Î¹Î¿Î½ÏĦÎ±ÏģÎ¹Î¿Ïį":7442,"ĠÎºÏħÏģÎºÎ¿ÏħÎºÎ¿ÏħÎ²Î¬Î³Î¹Î¿ÏĤ":7443,"ĠÏģÎ¬Î¼ÏĨÎ¿ÏĤ":7444,"ĠÎ±Î³ÏģÎ¹Î¿Î³Î¿Ïį":7445,"ĠÎĵÎµÏīÏģÎ³Î¿ÏħÏĥÏĮÏĢÎ¿ÏħÎ»Î¿ÏĤ":7446,"com":7447,"Ġgeolos":7448,"ĠÎ¼Î¹ÎºÏģÎ¿ÏĥÎºÎ¿ÏĢ":7449,"nickgmail":7450,"Ġgeolosnickgmail":7451,"\";":7452,"),":7453,";;":7454,"ĠW":7455,"ĠÎĦ":7456,"Î±ÎºÎ¿Ïį":7457,"Î¿Î´Î·":7458,"Î¹ÏĥÎ±":7459,"Î¹Î¶ÏĮÏĦÎ±Î½":7460,"ÎµÎ³Ïİ":7461,"Î½ÏħÎ¼Î±":7462,"Î½ÏĮÎ½ÏĦÎ¿ÏħÏĥÎ±Î½":7463,"ÏģÎ½Î±":7464,"ÏģÎ·Î½":7465,"Î»ÏĢ":7466,"Î»Î¼Î±":7467,"Î»ÎºÎ¹":7468,"ÏĥÎºÎ±ÏĤ":7469,"Î¯Î»Î·ÏĥÎµ":7470,"ĠÎºÎ»ÏĮ":7471,"ĠÎºÎŃÏĨ":7472,"ĠÎºÎ¯ÏĥÏĥÎ±":7473,"ÏĢÎµÎ½":7474,"ÏĢÎµÎ¯":7475,"ÏĢÏģÎ¿ÏĤ":7476,"ÏĢÎ¬Î½ÏĦÎ±":7477,"ÏĮÏĢÏīÏĤ":7478,"Î¼ÎŃÏĤ":7479,"Î¼ÏĮÎ½Î¿":7480,"Î¼Î¹ÎºÎ±":7481,"ÎŃÏĦÏĥÎ¹":7482,"Î±Î¹Î½Î±":7483,"ĠÎ¼Î¬Î½":7484,"ĠÎ¼ÏįÏģÎ¹Î¶Îµ":7485,"ĠÎ±Î¼Î¬":7486,"ÏīÎ¼ÎŃÎ½Î¿":7487,"ĠÎµÏįÏĩ":7488,"ĠÎµÏħÎ¸":7489,"ÏĩÎ¿Ïģ":7490,"ĠÎ½ÏĦÎ¿":7491,"ĠÎ½ÏĦÏģÎŃ":7492,"ĠÎŃÎ»ÎºÎ·":7493,"Î´Î¿Ïĥ":7494,"Î´Î¹ÎºÎ¬":7495,"Î´Î¹ÎºÏĮ":7496,"ĠÎ½Î±Ïħ":7497,"ĠÎ½Î±Î²":7498,"Î¸ÎŃÎ»":7499,"ĠÎ´ÏģÎ±":7500,"ĠÎ³ÎŃÏĨ":7501,"ÏĨÎ±Î¹":7502,"ÏĨÏĦÎ·ÎºÎ±Î½":7503,"ÏģÎ¹ÏĥÏĦÎµÎ¯":7504,"ĠÎµÎ¯ÂµÎ±Î¹":7505,"ĠÏĨÎµ":7506,"ĠÏĨÎ¸Î¬":7507,"ĠÏĨÎŃÏģÎµ":7508,"ĠÏĨÎ»Î¿Î³":7509,"ĠÏĦÎ±ÏģÎ¬":7510,"ĠÎ¼ÎµÎ¸Ïħ":7511,"ĠÎ¼ÎµÎ¯Î½Î¿ÏħÎ½":7512,"ĠÎ¼ÎµÎ¯Î½ÎµÎ¹ÏĤ":7513,"Î²ÏĮÏĦÎ±Î½":7514,"ÏģÎ¬Î»Î»Î¹Î±":7515,"ĠÎ²Î¿Ïį":7516,"ĠÎ²Î´Î¿":7517,"ĠÎ²Î³Ïī":7518,"ĠÎ²ÎŃÎ»Î·":7519,"ÎµÎ½Îµ":7520,"ÎµÎ½Î½Î¿":7521,"Î»Î±Î¯":7522,"Î»Î±ÏĪÎµ":7523,"Î»Î±ÏĩÏĦÎ¯":7524,"Î¾ÏħÎ»Î¿ÎºÏĮ":7525,"ĠÏĢÎ¿ÏħÎ»Î¬":7526,"ÏĦÎ¬Î¾ÏĦÎµ":7527,"Î»Î¹ÏĮ":7528,"Î¼Î±Î¶Îµ":7529,"ÂµÎ±Î½":7530,"ÂµÎ¿Ïį":7531,"ĠÎ·Î¼Îµ":7532,"ÏģÏĮÎ½Î±":7533,"ÏģÏĮÎ½Î·":7534,"ĠÎ³Î¹Î±ÏĦÏģÎ¿Î¯":7535,"Î¬Î½Î¿ÏħÎ½":7536,"ÎºÎµÏĦÎ±Î¹":7537,"ÎºÎµÏĨÎ¬Î»Î¹":7538,"ĠÏĥÏĦÎ¿Î¯Ïĩ":7539,"ÏħÏĦÎ®ÏĤ":7540,"ĠÎ¼Î±Î¸Îµ":7541,"ÏĢÎµÏĦÎ±":7542,"ÏĢÎµÏĥÎµ":7543,"ĠÎ´ÎµÎ½ÎµÎ¯ÏĩÎµ":7544,"ÏĥÏĦÎ¯":7545,"ĠÎ¤Î¿Ïį":7546,"ÏĩÎµÏĦÎ±Î¹":7547,"Î»ÎµÏĥÎ±Î½":7548,"Î»ÎµÏĪÎ±Î½":7549,"Î¯Î½Î¿ÏĤ":7550,"Î¯Î½Î¿Î½ÏĦÎ±Î¹":7551,"ĠÎºÎ¬ÏĦÎ±ÏĥÏĢ":7552,"ÎºÎ±ÏģÎ¿ÏĤ":7553,"ĠÎĳÏģ":7554,"ĠÎĳÎ¯":7555,"ĠÎĳÎ³":7556,"ĠÎĳÏįÏģÎ¹Î¿":7557,"ĠÎĳÏģÎ¯ÏīÎ½":7558,"ĠÎĳÎ³Î±ÏĢÎ¬":7559,"ĠÎļÎ¬Î½ÏĦÎµ":7560,"ÎºÏĮÎ¼Î·":7561,"ĠÏĥÎµÏģ":7562,"ĠÎ±Î½ÏĦÎ·":7563,"ÏĢÎ±Ïģ":7564,"ĠÂµÎŃÏģÎµÏĤ":7565,"ĠÂµÎ¿Î½Î±":7566,"ÏĢÎ¿Î½Î±":7567,"ĠÎķÎ¾":7568,"ÎºÎ¬Î¸Î±":7569,"ÏĦÎ¿Î¼Î±Î¹":7570,"ĠÏĥÏħÏģ":7571,"ĠÏĥÏħÎ³ÎºÎ¹":7572,"Î¤Î¿Ïħ":7573,"ĠÎłÎ»Î¿Ïį":7574,"ĠÎłÎ»Î·ÏĥÎ¯Î±ÏĥÎµ":7575,"ĠÎ²Î±Î¸ÎµÎ¹Î¬":7576,"ÎºÎ±Î½Î±":7577,"ÏģÏĩÎ±":7578,"ÏģÏĩÎ·":7579,"ĠÎ£Î¯":7580,"ĠÎ£ÎºÎµÏĨ":7581,"ĠÎ¬Î»Î»ÏīÎ½":7582,"ĠÎ±Î»Î¿Î¹":7583,"ĠÎ±Î»Î»Î®Î»Î¿ÏħÏĤ":7584,"ĠÏĩÎ±Î»Î¯":7585,"ĠÏĩÎ±ÏģÎŃÏĤ":7586,"ĠÏĩÎ±ÂµÎ¿":7587,"ĠÏħÎ»Î¹ÎºÎ¬":7588,"ÏĢÎ¯ÏĦÎ¹":7589,"ÎĳÏĢÎ¿":7590,"ĠÎĪÏĪÎ±":7591,"Î´ÎµÏĩ":7592,"Î²Î±Î»Î±Î½":7593,"ÎºÎ¿ÏħÏĨÎ¹":7594,"ĠÏĪÎŃÎ»":7595,"ÏĢÏĮÏĦÎ±Î½":7596,"ÎķÏħÏĩÎ±ÏģÎ¹ÏĥÏĦÏİ":7597,"ĠÎ±Î»Î»Î¬Î¶Î¿ÏħÎ½":7598,"ÎłÎ¿Î»":7599,"ÎłÏīÏĤ":7600,"ÎłÏģÎ¿Ïĩ":7601,"ÎłÎ¿ÏĦÎŃ":7602,"ÎºÎ¿ÏįÏĥÎ±Î½":7603,"ĠÎ¼ÎµÎ³Î¬Î»ÏīÏĥÎ±Î½":7604,"ÏĦÎŃÏĪÎµÎ¹":7605,"ĠÎ¾ÎµÏĢÏģÏĮ":7606,"ĠÎ¾ÎµÎºÎ¿ÏįÏģÎ±":7607,"ĠÎºÎ¿ÏħÏģ":7608,"ĠÎºÎ¿ÏħÏĦÎ¹Î¬":7609,"ĠÎºÎ¿ÏħÏĦÎ¬ÎºÎ¹":7610,"Î¼Î·ÏĥÎ±Î½":7611,"ĠÎ±Î³Î±Î½Î±":7612,"ĠÎĺÎ¿Î´Ïī":7613,"ÏĦÏĮÎ¼Î¿Ïħ":7614,"ĠÎ±ÏģÎ³Î®":7615,"ĠÏĢÎ±ÏģÎ±Î³Ïī":7616,"ĠÎºÎ¿ÏĦÎ¿ÏįÎ»ÎµÏĤ":7617,"ĠÎºÎ¿ÏģÎ¬Î»Î»Î¹Î±":7618,"ĠÏĦÎµÎ¼ÏĢ":7619,"ĠÎ³ÎµÎ»Î±":7620,"ĠÎ³ÎµÎ»Î¿ÏįÏĥÎµ":7621,"ĠÎ³ÎµÎ»Î¬ÎµÎ¹":7622,"ĠÎºÏħÎ»Î¿ÏįÏĥÎµ":7623,"ĠÎºÎ±ÏĦÎ±ÏĢÎ¹":7624,"Î¬ÏĥÏĦÎ¹ÏĥÎµ":7625,"ĠÎ±Î½Î±ÏĥÏĦÎµ":7626,"ĠÏĨÎ¿ÏģÎ¬ÎµÎ¹":7627,"ĠÎĿÏĦÎ¬Î½Î¹":7628,"ĠÎºÎ¿Î¹Î»Î¯ÏĦÏĥÎ±":7629,"Î´Î¯ÏĥÏĦÏģÎ±":7630,"ÏĢÎŃÏĥÏĦÏģÎµ":7631,"ĠÎ¹Î´Î¹Î¿Îº":7632,"ĠÎķÎ¯ÏĥÏĦÎµ":7633,"Î´ÏİÏĥÎµÎ¹":7634,"Î´ÏİÏĥÎµÎ¹ÏĤ":7635,"ÏĥÏĦÎ±Î¶Îµ":7636,"ĠÎºÎ±Î»Ïī":7637,"ĠÎºÎ±Î»ÎŃÏĤ":7638,"ĠÏĨÎ¯Î»ÎµÏĤ":7639,"ĠÎµÏĢÎ¹ÏĩÎµÎ¹":7640,"ĠÎµÏĢÎ¹ÏĦÏħÏĩÎ¯Î±":7641,"ĠÎīÎ¼Î¿ÏħÎ½":7642,"ĠÎīÎ»Î¹Î¿ÏĤ":7643,"Î¿ÏĩÎ®ÏĤ":7644,"ĠÎĨÎ»Î»Î±":7645,"ÏĥÎºÎµÏĤ":7646,"ĠÎŃÏĢÎ»Îµ":7647,"ĠÏĮÎ¼Î¿ÏģÏĨÎµÏĤ":7648,"ÏģÎ±Î½Î¯Î¿":7649,"ĠÎ²Î¬Î¸Î·":7650,"ĠÎ²Î¬Î¶Î±":7651,"ĠÎºÎµÏģÎ¬ÎºÎ¹Î±":7652,"ĠÏĨÏįÎºÎ¹Î±":7653,"ĠÎĽÏĮ":7654,"ĠÎ±ÎºÎ¿ÏįÎ³ÎµÏĦÎ±Î¹":7655,"ÏĨÎµÏį":7656,"Î½Î¬Î´ÎµÏĤ":7657,"ĠÎ´ÎŃÎ½ÏĦÏģÏīÎ½":7658,"ĠÎ±ÏģÏĩÎ¹":7659,"ĠÎľÎ±Î»Î¬":7660,"ĠÏĩÎ¬Î»ÎºÎ¹":7661,"ĠÏĥÏħÎ¼ÏĨÏİÎ½Î·ÏĥÎ±Î½":7662,"Î¸Î®ÎºÎµÏĤ":7663,"ĠÎ»Î±ÏĩÏĦÎ¬":7664,"Î¹ÏĥÎ¼ÏĮ":7665,"ĠÏĥÏĩÎ·Î¼Î±":7666,"ĠÏĩÏģÏĮÎ½ÏīÎ½":7667,"ĠÎľÎµÎ³Î¬":7668,"ĠÎ»ÏįÎºÎ¿Î¹":7669,"ĠÏĢÎ¹Î¬Î½ÎµÎ¹":7670,"ĠÎºÎ±ÏģÎ´Îµ":7671,"ĠÎºÏģÎ±ÏĦÎ¬ÎµÎ¹":7672,"ĠÏĥÏħÎ½ÎŃÏĩÎ¹Î¶Î±Î½":7673,"ĠÎ¼ÏħÎ»ÏīÎ½":7674,"ĠÎ¼ÏħÏĥÏĦÎ¹ÎºÎ¬":7675,"Î¹ÎºÎ®ÏĤ":7676,"ĠÎ¦Î¯":7677,"ĠÏĥÎ±ÎºÎ¿ÏįÎ»Î±":7678,"ĠÎµÎ¼ÏĨÎ¬Î½":7679,"ÎľÎ±Î¼Î¬":7680,"Î³ÏĮÏģÎ¹":7681,"ĠÏĢÏģÎ¿Îµ":7682,"ĠÏĢÏģÎ¿ÎµÎ¹Î´":7683,"ÏĩÏīÏģÎ¯ÏĤ":7684,"ĠÎ³Î¯Î½Î¿ÏħÎ¼Îµ":7685,"ĠÎºÎ¬ÏĢÎ¿Î¹Î¿Ïħ":7686,"ĠÎ¼ÎµÏĦÎ±Î²Î³Î¬":7687,"ĠÎ´ÎµÎ¹Î»Î¬":7688,"ĠÎ¸ÏħÂµÏī":7689,"ĠÎºÎ¿ÏģÎ¹ÏĦÏĥÎ¬ÎºÎ¹Î±":7690,"ĠÎ·Î¼ÎŃÏģÎ±ÏĤ":7691,"ĠÏĪÎ·Î»":7692,"ĠÂµÎ±Î³Î¹ÎºÏĮ":7693,"ÎĽÎ¿Ïħ":7694,"ÎĽÎŃ":7695,"ĠÎŃÏģÎ¸Î¿ÏħÎ¼Îµ":7696,"ĠÎ¼ÎµÎ³Î±Î»ÎµÎ¹":7697,"ĠÎ¼ÎµÎ³Î±Î»ÏĮÏĢÏģÎµ":7698,"ÂµÎµÎ½Î±":7699,"ĠÎŃÏĦÏģÎµÎ¼Îµ":7700,"ĠÎ³Î¿Î½Î¹":7701,"ĠÏĥÎºÎµÏĢÎ±":7702,"ĠÏĥÎºÎµÏĢÎ®":7703,"ÏĩÎ¿Î¼Î±Î¹":7704,"ÏģÎ³Î¯":7705,"Î½Î¿Î¹ÎµÏĤ":7706,"ĠÎĳÏĢÏĮÏĥÏĦÎ¿Î»":7707,"ĠÎ±ÏĢÎ¿ÎºÏĦÎ®ÏĥÎµÎ¹":7708,"ĠÎ¶Î·ÏĦÎ¿ÏįÏĥÎ±Î½":7709,"ĠÎ²Î±ÏĥÎ¯Î»Î¹ÏĥÏĥÎ±ÏĤ":7710,"ĠÏĨÎ±Î½Î¬ÏģÎ¹":7711,"ĠÏĦÏģÏĮÎ¼Î¿":7712,"ĠÎºÎ±ÏĦÎ±Î»Î¬Î²Ïī":7713,"ĠÏĢÎ±Î¹Î´Î¹ÎºÎ®":7714,"ĠÎºÏģÏįÏĪÎµÎ¹":7715,"ĠÎĻÎ¬Î½Î¸Î·":7716,"ĠÎ±ÏĢÎ±ÏģÎ±Î¯":7717,"ĠÎ¬ÏĨÎ·Î½Î±Î½":7718,"ĠÏĢÎµÏģÎ¹ÏĥÏĥÏĮÏĦÎµÏģÎ¿Î¹":7719,"ĠÏĦÏĮÎ¾":7720,"ĠÎ¿Î»ÏĮÎ»ÎµÏħ":7721,"Î»Î»Î¿Î¯":7722,"ÂµÎ¬ÏĦÎ¹":7723,"ĠÎ±ÏĨÎ®Î½ÎµÎ¹":7724,"ĠÎ£ÏĦÎ±Î¼Î¬":7725,"ĠÎ£ÏĦÎ±Î»Î±ÏĩÏĦÎ¯":7726,"ĠÏĨÏĦÎ¬ÏĥÎµÎ¹ÏĤ":7727,"ĠÏĨÏĦÎ¬Î½Î¿ÏħÎ½":7728,"ĠÎºÎ¿ÏħÎ½ÏİÎ½ÏĦÎ±ÏĤ":7729,"ĠÎ¼Î®Î»Î±":7730,"ĠÏĥÏįÎ½ÏĦÏģÎ¿ÏĨ":7731,"ĠÎ¼Î¿Î½Î¿":7732,"Î§Î¬":7733,"ĠÏĨÎ¹Î»Î±":7734,"ĠÎºÎ»Î¿ÏħÎ²Î¬ÎºÎ¹":7735,"ĠÎºÎ»Î¿ÏħÎ²Î¹Î¿Ïį":7736,"ĠÎ»ÏħÏĢÎ®":7737,"ÎĨÏģÏĩÎ¹ÏĥÎµ":7738,"ĠÏĢÎ¹Î¬ÏĥÎ¿ÏħÎ½":7739,"ĠÏĢÎ¹Î¬ÏĥÏĦÎ·ÎºÎµ":7740,"ĠÎºÏħÎ½Î·Î³Î¿Î¯":7741,"ĠÎ³ÎµÎ½Î½Î·Î¸ÎµÎ¯":7742,"ĠÎ³Î½ÏīÏĥÏĦÏĮ":7743,"ĠÏĢÎ±ÏģÎ±Î¼ÏħÎ¸Î¹":7744,"ÏģÎŃÎ½Î¹Î±":7745,"ÏĥÏħÎ½":7746,"Î»ÏīÎ½ÏĮÏĦÎ±Î½":7747,"ĠÎŃÎ½Î¹ÏīÎ¸Î±Î½":7748,"ĠÏĢÏħÏģÎµ":7749,"ĠÎ´Î·Î»Î·":7750,"ÎķÎºÎµÎ¯Î½Î¿":7751,"ĠÎ²Î±ÏĥÎ¹Î»ÏĮÏĢÎ¿ÏħÎ»Î±":7752,"Î»ÎµÏįÎµÎ¹":7753,"ĠÏĥÎºÎ±Î»Î¹":7754,"ĠÏĥÎºÎ±Î¸Î¬":7755,"ĠÏĢÏįÏģÎ³Î¿Ïħ":7756,"ĠÎłÎ®Î³Î±Î¹Î½Îµ":7757,"ĠÏħÏĢÏĮÎ»Î¿Î¹ÏĢÎ¿":7758,"ĠÏħÏĢÏĮÎ»Î¿Î¹ÏĢÎ¿ÏħÏĤ":7759,"ĠÏģÎ¬ÏĨÏĦÎµÏĤ":7760,"ĠÎ±Î½Î¿Î¯Î¾Î¿ÏħÎ½":7761,"ĠÏģÏīÏĦÎ¬":7762,"ĠÎ¼ÎµÎ³Î±Î»ÏįÏĦÎµÏģÎ±":7763,"ĠÎłÎµÏģÎ¯Î¼ÎµÎ½Îµ":7764,"ĠÏĦÏĥÎ±ÎºÎ¬Î»Î¹":7765,"ĠÎĳÏĥÏĢÏģÎ¿ÏįÎ»Î·":7766,"ĠÎĺÎµÎ¼Î¹ÏĥÏĦ":7767,"ĠÎ±Î½ÏĦÎ¹ÎºÎµÎ¯":7768,"ĠÎµÎ»Î¬ÏĩÎ¹":7769,"ĠÎºÎ¿ÏħÏģÎ±ÏĥÎ¼ÎŃÎ½Î¿ÏĤ":7770,"Î©ÏģÎ±Î¯Î±":7771,"ĠÎ¼ÏĢÎ¿ÏħÎ¼ÏĢÎ¿Ïį":7772,"ĠÎ³ÎŃÏģÎ¿Î½ÏĦÎ±":7773,"ĠÏĩÏĦÏįÏĢÎ·Î¼Î±":7774,"ĠÎ³ÏģÎ±Î¼":7775,"ĠÏĢÎ±ÏĢÎ¿ÏįÏĦÏĥÎ¹":7776,"ĠÎµÏĢÎ¹ÏĥÏĦÏģÎ¿ÏĨÎ®":7777,"ĠÎ³Î¹Î¿ÏģÏĦÎ¬":7778,"ĠÏĥÏħÎ½Î±Î½ÏĦÎ¿ÏįÏĥÎµ":7779,"ĠÎ³Î¿ÏħÏģÎ¿ÏħÎ½Î¬ÎºÎ¹":7780,"Î¬Î»Î»Î¿Ïħ":7781,"ĠÎºÏģÎŃÎ¼":7782,"ĠÎºÎ¯ÏĦÏģÎ¹Î½Î±":7783,"ĠÎºÎ¯ÏĦÏģÎ¹Î½Î·":7784,"ĠÏĥÎ¿ÏĨÏĮ":7785,"ĠÎ´Î¹ÎºÎŃÏĤ":7786,"ĠÎ´Î¹ÎºÎ¿ÏįÏĤ":7787,"ĠÎ»ÎµÏħÎºÎ¬":7788,"ĠÎŃÏģÏĩÎµÏĥÎ±Î¹":7789,"ĠÏĥÏĢÏħ":7790,"ĠÏĥÏĢÏģÏİ":7791,"ĠÏĩÎ¬ÏģÎ·ÎºÎµ":7792,"ĠÏĩÎ¬ÏģÎ·ÎºÎ±Î½":7793,"Î¿Î»ÏĮÎ³Î·ÏĥÎµ":7794,"ĠÏĢÏģÏĮÏĥÏĨÎµÏģÎµ":7795,"ĠÎľÏĢÎ¿ÏģÎµÎ¯ÏĤ":7796,"ĠÎŃÎ¼Î±Î¸Î±Î½":7797,"ĠÎŃÎ½ÏĦÎ¿Î½":7798,"ĠÎ¾ÎµÏĩÎ¬ÏĥÎµÎ¹ÏĤ":7799,"ÏĢÎ±Î¹Î´Î¹Î¬":7800,"ĠÎ±Î³ÏģÎ¹Îµ":7801,"ĠÏĥÎºÎ»Î·ÏģÎ®":7802,"ĠÎ´Î¿ÎºÎ¹Î¼Î¬ÏĥÏī":7803,"Î»ÏĢÎ¹Î½Î¯ÎºÎ·":7804,"ĠÏĦÎŃÏĥÏĥÎµÏģÎ¹ÏĤ":7805,"ĠÏĢÎ±Î¯ÏģÎ½Î¿ÏħÎ½":7806,"ĠÏĢÎ±ÏģÎ¿ÏħÏĥÎ¯Î±":7807,"ĠÎŃÏĨÎµÏģÎ½Î±Î½":7808,"ĠÎ³ÎµÏīÏģÎ³ÏĮÏĤ":7809,"ĠÏĨÏģÎ¿Î½ÏĦÎ¯Î¶ÎµÎ¹":7810,"ÎľÏĢÎ±Î¼ÏĢÎ¬":7811,"ĠÏĥÏħÎ½Î®Î»Î¸Îµ":7812,"ÎºÎ±ÏģÎ´Î¹Î¬":7813,"ĠÏĥÏĢÎ¿ÏħÏģÎ³Î¯":7814,"ĠÎ¼ÎµÏĦÎ±Î¼Î¿ÏģÏĨÏİÎ¸Î·ÎºÎµ":7815,"ĠÎºÏįÎºÎ»Î¿":7816,"ĠÎŃÎ¾ÏħÏĢÎ½Î¿ÏĤ":7817,"ÎºÎ»ÎµÎ¹ÏĥÎµ":7818,"ĠÎµÏģÎ³Î±ÏĥÏĦÎ®ÏģÎ¹":7819,"ĠÎµÏĦÎ¿Î¹Î¼Î¬ÏĥÎµÎ¹":7820,"ĠÎµÎ¾Î±ÎºÎ¿Î»":7821,"ĠÎºÏħÎ½Î·Î³Î¿ÏįÏĥÎµ":7822,"ĠÎµÏĢÎ±Î½Î±":7823,"ĠÎºÎ»ÏīÏĥÏĦÎ®":7824,"ĠÎłÏģÎ¿ÏĥÏĢÎ¬Î¸Î·ÏĥÎµ":7825,"ĠÏĥÎºÎ¿ÏįÏĢÎ¹ÏĥÎµ":7826,"ĠÎ¾ÎµÎºÎ¹Î½Î®ÏĥÎµÎ¹":7827,"ĠÎ¬ÏģÏģÏīÏĥÏĦÎ¿":7828,"ÎºÎ¬Î½Î¹ÎºÎ¿":7829,"ĠÎ¼ÎŃÎ½Î¿ÏħÎ½":7830,"ĠÎĳÎ»ÎŃÎ¾Î¹Î¿ÏĤ":7831,"ĠÏĩÎ±Î¯ÏģÎ¿":7832,"ĠÎºÎ±Î¸ÏģÎŃÏĨÏĦÎ·ÏĤ":7833,"ĠÏĦÎ¿Î»Î¼Î¿ÏįÏĥÎµ":7834,"ĠÎĶÎ·Î¼Î®":7835,"ĠÎĶÎ·Î»Î±Î´Î®":7836,"ĠÏĢÎ±ÏģÎ±ÏĢÎ¿Î½Î¹":7837,"ĠÏĢÎ±ÏģÎ±ÏĢÎ¿Î½Îµ":7838,"ĠÏĦÎ±Î¾Î¯Î´ÎµÏĪÎµ":7839,"ĠÎµÎ»ÎŃÎ³":7840,"ĠÏĨÎ¿ÏħÎ½ÏĦÎ¿ÏħÎºÎ¹Î¬":7841,"ÎľÏĢÎ¿ÏģÎµÎ¯ÏĤ":7842,"ÎļÎ¿Î¯ÏĦÎ±Î¾Îµ":7843,"ĠÎ³ÏģÎ®Î³Î¿ÏģÎ¿":7844,"ĠÏĥÏĦÎ¬Î²Î»Î¿ÏħÏĤ":7845,":âĢĵ":7846,"ĠÏĢÏģÎ¿ÏĥÎŃÎ¾ÎµÎ¹":7847,"ĠÏĦÎ¯Î³ÏģÎµÎ¹ÏĤ":7848,"ĠÎłÎ¿Î»Î»ÎŃÏĤ":7849,"ĠÏĢÎ®Î´Î·Î¾Îµ":7850,"ĠÎºÎ±ÏģÏĮÏĦÏĥÎ¹":7851,"Î¼ÏĢÎ¿ÏģÎ¿ÏįÏĥÎµ":7852,"ĠÎ·ÏĨÎ±Î¯ÏĥÏĦÎµÎ¹Î±":7853,"ĠÎ²Î¿Î·Î¸Î¬ÎµÎ¹":7854,"ĠÎ±ÏĢÎ¿ÏĥÏĦÎ¿Î»Î®":7855,"Î¤Î¯ÏĢÎ¿ÏĦÎ±":7856,"ĠÎ¿Î»ÏĮÎ³ÏħÏģÎ±":7857,"ĠÎ¿Î»ÏĮÎ³ÏħÏģÎ¬":7858,"ĠÏĨÏĦÎµÏģÎ¿ÏįÎ³ÎµÏĤ":7859,"ĠÏĥÏĦÎµÎ½Î±ÏĩÏīÏģÎ¹ÎŃÏĥÎ±Î¹":7860,"ĠÏĮÏģÎ¸Î¹Î¿ÏĤ":7861,"ĠÎ»Î·ÏĥÏĦÎŃÏĤ":7862,"ĠÏĩÏĮÏģÎµÏĪÎ±Î½":7863,"ĠÏĥÎ²Î®ÏĥÎµÎ¹":7864,"Î¶Î®ÏĦÎ·ÏĥÎ·":7865,"ĠÎĳÎºÎ¿ÏįÏĥÏĦÎ·ÎºÎµ":7866,"ĠÎŃÎºÏģÏħÏĪÎµ":7867,"ĠÎ»Î¹Î¼Î½Î¿ÏįÎ»Î±":7868,"ÎĻÎ£Î£":7869,"ĠÎłÎŃÏģÎ±ÏĥÎ±Î½":7870,"Î²Î³Î±Î»Îµ":7871,"ĠÏĩÏģÎ¹ÏĥÏĦÎ¿ÏħÎ³ÎµÎ½Î½Î¹Î¬ÏĦÎ¹ÎºÎ¿":7872,"Î¿ÏĢÎ¿Î¯Î·ÏĥÎµ":7873,"ĠÎłÏģÎ¯Î³ÎºÎ¹ÏĢÎ±ÏĤ":7874,"ÎļÎ±Î½ÎµÎ¯ÏĤ":7875,"ĠÏĨÏīÏĦÎµÎ¹Î½Î®":7876,"ĠÏĨÎ±Î½Î¿ÎºÏĮÏģÎ¿ÏĤ":7877,"ĠÏĩÎµÎ¹ÏģÏĮÏĦÎµÏģÎ¿":7878,"ĠÎºÎ¹Î½Î´ÏħÎ½ÎµÏįÎµÎ¹":7879,"ĠÎºÎ¿ÏħÎ´Î¿ÏħÎ½Î¬ÎºÎ¹":7880,"ĠÏĢÏģÎ¯Î³ÎºÎ¹ÏĢÎµÏĤ":7881,"ÏĮÏĦÎ±ÏĦÎµ":7882,"ĠÏĥÎ¬Î»ÏĦÎ¿":7883,"ĠÎºÎ±Î¼Î®Î»Î±":7884,"ĠÏĥÏħÎ¼Î¼Î±Î¸Î·ÏĦÎŃÏĤ":7885,"ĠÎ¼Î¿Î´Î¯ÏĥÏĦÏģÎ±":7886,"ĠÎ±ÏģÎ¬ÏĩÎ½ÎµÏĤ":7887,"ĠÎķÏĢÎ¹ÏĦÎŃÎ»Î¿ÏħÏĤ":7888,"ĠÎ£Î®Î¼ÎµÏģÎ±":7889,"ĠÏįÏĨÎ±ÏĥÎ¼Î±":7890,"ĠÏĨÎµÎ³Î³Î±ÏģÎ¹Î¿Ïį":7891,"ĠÏĢÎ±ÏĢÎ±Î³Î¬Î»Î¿ÏĤ":7892,"ĠÎ³ÎŃÎ»Î±ÏĥÎ±Î½":7893,"ĠÎ±ÏģÏĥÎµÎ½Î¹Îº":7894,"Î¿ÏĨÏĮÏģÎ¿":7895,"ĠÎµÎ½ÏĦÏħÏĢÏīÏĥÎ¹Î±":7896,"ĠÏħÏĢÎ¿ÏĪÎ®":7897,"ĠÎºÎ±ÏĦÎŃÎ»Î·Î¾Îµ":7898,"ÎŀÎµÎºÎ¯Î½":7899,"ĠÎ±ÏĥÏĦÏħÎ½Î¿Î¼Î¯Î±":7900,"ÏĨÏĦÎ¹Î±Î¾Î±Î½":7901,"ĠÏĨÎŃÏĦÎ¿ÏĤ":7902,"ĠÎºÎ±ÏĢÎµÏĦÎ¬Î½Î¹":7903,"ĠÏĥÎµÎ²Î±ÏĥÎ¼ÏĮ":7904,"ĠÎ£Î·ÎºÏİÎ¸Î·ÎºÎµ":7905,"ĠÎºÎ¿Î¹Î¼ÏĮÎ½ÏĦÎ¿ÏħÏĥÎ±Î½":7906,"ĠÏĨÎ¸Î¹Î½ÏĮÏĢÏīÏģÎ¿":7907,"ĠÎ±ÏħÏĦÎ¿ÎºÎ¹Î½Î®":7908,"Î¼Î·ÏĩÎ±Î½Î®":7909,"ĠÎµÎ¾ÎŃÏĦÎ±ÏĥÎµ":7910,"ĠÎĽÎ¿ÏįÎ·ÏĤ":7911,"ĠÎ¡Î¿Î¶":7912,"ĠÎºÎ±ÏģÏĢÎ¿ÏįÏĤ":7913,"ĠÏĥÎºÎŃÏĨÏĦÎµÏĦÎ±Î¹":7914,"ÎºÎ¿Î»Î¿ÏįÎ¸Î·ÏĥÎµ":7915,"ĠÏĩÎµÎ»Î¹Î´ÏĮÎ½Î¹Î±":7916,"ĠÎļÎ¿ÏģÏīÎ½Î¿Î³Î¹":7917,"ĠÏĢÏģÎ¿Î²Î»Î®Î¼Î±ÏĦÎ±":7918,"ĠÎ´Î¹Î±Î¼Î¬Î½ÏĦÎ¹Î±":7919,"ĠÏĨÏīÏĦÎ¿Î³ÏģÎ±ÏĨ":7920,"ÎŀÏįÏĢÎ½Î·ÏĥÎµ":7921,"ĠÎļÏĮÎºÎºÎ¹Î½Î·":7922,"ĠÎ¼Î¿Î»ÏįÎ²Î¹":7923,"ĠÎ±ÏĥÏĦÎ±Î¼Î¬ÏĦÎ·ÏĦÎ±":7924,"ĠÎ³Î¿ÏįÎ½Î±":7925,"ĠÎ´ÎµÎºÎ¬Î´ÎµÏĤ":7926,"ĠÎ¹ÏĥÏĩÏħ":7927,"ĠÏĢÎ±ÏģÎ¬Î´ÎµÎ¹Î³Î¼Î±":7928,"ĠÎĴÎ¹ÏģÎ³Î¹Î½Î¯Î±":7929,"ĠÎłÎ¡ÎĻÎĵÎļÎĻÎłÎĻÎ£Î£":7930,"ĠÎºÎ¯Î½Î·ÏĥÎµ":7931,"ĠÎ¸Î¬Î½Î±ÏĦÎ¿":7932,"ĠÎ±Î»ÏħÏĥÎ¯":7933,"ĠÎĵÎ»Î±ÏįÎºÎ¿ÏĤ":7934,"ĠÎļÎ±ÏģÎ¬Î¼ÏĢÎ±":7935,"ĠÎĴÎ±Î»ÎŃÏģÎ¹Î¿ÏĤ":7936,"ĠÏħÏĢÎ¿Î¼Î¿Î½ÎµÏĦÎ¹ÎºÎ¬":7937,"ĠÎºÎ»ÏĮÎ¿ÏħÎ½":7938,"ĠÎĳÎ³Î±ÏĢÎ¬ÏĦÎµ":7939,"ĠÎĺÎµÎ¼Î¹ÏĥÏĦÎ¿Îº":7940,";...":7941,"ed":7942,"ik":7943,"Í¾":7944,"ĠH":7945,"ĠÎİ":7946,"Î±Î³":7947,"Î±ÏĥÏĦ":7948,"Î¿Î·":7949,"Î¹ÏĥÎ¼ÎŃÎ½Î¿":7950,"ÎµÎº":7951,"ÎµÏĥÎµ":7952,"Î½ÎµÎ¯":7953,"Î½Î¿ÏįÏĥÎ±Î½":7954,"ÏĦÏģÎ±Î³":7955,"ÏģÎºÎ±":7956,"ÏģÏĦÎ±ÏĤ":7957,"ÏģÎ»Î¹Î±":7958,"ÏģÎ¿Î»ÏĮ":7959,"ĠÏĦÎ¿Ïĩ":7960,"ĠÏĦÏĮÎ½Î¿":7961,"ĠÏĦÏħÏĩÎ±":7962,"Î»ÎµÎ¯ÏĤ":7963,"ÏĥÎ¼Î¿Ïį":7964,"Î·ÏĦÎ®ÏĤ":7965,"Î·Î´Î¬ÎµÎ¹":7966,"Î¯ÏĥÎ¿ÏħÎ½":7967,"Î¯Î¶Ïī":7968,"ĠÎºÏĮÎ½":7969,"ĠÎºÎ¿ÏĨ":7970,"ĠÎºÎ¿ÏģÏĨÎ®":7971,"ĠÎºÎŃÎ½ÏĦÏģÎ¿":7972,"ĠÎºÎ»ÏĢ":7973,"Î¿ÏħÎ¸ÎµÎ¯":7974,"ÏĢÎ¿ÏħÎ½":7975,"ÏĢÎ»Î¿":7976,"ÏĢÏīÏĥÎµ":7977,"ÏĢÏģÎ±Î³Î¼Î±":7978,"ÏĢÎµÎ¯Î±":7979,"ÎºÏĦÎ¿":7980,"ÎºÏģÎ¹Î±":7981,"ÎºÎ»Ïī":7982,"ÎºÎ¯Î±ÏĤ":7983,"Î¼ÏīÎ½":7984,"Î¼Î¹ÎºÎ¬":7985,"Î¼Î½ÎµÏĤ":7986,"Î¼ÎŃÏĩÏģÎ¹":7987,"Î¼ÏĨÎ±Î½Î¯ÏĥÏĦÎ·ÎºÎµ":7988,"ÎŃÎ¼Î±Î¹":7989,"Î±Î¹ÏģÎŃ":7990,"ĠÏĥÏĨÎ±Î¯":7991,"ĠÏĥÏĢÎ¿ÏįÎ´Î±":7992,"ĠÎ±Î¸Ïİ":7993,"ĠÎ±ÎºÎ±ÏĦÎ¬":7994,"ĠÎ±ÏĦÏħÏĩÎ¯Î±":7995,"ĠÎ±Î¸Î¬Î½Î±":7996,"Î³ÏīÏĥÎµ":7997,"Î³Î»Ïħ":7998,"ÏīÎ¸Î±":7999,"ÏħÏģÏİ":8000,"ĠÎºÎ±Î¹ÎŃ":8001,"ĠÎºÎ±Î¹ÏĦÎ±":8002,"ĠÎºÎ±Î¹ÏĦÎ·Î½":8003,"Î¹Î±ÏĥÎ¼ÎŃÎ½Î·":8004,"ÏĩÎŃÏģÎ¹":8005,"ĠÎ½Î¿ÏĥÏĦÎ±Î»":8006,"Î®Î¼Î·":8007,"Î®ÏĦÎµÏħ":8008,"ĠÎŃÏĦÏģÎ¹":8009,"ĠÎŃÂµÎ¿":8010,"ĠÎŃÎ¼ÎµÎ½Î±Î½":8011,"Î´Î¿Î½":8012,"Î´Î¹ÎºÎ®":8013,"Î´ÏģÎ±ÏĤ":8014,"ĠÎ½Î±ÏħÎ±":8015,"ĠÏĦÎ¿ÏħÎ»Î¬ÏĩÎ¹ÏĥÏĦÎ¿Î½":8016,"Î¸Î¿ÏħÎ½":8017,"Î¿ÏįÎ»Î¹":8018,"Î¿ÏįÎ»Î¿":8019,"Î¿ÏįÏĥÎ±Î¼Îµ":8020,"ĠÎ´Î¿":8021,"ĠÎ´ÎµÏĤ":8022,"ĠÎ´ÎŃÏĩ":8023,"ÏģÎ±Ïĩ":8024,"ÏģÎ±Î²":8025,"ĠÎ³Î»Î¬":8026,"ÏįÎ¸Ïħ":8027,"ÏĨÎ¯Î±":8028,"ÏĨÏĦÎ¯":8029,"ÏĨÎ¹Î¿":8030,"ÏĨÎ¬ÎºÎ¹":8031,"ÏĨÏĮÏģÎ±":8032,"ÏģÎ¹Î½Î¬":8033,"ÏģÎ¹ÏĥÎ¼ÎŃÎ½Î¿ÏĤ":8034,"ÏĦÎµÏģÎ¿ÏĤ":8035,"ĠÎ±ÏĢÎ±Î¹":8036,"ĠÎ±ÏĢÎ¿ÏĩÏī":8037,"ĠÎ±ÏĢÎ»ÏīÎ½ÏĮÏĦÎ±Î½":8038,"ĠÏĨÎ®Î¼Î·":8039,"ÏĦÎ¹ÏĥÎ±Î½":8040,"ÏĦÎ¹Î½Î¿":8041,"Î²Î»Î±":8042,"Î²Î»ÎŃ":8043,"ÏģÎ¬ÏģÎ¹":8044,"ĠÎ²Î¿Î»":8045,"ĠÎ²ÏģÏįÏĥÎ·":8046,"ĠÎºÎ±Î²Î±":8047,"ĠÎºÎ±Î»Î±Î¼ÏĢ":8048,"Î¿Î½Î¬ÏĩÎ±":8049,"Î»Î±Î²Î±Î¯Î½ÎµÎ¹":8050,"ĠÏĩÏīÎ½":8051,"Î¾Î¹Î±":8052,"ÎµÎ¯Î¿Ïħ":8053,"Î»Î¹ÏĥÏĦÎµ":8054,"Î¼Î±Ïĩ":8055,"ÂµÎ¹Î¶Îµ":8056,"ĠÎ¬Î¾Î¹Î¿ÏĤ":8057,"ĠÎ»Î¹Î±":8058,"ĠÎ·Î»ÎµÎº":8059,"Î¿ÏģÎ¿ÏįÏĥÎµ":8060,"ÎºÎµÎºÏģÎ¹":8061,"ÏĥÎ¹Î¿Ïį":8062,"ĠÏĥÏĦÎ¿Î¼Î¬":8063,"ĠÏĢÎ±ÏģÎµ":8064,"ĠÏĢÎ±ÏĦÎ®ÏĥÎµÎ¹":8065,"ÏģÎ¯ÏĥÎ¿ÏħÎ½":8066,"ĠÎ¼Î±Î¸Î±":8067,"ĠÎ¼Î±Î¾Î¹Î»Î¬":8068,"Î»Î·ÏĦÎ¬":8069,"ÏģÎµÏĥÎ·":8070,"ĠÎ¤ÏģÎµ":8071,"ĠÎ¤ÏģÎŃ":8072,"ĠÎ¼ÎŃÎ»Î»Î¿Î½":8073,"ÎºÎ±Î»Îµ":8074,"ÎºÎ±Î»Î¿ÏĤ":8075,"ÎºÎ±Î¸ÏİÏĤ":8076,"ĠÎĳÎ½Î¬":8077,"ĠÎĳÎ½Î¿Î¯":8078,"ĠÎļÏģÎ®":8079,"ĠÎļÏģÏį":8080,"Î½ÎµÎ»":8081,"ĠÎľÏĢÏģÎ¬Î²Î¿":8082,"ÎºÏĮÎ¼Î±":8083,"ÏĢÎ±Ïħ":8084,"Î³ÎµÎ»Î±":8085,"ĠÂµÎ®":8086,"ĠÂµÏĢÎ¬":8087,"ÏĪÎµÏĤ":8088,"ĠÎķÏĥ":8089,"ĠÎķÏĦÏĥÎ¹":8090,"ĠÎķÏĢÎµÎ¹Î´Î®":8091,"ÎºÎ¬ÏĦÎ¹":8092,"ÎºÎ¬Î¸Î¹ÏĥÎµ":8093,"Î³Î±Î¯Î½ÎµÎ¹":8094,"Î³Î±ÏģÎ¹Î¬":8095,"ÏĢÎ¹Î±Î½":8096,"Î¤ÎŁ":8097,"Î¤Îķ":8098,"ĠÎłÎ¬Î½":8099,"ĠÎłÏģÎ¿Ïĩ":8100,"ĠÎłÎĳÎĿ":8101,"ĠÎłÏģÏİÏĦÎ·":8102,"ĠÎłÏģÏĮÏĥÎµ":8103,"ÏģÎŃÎ¸Î·ÎºÎµ":8104,"ÏĦÎ¯Î¿":8105,"ÏģÎ®ÏĥÏī":8106,"ÎŁÎĽ":8107,"ÎľÎ¯Î±":8108,"Î´Î¹Î¶Îµ":8109,"ĠÎ£Î¹":8110,"ĠÎ£ÏĦÎŃ":8111,"ĠÏģÎ¿ÏĩÎ±":8112,"ĠÏĥÎºÎ¿Î¹Î½Î¯":8113,"ÏİÎ½Î¹":8114,"Î¿ÏĢÎ±Î¹":8115,"ÎĳÏĤ":8116,"ÎĳÎł":8117,"ÎĳÎĽ":8118,"ÎĳÏĨÎ®ÏĥÏĦÎµ":8119,"ĠÎĪÏĦÏģÎµ":8120,"ĠÎĪÎ½Î¿Î¹":8121,"Î¼Î¿ÎºÏģÎ±":8122,"ĠÏĢÎ¬Î½ÏĦÏīÎ½":8123,"Î»Î®ÏĥÎ¿ÏħÎ½":8124,"ÎºÎ¿ÏħÏĥÎµ":8125,"ĠÎĶÏİ":8126,"ÏĦÏīÎ¼ÎµÏĦÎ±Î¾Ïį":8127,"Î»ÎµÎ¹Î±":8128,"Î»ÎµÎ¹Î¼Î¼Î±":8129,"ÏĢÎ·ÎºÎµ":8130,"ÎłÏī":8131,"ÎłÎ¿Î¹":8132,"ÎłÎµÏĤ":8133,"ĠÎ¼ÎµÎ³Î¬Î»ÏīÎ½Î±Î½":8134,"ÏĢÎ¬Î»Î¹":8135,"ÏĢÎ¬Î¼Î±Î¹":8136,"ĠÎĮÎ»ÎµÏĤ":8137,"Î³Î¹Î½Î±Î½":8138,"ĠÎ¾ÎµÏĩÎ±":8139,"ĠÎ¾ÎµÏĨÎ¿Ïģ":8140,"ĠÎºÎ±Î¸ÏĮÎ½ÏĦÎ¿ÏħÏĥÎ±Î½":8141,"ĠÎĵÏįÏģÏī":8142,"ĠÎĵÎµÏģÎ¬":8143,"ĠÏĥÏĢÎ¯ÏģÏĦÎ¿":8144,"ĠÎºÏĮÎº":8145,"ĠÎºÏĮÎ²ÎµÎ¹":8146,"ĠÎ±Î³Î½Î®":8147,"Î£Î®":8148,"ÏįÏģÎ¹Îµ":8149,"ĠÏĢÎµÏģÎ¹Î²":8150,"ĠÏĢÎµÏģÎ¹ÎµÏģ":8151,"ĠÎ±ÏħÎ³Î®":8152,"ĠÏĢÎ±ÏģÎ±ÏĢÎ¬Î½Ïī":8153,"ÏģÎ¿ÏįÎ»Î¹Î±":8154,"ĠÏĥÏħÎ½Î¬":8155,"ĠÏĥÏħÎ½ÎŃÎ»":8156,"ĠÎºÎ¿Î¼Î¼Î±":8157,"ĠÎ³ÎµÏģ":8158,"ĠÎºÎ±ÏĦÎ±Ïģ":8159,"ĠÎºÎ±ÏĦÎ±ÏĢÎ»Î·ÎºÏĦÎ¹ÎºÎ¬":8160,"ĠÎ¼ÎŃÏģÎ±ÏĤ":8161,"ĠÎ±Î½Î±Î²":8162,"ĠÎ±Î½Î±ÏĥÎ·":8163,"ĠÎ±Î½Î±ÏĩÏİ":8164,"ÏĩÎ½Î¿ÏĤ":8165,"Î»Î¿ÏįÎ´Î¹Î±":8166,"ĠÏĨÎ¿ÏģÎ¬Î´Î±":8167,"ĠÎĴÎ³Î®ÎºÎµ":8168,"ĠÎĿÎ¿Î¼Î¯Î¶Ïī":8169,"ĠÏĢÏģÎ¿ÏĥÏī":8170,"ĠÏĢÏģÎ¿ÏĥÏĨÎŃÏģ":8171,"ÎĪÏĦÏģÎµÎ¾Îµ":8172,"ÎĪÏĩÎµÎ¹ÏĤ":8173,"ĠÎºÎ±Î½Î¿Î½":8174,"ĠÎºÎ±Î½ÏĮÎ½ÎµÏĤ":8175,"ÏĪÎµÏĦÎµ":8176,"ĠÎķÎ¯Î¼Î±ÏĥÏĦÎµ":8177,"Î¿Î½ÏĦÎ¬ÏģÎ¹":8178,"ÂµÎ±Î³":8179,"ÏģÎµÎ¹Î¬":8180,"ĠÎµÏĢÎ¹ÏĦÏģÎŃ":8181,"ĠÎīÎ¾Îµ":8182,"ĠÎ³Î¹Î¿ÏįÏĤ":8183,"ĠÎ³Î¹ÏİÏĦÎ±":8184,"ĠÎ¶ÏīÎ¬ÎºÎ¹":8185,"ÏģÎ¯Î³ÎºÎ¹ÏĢÎ¬":8186,"ĠÎŃÏĢÎ¹Î±ÏĥÎ±Î½":8187,"ÏģÎ±Î½ÏĦÎ¯Î½Î±":8188,"ĠÏĢÎ±ÏģÎ¬ÏĢÎ¿Î½Î±":8189,"ĠÎ±Î¼Î¿Î¹":8190,"ĠÎ±Î¼ÏįÎ³Î´Î±":8191,"ÎºÎ®Î½ÎµÏĤ":8192,"ÏĨÎ¬Î»ÏīÏĥÎµ":8193,"ĠÎĽÎ¿Î¹ÏĢÏĮÎ½":8194,"ĠÎ¸ÎŃÎ»Î¿Î½ÏĦÎ±ÏĤ":8195,"ĠÏĢÎŃÏĥÎ¿ÏħÎ½":8196,"ĠÏĢÎ¿Î½Î¿ÏįÏĥÎµ":8197,"ĠÎ´ÎŃÎ½Î´ÏģÎ¿":8198,"ĠÎ±ÏģÏĩÎ¯Î¶ÎµÎ¹":8199,"Î¿Î³ÏģÎ¬ÏĨÎ·":8200,"ĠÏĢÎ¹Î±ÏĦÎ¬ÎºÎ¹":8201,"ĠÏĩÎ¬Î¶ÎµÏħÎµ":8202,"ĠÎŃÎºÎ»Î±ÏĪÎµ":8203,"ÎŃÏĪÎ¿Ïħ":8204,"ĠÎ´ÏīÎ¼Î±ÏĦÎ¯":8205,"ĠÎ»Î¹Âµ":8206,"ĠÎºÏģÎ±ÏĦÎ®ÏĥÎ¿ÏħÎ½":8207,"ĠÎ¦Î¿":8208,"ĠÎ¦Ïī":8209,"ĠÎ¦ÎµÏģ":8210,"ĠÎ±ÏĢÎ¿ÏĨÏį":8211,"Î³Î¿ÏħÎ»Î¬ÎºÎ¹Î±":8212,"ĠÏĢÏģÎ¿ÎºÎµÎ¹":8213,"ÏĥÏĥÎ¬":8214,"ÏĥÏĥÎ¹Î±":8215,"ĠÎ´Î¹Î·Î³Î·":8216,"ĠÎ¿ÏĢÎ¿Î¯ÎµÏĤ":8217,"ÎļÎ±ÏĦÎ±":8218,"ÏģÎ¹ÏĥÎ¼Î±":8219,"ĠÎ¸ÏħÂµ":8220,"ĠÏĥÎºÎŃÏĨÏĦÎ·ÎºÎ±":8221,"ĠÎ»Î¿ÏħÏģÎ¯":8222,"ĠÎ³ÏħÎ½Î±Î¯ÎºÎµÏĤ":8223,"ĠÎ¼Î¹Î±Î½":8224,"ĠÏĢÎ»Î·Î½":8225,"ĠÎ³Î¬Î¼Î¿Ïħ":8226,"ĠÏĢÎ±Î¯Î¾Î¿ÏħÎ¼Îµ":8227,"ĠÎ¶ÏİÎ½Î·":8228,"ÎĺÎµ":8229,"Î½ÏİÏĦÎ±":8230,"ÏĥÏĩÎ®":8231,"ĠÏĨÏĮÏģ":8232,"ÏĥÏĦÎ¹ÎºÎŃÏĤ":8233,"ĠÎļÎ¬ÏĢÎ¿Î¹Î¿ÏĤ":8234,"ĠÎ´Î¹Î¬Î»ÎµÎ¹Î¼Î¼Î±":8235,"ÏģÎ¿Î½Î¿":8236,"ÏģÎ¿Î½Î¹Î¬ÏĤ":8237,"ĠÎ¶Î·ÏĦÎ®":8238,"ĠÎ¶Î·ÏĦÎ®ÏĥÏī":8239,"ĠÎ»Î¬Î¸Î·":8240,"Î¼Î¿Î½Î¿":8241,"Î¼Î¿Î½Î¿Î´":8242,"ĠÎ¿Î¹ÎºÎ¿Î½Î¿":8243,"ÏĨÎ¿ÏģÎ¯Î¶ÎµÎ¹":8244,"ĠÏĦÏģÏĮÏĢÎ¿ÏĤ":8245,"ĠÎ¤ÏĮÏĦÎµÏĤ":8246,"ÏĩÎ½Î¯Î´Î¹Î±":8247,"ĠÎºÎ±Î»ÏĮÎºÎ±Ïģ":8248,"ĠÎ³ÎµÎ¼Î¬ÏĦÎµÏĤ":8249,"ĠÎ±Î´ÎµÎ»":8250,"ĠÎ¿Î»ÏĮÏĩ":8251,"ĠÏĦÏĥÎ¬":8252,"ĠÎ±ÏĨÎ®Î½Î¿ÏħÎ¼Îµ":8253,"ĠÎłÎ±Î¼ÏĢÏĮ":8254,"ĠÎµÏħÎ³Î½Ïī":8255,"ĠÏĥÎºÎ¿ÏĦÏİ":8256,"ĠÎºÏģÏħÏĪ":8257,"ĠÏĥÏĦÏĮÂµÎ±":8258,"ĠÏĥÏĦÏĮÏĩÎ¿":8259,"ÎŀÎŃÏģÏī":8260,"ĠÎºÎ¿Î»Ïį":8261,"ĠÎ¼Î®Î½ÏħÎ¼Î±":8262,"Î¿Î´Î¿Î¾Î¯Î±":8263,"ĠÏĥÏīÎ»Î®":8264,"ĠÏĢÎµÏģÏĢÎ±ÏĦÎ®ÏĥÎµÎ¹":8265,"ĠÏĪÎ±ÏģÎ¬":8266,"ĠÏĪÎ±Î»Î¯Î´Î¹":8267,"ĠÏĢÎ»Î¬ÏĥÎ¼Î±":8268,"Î±ÏĢÎ¬Î½ÏĦÎ·ÏĥÎµ":8269,"ĠÎ¼ÎµÏģÎ¹ÎºÎ¿Î¯":8270,"ĠÎ¼ÎµÏģÎ¹ÎºÎ¿ÏįÏĤ":8271,"Î²Î¿ÏħÎ½Î±":8272,"ĠÏĨÎ¹Î»Î¹Î¬":8273,"ĠÎ»ÏħÎ³":8274,"ĠÎ½ÏĮÎ¼Î¿ÏĤ":8275,"ĠÏĥÎ·ÎºÏİÏĥÎµÎ¹":8276,"ĠÎ»ÎµÏĢÏĦÎ®":8277,"ÏĦÏģÎ¹Î³Ïħ":8278,"ĠÎºÎ±Î¹Î½Î¿ÏįÏģÎ³Î¹":8279,"ĠÎŃÏĥÏĨÎ¹":8280,"ĠÏĩÏĦÏħÏĢÎ®ÏĥÎµÎ¹":8281,"ĠÏĨÎ±Î¯Î½Î¿Î½ÏĦÎ±Î¹":8282,"ĠÏĨÏĦÏīÏĩÎ¿Î¯":8283,"ĠÏĨÏĦÏīÏĩÎ¿ÏįÏĤ":8284,"ĠÎ¼Î¿ÏħÏĥÎ¹ÎºÏĮÏĤ":8285,"ĠÎ¼Î¿ÏħÏĥÎ¿ÏįÎ´Î±":8286,"ĠÎŃÏĦÎ¿Î¹Î¼Î¿":8287,"ĠÏĦÎµÎ»ÎµÎ¯ÏīÎ½Îµ":8288,"ĠÎŃÎ´ÎµÎ¹ÏĩÎ½Î±Î½":8289,"ĠÏĢÎµÏģÎ¹Î¼ÎŃÎ½Î¿ÏħÎ½":8290,"ĠÎ¼Î±ÏįÏģÎµÏĤ":8291,"ÎļÎ¬ÏĢÎ¿ÏĦÎµ":8292,"ĠÏĦÎ¿ÏįÎ½ÎµÎ»":8293,"ĠÎĳÏĢÎ¿ÏĪÎ¹":8294,"ĠÏĦÎµÏģÎ¬ÏĥÏĦÎ¹Î¿ÏĤ":8295,"ĠÏĦÎµÏģÎ¬ÏĥÏĦÎ¹ÎµÏĤ":8296,"ĠÏĦÏĥÎ±ÎºÏī":8297,"ĠÏĥÏĦÎ¿Î»ÎŃÏĤ":8298,"ĠÏĮÎ½ÎµÎ¹ÏģÏĮ":8299,"ĠÎĶÎµÎ»ÏĨÎ¹":8300,"ĠÏĦÎ¿ÏĢÎ±":8301,"ĠÏĦÎ¿ÏĢÎ¯Î¿":8302,"ĠÎºÎ±ÏĦÎµÎ²Î±":8303,"ĠÎºÎ±ÏĦÎµÎ²Î¬":8304,"ĠÏĥÏħÎ½ÎµÏĩÎ¯ÏĥÏĦÎ·ÎºÎµ":8305,"ĠÎ±Î¹ÏĥÎ¹":8306,"ĠÎµÏĢÎ¯ÏĥÎ·":8307,"ĠÎµÏĢÎ¯ÏĥÎºÎµÏĪÎ·":8308,"ĠÎŃÏģÎ¹Î¾Î±Î½":8309,"ĠÎ³Î½ÏīÏģÎ¯ÏĥÏī":8310,"ĠÎ³Î½ÏīÏģÎ¯Î¶Ïī":8311,"ĠÎµÎ¹ÏĥÎ¹":8312,"ĠÎµÎ¯ÏĢÎ±Î¼Îµ":8313,"ĠÏĩÏģÎµÎ¹Î¬Î¶Î¿Î¼Î±Î¹":8314,"ĠÎºÎ¿Î¹Î¼Î·Î¸Ïİ":8315,"ĠÎ¬ÏģÎ¼Îµ":8316,"ĠÏĢÎ¯ÏĥÏĦÎµÏħÎ±Î½":8317,"ĠÎ»ÏħÏĢÎ·Î¼ÎŃÎ½Î±":8318,"ĠÎ»ÏħÏĢÎ·Î¼ÎŃÎ½Î¿":8319,"ĠÎ²Î±ÏĥÎ¯Î»ÎµÎ¹Î±":8320,"ĠÏĦÏģÎµÎ»Î±":8321,"ÎļÎ±Î»Î·Î½ÏįÏĩÏĦÎ±":8322,"ĠÎ¶ÏīÎ³ÏģÎ±ÏĨÎ¯ÏĥÎµÎ¹":8323,"ĠÏĥÎ¿Î²Î±ÏģÏĮÏĤ":8324,"Î¼ÏĢÎ±Î¼ÏĢÎ¬":8325,"ÂµÎµÎ½Î¿":8326,"ÂµÎµÎ½Î±Î½":8327,"ĠÏĦÏģÎ±Î³Î¿ÏįÎ´Î¹Î±":8328,"ĠÎµÏĢÎ¹ÏĥÏĦÏģÎŃÏĨ":8329,"ĠÎ¼ÎµÏĥÎ·Î¼Îµ":8330,"ĠÎ¼ÎµÏĥÎ·Î¼ÎµÏģÎ¹":8331,"ĠÏħÏĢÎŃÏģÎ¿ÏĩÎ·":8332,"ĠÏĥÎºÎ¬Î²ÎµÎ¹":8333,"ĠÎľÎ¹Î½ÏİÏĦÎ±":8334,"ĠÎºÎ±ÏĦÎ±ÏĨÎŃÏģÎ¿ÏħÎ¼Îµ":8335,"ĠÎ¾ÏħÎ»Î¿ÎºÏĮÏĢÎ¿":8336,"ĠÏĥÏĢÎ¬Î½Î¹Î±":8337,"ĠÎ±ÏĢÎµÎ»ÏĢÎ¯":8338,"ĠÎ±Î½Î±ÏĢÎ¬Î½ÏĦÎµ":8339,"ĠÎ±Î½Î±ÏĢÎ½Î¿Î®":8340,"ĠÎ¼ÏĢÎ¹ÏĥÎºÏĮÏĦÎ¿":8341,"Ġ10":8342,"ĠÎŃÎ¾Î¿Î´Î¿":8343,"ĠÎ³Î¯Î³Î±Î½ÏĦÎ±":8344,"ĠÎ¼ÏįÎ»Î¿":8345,"ĠÎĳÏĥÏĦÏģÎŃÎ½Î¹Î¿":8346,"ĠÎĳÏĥÏĦÏģÎŃÎ½Î¹Î¿Ïħ":8347,"ĠÎ©ÏĤ":8348,"ĠÎŃÎ½ÏĦÎ¿Î¼Î±":8349,"ĠÏĥÎºÎ¿ÏĦÎµÎ¹Î½Î¬":8350,"ĠÏĥÎºÎ¹Î¿ÏħÏģÎ¯Î½Î±":8351,"ÎµÏħÏĥÎµ":8352,"ĠÎºÎ¹Î½Î´ÏįÎ½Îµ":8353,"ĠÎ´Î¹Î±Î²Î¬ÏĥÎµÎ¹":8354,"ĠÎ´Î¹Î±Î²Î¬Î¶ÎµÎ¹":8355,"ĠÎ±ÏĢÎ±Î½ÏĦÎ®ÏĥÎµÎ¹":8356,"ĠÏĥÏħÎ³ÎºÏģÎ±":8357,"ÏĥÎºÎ¿Î»Î±":8358,"ĠÏĢÎ±ÏģÏĮÏĦÎ¹":8359,"ĠÎºÏħÏģÎ¯ÎµÏħÏĥÎµ":8360,"ĠÏħÏĢÎ·ÏģÎŃÏĦÎ·ÏĤ":8361,"ĠÎºÎ±Î¸Î·Î³Î·":8362,"ĠÏĢÎ±ÏģÎ¿ÏħÏĥÎ¹Î¬":8363,"ĠÎºÎ±Î·Î¼ÎŃÎ½Î·":8364,"Î´Î¿ÏħÎ»ÎµÎ¹Î¬":8365,"ĠÏĩÎ¿Î½ÏĦÏģÎ¬":8366,"ĠÏĥÏħÎ½Î®Î¸ÏīÏĤ":8367,"ĠÏĨÏįÎ»Î±ÎºÎ±":8368,"ĠÎ±ÏĥÎ¸ÎµÎ½":8369,"ÏĦÎµÏģÏĮÎ»ÎµÏĢ":8370,"ĠÏĩÏģÎ·ÏĥÎ¹Î¼Îµ":8371,"ĠÎ·Î»Î¹ÏĮÎ»Î¿Ïħ":8372,"ĠÎ¶Î±Î»Î¹":8373,"ĠÎ¼ÏħÏģÏīÎ´Î¬":8374,"ĠÎ¾ÏįÎ»Î¹Î½Î·":8375,"ĠÎ½ÏĦÏģÎ¿ÏĢÎ±":8376,"ĠÎ£Î¿ÏħÏĢÎ¹Î¬":8377,"ÎłÎµÏģÎ¯Î¼ÎµÎ½Îµ":8378,"ĠÎ¼ÎµÏĦÎ±Î¼Î¿ÏģÏĨÏīÎ¸ÎµÎ¯":8379,"ĠÎºÎ¿ÏħÏģÎ¬ÏĥÏĦÎ·ÎºÎµ":8380,"ĠÎĴÎ¯ÎºÏĦÏīÏģ":8381,"Î»ÏįÏĦÎµÏģÎ¿":8382,"ĠÎµÏĢÎ¹ÏĥÎºÎµÏħ":8383,"ĠÏĥÎ¹Î´ÎµÏģÎ¬ÏĤ":8384,"ĠÎŃÎºÏĢÎ»Î·ÎºÏĦÎ·":8385,"ĠÏĨÏİÏĦÎ¹ÏĥÎµ":8386,"ĠÎ²Î±ÏģÎŃÎ»Î¹Î±":8387,"ĠÏĥÎ¬ÎºÎ¿":8388,"ĠÏĨÎ¬ÏģÎ¼Î±ÎºÎ¿":8389,"ĠÏĦÏģÎ¿Î¼ÎµÏģÎ®":8390,"ĠÏĥÎ¿ÏįÏĢÎ±":8391,"ĠÎŃÏĢÎ±Î¸Îµ":8392,"ĠÎ¸ÏħÎ¼Î¬ÏĦÎ±Î¹":8393,"ĠÎ¬ÏģÏģÏīÏĥÏĦÎ¿ÏĤ":8394,"ĠÎµÎ»Î±ÏĨÏģÎ¬":8395,"ĠÎºÎ±ÏģÎ±Î¼":8396,"ĠÏĩÎ±Î¯Ïģ":8397,"Î¿ÏĥÎ¿Î´Î¿Ïį":8398,"ĠÎ´Î·Î¼Î¹Î¿ÏįÏģ":8399,"ĠÎ´Î·Î¼Î¹Î¿ÏħÏģÎ³":8400,"ĠÎµÎ¼ÏĢÏģÏĮÏĤ":8401,"ĠÎµÏħÎ³ÎµÎ½Î¹ÎºÎ®":8402,"Î±ÏħÏĦÎ®":8403,"ĠÏĢÏĮÎ»ÎµÎ¼Î¿ÏĤ":8404,"ĠÎ³Î±ÏĬÎ´Î±ÏģÎ¬ÎºÎ¿ÏĤ":8405,"ĠÎºÎ¬Î¼ÏĢÎ¿ÏĥÎ·":8406,"ĠÏĨÎ¿ÏħÎ½ÏĦÏī":8407,"ĠÏĥÏĦÎ¿Î»Î¹ÏĥÎ¼ÎŃÎ½Î±":8408,"ĠÎ±ÏģÏģÏİÏĥÏĦÎ¹Î±":8409,"ĠÏĦÏģÎ±ÏĢÎµÎ¶Î¬ÎºÎ¹":8410,"ĠÏĥÏĦÏģÎ±ÏĦÎ¹ÏīÏĦÎ¬ÎºÎ¹Î±":8411,"ĠÎ¬Î½Î±ÏĪÎµ":8412,"ĠÎ±Î³Î³ÎµÎ»Î¬ÎºÎ¹":8413,"ĠÏĦÎ¯Î³ÏģÎ·":8414,"ĠÎºÎµÎ»Î±Î·Î´":8415,"ĠÎ¼Î¬Î³Î¿ÏħÎ»Î±":8416,"ĠÎ±ÏĥÏĦÏģÎ±ÏĨÏĦÎµ":8417,"ĠÎ±ÏĢÎ¿ÏĨÎ±ÏĥÎ¹ÏĥÏĦÎ¹ÎºÎ¬":8418,"ĠÎłÎ¡ÎķÎłÎķÎĻ":8419,"ĠÏĢÎ¿ÏĦÎ±Î¼Î¬ÎºÎ¹":8420,"ĠÎ±ÏĥÏĦÏħÎ½ÏĮ":8421,"ĠÎºÎ»ÎµÎ¹Î´Î±ÏģÎ¹Î¬":8422,"ĠÏĦÏħÏĩÎµÏģÏĮÏĤ":8423,"ĠÎ½ÏĦÏħÎ¼ÎŃÎ½Î¿ÏĤ":8424,"ĠÏĢÎ¿Î»ÏįÏĦÎ¹Î¼Î±":8425,"ĠÎ¼Î±Î»Î±ÎºÎ¬":8426,"ĠÏĢÎµÏģÎ±ÏĥÏĦÎ¹":8427,"ĠÎłÎ¿ÏģÏĦÎ¿ÎºÎ±Î»Î¯Î±":8428,"Î¹Î¹Î¹Î¹Î¹Î¹Î¹Î¹Î¹Î¹Î¹Î¹Î¹Î¹Î¹Î¹":8429,"ĠÎµÂµÎµÎ¯ÏĤ":8430,"ĠÎ¾ÎµÏĩÏīÏģÎ¹ÏĥÏĦÏĮ":8431,"ĠÎ¾ÎµÏĩÏīÏģÎ¹ÏĥÏĦÎ®":8432,"ĠÏĢÎµÏģÏĢÎ¬ÏĦÎ·ÏĥÎµ":8433,"ĠÏĢÎ¹ÎºÏģÎ¬":8434,"ĠÎĳÎ¸Î®Î½Î±ÏĤ":8435,"ĠÏĩÎ±Î»Î¬ÏĥÎµÎ¹":8436,"ĠÎºÎ¿ÏħÎ²Î¬ÏģÎ¹":8437,"ĠÎ±Î´ÎµÎ»ÏĨÎŃÏĤ":8438,"ĠÏĩÏģÏħÏĥÎ±ÏĨÎŃÎ½Î¹Î±":8439,"ÎŃÎ³Î³Î±":8440,"ĠÎµÏģÎ³Î¬ÏĦÎµÏĤ":8441,"ĠÎ½Î¹ÏĨÎ¬Î´ÎµÏĤ":8442,"ĠÎĳÎ»ÎºÎ¯Î½Î¿":8443,"ĠÎ´ÏħÎ½Î¬Î¼ÎµÎ¹ÏĤ":8444,"ĠÎºÎ¿ÏģÏħÎ´Î±Î»Î»ÏĮ":8445,"ĠÎºÎ¿ÏģÏħÎ´Î±Î»Î»Î¿Î¯":8446,"ĠÎµÏħÏĩÎ±ÏģÎ¯ÏĥÏĦÎ·ÏĥÎ±Î½":8447,"ĠÎŃÎºÎ±ÏĦÏĥÎµ":8448,"ĠÏĨÏģÎŃÏĥÎºÎ¿":8449,"ĠÎ¼ÎµÏĦÎŃÏĨÎµÏģÎ±Î½":8450,"ĠÎºÎ±Î¼Î¬ÏģÏīÎ½Îµ":8451,"ĠÎºÏĮÎ»ÏĢÎ±":8452,"ĠÎ´Î¹Î±Î»ÎŃÎ¾ÎµÎ¹":8453,"ÎĪÏĨÏĦÎ±ÏĥÎµ":8454,"ĠÏĥÎ¹Î´ÎµÏģÎŃÎ½Î¹Î¿":8455,"ĠÎĳÏĢÎ¿ÎºÏģÎ¯Î¸Î·ÎºÎµ":8456,"ĠÎ¶ÏīÎ³ÏģÎ±ÏĨÎ¹ÎŃÏĤ":8457,"ĠÎµÎ³ÎºÎ±ÏĦÎ±Î»ÎµÎ¯":8458,"ĠÏĩÎ±ÏģÎ¹ÏĦÏīÎ¼ÎŃÎ½Î¿":8459,"ĠÎ²ÏģÎµÎ¯ÏĦÎµ":8460,"ĠÎ¼Î±Î¸Î®Î¼Î±ÏĦÎ±":8461,"ĠÎŃÏĨÎ¸Î±ÏĥÎµ":8462,"ĠÏĨÎ±ÏģÎ¼Î¬ÎºÎ¹":8463,"ĠÎºÎ¿ÏģÎ´ÎŃÎ»ÎµÏĤ":8464,"ÏĦÏĥÏīÎ¼ÎŃÎ½Î¿ÏĤ":8465,"ĠÏĨÎ»ÏĮÎ³ÎµÏĤ":8466,"ĠÎ·ÏģÎµÎ¼Î¯Î±":8467,"ĠÂµÏħÎ±Î»ÏĮ":8468,"ĠÎĺÎ±Î½Î±ÏĥÎ¬ÎºÎ·ÏĤ":8469,"ĠÎ³ÎµÎ³Î¿Î½ÏĮÏĤ":8470,"ĠÎĴÎ¿ÏģÎ¹Î¬ÏĤ":8471,"ĠÎ´Î¹Î±ÎºÏģÎ¯Î½ÎµÎ¹":8472,"ĠÎ¶Î·ÏĦÎ¹Î¬Î½Î¿ÏĤ":8473,"ĠÎŃÏĥÏīÏĥÎµ":8474,"ĠÏħÏĢÎ¬ÎºÎ¿Ïħ":8475,"ĠÏĪÎ¯ÏĩÎ¿Ïħ":8476,"ĠÏĥÏĦÎŃÎºÎ¿Î½ÏĦÎ±Î½":8477,"ĠÎµÎ»Î±ÏĨÎ¹ÏİÎ½":8478,"ĠÏĥÏįÎ¼Î²Î¿ÏħÎ»Î¿ÏĤ":8479,"ĠÎºÎ±Î¸ÏħÏĥÏĦ":8480,"ĠÎºÎ±ÏĦÎ±ÏĨÎŃÏģÏī":8481,"ĠÎ´Î¯ÎºÎ±Î¹Î¿ÏĤ":8482,"Î¿Î³ÏģÎ±ÏĨÎ¯Î±":8483,"ĠÎºÎ»Î±Î¯Î³Î¿Î½ÏĦÎ±ÏĤ":8484,"ĠÎ´Î±Î½ÎµÎ¯":8485,"ĠÎ¬ÏĥÏĦÎµÎ³Î¿ÏĤ":8486,"ĠÎ±ÏĢÏĮÎ»ÏħÏĦÎ·":8487,"Î¹ÎºÎ¿Î½Î¿Î³ÏģÎ¬ÏĨÎ·":8488,"Î²Î±Î¯ÏīÏĤ":8489,"ĠÎ´ÎµÎ»ÏĨÎ¯Î½Î¹Î±":8490,"ĠÎµÎ½Î½Î¿ÎµÎ¯ÏĤ":8491,"ĠÎ§ÏģÏħÏĥÎ±ÏĨÎ®ÏĤ":8492,"ÏĦÎ¿ÏĩÏģÎ¿Î½Î¹Î¬ÏĤ":8493,"ĠÎ¼Î¿ÏħÏĥÎµÎ¯Î¿":8494,"ĠÎºÎ±Î»ÏįÎ²Î±":8495,"ĠÎµÎ¾ÏİÏĢÎ¿ÏģÏĦÎ±":8496,"ĠÏĥÎ·ÂµÎ±ÏĥÎ¯Î±":8497,"ÎĵÏģÎ¬ÏĨÎµÏĦÎ±Î¹":8498,"ĠÏĢÎ·Î³Î¿ÏįÎ½Î¹":8499,"ĠÎºÎ»ÎŃÏĨÏĦÎ·ÏĤ":8500,"ĠÏĢÎ±ÏģÎ·Î³Î¿ÏģÎ¹Î¬":8501,"ĠÎľÏħÎºÎ®Î½ÎµÏĤ":8502,"ĠÎµÏħÏĩÎ¬ÏģÎ¹ÏĥÏĦÎ¿":8503,"ĠÏĦÏĮÎ»Î¼Î·ÏĥÎµ":8504,"ĠÎ¾Î·Î¼ÎŃÏģÏīÎ¼Î±":8505,"ĠÎµÎºÎ±ÏĦÎ¿Î½ÏĦÎ¬Î´ÎµÏĤ":8506,"ĠÎºÎ»Î±Î¹ÏĤ":8507,"ĠÎºÎ¬ÏģÎ²Î¿ÏħÎ½Î±":8508,"ĠÎºÎ¬Î»ÏĦÏĥÎµÏĤ":8509,"ĠÎļÏħÏĢÏģÎ±Î¯Î±":8510,"ĠÎľÎµÎ½ÎŃÎ»Î±Î¿ÏĤ":8511,"ĠÎ±Î»Î»ÎµÏģÎ³Î¯Î±":8512,"ĠÎ´ÎµÏħÏĦÎµÏģÏĮÎ»ÎµÏĢ":8513,"ĠÏĨÎ¹Î»Î¿Î¾ÎµÎ½":8514,"ĠÎ²ÎµÎ»Î¿ÏįÎ´Î¹":8515,"ĠÎ»ÎµÏĢÏĦÎ¿Î¼ÎŃÏģ":8516,"ĠÎ±ÏĢÎ¿Î¼Î±ÎºÏģÏħÎ½Î¸ÎµÎ¯":8517,"ĠÎ±Î½Î¸ÏģÏīÏĢÎ¿ÏĨÎ¬Î³Î¿ÏĤ":8518,"ĠÎĳÏħÎ³Î¿ÏħÏĥÏĦÎ®ÏĤ":8519,"ĠÎºÎŃÏĨÎ¹":8520,"ĠÎ±Î¼Î¬Î¾Î¹":8521,"ĠÏĥÏĦÎ¿Î¯ÏĩÎ·Î¼Î±":8522,"ĠÎ±Î»Î¿Î¹ÏĨÎ®":8523,"ĠÎ±Î³Î±Î½Î±ÎºÏĦÎ¹":8524,"ĠÎ¹Î´Î¹Î¿ÎºÏĦÎ®":8525,"ĠÎ»Î±ÏĩÏĦÎ¬ÏģÎ±":8526,"ĠÎ±ÏģÏĥÎµÎ½Î¹ÎºÎ¹Î¬":8527,"ĠÎ¡Î¿Î¶ÎŃÎ½Î¹Î±":8528,"ĠÎłÎ¡ÎĻÎĵÎļÎĻÎłÎĻÎ£Î£ÎķÎ£":8529,"ĠÏĥÏĨÎ±Î¯ÏģÎ±":8530,"ĠÎŃÂµÎ¿Î¹Î±":8531,"ĠÎºÎ±Î»Î±Î¼ÏĢÏĮ":8532,"ĠÎłÏģÏĮÏĥÎµÎ¾Îµ":8533,"ĠÎ´ÏīÎ¼Î±ÏĦÎ¯Î¿Ïħ":8534,"ĠÎ¦ÎµÏģÏģÎ¬ÏģÎ¹":8535,"ĠÏĢÏģÎ¿ÎºÎµÎ¹Î¼ÎŃÎ½Î¿Ïħ":8536,"Î¼Î¿Î½Î¿Î´Î¬Ïĥ":8537,"ĠÎłÎ±Î¼ÏĢÏĮÏģÎ±ÏĤ":8538,"ĠÎĳÏĢÎ¿ÏĪÎ¹Î»Ïī":8539,"Î¹ÎºÎ¿Î½Î¿Î³ÏģÎ¬ÏĨÎ·ÏĥÎ·":8540,";âĢ¦":8541,"Ġ8":8542,"ĠÎ¨":8543,"Î±ÏĦÎ±":8544,"Î±Î»Îµ":8545,"ÎµÏģÎŃ":8546,"Î½ÎŃÏĤ":8547,"Î½ÏİÏĥÎµÎ¹":8548,"ÏĦÏĦÎ±":8549,"ÏĦÏģÎ¿ÏĤ":8550,"ÏĦÎ¿Î½ÏĦÎ±ÏĤ":8551,"ÏĦÎ¶Î¯":8552,"ÏĦÏĥÎ¯":8553,"ÏĦÏģÎ¯Î±":8554,"ÏģÎµÎ¯ÏĤ":8555,"ĠÏĦÏī":8556,"ĠÏĦÎŃÎ½":8557,"ĠÏĦÎ¿ÏĨ":8558,"ĠÏĦÎ¶Î±":8559,"Î¬Î¶Î¿ÏħÎ½":8560,"Î»ÏĦÎ¬":8561,"Î»ÏħÏĦ":8562,"Î»Î¿Ïĥ":8563,"Î»Î»Î¯Î±":8564,"Î»Î¿ÏĬ":8565,"ÏĥÎºÎ¿Ïħ":8566,"ÏĥÏĮÎ»Î¹":8567,"ÏĥÏĨÎ±":8568,"Î·Î³Î±":8569,"Î·Î¼ÎŃÎ½Î·":8570,"Î¯ÎºÎ±":8571,"ĠÎºÏī":8572,"ĠÎºÎ¹Î¬":8573,"ĠÎºÎ¿Î¯":8574,"ÎºÎ»Î¹":8575,"ÎºÎ¯Î½Î±":8576,"ĠÏĢÎ¯Î½ÎµÎ¹":8577,"ĠÏĢÏģÎ¿ÏĢ":8578,"ĠÏĢÎ»Ïį":8579,"ĠÏĢÎ»ÎŃÎ½":8580,"ĠÏĢÎ»Î®ÏģÏī":8581,"ÏĮÎ»Î¿Î¹":8582,"Î¼ÏİÎ½":8583,"Î¼Î¿ÏĩÏİÏģÎ±":8584,"ĠÏĥÏĮ":8585,"ĠÏĥÏĩÎ¹":8586,"ĠÏĥÎ¬ÏĥÏĦÎ¹ÏĥÎµ":8587,"ĠÎ±Î¾":8588,"ĠÎ±Î¼Î±":8589,"ĠÎ±Î´Î¹Î¬":8590,"ĠÎ±Î´Î¹Î±":8591,"ĠÎ±ÏĥÎ®":8592,"ĠÎ±ÏĥÏĩÎ®":8593,"Î³Î»Î¹":8594,"Î³Î¿Î½ÏĦÎ±Î¹":8595,"Î³ÎºÎ±ÏĤ":8596,"Î³ÎºÎµÎ»Î±":8597,"Î±Î½Î¿Ïį":8598,"ÏīÏģÎ¯":8599,"ÏħÎ¿":8600,"ÏħÏħ":8601,"ÏħÎ»Î·":8602,"ÏħÎ¼Î®Î¸Î·ÎºÎµ":8603,"ĠÎºÎ±Î¹Î½Î±":8604,"ĠÎºÎ±Î¹ÏĦÎ¿":8605,"ĠÎµÎ»Îµ":8606,"ĠÎµÎ½Îµ":8607,"ĠÎµÏįÏģÎ¹":8608,"Î¹Î±ÏĥÎ¼ÎŃÎ½Î¿ÏĤ":8609,"ÏĩÏĮ":8610,"ÏĩÎ¸Î·":8611,"ÏĩÏĦÎ®":8612,"ĠÎ½Î¬":8613,"ĠÎ½Ïħ":8614,"ĠÎ½Î¿ÏįÎ¼Îµ":8615,"Î®Î¸Î·":8616,"Î®Î½ÏĦÎ±":8617,"ĠÏĦÎ¿Î±Î³Î¿ÏģÎ¬ÎºÎ¹":8618,"ĠÏĦÎ¿ÎºÎµÏĨÎ¬Î»Î¹":8619,"ĠÎŃÏģÏī":8620,"ĠÎŃÎ¾Î·":8621,"ĠÎ½Î±ÏĦÎ¿Î½":8622,"ĠÎ½Î±ÎºÎ±ÏĦÎ±":8623,"ĠÏĦÎ¿ÏħÎºÎ±Î¹":8624,"ĠÎ´Î®":8625,"ĠÎ´Î¯Î½Î¿ÏħÎ½":8626,"ĠÎ´Î¯Î½ÎµÎ¹ÏĤ":8627,"ĠÎ´Î¯Î½Î¿Î½ÏĦÎ±ÏĤ":8628,"ÏĦÎ±Ïģ":8629,"ÏİÎ½ÎµÏĦÎ±Î¹":8630,"ÏįÎ¸Î¹":8631,"ÏįÏĥÎ·ÏĤ":8632,"ÏįÏĪÎ·":8633,"ÏĨÏģÎ±":8634,"Î½Î±Î³Îµ":8635,"ĠÎµÎ¯Î´Î·ÏĥÎ·":8636,"ĠÎ¿Î¼":8637,"ĠÎ¿Ïį":8638,"ĠÏĮÏĩÎ¸Î·":8639,"ĠÎ±ÏĢÎ»Î®":8640,"ÏĦÎ¹ÎºÎ·":8641,"ĠÏĦÎ±ÏįÏģÎ¿ÏĤ":8642,"ĠÏĦÎ±Î²Î¬Î½Î¹":8643,"ĠÎ¼ÎµÏĥÎ¬Î½":8644,"Î²ÎŃ":8645,"Î²Ïİ":8646,"Î²ÏįÏģÎ¹":8647,"ĠÎ²Î»Î±":8648,"ĠÎ²ÏģÏĮ":8649,"ĠÎºÎ±ÏĦÎ¿Î¯":8650,"Î¿Î½ÏĦÏħ":8651,"ÎµÎ½Î¿ÏĨ":8652,"ĠÏĩÏĦÎ¯":8653,"ĠÏĩÎ»Ïī":8654,"ĠÏĩÎ¬Î»Î±":8655,"Î¾Î¬":8656,"ÏĦÎ¬Î¼ÏĢÏĦÎ¹":8657,"ÏĦÎ·Î´ÎµÏĤ":8658,"Î»Î¹ÎŃ":8659,"Î¼Î±Î¼Î¬":8660,"Î¼Î±Î¶Î¯":8661,"ĠÎ¸ÏģÎ±Î½Î¯Î¿":8662,"ÂµÂµ":8663,"ÂµÂµÎ±":8664,"ĠÎ»ÎµÎ¹":8665,"ĠÎ»Î¿Ïį":8666,"Î¿ÏģÎ¸":8667,"Î¿ÏģÏģÎ¬":8668,"Î¬Î½Î·ÏĤ":8669,"Î¹ÎºÏİÎ½":8670,"Î¹ÎºÎ¿Î¯":8671,"Î¹ÎºÎ¿ÏįÏĤ":8672,"ĠÏĥÏĦÎ¿ÎŃÏĤ":8673,"ĠÏĢÎ±ÏĢÎ¯":8674,"ÏģÎ¯Î¿Ïħ":8675,"ÏģÎ¯Î´Î±":8676,"ÏģÎ¯ÏĦÎµÏĤ":8677,"ĠÎ¼Î±ÏģÎ¼Î±":8678,"ĠÎ¼Î±ÏģÎ¿ÏįÎ»Î¹Î±":8679,"ÏĢÎµÏĦÎµÎ¹":8680,"Î»Î·ÏĥÎ·":8681,"Î¹Î¬Î¿Ïħ":8682,"Î»Î¿Î³Î±":8683,"Î¼ÎµÏģÏİ":8684,"ĠÎºÎ¬ÏĦ":8685,"ĠÎºÎ¬ÏĥÏĦÏģÎ±":8686,"ĠÎ¼ÏĢÏģÎ¬":8687,"ÎºÎ±Î¼Ïī":8688,"ĠÏĢÎµÏĦÎµÎ¹":8689,"ĠÏĢÎµÏĦÎ¿ÏįÎ½":8690,"ĠÏĢÎµÎ¸Î±Î¯Î½ÎµÎ¹":8691,"ĠÎļÎ¿Î½ÏĦÎ¬":8692,"ĠÎ¼Î¿ÏħÏĥÏĦÎ¬":8693,"ĠÎľÎ±Î½":8694,"ÎºÏĮÏĤ":8695,"ÎºÏĮÏĥÏĦÏģÏī":8696,"Î³ÎµÎ¸Î¿ÏĤ":8697,"ĠÂµÎ¯Î±":8698,"ĠÂµÎ¹Ïĥ":8699,"Î¼Î¬ÎºÎ¹Î±":8700,"Î¼Î¬Î³ÎµÎ¹":8701,"Î¼Î¬Î¼ÎµÎ½Î·":8702,"ĠÎķÎ»ÎµÎ½":8703,"ÎºÎ¬Î¼Î¹":8704,"Î¸Î·Î¼Î¬":8705,"Î¸Î·ÏĥÎ·":8706,"Î³Î¿Î®ÏĦÎµÏħ":8707,"ĠÎłÎ¹":8708,"Î¸ÎµÏĦÎ±":8709,"ĠÎ²Î±ÏĥÎ±Î½":8710,"ĠÎ²Î±ÏĦÏĮÎ¼Î¿Ïħ":8711,"ÎŃÏģÎµÎ¹":8712,"ÏĮÏĥÏī":8713,"ÏģÎŃÎ¹":8714,"ÏģÏĩÏĮÏĦÎ±Î½":8715,"ÎŃÏģÎ±ÏĥÎ±":8716,"ÏģÎ·Î¼ÎŃÎ½Î±":8717,"ÎŁÎ£":8718,"ĠÎ£Î±":8719,"ĠÎ£Î¹Î´Îµ":8720,"ĠÎ£Î¯Î³Î¿ÏħÏģÎ±":8721,"ĠÎ£ÏĦÎ¬Î¸Î·ÎºÎµ":8722,"ÎļÏįÏģÎ¹Îµ":8723,"ĠÏģÎµÏį":8724,"Î¶ÎµÏį":8725,"Î¼ÏĢÎ¿Ïħ":8726,"Î¼ÏĢÎ¹Î¬":8727,"ĠÏĩÎ±Î¼ÎŃÎ½Î¿":8728,"ĠÏĩÎ±Î¼ÎŃÎ½Î·":8729,"ĠÏħÏĢÎ±":8730,"ĠÎĪÎ¼Î±":8731,"ĠÎĪÎ´ÏīÏĥÎµ":8732,"ĠÎĪÎ²Î±Î»Îµ":8733,"ĠÎĪÎºÎ±Î½Î±Î½":8734,"ĠÎĪÎ²Î³Î±Î»Îµ":8735,"Î²Î±ÏĥÎ±Î½":8736,"Î²Î±ÏĦÎ¹ÎºÎ¬":8737,"ÎºÎ¿ÏħÏģÎ±":8738,"ĠÎĶÏģÏĮ":8739,"ĠÎĶÎ¹Î¬":8740,"ÏĦÏīÎ¸ÎµÎ¯":8741,"ĠÏĪÎŃ":8742,"ĠÏĪÏįÏĩ":8743,"ÎķÏĦÏĥÎ¹":8744,"ÎķÏĢÎµÎ¹Î´Î®":8745,"ĠÎ»Î¯Âµ":8746,"ÎłÏģÎ¿Ïĥ":8747,"ÎłÎ»Î·ÏĥÎ¯Î±ÏĥÎµ":8748,"ÎłÎ¿Î¹Î±":8749,"ÎłÎ±Î¹Î´Î¹Î¬":8750,"ÎºÎ¿ÏįÎ»Î¹":8751,"ÎºÎ¿ÏįÏĨÎ¹":8752,"ÏĢÎ¬ÎµÎ¹":8753,"Î³Î¹Î¶Î±Î½":8754,"ĠÎ¾ÎµÏĨ":8755,"ĠÎ¾ÎµÎ¼Î¬":8756,"ĠÎ¾ÎµÏĦÏģÎµ":8757,"ĠÎ¾ÎµÎ³ÎµÎ»Î¬":8758,"ĠÎºÎ¿ÏħÏĨÎ¬":8759,"ĠÎĵÎ¬":8760,"ĠÏĥÏĢÎ¯ÏģÏĦÎ±":8761,"ĠÎºÏĮÏĪÏī":8762,"ĠÎ±Î³ÎŃÎ»Î±":8763,"ÏĦÏĮÏģÎ¸":8764,"ÏĦÏĮÏĢÎ¿ÏħÎ»Î±":8765,"ĠÎ´ÎµÎºÎ±":8766,"Î£Ïī":8767,"ÏĢÎ¿Î¹Î¿":8768,"ĠÏĢÎµÏģÎ¹Î¿ÏħÏĥÎ¯Î±":8769,"ĠÏĩÏīÏģÎ±":8770,"ĠÏĢÎ±ÏģÎ±Î¼Îµ":8771,"ĠÎ¼Î¹ÎºÏģÏĮÏĦÎµÏģÎ¿":8772,"ĠÏĥÏħÎ½Î¬Î½":8773,"ĠÏĥÏħÎ½Î´Ïħ":8774,"Î»Î¯Î¿Ïħ":8775,"Î¼ÎµÎ½Î¿Î¹":8776,"ĠÎ³ÎµÎ¼Î¹":8777,"ĠÎ³ÎµÏįÎ¼Î±":8778,"ĠÎºÏħÏģÎ¹":8779,"ÎŃÏĥÎ¿ÏħÎ¼Îµ":8780,"Î¬ÏĥÏĦÎ·ÎºÎ±Î½":8781,"Î³Î·ÏĥÎ·":8782,"ÏĦÏĥÎ¹Îº":8783,"ĠÎĴÎµ":8784,"ĠÎĴÎ¬":8785,"ĠÎĿÏĦÎ¯Î½":8786,"ĠÎ´Î¹Î±ÏĨÎ¿ÏģÎ¬":8787,"ĠÎ´Î¹Î±Î³ÏīÎ½":8788,"ĠÎºÎ±ÏĦÎ¬ÏģÎ±":8789,"ÎĪÏĨÏħÎ³Îµ":8790,"ĠÎ¹Î±":8791,"ĠÎ±ÏĨÎŃÎ½":8792,"Î»Î¿ÏħÎ²Î¯":8793,"Î³Î®ÎºÎ±Î½":8794,"ÂµÎ±ÏĦÎ¹":8795,"ĠÎºÎ±Î»Ïħ":8796,"ĠÎºÎ±Î»ÏİÏĤ":8797,"ĠÏĨÎ±ÎĲ":8798,"ĠÎ»ÎŃÎ³Î±Î½Îµ":8799,"ĠÎµÏĢÎ¹Î»Î¿":8800,"ĠÎīÏĢÎ¹Îµ":8801,"ĠÏĥÏĦÎ¹Î»ÎŃ":8802,"ĠÎ¯ÏĥÎ¹Î±":8803,"ĠÎ¯ÏĩÎ½Î¿ÏĤ":8804,"Î¿ÏĩÎ¬Î»Î¹":8805,"ÏģÎ½Î¿ÏįÏĥÎ±Î½":8806,"ĠÎºÎ¬Î¸ÎµÏĥÎ±Î¹":8807,"ĠÎ³Î¹Î½ÏĮÎ½ÏĦÎ¿ÏħÏĥÎ±Î½":8808,"Î»ÏīÎ¼Î±":8809,"ÏģÏĮÎ½Î¹Î±":8810,"ÏģÎ±Î½ÏĦÎ±":8811,"ĠÏĢÎ±ÏģÎ¬ÏĥÏĦÎ±ÏĥÎ·":8812,"Î²ÎµÏĦÎ±Î¹":8813,"ĠÏĢÏģÏĮÎ²Î±":8814,"ĠÏĨÏįÏĦÏģÏī":8815,"Î¼Î¹ÎŃÏĤ":8816,"Î¼Î¹Î¶Î±Î½":8817,"ĠÎ±ÏħÏĦÎ¬ÎºÎ¹":8818,"ĠÎµÎ¾Î·Î³":8819,"ĠÎµÎ¾Î±Î¹ÏģÎµ":8820,"ÏĥÎ¿Î¼Îµ":8821,"ĠÏĥÎ·Î¼Î¬":8822,"ĠÎĽÎ¯Î±":8823,"ĠÎ±ÎºÎ¿ÏįÏĥÏĦÎ·ÎºÎ±Î½":8824,"ĠÎŃÎ»ÎµÎ³ÎµÏĤ":8825,"ĠÎļÎ±Î»Î®":8826,"Î½Î®Î¸Î·ÎºÎ±Î½":8827,"Î´Î·ÏĥÎ±Î½":8828,"ĠÎľÎ±ÎºÎ¬ÏģÎ¹":8829,"ĠÏĢÎ±Î½ÏĦÎµÎ»":8830,"ĠÏĢÎ±Î½ÏįÏĪÎ·":8831,"ĠÏĩÎ¬ÏĥÏī":8832,"ĠÎ¼ÏĢÎ±Î¿ÏįÎ»Î¿":8833,"ĠÏĥÏħÎ¼ÏĢÎ±Î¸":8834,"ĠÏĥÏħÎ¼ÏĨÏīÎ½Î¯Î±":8835,"ĠÎ»Î±ÏĮ":8836,"Î»ÎµÏħÎ¸":8837,"ÎĵÎ¹":8838,"ÎŃÏĪÎ¿ÏħÎ¼Îµ":8839,"ĠÎºÎ¿ÏģÎ¿ÏįÎ»Î±":8840,"ĠÎºÎ±ÏģÏĨÏī":8841,"ĠÏīÏģÎ±Î¹":8842,"ĠÎºÏģÎ±ÏĦÎ¬":8843,"Î½Î¹ÏİÎ½":8844,"ÏĨÎ±Î³Îµ":8845,"ĠÎ¦ÏĦÎ¬":8846,"ĠÎµÎ¼ÏĢÎ¹":8847,"Î»ÎµÎ¯Î±":8848,"ĠÎ²Î±ÏĥÎ¯Î»Î¹ÏĥÏĥ":8849,"ĠÏĢÏģÎ¿Î²Î»Î·":8850,"ĠÎ´Î¿ÏħÎ»ÎŃÏĪÎµÎ¹":8851,"ÎļÎ±Î»ÎŃ":8852,"ĠÎĳÎ½ÏĦÎ¯":8853,"ÏģÎ¹ÏĥÎ¼ÏĮ":8854,"ĠÏĦÏģÏīÏĤ":8855,"ĠÏĦÏģÎ±Î²Î¬":8856,"ĠÏĢÎµÏģÎ½Î¬ÎµÎ¹":8857,"ĠÏĢÎ»Î·Î¼Î¼":8858,"ĠÏĢÎ»Î·Î³ÎŃÏĤ":8859,"ĠÎ³Î¬ÏĦÎµÏĤ":8860,"ĠÎ´ÏİÏĥÎµ":8861,"ĠÎ±Î»ÎµÏĢÎ¿ÏįÎ´ÎµÏĤ":8862,"ĠÎ³Î»ÏħÎºÎ¿":8863,"ĠÏĦÏģÎ¹Î¬Î½ÏĦÎ±":8864,"ĠÏĢÎ¿Î¹Î¿Î¹":8865,"ĠÏĨÏĮÏģÎµÏĥÎ±Î½":8866,"ĠÏĥÏĢÎ¹ÏĦÎ¹ÏİÎ½":8867,"ĠÏĪÎ¬Î¸Î¹":8868,"ÏģÎ¿ÏħÎ½Î¿":8869,"ÏĦÏįÎ»Î¹":8870,"ĠÎµÎºÎ´ÏģÎ¿Î¼Î®":8871,"ĠÏĨÎ±Î½ÎµÏģÎ¬":8872,"ĠÏĦÏģÏĮÏĨÎ¹":8873,"ĠÏĩÎ¿ÏģÏĦÎ¬":8874,"ĠÏĩÎ¿ÏģÎŃÏĪÎµÎ¹":8875,"ÏĥÏĦÎ¬ÏĥÎµÎ¹ÏĤ":8876,"ĠÎºÎ±ÏĦÎ±Î»Î¬Î²ÎµÎ¹ÏĤ":8877,"ĠÎºÎ±ÏĦÎ±Î»Î¬Î²Î±Î¹Î½Î±Î½":8878,"ĠÏĢÎ±Î¹Î´Î¹ÎºÎ¬":8879,"ĠÏĢÎ±Î¹Î´Î¹ÎºÏĮ":8880,"ĠÎºÏģÏįÎ²":8881,"Î»Î»Î±Î³":8882,"ĠÏĢÎµÏģÎ¹ÏĥÏĥÏĮÏĦÎµÏģÎµÏĤ":8883,"ĠÏĦÏĮÏĢÎ¿ÏĤ":8884,"ÏĦÎ¿ÏĢÎ¿Î¯":8885,"ĠÎµÏħÏĦÏħÏĩÎ¹ÏĥÎ¼ÎŃÎ½Î±":8886,"ĠÎµÏĢÏĮÎ¼ÎµÎ½ÎµÏĤ":8887,"ĠÏĨÎŃÏģÎ¿ÏħÎ½":8888,"ĠÎŀÎŃÏģÏī":8889,"ĠÎŀÎµÎ½Î¿ÏĨ":8890,"ÏĦÏİÏģÎ¹Î¿ÏĤ":8891,"ĠÎ³ÏģÎ¬ÏĪÎµÎ¹":8892,"ÏĦÏģÏīÎ³Îµ":8893,"ĠÏĨÏĦÎ¹Î¬Î¾Ïī":8894,"ĠÎ¸ÎµÎ¬":8895,"ĠÎ¸ÎµÎ¿Ïį":8896,"ĠÎĳÏħÏĦÎ¿Î¯":8897,"ĠÎ¬ÏĥÏĢÏģÎ·":8898,"Î±Î±Î±":8899,"ĠÏĪÎ±ÏģÎ¬ÏĤ":8900,"Î§ÎĻ":8901,"ĠÎ¼Î±Î»ÏİÎ½Î¿ÏħÎ½":8902,"ĠÎºÎ±ÏĦÎ¬ÏĨÎµÏģÎ±":8903,"ĠÎºÎ±ÏĦÎ¬ÏĨÎµÏģÎµÏĤ":8904,"ĠÎºÎ±ÏĦÎ¬ÏĨÎµÏģÎ½Îµ":8905,"ÎĨÎ½Î¿Î¹":8906,"ÎīÏģÎ¸Îµ":8907,"ĠÎºÏħÎ½Î·Î³ÏĮ":8908,"ĠÎŃÎ²Î³Î±Î»Î±Î½":8909,"ĠÎ³ÎµÎ½Î½Î¬":8910,"ĠÎ»Î¹Î¿Î½ÏĦÎ¬ÏģÎ¹Î±":8911,"ĠÎ²ÏĮÎ»Î¿ÏĤ":8912,"ÏĥÎ¬Î¼Î¹":8913,"ĠÎŃÎ½Î¹ÏīÏĥÎ±Î½":8914,"ĠÏĩÏģÎ®ÏĥÎ¹":8915,"ĠÏĩÏģÎ®ÏĥÎ¹Î¼Î¿":8916,"ĠÎ³Î¿ÏħÎ»Î¹Î¬":8917,"ĠÏĥÎ·Î¼Î±Î¯Î±":8918,"ĠÏĦÏģÏİÎ³Î¿Î½ÏĦÎ±ÏĤ":8919,"ÏģÎ¹Î½ÎŃÏĤ":8920,"Î¾Î±Î¼Îµ":8921,"ĠÏĨÏĦÏīÏĩÎ¹ÎºÏĮ":8922,"ÏĨÎ¬Î½Î¹Î±":8923,"ĠÎŃÏĨÏĦÎ¹Î±ÏĩÎ½Î±Î½":8924,"ĠÎµÏħÏĩÎ±ÏģÎ¹ÏĥÏĦÎ®ÏĥÏī":8925,"ĠÏĢÎ·Î³Î±Î¯Î½Ïī":8926,"ĠÏĢÎ·Î³Î±Î¯Î½ÎµÎ¹ÏĤ":8927,"ĠÏħÏĢÏĮÎ»Î¿Î¹ÏĢÎµÏĤ":8928,"ĠÏģÎ¬ÏĩÎ·":8929,"ĠÎ¼Î±Î½Î¯Î±":8930,"ĠÎ¼Î±Î½ÏĦÎ®":8931,"ĠÏĥÏĦÎ¬Ïĩ":8932,"ĠÏĦÏĮÏĥÎ¿ÏħÏĤ":8933,"ĠÏĢÎ»Î±ÏĦÏį":8934,"ĠÎ¼Î¹ÎºÏģÎ¿ÏįÎ»Î±":8935,"ĠÏģÏīÏĦÎ¿ÏįÏĥÎµ":8936,"ĠÎ¼ÎµÎ³Î±Î»ÏįÏĦÎµÏģÎµÏĤ":8937,"ĠÏĦÏģÎ¯ÏĦÎ¿ÏĤ":8938,"ĠÎ³Î½ÏİÏģÎ¹ÏĥÎ±Î½":8939,"ĠÏĦÎ¿ÏįÏĦÎ·":8940,"ĠÏĦÎ¿ÏįÏģÏĦÎ±":8941,"ĠÏĦÎ¿ÏįÎ²Î»Î±":8942,"ĠÎ²Î³Î¬Î»Î¿ÏħÎ½":8943,"ĠÎĳÏĢÎ»Î¬":8944,"ĠÎłÎµÏģÎ¯":8945,"ĠÎłÎµÎ»Î±Î³":8946,"ĠÏĦÏĥÎ±ÎºÏİÎ½":8947,"ĠÏĦÏģÏįÏĢÎµÏĤ":8948,"Î¦ÏħÏĥÎ¹ÎºÎ¬":8949,"ĠÎŃÎ´Î¹Î½Î±Î½":8950,"ĠÎºÎ¿ÏħÏģÎ±ÏĥÎ¼ÎŃÎ½Î¿":8951,"ĠÎŃÏģÎ¹ÏĩÎ½Îµ":8952,"ĠÎ±Î½Î¿Î¹Î¾Î¹Î¬":8953,"ĠÏĢÎ¿Î½ÏĦÎ¯ÎºÎ±ÏģÎ¿ÏĤ":8954,"ĠÏĩÎ±ÏģÎ¿ÏįÎ¼ÎµÎ½ÎµÏĤ":8955,"ĠÎ¿Î»ÏĮÎºÎ»Î·ÏģÎµÏĤ":8956,"ĠÎ³Î½ÏīÏģÎ¯Î¶ÎµÎ¹":8957,"ĠÎµÎ¹ÏģÏīÎ½":8958,"ĠÎ¼ÏĢÎ¿ÏħÎºÎ¬Î»Î¹Î±":8959,"ĠÏĢÎ±ÏģÎ±ÎºÎ±Î»Î¿ÏįÏĥÎµ":8960,"ĠÎµÎ¼ÏĨÎ±Î½Î¯ÏĥÏĦÎ·ÎºÎ±Î½":8961,"ĠÏĥÏĦÎŃÎºÎµÏĦÎ±Î¹":8962,"ĠÎ²Î±ÏĥÎ¯Î»ÎµÎ¹ÏĮ":8963,"ĠÎ²ÏģÎ±Î´Î¹":8964,"ĠÎ²ÏģÎ±ÏĩÎ½":8965,"ĠÎºÎ±Î¸Î±ÏģÎ®":8966,"ĠÏĦÏģÎµÎ¼Î¬Î¼ÎµÎ½Î·":8967,"ĠÏĢÏģÎ¿ÏĥÎµÏħÏĩÎ®":8968,"ĠÏĢÎ¿Î½Î·ÏģÏĮ":8969,"ĠÏĢÎ¿Î½Î·ÏģÎ¹Î¬":8970,"ĠÏĢÎ¿Î½Î·ÏģÏĮÏĤ":8971,"ĠÎ¸Î·ÏģÎ¯Î±":8972,"ĠÎ¶ÏīÎ³ÏģÎ±ÏĨÎ¯Î¶ÎµÎ¹":8973,"ÏĦÎµÎ»ÂµÏĢÎ¬":8974,"ĠÎĽÎ¯Î¼Î½Î·":8975,"ÏģÎ³Î¿Î¯":8976,"ĠÎµÏĢÎ¹ÏĥÏĦÏģÎŃ":8977,"ĠÎ³Î¹Î¿ÏģÏĦÎŃÏĤ":8978,"ĠÏĥÏħÎ½Î±Î½ÏĦÎ®ÏĥÎµÎ¹":8979,"ĠÏĥÏħÎ½Î±Î½ÏĦÎ®ÏĥÎµÎ¹ÏĤ":8980,"ĠÎĶÎ¹ÎµÏģÏīÏĦÎ®Î¸Î·ÎºÎµ":8981,"ĠÏĦÎŃÏĦÎ¿Î¹ÎµÏĤ":8982,"ĠÎ¾ÏħÎ»Î¿ÎºÏĮÏĢÎ¿Ïħ":8983,"ĠÏĥÏħÎ³Î³ÏģÎ±ÏĨ":8984,"ĠÏĥÏĢÏģÎŃÎ¹":8985,"ĠÏĢÎ±Î½ÎŃÂµÎ¿ÏģÏĨ":8986,"ĠÏĥÎºÎ¿ÏħÎ»Î·":8987,"ÎłÎ±ÏĦÎŃÏģÎ±":8988,"ĠÏĢÎ±Î³ÏīÎ¼ÎŃÎ½Î·":8989,"ĠÎ¼Î¬Î¶ÎµÏĪÎ±Î½":8990,"ĠÎ²Î¹Î±ÏĥÏį":8991,"ĠÎºÎ¿Î»ÏħÎ¼ÏĢÎ¬":8992,"Î²Î¿Î»Î¿ÏįÏĥÎµ":8993,"ĠÎ¿Î¹ÎºÎ¿Î³ÎŃÎ½ÎµÎ¹ÎµÏĤ":8994,"ĠÎŃÎ½ÏĦÎ¿Î½Î±":8995,"ĠÎ¾ÎµÏĩÎ¬ÏĥÏī":8996,"ĠÏĢÎ¿Î½ÏĦÎ¹ÎºÎ¿":8997,"ĠÏĢÎ¿Î½ÏĦÎ¹ÎºÎ¿ÏįÏĤ":8998,"ĠÎºÎ±ÏĦÎ¿ÏģÎ¸Ïİ":8999,"ĠÎ¼Î±ÎºÏģÎ¹Î½Î¬":9000,"ĠÎ£ÏĦÎ±ÏĩÏĦÎ¿ÏĢÎ¿ÏįÏĦÎ±ÏĤ":9001,"ĠÏħÏĢÎ¿ÏĥÏĩÎµ":9002,"ĠÏĥÏĦÎ¿Î»Î¯Î´Î¹":9003,"Î³Î¿Î½ÎµÎ¯ÏĤ":9004,"ĠÎ½ÏħÏĩÏĦÏİÎ½ÎµÎ¹":9005,"ĠÎµÎ½Î¸Î¿ÏħÏĥÎ¹Î±ÏĥÎ¼ÎŃÎ½Î¿ÏĤ":9006,"ĠÎ¼ÏĢÎµÎº":9007,"ĠÎºÏħÏģÎ¯ÏīÏĤ":9008,"ĠÎºÎ±Î¸Î·ÏĥÏįÏĩÎ±":9009,"ĠÎłÏģÎ¹Î³ÎºÎ¯ÏĢÎ¹ÏĥÏĥÎ±ÏĤ":9010,"ÎºÏģÎ¹ÏĥÎ±Î½":9011,"ĠÎ±Î½Î·ÏĥÏħÏĩÎµÎ¯ÏĤ":9012,"ĠÎºÎ±Î·Î¼ÎŃÎ½Î¿":9013,"ÎłÎ®ÏģÎµ":9014,"ĠÎ§ÏģÏħÏĥÎ¿ÏįÎ»Î¹Î±":9015,"Î´Î¿ÏħÏĥÎ±":9016,"ĠÎ¾ÏħÏĢÎ½Î®":9017,"ĠÎ£ÎºÎŃÏĪÎ¿Ïħ":9018,"ĠÏħÏĢÎµÏįÎ¸Ïħ":9019,"ĠÎĴÎ±Î³Î³ÎŃÎ»Î·":9020,"Î´Î¿ÏįÎ»ÎµÏĤ":9021,"ĠÎ¿Î»Î¿ÎŃÎ½Î±":9022,"ĠÎ¿Î»Î¿ÎºÎ»Î·":9023,"ĠÎ²ÏħÎ¸Î¿Ïį":9024,"ĠÏĢÎ±Î½ÎŃÎ¼Î¿ÏģÏĨÎ±":9025,"ĠÏĢÎŃÏģÎ´Î¹Îº":9026,"ĠÎ·Î»Î¹ÎºÎ¹":9027,"ĠÏĢÎµÏģÎ®ÏĨÎ±Î½Î·":9028,"ĠÏĢÎµÏģÎ®ÏĨÎ±Î½Î¿ÏĤ":9029,"ĠÎĪÏĩÎ¿ÏħÎ½":9030,"ÎłÎµÏģÎ¯":9031,"ÂµÎ¿ÏģÏĨÎ¹Î¬":9032,"ĠÎ±Î´ÏįÎ½Î±ÏĦÎ¿":9033,"ĠÏĩÏģÎµÎ¹Î±ÏĥÏĦÎµÎ¯":9034,"ĠÎ¸Î·ÏĥÎ±ÏħÏģÎ¿ÏįÏĤ":9035,"ĠÎµÏĢÎ¹ÎºÎ¯Î½Î´ÏħÎ½Î±":9036,"ĠÎµÏĢÎ¹ÎºÎ¯Î½Î´ÏħÎ½Î¿Î¹":9037,"ĠÎ¸ÏĮÏģÏħÎ²Î¿ÏĤ":9038,"ĠÎ¼Î¿Î¯ÏģÎ±Î¶Îµ":9039,"ĠÎ´Î¹ÎºÎ±ÏĥÏĦÎ®ÏģÎ¹Î¿":9040,"ĠÏĦÏģÎ¿Î¼ÎµÏģÏĮ":9041,"ĠÎŃÏĢÎ±ÏħÎ»Î·":9042,"ĠÎ¼Î±Î³Î±Î¶Î¹Î¬":9043,"ĠÎ¾ÎµÎºÎ¹Î½Î¬":9044,"ĠÎ´ÎµÎ»ÏĨÎ¹Î½Î¬ÎºÎ¹Î±":9045,"ĠÎ±ÏģÏĩÎ±Î¯Î¿":9046,"ĠÎŃÎ³Î½Î¿Î¹ÎµÏĤ":9047,"ĠÎ¾Î±ÎºÎ¿Ïħ":9048,"ĠÎ¾ÎŃÏĩÎ±":9049,"ĠÎ¼Î¿ÏħÏģÎ¼Î¿Ïħ":9050,"ĠÎ½Î¹ÏİÎ¸ÎµÎ¹":9051,"Î¬Î½Î¸ÏģÏīÏĢÎ¿Î¹":9052,"ĠÏĢÎµÎ¸Î¬Î½ÎµÎ¹ÏĤ":9053,"ĠÏĢÏħÎºÎ½Î¬":9054,"ĠÎ±ÏĢÎ¿ÏģÏģÎ¿ÏĨ":9055,"ĠÎĺÎ¬Î»Î±ÏĥÏĥÎ±ÏĤ":9056,"ĠÎ§Î¬Î¼ÏĢÏĦÎ¹":9057,"ĠÎ³Î±ÏĬÎ´Î¿Ïħ":9058,"ĠÎºÎ¬Î¼ÏĢÎ¿ÏĥÎµÏĤ":9059,"ĠÎ¹Î´Î¹Î±Î¯ÏĦÎµÏģÎ¿":9060,"ĠÏĨÏģÎ¿ÏħÏģÏĮÏĤ":9061,"ĠÎ¬Î½Î±ÏĪÎ±Î½":9062,"ĠÎ¬Î½ÏĦÎµÎ¾Îµ":9063,"ĠÎ¼Î±Î³ÎµÎ¹ÏģÎ¹ÎºÎ®":9064,"ĠÏĢÎ®Î´Î·ÏĥÎµ":9065,"ÏĢÎ¿Î»Î»Î¬":9066,"ĠÎŃÎ½Î¿Î¹ÏīÎ¸Îµ":9067,"ĠÎļÎ±ÏģÎ¼Îµ":9068,"ĠÏĥÎ¹ÏīÏĢÎ·Î»Î¬":9069,"ĠÏĥÎ¹ÏīÏĢÎ·Î»ÏĮÏĤ":9070,"ĠÏĢÏģÎ¹Î³ÎºÎ¹ÏĢÏĮÏĢÎ¿ÏħÎ»Î¿":9071,"ĠÎ¿Î´Î®Î³Î·ÏĥÎ±Î½":9072,"ĠÏĢÏģÎ¿Î²Î¿ÏĥÎº":9073,"ĠÎ¼Î±Î»Î±ÎºÏĮ":9074,"ĠÎľÎ¬ÏģÏĦÎ¹Î½":9075,"ĠÎ²Î±ÏģÏįÏĤ":9076,"ĠÎ¼ÏĢÎ¿ÏģÎŃÏĥÏī":9077,"ĠÎºÎ±Î»Î»Î¹ÏĥÏĦÎµÎ¯Î±":9078,"ĠÏĥÎ±ÎºÎ¯Î´Î¹ÏĮ":9079,"ĠÏĦÏģÎ¿Î¼Î¬ÏģÎ±":9080,"ĠÎ½ÏĦÎ¿ÏħÎ»Î¬ÏĢÎ±":9081,"ĠÎ³Î¿Î²Î¬ÎºÎ¹":9082,"ĠÏĨÎ»Î¿ÏħÏģÎ¹Î¬":9083,"ĠÂµÎ·ÏĦÎŃÏģÎ±":9084,"ĠÎłÏĮÎ»Î¿":9085,"ĠÏħÏĢÏĮÏĥÏĩÎµ":9086,"ĠÎºÎ±ÏĦÎ¿Î¹ÎºÎ¿ÏįÏĥÎµ":9087,"ĠÎĴÎ¹ÏĦÏİÏģÎ¹Î¿ÏĤ":9088,"ÎºÎŃÏĦÎ¿":9089,"ĠÎ¸ÎŃÎ±Î¼Î±":9090,"ĠÎ®ÏģÎµÎ¼Î·":9091,"ĠÎ±Î½Î±Î³ÎºÎ¬ÏĥÏĦÎ·ÎºÎµ":9092,"ĠÎ±ÏĢÎ¿ÎºÎ±Î¼Ïī":9093,"ĠÎ¾Î±Î½Î±Î³ÏįÏģÎ¹ÏĥÎµ":9094,"ĠÏĥÏĦÎŃÎ»Î½ÎµÎ¹":9095,"ĠÎ¼ÎµÏĦÎŃÏĨÎµÏģÎµ":9096,"ĠÎºÎ±ÏĦÎ±ÏĢÎ»Î·ÎºÏĦÎ¹ÎºÏĮ":9097,"ÎĪÏĨÏĦÎ±ÏĥÎ±Î½":9098,"ĠÎ²Î±ÏĦÏģÎ±ÏĩÎ¯Î½Î±":9099,"Î¬ÏĨÎ½Î¿Ïħ":9100,"ĠÎ³ÏħÏģÎ½ÏİÎ½ÏĦÎ±ÏĤ":9101,"ĠÎ»Î¬ÂµÏĪÎ·":9102,"ĠÎ¬Î³Î½ÏīÏĥÏĦÎ¿":9103,"ĠÎºÎ±Î»ÎµÏĥÎ¼ÎŃÎ½Î¿Î¹":9104,"ĠÎºÎ±Î»ÎµÏĥÎ¼ÎŃÎ½Î¿ÏħÏĤ":9105,"Î¼ÎµÎ³Î¬Î»Î·":9106,"ĠÎ£ÏĦÏģÎ¬ÏĦÎ¿ÏĤ":9107,"ĠÎŃÏĨÎ¸Î±ÏĥÎ±Î½":9108,"ĠÏĢÏģÎ¿Î·Î³Î¿ÏįÎ¼ÎµÎ½Î·":9109,"ĠÎ±Î½Î±ÎºÎ±Î»ÏįÏĪÎµÎ¹":9110,"ĠÎ³ÏģÏįÏĢÎ±ÏĤ":9111,"ĠÎ¼ÎŃÏĦÏīÏĢÎ¿":9112,"ĠÎ¼ÎŃÏĦÏīÏĢÏĮ":9113,"ĠÏĢÎµÏįÎºÎ±":9114,"ĠÎ±Î½Î±ÏģÏīÏĦÎ¹ÏĮÏĦÎ±Î½":9115,"ĠÎ±ÏĢÎ¿Î¼Î±ÎºÏģÏįÎ½Î¸Î·ÎºÎµ":9116,"ĠÎºÎ±Î»Î·Î¼ÎŃÏģÎ¹":9117,"ĠÏĥÎ¹Î³Î¿ÏħÏģÎ¹Î¬":9118,"ĠÏĦÏģÎ¹Î³ÏħÏģÎ½Î¿ÏįÏĥÎµ":9119,"ÏĦÎŃÎ»ÎµÎ¹Ïī":9120,";âĢĵ":9121,"ĠÎ¼Î¿Î»ÏħÎ²":9122,"Î±Î½Î¸ÏģÏİ":9123,"ĠÎĳÏħÎ³ÎµÏģÎ¹Î½ÏĮÏĤ":9124,"ĠÎ£ÏĮÏĨÎ·":9125,"ĠÎ±Î½Î±Î³Î½ÏİÏģÎ¹ÏĥÎµ":9126,"ĠÎľÎµÏģÎ¹ÎºÎ¿Î¯":9127,"ĠÎ¸ÎµÏģÎ±ÏĢÎµÎ¯Î±":9128,"ĠÎŃÏĥÏĢÏģÏīÎ¾Îµ":9129,"ĠÎ±Î»Î±Î¶":9130,"ĠÎŃÎºÎ±Î¹Î³Îµ":9131,"Î¼Î±ÏģÏĦÏħ":9132,"ĠÎľÎµÎ»ÏīÎ´ÎŃÎ½Î¹Î¿ÏĤ":9133,"ÎŃÏĢÎ±Î¹Î¶Î±Î½":9134,"ĠÏĥÏĦÎ±Î¸Î¼Î¬ÏģÏĩÎ·ÏĤ":9135,"ÎºÎ¯ÏĦÏģÎ¹Î½Î¿":9136,"ĠÏĥÎ¯Î´Îµ":9137,"ĠÎ½Î¿ÏĥÎ¿ÎºÎ¿Î¼ÎµÎ¯Î¿":9138,"ĠÎ¼ÎµÎ»Î±Î³ÏĩÎ¿":9139,"ĠÎ´Î¹Î±ÏĢÎ¯ÏĥÏĦÏīÏĥÎµ":9140,"ĠÎ§ÏģÎ®ÏĥÏĦÎ¿ÏĤ":9141,"ĠÎµÎ¾ÏħÏĢÎ½Î¬Î´Î±":9142,"ĠÎĳÎ½ÏĦÏģÎŃÎ±ÏĤ":9143,"ĠÏĦÎ¶Î¬Î¼Î¹":9144,"ĠÎłÎ±ÏģÎ±Î¼ÏħÎ¸Î¿Ïį":9145,"ĠÎ³Î»Î¯ÏĥÏĦÏģÎ·ÏĥÎµ":9146,"ĠÎ±Î¼ÏĢÎŃÎ»Î¹":9147,"ĠÎ±ÏĦÎµÎ»ÎµÎ¯Ïī":9148,"ÏģÎ¬Î³Î¼Î±ÏĦÎ¹":9149,"ĠÏĢÎµÎ»Î¬ÏĦÎµÏĤ":9150,"ĠÎķÏĨÏĦÎ±ÏĥÏĢÎ¹Î¸Î±Î¼Î®ÏĤ":9151,"ĠÂµÎµÏĦÎ±ÂµÎ¿ÏģÏĨ":9152,"ĠÏĨÎ¯Î»ÏĦÏģÎ¿":9153,"ĠÏĢÏģÏĮÏĥÏĦÎ±Î¾Îµ":9154,"ÎĶÎ·Î»Î±Î´Î®":9155,"ĠÏĥÏħÎ»Î»ÎŃÎºÏĦÎ·ÏĤ":9156,"ÎıÏĥÏĦÎµ":9157,"ĠÏĢÎ»ÎµÎ¾":9158,"ĠÏĢÎ½ÎµÏįÎ¼Î±":9159,"ĠÎ¶Î¬ÏĩÎ±ÏģÎ·":9160,"ĠÏģÎ¿Î»ÏĮÎ¹":9161,"ĠÎ¦Î¿ÏįÏĥÎºÎ±ÏĤ":9162,"ĠÏħÏĢÎ¿ÏĩÏģÎµ":9163,"ĠÎºÏħÏģÎĶÎ¹Î¿Î½ÏįÏĥÎ·ÏĤ":9164,"ĠÎ´ÎµÎ¯ÏĢÎ½Î¿":9165,"ĠÏħÎ¹Î¿Î¸ÎµÏĥÎ¯Î±":9166,"ĠÎ±Î³ÏģÎ¹Î¿Î³Î¿ÏįÏģÎ¿ÏħÎ½Î¿":9167,"ĠÎ¼Î¬Î½ÏĦÏģÎ±":9168,"ÏĩÎ¿ÏģÏĦÎ±":9169,"ĠÎ½ÏĦÎ¿Î¼Î¬ÏĦÎµÏĤ":9170,"ĠÎŃÎ»ÎºÎ·Î¸ÏģÎ¿":9171,"ĠÎ³ÎŃÏĨÏħÏģÎ±":9172,"ĠÎ±Î½ÏĦÎ·Ïĩ":9173,"ĠÎłÎ»Î¿ÏįÏĦÏī":9174,"ĠÎĺÎ¿Î´ÏīÏģÎ®ÏĤ":9175,"ĠÎµÏĢÎ¹ÏĩÎµÎ¹ÏģÎ·Î¼Î±":9176,"ĠÏĩÎ±Î¯ÏģÎ¿Î¼Î±Î¹":9177,"ÎŀÎµÎºÎ¯Î½Î·ÏĥÎ±Î½":9178,"ĠÎºÎ±ÏĢÎµÏĦÎ¬Î½Î¹Î¿ÏĤ":9179,"ĠÎ±Î»ÏħÏĥÎ¯Î´Î±":9180,"ĠÎĵÎµÏģÎ¬ÎºÎ·ÏĤ":9181,"ĠÎµÏħÎ³Î½ÏīÎ¼Î¿ÏĥÏįÎ½Î·":9182,"ĠÎ±ÏĥÏĩÎ®Î¼Î¹Î±":9183,"ĠÎ¼ÎµÏĥÎ¬Î½ÏħÏĩÏĦÎ±":9184,"Î²ÏįÏģÎ¹Î½":9185,"Î¼Î¬Î³ÎµÎ¹ÏģÎ±ÏĤ":9186,"ĠÎķÎ»ÎµÎ½Î¯ÏĦÏĥÎ±":9187,"ĠÎŀÎµÎ½Î¿ÏĨÏİÎ½":9188,"ÏĦÎµÎ»ÂµÏĢÎ¬Ïģ":9189,"ĠÏĢÏģÎ¿Î²Î¿ÏĥÎºÎ¯Î´Î±":9190,"!\",":9191,"!âĢĿ,":9192,"62":9193,"ia":9194,"ip":9195,"st":9196,"Ġ4":9197,"Ġ7":9198,"Ġo":9199,"ĠÎı":9200,"Î±Î´ÎµÏģÏĨ":9201,"ÎµÏĢÎŃÏĥÏĦÏģÎµ":9202,"Î½Î¿ÏĩÏī":9203,"ÏĦÏģÏħ":9204,"ÏĦÏĮÏĥÎ¿":9205,"ÏĦÏģÎµÎ¹ÏĤ":9206,"ÏģÏģ":9207,"ÏģÎ³ÏĮ":9208,"ĠÏĦÎµÎ½":9209,"ĠÏĦÎ¿ÏįÏĤ":9210,"ĠÏĦÏģÎ¿ÏĨÎŃÏĤ":9211,"Î¬Ïī":9212,"Î¬Î´Î±":9213,"Î»Î¸":9214,"Î»Î»Î¹ÎºÎ¬":9215,"ÏĥÂµÎŃÎ½":9216,"ÏĥÂµÎŃÎ½Î¿Î¹":9217,"ÏĥÏĨÎ¿ÏģÎ¯Î¶ÎµÎ¹":9218,"ÏĤÏĤ":9219,"Î·Î¼ÎŃÎ½Î±":9220,"Î·Î¸Ïİ":9221,"Î¯Î³Î±ÏĤ":9222,"ĠÎºÎ»ÏīÎ½":9223,"ĠÎºÏĦÎ·Î¼Î±":9224,"Î¿ÏħÎ´":9225,"ÏĢÏģÎŃÏĢÎµÎ¹":9226,"ÏĢÎ»ÎŃÎ¿Î½":9227,"ÎºÎ½":9228,"ĠÏĢÏģÎ±":9229,"ĠÏĢÏĮÏĥ":9230,"ĠÏĢÎ»Ïħ":9231,"ĠÏĢÏģÎ±Î³ÂµÎ±":9232,"ÏĮÏģÏĦÎ±":9233,"Î¼ÏĨÎ¹":9234,"Î¼ÏĮÎ½Î¹":9235,"ÎŃÎ¸":9236,"ÎŃÏĥÏĦÎµ":9237,"ÎŃÎ´Î¹":9238,"ĠÏĥÏĢÎ±":9239,"ĠÏĥÏĢÎ¿":9240,"ĠÏĥÎŃÏģ":9241,"ĠÎ±ÏĩÎ¹":9242,"ĠÎ±ÏĥÏĢ":9243,"ĠÎ±ÏĥÏħ":9244,"ĠÎ±ÏĩÏİ":9245,"Î³Î³ÎµÎ¹":9246,"Î³ÏĮÎ½Î¹Î±":9247,"ÏīÎ½Î±":9248,"ÏīÎ¸Î¿ÏįÎ½":9249,"ÏīÎ¼Î±ÏĦÎ¹":9250,"ÏħÎ³Î®":9251,"ÎµÎ¹Î´Î·":9252,"ĠÎºÎ±Î¹ÏĦÎ¿Ïħ":9253,"ĠÎµÏĥÏĦÎ¹Î±":9254,"ÏĩÎ¹Î¬":9255,"ÏĩÎ½Î·":9256,"ĠÎ½ÏīÏģÎ¯":9257,"ĠÎŃÎ³Îº":9258,"ĠÎŃÏĢÎ±Î¸":9259,"ĠÎŃÎ½Î¿Î¹Î±":9260,"ĠÎŃÏĦÏħÏĩÎµ":9261,"ĠÎŃÏĥÏĦÎµÎ»":9262,"Î´Î±Î½":9263,"Î´ÏĮÏĤ":9264,"Î´ÏģÎ¿Ïħ":9265,"ĠÎ½Î±ÏĢÎµ":9266,"ĠÎ½Î±ÎºÎ¿Î¹":9267,"ĠÏĦÎ¿ÏħÎ²":9268,"Î¸ÏĮ":9269,"Î¿ÏįÎ´ÎµÏĤ":9270,"ĠÎ³Ïī":9271,"ĠÎ³ÏģÎ·":9272,"ÏįÏģÎµÏĤ":9273,"ÏįÎ¸ÏħÎ½":9274,"ÏįÎ³Î¹ÏĥÎ¼Î±":9275,"ÏĨÎ¸Î·ÎºÎµ":9276,"ÏĨÎŃÎ»Î·":9277,"ÏĨÏģÎ¿Î½ÏĦÎ¯":9278,"Î½Î±Î¯Î¿":9279,"ĠÏĥÏĦÏģÏīÎ¼ÎŃÎ½Î¿":9280,"ÏģÎ¹Î¶":9281,"ÏģÎ¹Î³ÎºÎ¯ÏĢÎ¹ÏĥÏĥÎ±":9282,"ĠÎµÎ¯ÏĥÎ±ÏĥÏĦÎµ":9283,"ĠÎ¿Î¼ÏĢ":9284,"ĠÎ¿Î¼Î¬Î´ÎµÏĤ":9285,"ÏĦÎµÏįÎµÎ¹":9286,"ĠÏĮÎ½":9287,"ĠÏĮÏģÎ¿":9288,"ĠÏĮÎ»Î¿Ïħ":9289,"ĠÏĮÏĥÏĢ":9290,"ĠÏĮÏĥÎµÏĤ":9291,"ĠÎ±ÏĢÎ¿Î»Ïį":9292,"ĠÏĨÏįÏĦÎµ":9293,"ĠÏĨÏģÏį":9294,"ĠÏĨÏĦÏħ":9295,"ĠÏĨÎ¸Î¬Î½":9296,"ÏĦÎ¹Î¶Î±Î½":9297,"ÏĦÎ¹Î½Î®":9298,"ÏĦÎ¹ÎºÎ¿ÏįÏĤ":9299,"ĠÏĦÎ±ÏĢÎµÎ¹":9300,"Î²ÏģÎ¬":9301,"Î²Î¿ÏħÏĤ":9302,"Î¶Î¿Î½ÏĦÎ¬ÏĤ":9303,"ÏģÎ¬ÏĥÎ¹":9304,"ĠÎ²Î»Î¬":9305,"ĠÎºÎ±Î²Î¬":9306,"ĠÎºÎ±ÏĦÏĥÎ±":9307,"ĠÎºÎ±ÏĥÏĦÎ±Î½":9308,"ĠÎºÎ±Î¼Ïİ":9309,"ĠÎºÎ±ÂµÎ¹":9310,"ĠÏĩÎ±Î½":9311,"ĠÏĩÎ¬Î½Î¹":9312,"ĠÏĩÎ¬Î½ÎµÎ¹":9313,"Î¼Î±ÏħÏģÎ¿":9314,"ĠÎ¸ÎŃÎ»Î±":9315,"ĠÎ¸ÎµÏģ":9316,"ÂµÎ¿ÏħÎ½":9317,"ÂµÎŃÏģÎ±":9318,"ÂµÂµÎŃÎ½Î·":9319,"Î»Î¬Î½":9320,"ÏģÏĮÏĥÎº":9321,"Î¿Î»Îµ":9322,"ÏĥÎ¹Î»ÎŃ":9323,"ÏħÏĦÎ¿ÏįÎ½":9324,"ÏģÎ¯Î½Î¹":9325,"ĠÎ¼Î±ÏģÎ±":9326,"ÏĢÎµÏģÎ±":9327,"ÏĥÏĦÎ¿Ïį":9328,"ÏĥÏĦÏģÎµÏĤ":9329,"Î»Î·ÏĥÎ¯Î±":9330,"ÏģÎµÏīÎ½":9331,"ĠÎ¾ÎŃÎ½Î±":9332,"ĠÎ¤ÏĮÏĥÎ±":9333,"ĠÎ¤Î¿ÏĥÎ¿Î´Î¿Ïį":9334,"ÏĩÎµÎ´ÏĮÎ½":9335,"Î»ÎµÎºÎ¯Î½":9336,"Î¼ÎµÏĥÎ¬":9337,"Î¯Î½Î¿":9338,"Î¯Î½Î¿Î¹":9339,"Î¯Î½ÎµÏĦÎ±Î¹":9340,"ÏģÎ¿Î¶Ïħ":9341,"ĠÎ¼ÎŃÎ³ÎµÎ¸Î¿ÏĤ":9342,"ĠÎ¼ÏĢÏĮÎ»Î¹":9343,"ĠÎ¼ÏĢÏįÏģÎ±":9344,"ĠÎ¼ÏĢÎŃÏģÏĦÎ±":9345,"ÎºÎ±Î¸":9346,"ÎºÎ±ÏĦÎ¿Î¹":9347,"ÎºÎ±Î»Î¬ÎºÎ¹":9348,"ÎºÎ±Î¯ÏģÎ¹Î±":9349,"ÎºÎ±ÏģÏĩÎ±":9350,"ĠÎļÎŃÏģ":9351,"Î½ÎµÏį":9352,"ĠÎ±ÏħÏĦÏİÎ½":9353,"ĠÎľÎ¹Îº":9354,"ĠÎľÏĢÎµ":9355,"ĠÎ±Î½Î¬Î»Î±":9356,"ÏĢÎ±ÏĥÎ±Î½":9357,"ÏĢÎ±ÏĥÎ¼Î±":9358,"Î³ÎµÎ»Î¿ÏįÏĥÎ±Î½":9359,"ĠÂµÏĮÎ½Î¿ÏĤ":9360,"ĠÂµÎŃÏģÎ·":9361,"ĠÂµÎ¯Î»Î·ÏĥÎµ":9362,"ÏĪÎ®":9363,"ĠÎ¶Ïħ":9364,"ĠÎ¶Î¿ÏįÎ¼Îµ":9365,"Î¼Î¬ÏĦÎ±":9366,"Î¼Î¬ÏģÎ¹":9367,"Î¼Î¬ÏĦÏīÎ½":9368,"ĠÎķÎĻ":9369,"ĠÎķÎ»Î¬ÏĦÎµ":9370,"ÏĦÎ¿Î¼Î¿Ïħ":9371,"ĠÏĥÏħÎ¶Î®ÏĦÎ·ÏĥÎ·":9372,"Î¤Î¿ÏħÏĤ":9373,"Î¸ÎµÏĦÎµ":9374,"ĠÎ²Î±ÏĦÎ¿Î¼Î¿Ïħ":9375,"ÏĮÏĥÎ¿Ïħ":9376,"ÏģÎŃÏĢ":9377,"ÎºÎ±Î½ÎµÏĤ":9378,"ÏģÎ·Î³ÏĮ":9379,"ÏģÎ®ÏĥÎµÎ¹ÏĤ":9380,"ÎľÎĳ":9381,"Î´Î¹ÏĮÏĦÎ·ÏĦÎ±":9382,"ÏģÏİÎ¼Î±ÏĦÎ±":9383,"ÏģÏİÎ¸Î·ÎºÎ±Î½":9384,"ĠÎ£ÏĦÎ¹ÏĤ":9385,"ĠÏģÎ¹":9386,"ĠÎŁÏģÎŃ":9387,"ĠÎ¼Î¹ÎºÏģÎŃ":9388,"ÏĦÏĥÎ¹Î¬":9389,"ĠÏĥÏĦÎ±ÂµÎ¬":9390,"ĠÏĥÏĦÎ±Î³ÏĮÎ½Î±":9391,"ÏĦÎ±Î¹Î³Îµ":9392,"ĠÏĥÎ¿ÏħÏĥÎ¿Ïħ":9393,"ÏĦÎ®ÏģÎ¹Î±":9394,"ĠÏĩÎ±ÂµÎ¿Î³ÎŃÎ»Î±ÏĥÎµ":9395,"Î¿ÏĢÎ¯":9396,"ĠÎĪÏģÎ¹":9397,"ĠÎĪÎ»Î¹":9398,"ĠÎĪÎ³Î¹Î½Îµ":9399,"ĠÎ¼Î¬ÏĥÎºÎ±":9400,"ĠÎ¼Î¬Î¸Î·Î¼Î¬":9401,"Î¼Î¿Î½Î±":9402,"Î¼Î¿Î³ÎŃÎ»Î±ÏĥÎµ":9403,"ĠÎµÎºÎµÎ¯Î½ÎµÏĤ":9404,"ĠÏĢÎ¬Î½ÏĦÏīÏĤ":9405,"ĠÎ¼ÏĢÎ¿ÏģÎ¿ÏįÏĥÎ±Î¼Îµ":9406,"Î»Î®ÏĥÎµÎ¹ÏĤ":9407,"ÎºÎ¿ÏħÎ¬":9408,"ÎºÎ¿ÏħÎ²Î±":9409,"ÏįÏĦÎµÏģÎ±":9410,"ĠÎĶÎ¬":9411,"ĠÎĶÏį":9412,"ĠÎĶÏħÏĥÏĦÏħÏĩÏİÏĤ":9413,"ÎķÎ¼ÎŃÎ½Î±":9414,"ÎķÎ¹ÎºÎ¿Î½Î¿Î³ÏģÎ¬ÏĨÎ·ÏĥÎ·":9415,"ĠÎ»Î¯ÏģÎµÏĤ":9416,"ĠÎ±Î»Î»Î¬Î¾Ïī":9417,"ÎłÎ±Î½":9418,"ÎºÎ¿ÏįÎ½":9419,"ĠÏĥÏĦÎ·Î½Î±":9420,"ĠÎ´ÏħÏĥÎ±":9421,"Î³Î¹ÏĮ":9422,"ĠÎºÎ¿ÏħÎ¼ÏĢÎ¬":9423,"ĠÎĵÏģÎ®Î³Î¿ÏģÎ±":9424,"ĠÎºÏĮÏĪÎµÎ¹ÏĤ":9425,"ĠÏĢÏĮÏĥÎµÏĤ":9426,"ĠÎ±Î³Î±Î½Î¬":9427,"ÏįÏģÎ¹Î¿ÏĤ":9428,"Î¿ÏĥÎ¹":9429,"ĠÎ±ÏģÏģÏī":9430,"ĠÎ±ÏģÏĢÎ¬":9431,"ĠÎ±ÏģÎ»ÎµÎºÎ¯Î½":9432,"ĠÏĢÎµÏģÎ¹ÏĢ":9433,"ĠÏĢÎµÏģÎ¹ÏĥÏĦÎµ":9434,"ĠÏĢÎµÏģÎ¹ÂµÎŃÎ½":9435,"ĠÏĢÎµÏģÎ¹ÏĦÏģÎ¹Î³Ïħ":9436,"ĠÏĢÎ±ÏģÎ±Âµ":9437,"ÏģÎ¿ÏįÏĥÎ±":9438,"ĠÏĥÏħÎ½ÏĮ":9439,"ĠÏĥÏħÎ½ÎµÎ¹Î´Î·":9440,"Î»Î¯ÏĥÎµÎ¹":9441,"Î¼Î®Î¼Î±ÏĦÎ±":9442,"ĠÏĦÎµÏĩÎ½Î¯":9443,"ĠÎ³ÎµÏģÎ¬ÏĥÎµÎ¹":9444,"ĠÎºÏħÎ»Î¹":9445,"ĠÎºÏħÏĢÎ±":9446,"ÎŃÏĥÏĦÎ·ÏĤ":9447,"ĠÎºÎ±ÏĦÎ±ÏĨÏį":9448,"Î¬ÏĥÏĢ":9449,"ĠÎ±Î½Î±ÏĨÎ¹":9450,"ĠÎ±Î½Î±Î¼Î¼ÎŃÎ½Î±":9451,"ĠÎ±Î½Î±ÎºÎ¿ÏħÏĨÎ¹":9452,"Î³Î±Î½Î¬":9453,"ĠÎĴÏĮ":9454,"ĠÎĴÎ¬Î½Î±":9455,"ĠÎĿÎµÏģÎ¬":9456,"ĠÎ´Î¹Î±Î¼ÎŃÏģÎ¹":9457,"ĠÎ´Î¹Î±Î´ÏģÏĮ":9458,"ĠÎºÎ±ÏĦÎ¬ÎºÎ¿ÏĢ":9459,"Î´Î¯ÏĢÎ»Î±":9460,"ĠÎ¾Î±Î½Î¸Î¬":9461,"ÎĪÏĢ":9462,"ĠÎ±ÏĢÎ¿Î´ÎµÎ¯":9463,"ĠÎ±ÏĢÎ¿Î»Î±Ïį":9464,"ĠÎ±ÏĢÎ¿Î³Î¿Î®ÏĦÎµÏħ":9465,"ĠÎ¹ÎµÏģÎŃ":9466,"ĠÎķÎ¯ÏĢÎ±Î½":9467,"ÏĥÏĦÎ±ÏĥÎµ":9468,"Î²Î¬ÎºÎ¹Î±":9469,"Î²Î¬ÏĦÎµÏĤ":9470,"ÏĦÏģÎ±ÏĢÎŃ":9471,"ĠÏĨÎ¯Î»Îµ":9472,"ĠÏĨÎ±ÏĥÏĮÎ»Î¹":9473,"ĠÎµÏĢÎ¹Î²Î»Î·":9474,"ĠÎīÏģÎ±":9475,"ĠÎīÏģÎ¸Î±Î½":9476,"ĠÎ¯Î¿Ïħ":9477,"ÎĿÎĳÎĻ":9478,"Î¿ÏĩÏİ":9479,"ĠÎĨÎ´Î·":9480,"ĠÎĨÏģÏĩÎ¹ÏĥÎ±Î½":9481,"ÎŃÏĨÏĦÎ±":9482,"ÎŃÏĨÏħÎ³Îµ":9483,"ÏĥÎºÎ¯":9484,"Î»ÏīÎ¼ÎŃÎ½Î±":9485,"Î´ÏħÎ¼Î±":9486,"ĠÏĦÎ¯ÏĦ":9487,"ÏģÏĮÎ½ÏīÏĤ":9488,"ÏģÎ±Î½Î¯Î±":9489,"ĠÎ²Î¬ÏĥÎ·":9490,"ÏģÎ¸Î±":9491,"ĠÎ´ÏįÏĥÎºÎ¿Î»Î±":9492,"ĠÎ±Î¼ÏĨÎ¿Ïģ":9493,"ĠÏĢÏģÏĮÎ¸Ïħ":9494,"Î³ÎµÎ¹Î¿":9495,"ĠÎ±ÏħÏĦÎ®ÏĤ":9496,"ĠÎĽÏħ":9497,"ĠÎĽÎµÎ¹":9498,"ĠÎļÎ±ÏĢÎµ":9499,"ĠÎļÎ±Î»ÏįÏĦÎµÏģÎ±":9500,"ĠÎļÎ±ÏĦÎŃÎ²Î·ÎºÎµ":9501,"ĠÎļÎ±Î¿ÏĢÎ¯":9502,"Î½Î¬ÏģÎ¹":9503,"ĠÎ¼ÎµÏĦÎ¬Î½Î¹":9504,"ĠÏĢÎ±Î½Î¹Î¬":9505,"ĠÏĢÎ±Î½Î·Î³":9506,"ĠÎ¼ÏĢÎ±ÏĥÏĦ":9507,"ĠÎ¼ÏĢÎ±Î¯Î½ÎµÎ¹":9508,"Î»Î±Î½ÏĦÎ±":9509,"Î¸Î®Î¼Î±ÏĦÎ±":9510,"ÏģÏħÏĥÏĦÎ¬":9511,"Î¹ÏĥÎ¼ÏĮÏĤ":9512,"ĠÏĥÏĩÎ·":9513,"ĠÏĥÏĩÎ¿Î¹Î½Î¹Î¬":9514,"ĠÎ²Î¿ÏĦÎ¬Î½Î¹":9515,"ĠÎµÏħÏĩÎ¬ÏģÎ¹":9516,"ĠÎ»Î¹ÏİÎ½ÎµÎ¹":9517,"ĠÏĢÏģÎ¬Î¼Î±":9518,"ĠÎ²Î»ÎŃÏĢÎ¿Ïħ":9519,"ĠÏīÏĥÏĦÏĮÏĥÎ¿":9520,"ĠÎºÏģÎ±ÏħÎ³Î®":9521,"ĠÏĢÎµÏģÎ¯ÏĢÎ±":9522,"ĠÏĢÎµÏģÎ¯ÏĢÎ¿Ïħ":9523,"ĠÏĢÎµÏģÎ¯ÂµÎµÎ½Îµ":9524,"ĠÏĨÎ¿ÏģÎµ":9525,"ĠÏĨÎ¿ÏģÎ¿ÏįÏĥÎ±Î½":9526,"Î´Î¿Î¼ÎµÎ½":9527,"ĠÎ¼Î±Î¼Î¬Î´ÎµÏĤ":9528,"ĠÎ¦Î¬":9529,"ĠÏĥÎ±ÏĥÏĦÎ¹":9530,"ĠÎ±ÏĢÎ¿ÏĨÎ¬":9531,"ÎľÎ±ÎĲÏĥÏĦÏģÎ¿":9532,"ĠÏĢÎŃÏģÎ±ÏĥÎ¼Î±":9533,"ĠÏĢÏģÎ¿Î¿":9534,"ĠÎ´Î¹ÏĪÎ¬":9535,"ĠÎ³Î¯Î½ÎµÏĦÎµ":9536,"ĠÎŃÎ²Î±Î¶Î±Î½":9537,"ĠÏĥÎºÎŃÏĨÏĦÎ·ÎºÎ±Î½":9538,"ĠÎ³Î±Î»Î¿ÏĢÎ¿ÏįÎ»Î±":9539,"ĠÎ³Î±ÏįÎ³Î¹ÏĥÎ¼Î±":9540,"Î¯ÏĦÏĥÎµÏĤ":9541,"ĠÎ¼Î¹ÎºÏģÎ®ÏĤ":9542,"ÎµÏģÎ¼Î±Î½":9543,"ĠÏĪÎ·ÏĨÎ¯":9544,"ĠÎ¼Î¹Î»Î¿Ïį":9545,"ĠÎ¬Î½Î¿Î¹Î³Îµ":9546,"ĠÎ³Î¬Î¹Î´Î±":9547,"ĠÂµÎ±Î»Î»Î¹Î¬":9548,"ÎĽÎ¬Î¶Î±":9549,"ĠÎ±Î»ÎµÏĢÎ¿ÏįÏĤ":9550,"ĠÏĢÏģÎ±Î³Î¼Î±ÏĦÎ¹ÎºÏĮÏĤ":9551,"ÂµÎµÎ³Î¬":9552,"ÏĥÏĦÎµÎ¯ÏĦÎµ":9553,"Î²Î¿Î·":9554,"ĠÎ¯Î´Î¹ÎµÏĤ":9555,"ÎĺÎ±Î½Î±ÏĥÎ¬":9556,"ÏĨÏħÎ»Î±":9557,"ÏĨÏħÎ³Î±Î½":9558,"ÏĨÏħÎ»Î»Î¿":9559,"ĠÎ³Î¿Î½Î¬":9560,"ĠÎ³ÏįÏģÏīÎ³ÏįÏģÏī":9561,"ĠÎŃÎ»Î±Î¼":9562,"ÏĢÎ¿ÏģÏĦÎ¿":9563,"ĠÎ´Î¹Î¬Î»Îµ":9564,"ĠÎ´Î¹Î¬Î¸ÎµÏĥÎ·":9565,"ĠÎ¼Î±Î³ÎµÎ¯Î±":9566,"ĠÎ¶Î·ÏĦÏİ":9567,"ĠÎ¶Î·ÏĦÎ®ÏĥÎµÎ¹ÏĤ":9568,"ÏĨÎ¿ÏģÎ·":9569,"ĠÎŃÎ²Î»ÎµÏĢÎ±":9570,"ĠÎŃÎ²Î»ÎµÏĢÎµÏĤ":9571,"ĠÏĥÏĦÎµÎ³":9572,"ĠÏĩÎ¿ÏģÎµ":9573,"ĠÏħÏĢÎ½Ïī":9574,"ĠÏĩÎ¹ÏĮÎ½Î¹Î±":9575,"ĠÎĻÎ´Î¿Î¼ÎµÎ½":9576,"ĠÏĦÎŃÎ»ÎµÎ¹Î±":9577,"ĠÎ´Î¬Î³Îº":9578,"ÂµÎ¬ÏĦÎ·ÏĤ":9579,"ĠÎ±ÏĨÎ®ÏĥÎ¿ÏħÎ½":9580,"ĠÎłÎ±ÏĢÎ¿Ïħ":9581,"ĠÎµÏħÏī":9582,"ĠÎŀÎŃÏģÎµÎ¹ÏĤ":9583,"ĠÎ¸ÎµÏĮÏģÎ±":9584,"ĠÎ¼Î®Î½Î±":9585,"Î¥ÏĢÎ¬ÏģÏĩÎ¿ÏħÎ½":9586,"ĠÎ¹ÏĥÏĦÎ¿ÏģÎ¯Î±ÏĤ":9587,"ĠÎºÎ»ÎµÎ¹ÏĥÏĦÏĮ":9588,"ĠÎºÎ»ÎµÎ¹Î´Î¿Ïį":9589,"ĠÏĨÎ¿Î²ÏĮÎ½ÏĦÎ¿ÏħÏĥÎ±Î½":9590,"ĠÏĨÎ¿Î²Î¿ÏįÎ½ÏĦÎ±Î¹":9591,"ĠÏĨÎ¿Î²Î¹ÏĥÎ¼ÎŃÎ½Î±":9592,"ĠÏĢÎµÏĦÎ¬ÏĤ":9593,"ĠÏĢÎµÏĦÎ¬Î½Îµ":9594,"ÎºÏģÏħÎ±":9595,"ĠÏĥÎºÏįÎ»Î¿Ïħ":9596,"Î§Î¼Î¼Î¼":9597,"ĠÎºÏħÏģÎĽÎ¬Î¶Î±":9598,"ÎĨÎ½ÏĦÎµ":9599,"Î¾ÎµÎ½Î¿":9600,"ĠÎ½ÏĮÎ¼Î¹ÏĥÎµ":9601,"ÏĥÏĦÎ¿ÏģÎ±ÏĤ":9602,"ĠÎµÎ¯Î´Î¿ÏħÏĤ":9603,"ĠÏģÎ¯Î¶Î±":9604,"ÏĥÎ¬ÎºÎ±Î»Îµ":9605,"ĠÎ³Î¿ÏħÏģÎ»":9606,"ĠÏĢÏħÏģÎ¿":9607,"ĠÎ±Î½ÏĦÎ¯ÎºÏģÎ¹ÏĥÎ±Î½":9608,"ĠÏĮÎ½Î¿ÂµÎ±":9609,"Î¸Î¬ÏģÎ±":9610,"ĠÎ²Î¿Î·Î¸Î®ÏĥÎ¿ÏħÎ¼Îµ":9611,"Î¯Î½Î±Î¼Îµ":9612,"ĠÎ²Î¹Î²Î»Î¹Î¿":9613,"ĠÏĦÏģÏİÏī":9614,"ĠÎ¾ÏįÏĢÎ½Î¹":9615,"ĠÏĥÎ·Î¼ÎµÎ¯":9616,"ĠÎºÏįÎ»Î·ÏĥÎµ":9617,"ĠÎ±Î½ÎŃÎ²ÎµÎ¹":9618,"ĠÎ±Î½ÎŃÎ²Î±Î¹Î½Î±Î½":9619,"ĠÏĥÎºÏħÎ¸ÏģÏī":9620,"ĠÏģÎ¬ÏĨÎ¹Î±":9621,"ĠÎºÎ±ÏĦÎŃÎ²Î±Î¹Î½Î±Î½":9622,"ÎºÎ¿ÏħÎ²Î¬Î³Î¹":9623,"ĠÏĢÎ»Î±Î³Î¹Î¬":9624,"ĠÏģÏīÏĦÎ¬ÎµÎ¹":9625,"ĠÏĦÏħÎ»Î¹Î³":9626,"ĠÏĢÎ»Î·ÏĥÎ¯Î±Î¶Î±Î½":9627,"ĠÎ±Î½ÏĦÎ¹Î»ÏĮ":9628,"ĠÎ¿Î´Î·Î³Î®ÏĥÎµÎ¹":9629,"ĠÎĴÎ±ÏĥÎ¯Î»Î¹ÏĥÏĥÎ±":9630,"Î¿ÏħÎ¸ÎµÎ½Î¬":9631,"ĠÎ±Î²Î¬Ïĥ":9632,"ĠÎ¼ÏĢÎ¿ÏħÎºÎ¹Î¬":9633,"ĠÎ»ÏħÏĢÎ·ÂµÎŃÎ½Î¿":9634,"ĠÎºÎ¿ÏįÎºÎ»Î±":9635,"ĠÎºÎ¿ÏįÎºÎ»ÎµÏĤ":9636,"ĠÏĢÎµÎ½Î®Î½ÏĦÎ±":9637,"ĠÎ²ÏģÎ±Ïĩ":9638,"ĠÏĩÎ±Î¼Î¿Î³ÎµÎ»Î¬":9639,"ĠÏĦÏģÎµÎ»Î®":9640,"ĠÎ±ÏģÎºÎ¿ÏįÎ´Î±ÏĤ":9641,"ĠÎ¸Î·Î»Ïħ":9642,"ĠÏħÏĢÎ¿Î´ÎŃÏĩÏĦÎ·ÎºÎµ":9643,"ĠÎĽÎ¯Î¶Î±":9644,"ĠÏĩÎ±ÏģÎµÎ¯":9645,"ĠÎ´Î¹Î±ÏĨÎ¿ÏģÎµÏĦÎ¹ÎºÎ®":9646,"ĠÏĥÏįÎ¶Ïħ":9647,"ĠÏĩÎµÏģÎ¬ÎºÎ¹":9648,"ĠÏĩÎµÏģÎ¬ÎºÎ¹Î±":9649,"ĠÏĥÏĩÎŃÏĥÎ·":9650,"ĠÎºÏģÎŃÎ±ÏĦÎ±":9651,"ĠÏĥÎ¿ÏĨÎ¯Î±":9652,"ĠÏĥÎºÎ¬Î»ÎµÏĤ":9653,"ĠÎ²ÏģÎ¿ÏĩÎ®ÏĤ":9654,"ĠÎºÎ±ÏĦÎ±ÏĨÎŃÏģÎ¿ÏħÎ½":9655,"ĠÏĥÏħÎ³ÎºÎµÎºÏģÎ¹":9656,"ĠÏĦÏģÏħÏĢ":9657,"ĠÏĥÏĢÎ¬Î½Î¹Î¿":9658,"ĠÎºÏħÏģÎ¬ÎľÎ±":9659,"ĠÎµÏĢÎ¹ÎºÏģÎ±ÏĦÎ¿ÏįÏĥÎµ":9660,"ĠÏĥÎ¿ÎºÎ¿Î»Î±":9661,"ĠÎ²Î¿ÏħÏĦÎ¹Î¬":9662,"ĠÎ®ÏĥÏħÏĩÎ·":9663,"ĠÎ®ÏĥÏħÏĩÎ¿ÏĤ":9664,"ĠÏħÏĢÎ·ÏģÎµ":9665,"ÎłÎ±ÏģÎ¬":9666,"ĠÏĨÎ±Î½ÏĦÎ±ÏĥÎ¯Î±":9667,"ĠÎ±ÏĥÏĦÎµÏģÎ¿":9668,"Î¸Î±Î½Î±Î½":9669,"ÏĨÏĦÎ±ÏĥÎµ":9670,"ĠÎ¿ÏģÎ³Î±Î½":9671,"ĠÎºÎ±ÏĢÎŃÎ»Î±":9672,"ĠÏĢÏģÎ¬ÏĥÎ¹Î½Î·":9673,"ĠÎŃÎ¼Î±Î¸Î±":9674,"ĠÏĥÏĦÎ±Î¼Î±ÏĦÎ¿ÏįÏĥÎµ":9675,"ĠÏĢÎµÏģÎ¯ÎµÏģÎ³Î·":9676,"ĠÏĢÏģÎ¿ÏĩÏİÏģÎ·ÏĥÎµ":9677,"ĠÏĦÎ¿Î¯ÏĩÎ¿ÏħÏĤ":9678,"ĠÎĳÎ»Î®Î¸ÎµÎ¹Î±":9679,"ĠÎ±ÏģÏĩÎ·Î³ÏĮ":9680,"ĠÎ²Î¿Î·Î¸Î¿ÏįÏĤ":9681,"ĠÏĥÎºÎ¿ÏĦÎµÎ¹Î½Î®":9682,"Î»Î¹ÎºÏĮÏĤ":9683,"Î¿Î»Î¿Î³Î®ÏĥÎµÎ¹":9684,"ĠÎłÎ¬Ïī":9685,"ĠÎłÎ¬Î»Î¹":9686,"ĠÎ±ÎºÎ¿ÏħÏĥÏĦÎµÎ¯":9687,"ĠÎ¾Î¬ÏĢÎ»ÏīÏĥÎ±Î½":9688,"ĠÎ´Î¿ÎºÎ¹Î¼Î¬ÏĥÎ¿ÏħÎ½":9689,"Î´ÏįÎ½Î±":9690,"ĠÎ±ÏĢÎ±Î½ÏĦÎ®ÏĥÎµÎ¹ÏĤ":9691,"ĠÎºÏħÏģÎ¯ÎµÏĤ":9692,"ĠÎ±Î¹ÏĥÎ¸Î±Î½ÏĮÏĦÎ±Î½":9693,"ĠÎ±Î³Î¿ÏģÎ¬ÏĥÎ¿ÏħÎ½":9694,"ĠÎ³ÎµÎ¹ÏĦÎ¿Î½Î¹Î¬ÏĤ":9695,"ĠÏĩÎ¿ÏģÏĮÏĤ":9696,"ĠÎµÏħÏĩÎ±ÏģÎ¹ÏĥÏĦÎ·Î¼ÎŃÎ½Î¿Î¹":9697,"ĠÎ¼ÏĢÏĮÏģÎµÏĥÎ±Î½":9698,"ĠÎ³ÎµÏīÎ³ÏģÎ±ÏĨ":9699,"ĠÎ§ÏģÏħÏĥÎ±ÏĨÎ®":9700,"ĠÎ±Î»Î·Î¸Î¹Î½Î¬":9701,"ĠÏĨÏģÎ¿Î½ÏĦÎ¯Î´Î±":9702,"ĠÎ´ÏħÏĥÎºÎ¿Î»ÎµÏį":9703,"ĠÎ´ÏģÎ¿ÏĥÎµÏģÏĮ":9704,"ĠÎºÎ±ÏĨÎµÎ½":9705,"ĠÎºÎ¿ÏħÎ²Î±Î»ÏİÎ½ÏĦÎ±ÏĤ":9706,"ĠÏĢÎ±ÏģÎ±ÎºÎ¿Î»Î¿ÏħÎ¸Î®":9707,"ĠÎºÏįÎºÎ½Î¿ÏĤ":9708,"ĠÎŃÎ¾ÏħÏĢÎ½Î·":9709,"ĠÎ¶ÏīÎ½ÏĦÎ±Î½ÏĮÏĤ":9710,"ĠÎ±ÎµÏģÎ¿ÏĢÎ»Î¬Î½Î±":9711,"ĠÎ³ÏīÎ½Î¯ÏĦÏĥÎ±":9712,"Î¿ÏĨÎ¬ÏĥÎ¹ÏĥÎµ":9713,"ĠÎŃÏĥÎºÎ±ÏĥÎµ":9714,"Î»ÏįÏĦÎµÏģÎ·":9715,"ĠÎ²ÏģÎ¿ÏįÎ½Îµ":9716,"ĠÎ¾ÎµÎºÎ¿ÏħÏģÎ±ÏĥÏĦÎ¿ÏįÎ½":9717,"ĠÎ¼Î±Î¶ÎµÏįÎ¿Î½ÏĦÎ±Î½":9718,"ĠÎ¿Î½ÎµÎ¹ÏģÎµÏħÏĮÏĦÎ±Î½":9719,"ĠÎ³ÏħÎ±Î»Î¹ÏĥÏĦÎµ":9720,"ĠÎ¦Î±Î»Î±Î¹Î½":9721,"ĠÏĦÏģÎ¿Î¼ÎµÏģÎ¬":9722,"ĠÏĨÎµÏįÎ³Î¿ÏħÎ½":9723,"ĠÎ¸Î±ÏħÎ¼Î¬ÏĥÎµÎ¹":9724,"ĠÎºÎµÎ»Î¬Î·":9725,"ĠÎ¸ÏħÎ¼Î¬Î¼Î±Î¹":9726,"ĠÎĸÎ®ÏĦÎ·ÏĥÎµ":9727,"ĠÎŃÎ³Î½ÎµÏĪÎµ":9728,"ĠÎ¾Î±Î´ÎŃÏģ":9729,"ĠÏĩÎ±Î¯ÏģÎµ":9730,"ĠÎµÎ½Î¿ÏĩÎ»Î·":9731,"ĠÎ´Î¬ÏĥÎºÎ±Î»ÏĮ":9732,"ĠÎĨÎºÎ¿ÏħÏĥÎ¿Î½":9733,"ĠÎ±ÏĩÏħÏģÏİ":9734,"ĠÎ±Î¾Î¯Î¶Î¿ÏħÎ½":9735,"ĠÎŃÎ³ÏģÎ±ÏĪÎµ":9736,"ĠÎ¸ÏħÎ¼ÏīÎ¼ÎŃÎ½Î±":9737,"ĠÎ¸ÏħÎ¼ÏīÎ¼ÎŃÎ½Î·":9738,"ĠÏĦÏģÎ±Î³Î¿ÏħÎ´Î¿ÏįÎ½":9739,"ĠÏĥÏĦÎµÎ½Î¿ÏĩÏīÏģÎ¹":9740,"000":9741,"ĠÎºÎ±Î»ÎŃÏĥÎµÎ¹":9742,"ĠÏĥÏĦÎ¿Î»Î¹ÏĥÎ¼ÎŃÎ½Î¿":9743,"ĠÏĢÎ±Î³ÏİÎ½Î¹":9744,"ĠÎ²Î±ÏģÎ¹ÏĮÏĦÎ±Î½":9745,"ĠÎĪÏĢÎ¹Î±ÏĥÎµ":9746,"ĠÎ±ÏģÏģÏİÏĥÏĦÎ·ÏĥÎµ":9747,"ĠÏĢÏģÎ¿ÏĥÎŃÏĩÎµÎ¹":9748,"ĠÏĦÏģÎ±ÏĢÎµÎ¶Î±":9749,"ĠÎºÎ¯Î½Î´ÏħÎ½Î¿ÏĤ":9750,"ĠÏĨÎ¿ÏįÏģÎ½":9751,"ĠÎ¸Î»Î¹Î¼Î¼ÎŃÎ½Î¿":9752,"ĠÎ¬Î½ÏĦÎµÏĩÎµ":9753,"ĠÎ´Î¬ÏĩÏĦÏħÎ»Î¿":9754,"ĠÏĮÏĥÎ¿Î¹":9755,"ĠÎºÎ±Î»Î±Î¼Î¬ÎºÎ¹":9756,"ĠÎºÎ±Î»Î±Î¼ÏĢÎ¿":9757,"ĠÎ¼Î¬Î³Î¿ÏħÎ»Î¿":9758,"ĠÏĥÏįÎ¼ÏĨÏīÎ½Î±":9759,"ĠÎ±Î³Î³ÎµÎ¯Î¿":9760,"ĠÏĢÎµÏģÎ¹ÏĢÎŃÏĦÎµÎ¹Î±":9761,"ĠÎºÎ»ÎµÎ¹Î´Î±ÏģÎ¬ÏĤ":9762,"ĠÎķÏħÏģÏħÏĥÎ¸ÎŃÎ±":9763,"ĠÎ±ÏĢÎµÎ»ÏĢÎ¹ÏĥÎ¯Î±":9764,"ĠÏĦÏģÎ¿Î¼Î±Î³Î¼ÎŃÎ½Î±":9765,"ĠÏĢÏĮÎ½Î¿ÏĤ":9766,"ĠÎĳÎ¹Î³":9767,"ĠÏĥÏħÎ½Î·Î¸Î¹ÏĥÎ¼ÎŃÎ½Î·":9768,"ĠÎºÎ±Î»Î¿ÎºÎ±Î¹ÏģÎ¹Î¿Ïį":9769,"ĠÎ´Î±Î³ÎºÏİÏĥÎµÎ¹":9770,"ÏĢÎŃÏģÎ±ÏĥÎµ":9771,"ĠÎµÎ½Î·Î¼ÎŃÏģÏīÏĥÎµ":9772,"ĠÎŃÎ´ÎµÏĥÎ±Î½":9773,"ĠÎ¼ÎµÏĦÎ±Î½Î¿":9774,"ĠÎºÎ±ÏĢÎ½ÏĮÏĤ":9775,"ÂµÎ¿Î½Î®":9776,"ĠÏħÏĢÏĮÏĥÏĩÎ¿Î¼Î±Î¹":9777,"ĠÏĩÏĮÏģÎµÏĪÎµ":9778,"ÏĥÎºÏĮÎ»":9779,"ĠÏĥÎ²Ïİ":9780,"ĠÏĨÏĦÎ±Î¯ÎµÎ¹":9781,"ĠÎłÎµÏģÏĢÎ±":9782,"ĠÏĢÎ±ÏģÎ¬ÏĢÎ¿Î½Î¬":9783,"ĠÎŃÎºÏģÏħÎ²Îµ":9784,"ĠÎ»Î¹Î¼Î¬Î½Î¹":9785,"ĠÎ»ÎµÎ¼Î¿Î½Î¹ÎŃÏĤ":9786,"ĠÏĦÏħÏĨÎ»Î¿ÏĢÎ¿Î½":9787,"ĠÎ±ÏħÏĥÏĦÎ·ÏģÎ¬":9788,"ĠÏįÏĪÎ¿ÏĤ":9789,"ĠÎ±ÎµÏģÏĮÏĥÏĦÎ±ÏĦÎ¿Ïħ":9790,"ĠÎĻÏĥÎ¯Î´ÏīÏģÎ¿ÏĤ":9791,"ĠÎ³ÏģÎ¬ÏĨÎµÎ¹":9792,"ĠÎµÏĢÎ¹ÏĥÎºÎŃÏĢÏĦÎµÏĤ":9793,"Î¿ÏĮÎ¼Î¿ÏģÏĨÎ·":9794,"ĠÎºÎ±Î¼ÏĢÎ¯Î½Î±":9795,"ĠÎ±Î³ÎºÎ±Î»Î¯ÏĦÏĥÎ±":9796,"ĠÏĢÎ±ÏģÎ±Î¾ÎµÎ½ÎµÏįÏĦÎ·ÎºÎµ":9797,"ĠÎºÎ¿ÎºÎºÎ¹Î½":9798,"Î¬Î½Î¿Î¹Î¾Îµ":9799,"ĠÎºÎ±ÏĦÎ±ÎºÏĮÎºÎºÎ¹Î½Î¿":9800,"ĠÎ´Î¹Î±ÏĥÎºÎŃÎ´Î±Î¶Î±Î½":9801,"ĠÎĽÎµÎ¼Î¿Î½Î¿Î´Î¬Ïĥ":9802,"ĠÏĥÎºÎµÏĢÏĦÎ¹ÎºÏĮÏĤ":9803,"ĠÎ±ÎµÏĦÏĮÏĢÎ¿ÏħÎ»Î±":9804,"ĠÏĢÏģÎ¯Î³ÎºÎ¹ÏĢÎ¬":9805,"ĠÎ½ÏĦÏįÎ¸Î·ÎºÎµ":9806,"ĠÎºÎ±Î¼Î®Î»ÎµÏĤ":9807,"ĠÎºÎ¿ÏģÎ´ÎŃÎ»Î±":9808,"ÎĻÎļÎĳ":9809,"ĠÎµÎºÎ½ÎµÏħÏģÎ¹ÏĥÎ¼ÎŃÎ½Î¿ÏĤ":9810,"ĠÏĨÏħÎ»Î±ÎºÎ¹ÏĥÎ¼ÎŃÎ½Î·":9811,"ĠÏĩÎ¿ÏģÎ¿ÏĢÎ·Î´ÏİÎ½ÏĦÎ±ÏĤ":9812,"ÏģÎºÎµÎ¹Î±":9813,"ĠÏĨÎ»ÏĮÎ³Î±":9814,"ĠÎ¼ÎµÎ»ÏīÎ´Î¯Î±":9815,"ĠÎ±ÏģÎ³Î±Î»ÎµÎ¹ÏĮ":9816,"ĠÎ³ÎµÎ³Î¿Î½ÏĮÏĦÎ±":9817,"ĠÎĿÎµÏĨÎŃÎ»Î·":9818,"ĠÎµÎ¾Î·Î³Î®ÏĥÎµÎ¹":9819,"ĠÎ¼ÎµÏĦÎ±ÏĨÎŃÏģÎµÎ¹":9820,"ÏĥÏħÎ½ÎŃÏĩÎµÎ¹Î±":9821,"ĠÏĦÎ±Î¾Î¹Î´ÎŃÏĪÎµÎ¹":9822,"ĠÏĥÎºÎŃÏĢÎ±Î¶Îµ":9823,"ĠÎµÎ»ÎŃÏĨÎ±Î½ÏĦÎµÏĤ":9824,"ĠÎºÎ¿ÏĥÎ¼Î®Î¼Î±ÏĦÎ±":9825,"ĠÏĢÎ¿ÏģÏĦÎ¿ÎºÎ±Î»Î¹Î¬":9826,"ĠÎ±ÏĢÎ»ÏİÎ¸Î·ÎºÎµ":9827,"ĠÏĢÎµÎ»ÏİÏģÎ¹Î±":9828,"ÏĢÎ¹ÏĥÏĦÎ¿ÏĥÏįÎ½Î·":9829,"ĠÏĢÎµÏģÎ¹ÏĨÏģÎ¿Î½":9830,"ĠÎ¼ÏĢÎ±Î¼ÏĢÎ¿ÏįÎ»Î±ÏĤ":9831,"ĠÎ²ÎµÎ»Î±Î½Î¹Î´Î¹Î¬":9832,"ĠÎºÎ±Î¸Î·Î¼ÎµÏģÎ¹Î½Î¬":9833,"ĠÎ¸Î¬Î¼Î½Î¿ÏħÏĤ":9834,"ĠÎ±ÏĢÎŃÏģÎ±Î½ÏĦÎ·":9835,"ĠÎ½ÏįÏĨÎ·":9836,"ĠÂµÎŃÏĦÏģÎ±":9837,"ÏĢÎ¿Î´Î±ÏģÎ¿ÏįÏĥÎ±":9838,"ĠÎĴÎ¿ÏħÎ½Î¿ÏĢÎ»Î±Î³Î¹Î¬":9839,"ĠÎºÎ±Î½Î±ÏĢÎŃ":9840,"ĠÏĢÎ¯Î½Î±ÎºÎ±":9841,"ĠÎºÎ¿ÏģÎ¹ÏĦÏĥÎ¹Î¿Ïį":9842,"ĠÎºÎ¿ÏģÎ¹ÏĦÏĥÎ¹ÏİÎ½":9843,"ĠÎĻÎ¿ÏģÎ´Î¬Î½Î·":9844,"ĠÎĻÎ¿ÏģÎ´Î¬Î½Î·ÏĤ":9845,"ĠÏĢÏħÏģÎ±Î¼Î¯Î´Î±":9846,"ĠÎ±ÏĥÎ·Î¼ÎŃÎ½Î¹Î¿":9847,"ĠÎĳÏģÎ¹ÏĥÏĦÎ¿Î¼ÎŃÎ½Î·ÏĤ":9848,"ĠÎºÎŃÏģÎ´Î¹":9849,"ÏħÏĢÎ®ÏģÏĩÎ±Î½":9850,"ĠÏĦÎ¿ÏħÏģÎ¼ÏĢ":9851,"ĠÎ»Î¬ÏĥÏĢÎ·":9852,"Î¹ÏĥÏĦÎ¬Î½":9853,"ĠÎ¿ÏĢÎ¿Î¯Î¿Î¹":9854,"ĠÎ£ÏħÎ½ÎŃÏĩÎ¹ÏĥÎµ":9855,"ĠÎĳÎ»ÎŃÎ¾Î±Î½Î´ÏģÎ¿ÏĤ":9856,"ĠÎµÏĨÎ±ÏģÎ¼Î¿":9857,"ĠÎµÏģÎ·Î¼Î¯":9858,"ĠÏĩÏĦÎ¹ÏĥÎ¼ÎŃÎ½Î¿":9859,"ĠÏĢÎµÏģÎ·ÏĨÎ¬Î½Î¹Î±":9860,"ĠÏģÏħÎ¸Î¼ÏĮ":9861,"ĠÎ¼ÏĢÎ±Î»Îº":9862,"ĠÏĩÎµÎ¹ÂµÏİÎ½Î±":9863,"ĠÎĵÎ¹ÏİÏģÎ³Î¿ÏĤ":9864,"ÎĬÏĥÏīÏĤ":9865,"ÏħÏĢÏĮÎ»Î¿Î¹":9866,"ĠÎ²ÎŃÎ²Î±Î¹Î¿ÏĤ":9867,"ĠÏĢÎµÎ¶Î¿Î´ÏģÏĮÎ¼Î¹Î¿":9868,"ÏĮÏĥÏĢÎ¹ÏĦÎ¿":9869,"ĠÎĪÎ½Î¹ÏīÎ¸Îµ":9870,"ĠÎºÎ¿ÎºÎºÎ¯Î½":9871,"ĠÏĢÏģÎ¿ÏĦÎµÎ¯Î½Ïī":9872,"ĠÎ·ÏĥÏħÏĩÎ¬ÏĥÎµÎ¹":9873,"ĠÎµÎ¹ÎºÏĮÎ½ÎµÏĤ":9874,"ĠÏĦÎ¿Î¼ÎµÏĥÎ·":9875,"ĠÏĢÎ±Î»ÏĦÏĮ":9876,"ĠÎ±Î½Î¹ÏĪÎ¹Î¬":9877,"ĠÎķÏĢÎ¯ÏĥÎ·ÏĤ":9878,"ĠÎºÎµÏģÎ¬ÏĥÎ¹Î±":9879,"ĠÎ´Î¹ÎµÏħÎ¸ÏħÎ½ÏĦÎ®ÏĤ":9880,"ĠÎłÎ±ÏģÎ¬Î´ÎµÎ¹":9881,"ĠÏĥÏĢÎ¿ÏħÎ´Î¬ÏĥÎµÎ¹":9882,"ĠÎ´Î¿ÎºÎ¯Î¼Î±ÏĥÎµ":9883,"ĠÏĨÎ¿Î¹ÏĦÎ·ÏĦÎ®ÏĤ":9884,"ĠÎ¼Î±ÏĦÎ±Î¹ÏĮÎ´Î¿Î¾Î¿ÏĤ":9885,"ĠWik":9886,"ĠÏĨÎ»Î¿Î³ÎŃÏģÎ±":9887,"ĠÎ²Î¿ÏįÏĦÎ·Î¾Îµ":9888,"ĠÎļÎ¬Î½ÏĦÎµÎ»Îµ":9889,"ĠÎ±Î½Î±ÏĥÏĦÎµÎ½Î±Î³":9890,"ĠÎºÎ±Î»ÏīÏĥÏĮ":9891,"ĠÏĥÏĩÎ·Î¼Î±ÏĦÎ¯":9892,"ĠÎºÎ±ÏģÎ´ÎµÏģÎ¯":9893,"ĠÎ¦Î¯Î»Î±Î½":9894,"ĠÎĳÏĢÏĮÏĥÏĦÎ¿Î»Î¿ÏĤ":9895,"ĠÎ»ÏħÏĢÎ®Î¸Î·ÎºÎµ":9896,"ĠÎ³ÏģÎ±Î¼Î¼Î®":9897,"ĠÎºÏģÎŃÎ¼Î¿Î½ÏĦÎ±Î½":9898,"edia":9899,"ĠÏĦÏħÏĩÎ±Î¯Î±":9900,"ĠÎ±Î¸Î¬Î½Î±ÏĦÎ·":9901,"ĠÎ½Î¿ÏĥÏĦÎ±Î»Î³":9902,"ĠÏĥÏĦÎ¿Î¼Î¬ÏĩÎ¹":9903,"ĠÎļÏģÎ®ÏĦÎ·":9904,"ĠÂµÏĢÎ¬Î»Î±":9905,"ĠÎłÎĳÎĿÎ¤Îĳ":9906,"ĠÏĢÎµÏģÎ¹Î²ÏĮÎ»Î¹":9907,"ĠÏĢÎµÏģÎ¹ÎµÏģÎ³Î¬":9908,"ĠÏĥÏħÎ½ÎŃÎ»Î¸ÎµÎ¹":9909,"ĠÎ±Î¼Î¿Î¹Î²Î®":9910,"ĠÎ±Î¼ÏįÎ³Î´Î±Î»Î±":9911,"ĠÎ»Î¹ÂµÎ½Î¿ÏįÎ»Î±":9912,"ĠÎºÏģÏħÏĪÏİÎ½Î±":9913,"ĠÏĥÏīÎ»Î®Î½Î±":9914,"ĠÎŃÏĥÏĨÎ¹Î¾Îµ":9915,"ĠÎ±Î¹ÏĥÎ¹Î¿Î´Î¿Î¾Î¯Î±":9916,"ĠÎ¼ÎµÏĥÎ·Î¼ÎµÏģÎ¹Î±Î½ÏĮ":9917,"ĠÎºÎ±Î¸Î·Î³Î·ÏĦÎ®ÏĤ":9918,"ĠÏĪÎ¯ÏĩÎ¿ÏħÎ»Î±":9919,"ĠÎŃÂµÎ¿Î¹Î±Î¶Îµ":9920,"ĠÏĦÎ¶Î±ÎºÎ¹Î¿Ïį":9921,"ĠÎ¼Î¿ÏħÏĥÏĦÎ¬ÎºÎ¹Î±":9922,"ĠÎ²Î±ÏĦÏĮÎ¼Î¿ÏħÏģÎ±":9923,"ĠÎ£Î¹Î´ÎµÏģÎ¿Î¶Ïħ":9924,"ĠÎ»Î¯ÂµÎ½Î·":9925,"ĠÎµÏĢÎ¹Î»Î¿Î³Î®":9926,"ÏģÎ±Î½ÏĦÎ±ÏĢÎ¿Î´Î±ÏģÎ¿ÏįÏĥÎ±":9927,"Î»ÎµÏħÎ¸ÎŃÏģÏī":9928,"ĠÎ²Î±ÏĥÎ¯Î»Î¹ÏĥÏĥÎ¬":9929,"ÏĦÎ¿ÏĢÎ¿Î¯Î·ÏĥÎµ":9930,"ÎĨÎ½Î¿Î¹Î¾Îµ":9931,"ĠÎµÎ¹ÏģÏīÎ½Î¹ÎºÎ¬":9932,"ĠÎ²ÏģÎ±Î´Î¹Î½ÏĮ":9933,"ĠÎ²Î¹Î±ÏĥÏįÎ½Î·":9934,"ĠÏĢÎ¿Î½ÏĦÎ¹ÎºÎ¿Î¿Î¹ÎºÎ¿Î³ÎŃÎ½ÎµÎ¹Î±":9935,"ĠÎļÎ±ÏģÎ¼ÎµÎ»Î¯Î½Î±":9936,"ĠÏħÏĢÏĮÏĥÏĩÎµÏĥÎ·":9937,"ĠÎ±Î»Î±Î¶Î¿Î½":9938,"ipedia":9939,"Î»Î¸ÏĮÎ½":9940,"ĠÎºÏĦÎ·Î¼Î±ÏĦÎ¯Î±ÏĤ":9941,"ĠÎ½ÏīÏģÎ¯ÏĦÎµÏģÎ±":9942,"ĠÎ³ÏģÎ·Î³Î¿":9943,"ĠÎ¿Î¼ÏĢÏģÎŃ":9944,"ĠÎºÎ±Î²Î¬Î»Î±":9945,"ÎºÎ±ÏģÏĩÎ±ÏģÎ¯ÎµÏĤ":9946,"ĠÎļÎŃÏģÎ²Îµ":9947,"ĠÏĥÎ¿ÏħÏĥÎ¿ÏħÏģÎ¬":9948,"ĠÎ±Î³Î±Î½Î¬Îº":9949,"ĠÎ±Î½Î±ÏĨÎ¹Î»Î·ÏĦÎ¬":9950,"ĠÎ´Î¹Î±Î¼ÎŃÏģÎ¹ÏĥÎ¼Î±":9951,"ĠÎ²Î¹Î²Î»Î¹Î¿Î¸Î®ÎºÎ·":9952,"ĠWikipedia":9953,"ĠÎ£Î¹Î´ÎµÏģÎ¿Î¶ÏħÎ¼ÏİÎ½":9954,"en":9955,"ve":9956,"Î±Î¾":9957,"Î±Î»ÏĨ":9958,"Î¹Îµ":9959,"Î¹Ïī":9960,"Î¹ÏĥÏĦ":9961,"Î¹Î»Î¹Î¬Î´ÎµÏĤ":9962,"Î¹Î³ÎºÎ¿":9963,"Î¹ÏĦÏĤ":9964,"Î½Î¿ÏĢ":9965,"Î½Î¿ÏįÎ½":9966,"ÏĦÏİÏģÎ±":9967,"ÏĦÎ¿ÏĨ":9968,"ÏģÎ¼Î¬ÏĦÎ¹":9969,"ĠÏĦÎŃÏĩ":9970,"ĠÏĦÏģÎ±Î½":9971,"Î¬ÏĦÎ·":9972,"Î»Î¿ÏħÎ¼Îµ":9973,"Î»Î»Î¿Ïħ":9974,"Î»ÎµÎ¯Î¿":9975,"ÏĥÎ¬ÎºÎ¹":9976,"ÏĥÏįÏĩ":9977,"ÏĥÎ¹ÎºÎ®":9978,"ÏĥÂµÏĮ":9979,"Î·ÏĦÎ®":9980,"Î·Î¼ÎŃÎ½Î¿":9981,"Î¯ÏĥÎ±":9982,"Î¯ÏģÎ½":9983,"Î¯Î»Î¹Î±":9984,"Î¯Î¶Î¿Î½ÏĦÎ±Î¹":9985,"ĠÎºÏģÎ®":9986,"ĠÎºÏĦÎ·Î½":9987,"ĠÎºÎ¿ÏįÎ½Î¹":9988,"Î¿ÏħÎ»Î±":9989,"ÏĢÏĦÎµ":9990,"ÏĢÎ½Î¹":9991,"ÏĢÏģÎ±Î³Î¼Î±ÏĦÎ¹ÎºÎ¬":9992,"ÎºÏģÎµ":9993,"ÎºÏīÏĥÎµ":9994,"ÎºÎ»Î¿ÏħÎ²Î¯":9995,"ĠÏĢÏĦÎµ":9996,"ĠÏĢÏģÎ¯":9997,"ĠÏĢÏĮÏĥÎ·":9998,"ÏĮÏģÎ·":9999,"Î¼Î¿ÏįÏĥÎ±Î½":10000,"Î¼Î¿ÏįÎ½":10001,"ÎŃÎ¾":10002,"ÎŃÏĢÎµ":10003,"ÎŃÏĥÏĦ":10004,"ÎŃÎ³Î¹Î½Îµ":10005,"Î±Î¹Î½Î¿":10006,"Î±Î¹Î´Î¯":10007,"ĠÎ¼Î½Î·":10008,"ĠÎ¼Î¿ÏģÏĨ":10009,"ĠÏĥÎ¬Î½":10010,"ĠÏĥÎµÎ¹ÏĤ":10011,"ĠÎ±Î¯Î½Î¹":10012,"ĠÎ±Î»Î¬ÏĦÎ¹":10013,"ĠÎ±ÏĦÎŃÎ»ÎµÎ¹Ïī":10014,"Î³ÎºÎ¿Ïħ":10015,"Î³Î¿Î½ÏĦÎ¬ÏĤ":10016,"Î±Î½Î®":10017,"Î±Î½Î¿ÏįÏĤ":10018,"Î±Î½Î¯Î»Î¹Î±":10019,"ÏīÏĨÎ¿Ïģ":10020,"ÏħÏģÎ¿ÏĤ":10021,"ÏħÏģÎ¯Î¶ÎµÎ¹":10022,"ÎµÎ¹Î´Î®":10023,"ĠÎµÏĨ":10024,"ĠÎµÏĢÎµ":10025,"ĠÎµÎ³Ïī":10026,"ĠÎµÎ³ÎºÎ±":10027,"ÏĩÎ»Î·":10028,"ÏĩÏģÎ¿Î½":10029,"ÏĩÏĦÏİ":10030,"ÏĩÏĦÎµÏģÏĮ":10031,"Î®Î²Î±":10032,"Î®Î¼Î±ÏĦÎ±":10033,"ĠÏĦÎ¿Î½Î±":10034,"ĠÏĦÎ¿ÎºÎ±":10035,"ĠÎŃÏģÎ±":10036,"ĠÎŃÎ½Ïī":10037,"ĠÎŃÎ¸Î±":10038,"ĠÎŃÏģÎ³Î¿":10039,"ĠÎŃÏĥÎºÏħ":10040,"ĠÎŃÂµÎµÎ½Îµ":10041,"Î´Î¿Î¹":10042,"Î´ÏİÏĤ":10043,"Î´ÏģÎ¿Ïĥ":10044,"Î´ÏįÎ½":10045,"Î´ÎŃÏĪÎµÎ¹":10046,"ĠÎ½Î±ÎºÎ¬Î½":10047,"Î¸ÎŃÏĤ":10048,"Î¿ÏįÎ»Î·":10049,"Î¿ÏįÏģÎ¹Î¶Îµ":10050,"ÏĦÎ±Î¾Î¯":10051,"ÏĦÎ±Î³ÎŃÏĤ":10052,"ÏİÏĦÎµÏĤ":10053,"ÏįÎ¿Î½ÏĦÎ±Î½":10054,"ÏįÏģÎ¿Ïħ":10055,"ÏįÎ¸Î¹Î±":10056,"ÏĨÎŃ":10057,"Î½Î±ÏĩÏī":10058,"ĠÏĥÏĦÏģÎ¿Ïħ":10059,"ÏģÎ¹ÎºÎ±":10060,"ÏģÎ¹Î¿ÏħÏĤ":10061,"ÏģÎ¹Î¶ÏĮÏĦÎ±Î½":10062,"ĠÎµÎ¯Î½":10063,"ĠÎ¿ÏĦÎ¹":10064,"ĠÎ¿ÂµÎ¿ÏģÏĨÎ¹Î¬":10065,"ÏĦÎµÏįÎ¿ÏħÎ½":10066,"ĠÏĮÏĢÎ»Î±":10067,"ĠÎ±ÏĢÎ»ÏİÎ½":10068,"ĠÏĨÏĦÏİ":10069,"ÏĦÎ¹ÎŃÏĤ":10070,"ÏĦÎ¹ÏĥÏĥÎ±":10071,"ĠÏĦÎ±Î¼ÏĢ":10072,"ĠÏĦÎ±Î¯ÏģÎ¹Î±":10073,"ĠÎ¼ÎµÏĤ":10074,"Î²Ïħ":10075,"Î²Î¿Î½ÏĦÎ±ÏĤ":10076,"ÏģÎ¬ÏĨ":10077,"ĠÎ²Î±Î½Î¯Î»Î¹Î±":10078,"ĠÎºÎ±Âµ":10079,"ĠÎºÎ±ÏĥÎºÏĮÎ»":10080,"Î¿Î½Î´":10081,"Î»Î±Î´Î¯":10082,"Î»Î±Î²ÎµÏĤ":10083,"ÏĦÎ¬ÏģÎ±":10084,"ÎµÎ¯Î´Îµ":10085,"ÎµÎ¯Î½ÎµÎ¹":10086,"ÏĦÎ·ÏĦÎ±ÏĤ":10087,"ÏĦÎ·ÂµÎ±":10088,"ÏĦÎ·ÏĦÎµÏĤ":10089,"Î»Î¹Î¿Ïħ":10090,"Î»Î¹Î½Î±":10091,"Î»Î¹ÎºÎ±":10092,"Î»Î¹Î¶Îµ":10093,"Î¼Î±ÏĦÎ¿":10094,"ĠÎ¸ÎŃÏģÎ¹":10095,"ÂµÎ¹Îº":10096,"ÂµÏĢÎ¹":10097,"ĠÎ¬ÏĥÎµ":10098,"ĠÎ¬Î³Î±":10099,"ĠÎ¬ÏĨÎ±Î½":10100,"Î»Î¬Î½Î¹":10101,"Î»Î¬ÎºÎ·ÏĤ":10102,"ĠÏĦÎ·Î½ÎºÎ±":10103,"ĠÎ±ÏĢÏĮÏģÎ·ÏĥÎµ":10104,"ĠÎ±ÏĢÏĮÎ³Î¿Î½":10105,"ĠÎ®ÏĥÎ±Î½":10106,"ĠÎ®ÏĩÎ¿ÏħÏĤ":10107,"ĠÎ³Î¹Î±ÏĦÏģÎŃ":10108,"ÎŃÎ½ÏĦÏģÏī":10109,"Î¬Î½Î¿Î½ÏĦÎ±ÏĤ":10110,"ÏĥÎ±ÏĤ":10111,"ÎºÎ¹Î½Î®":10112,"ÏĥÎ¹Î¿ÏĤ":10113,"ĠÏĢÎ±Î»Î±Î¹":10114,"ĠÏĢÎ±Î³ÏīÎ½":10115,"ÏģÎ¯ÏĥÎ¹":10116,"ÏģÎ¯ÎºÎ¹Î±":10117,"ÏģÎ¯Î±ÏĤ":10118,"ÏģÎ¯ÏĥÎº":10119,"ĠÎŃÎ½Î±ÎŃÎ½Î±":10120,"ÏĢÎµÏĦÏģÎµÏĤ":10121,"ĠÎ´ÎµÎ½Î®":10122,"ÏĥÏĦÏİÎ½":10123,"ÏģÎµÏĦÎ¬":10124,"ÏģÎµÏĪÎ±Î½":10125,"ÏģÎµÏįÎ¿ÏħÎ½":10126,"ÏģÎµÏĨÏĦÎ¯":10127,"ĠÎ¤ÏģÎ¿":10128,"ĠÎ¤Î¶Î±":10129,"âĢĶ":10130,"Î¼ÎµÏĦÎ±":10131,"ÏģÎ¿ÎºÏĮ":10132,"ĠÎºÎ¬ÎºÎ¿Ïħ":10133,"ĠÎºÎ¬Î»Ïħ":10134,"ĠÎºÎ¬Î¼ÎµÎ¹":10135,"ĠÎºÎ¬ÏĥÏĦÎ±Î½":10136,"ĠÎºÎ¬Î³ÎºÎµÎ»Î±":10137,"ÏĮÎ½Î·ÏĤ":10138,"ĠÎ¼ÎŃÏĥ":10139,"ĠÎ¼ÎŃÏģÎ¼Î·":10140,"ĠÎ¼ÏĢÏī":10141,"ĠÎ¼ÏĢÎ¿Î³":10142,"ĠÎ¼ÏĢÎ¬Ïģ":10143,"ĠÎĳÏģÎ¹Î¬":10144,"ĠÏĢÎµÎ´Î¹Î¬":10145,"ĠÏĢÎµÎ¸Î±":10146,"ĠÏĢÎµÏĦÏģÎ¬":10147,"ĠÏĢÎµÏĦÏİÎ½ÏĦÎ±ÏĤ":10148,"ĠÏĢÎµÏĦÏįÏĩ":10149,"ĠÎļÏİ":10150,"ĠÎ¼Î¿ÏħÎ»Î¬":10151,"ĠÎľÎĳ":10152,"ĠÎľÏĢÎµÎ½":10153,"ÏĢÎ±Î³Îµ":10154,"Î³ÎµÏįÎ¼Î±ÏĦÎ±":10155,"ÏīÎ½ÏĮÏĦÎ±Î½":10156,"ĠÂµÏĮÎ½Î·":10157,"Î¾ÎµÏĦÎµ":10158,"ÏĪÎ¹":10159,"ÏĪÏĦÎµ":10160,"ÏĪÏħÏĩ":10161,"ĠÎ¶Î¿ÏħÎ¼Îµ":10162,"Î¼Î¬ÎµÎ¹":10163,"Î¼Î¬Î³Î¿Ïħ":10164,"ĠÎķÏħÏĩÎ±ÏģÎ¹ÏĥÏĦÏİ":10165,"ĠÎķÎ»ÏĢÎ¹Î½Î¯ÎºÎ·":10166,"ÎºÎ¬Î¼Î¹Î±":10167,"ÎºÎ¬Î»ÎµÏĥÎµ":10168,"Î¸Î·ÏĥÎ±":10169,"Î¸Î·Î½Î±Î¯":10170,"ĠÎºÎ¹ÏĦÏģÎ¹":10171,"Î³Î±ÏĦÎµ":10172,"Î³Î±ÏģÎ¹Î±":10173,"ÏĢÎ¹Î¶Îµ":10174,"ĠÏĥÏħÎ¼ÏĢÎ¬":10175,"Î³Î¿ÏģÎ±Î³":10176,"ĠÎłÎ¹Î¿":10177,"ĠÎłÎ¯ÏĥÏī":10178,"ĠÎłÎ·Î³Î±":10179,"Î»Î¹Î¬Î¶ÎµÎ¹":10180,"ÎŃÏģÎ¿ÏĤ":10181,"ÎŃÏģÏĦÎµÏĤ":10182,"ÎŃÏģÎ·ÏĤ":10183,"ÏģÎŃÏĥÎµÎ¹":10184,"ÎºÎµÎ¯Î½Î·":10185,"ÏĦÎ¯Î¼Î·":10186,"ÏĦÎ¯Î½Î±ÏĤ":10187,"ĠÏĢÎ¬Î³Î¿":10188,"ĠÏĢÎ¬Î³Ïī":10189,"ĠÏĢÎ¬Î³ÏīÏĥÎµ":10190,"ÎŁÎĿ":10191,"ÎľÎ¼Î¼":10192,"ÎľÏĢÎ®ÎºÎµ":10193,"ÏģÏİÎ¼Î±":10194,"ĠÎ£ÎºÎ±Ïģ":10195,"ĠÎ£Î¹Î³Î¬":10196,"ĠÎ£ÏĩÎµÎ´ÏĮÎ½":10197,"ÏĮÏĦÎµÏģÎ¿ÏĤ":10198,"ĠÏģÎŃ":10199,"ĠÏģÎ¿ÏĩÎ¬Î»Î¹":10200,"ĠÏĥÎºÏħÏĨ":10201,"Î¼ÏĢÎ®":10202,"Î¼ÏĢÏģÎ¿ÏĥÏĦÎ¬":10203,"ĠÎŃÏĩÎ¿ÏħÂµÎµ":10204,"ÏİÎ½Î¿Î½ÏĦÎ±Î¹":10205,"ÎŃÎ»ÎµÎ¹Î±":10206,"ÏĦÎ®ÏģÎ±ÏĤ":10207,"ĠÏĩÎ±Î¼Î®":10208,"ĠÏĩÎ±ÂµÎ·":10209,"ĠÏħÎ³ÏģÎ±":10210,"ÎĳÎ±":10211,"ĠÎĪÏĩÎµÏĦÎµ":10212,"ĠÎĪÏĢÎ±Î¹":10213,"ĠÎĪÏĢÎµÏĥÎµ":10214,"ĠÎ¼Î¬ÏĦÎ±Î¹Î±":10215,"ĠÎ¼ÏĢÎ¿ÏģÏİÎ½ÏĦÎ±ÏĤ":10216,"ÎºÎ¿ÏħÏĩ":10217,"ĠÎĶÎ¯Î±":10218,"ĠÎĶÎ¬Ïĥ":10219,"ĠÏĪÎµ":10220,"ĠÎĹÎ»Î¯Î±":10221,"ÏĢÏĮÎ´Î¹Î±":10222,"ĠÎŃÏĨÏĦÎ±Î¹Î³Îµ":10223,"ÎķÎĿ":10224,"ÎķÎĽ":10225,"ÎķÎµÎµ":10226,"Î»ÎŃÎ¼Î±":10227,"ĠÎ²Î±ÏĥÎ¹Î»ÎŃ":10228,"Î»ÏĮÎ½Î±":10229,"ĠÎ»Î¯Î³Î¿ÏħÏĤ":10230,"ÏĩÎ±Î½Î±":10231,"ÎłÏģÎ¿":10232,"ÎłÏģÎ¯Î³ÎºÎ¹ÏĢÎ¬":10233,"ÎºÎ¿ÏįÎ»ÎµÏĤ":10234,"Î³Î¹Î¿Ïį":10235,"ĠÎ¾ÎµÏģÎ±":10236,"ĠÎºÎ±Î¸Î¯ÏĥÏī":10237,"ÎºÎ¿Î»Î¬":10238,"Î¶Î¯Î½Î±ÏĤ":10239,"ÏĥÎ¯Î»Î·":10240,"ÏĥÎ¯Î´Î¹":10241,"ĠÎºÎ¿ÏħÏĦÎ¬":10242,"ĠÎºÎ¿ÏħÎºÎ¿ÏħÎ½":10243,"ĠÎºÎ¿ÏħÎºÎ¿ÏħÎ²Î¬Î³Î¹":10244,"ĠÎĵÎ¿Ïģ":10245,"ĠÎĵÎµÏģÎ¼Î±Î½":10246,"ĠÏĥÏĢÎ¯Î¸ÎµÏĤ":10247,"ĠÎºÏĮÏĢÎ¿ÏĤ":10248,"ĠÎºÏĮÎ»Î»Î±":10249,"ĠÏĢÏĮÏģÏĦÎ±ÏĤ":10250,"Î¼Î·ÏĦÎ¹ÎºÎ®":10251,"ĠÎ±Î³ÏİÎ½ÎµÏĤ":10252,"ĠÎĺÎ±Î½Î¬":10253,"ĠÎĺÎ®Î²Î±":10254,"ĠÎ´ÎµÏĩÏĦÎµÎ¯":10255,"Î£Î·Îº":10256,"Î£Î¯Î³Î¿ÏħÏģÎ±":10257,"ĠÏİÎ¼Î¿ÏħÏĤ":10258,"Î¿ÏĥÏĩÎŃ":10259,"ĠÎ±ÏģÎ¿Ïħ":10260,"ĠÎ±ÏģÎ¼Î±":10261,"ĠÏĢÎµÏģÎ¹Î²Î¬":10262,"ĠÏĢÎµÏģÎ¹ÏĥÏĥÎµ":10263,"ĠÏĢÎµÏģÎ¹Î¿ÏĩÎ®ÏĤ":10264,"ĠÎ±ÏħÎ»Î®ÏĤ":10265,"ĠÏĢÎ±ÏģÎ±Î¸Ïį":10266,"Î»Î¯ÏĦÏĥÎµÏĤ":10267,"Î»Î¯Î¼Î¿Î½Î¿":10268,"ÎŃÏĩÎ±":10269,"ÎŃÏĩÎµÎ¹ÏĤ":10270,"ĠÎ¼ÏĮÎ½Î¹":10271,"ĠÎ³ÎµÏģÏĮ":10272,"ĠÎ³ÎµÎ»Î¿ÏįÎ½":10273,"ĠÎºÏħÏģÎ¿ÏįÎ»Î±":10274,"ĠÎµÎ½ÏĦÎ¿ÏĢ":10275,"ĠÎµÎ½ÏĦÎ¿Î»":10276,"ĠÎ½ÎµÏģÎ¬ÎºÎ¹":10277,"ĠÎºÎ±ÏĦÎ±Îº":10278,"ĠÎºÎ±ÏĦÎ±Î»Î±Î²Î±Î¯Î½ÎµÎ¹":10279,"ĠÎ±Î½Î±Î¼":10280,"ĠÎ±Î½Î±ÏĪ":10281,"ĠÎ±Î½Î±Î³ÎºÎ±":10282,"ĠÎ±Î½Î±ÎºÎ¿ÏįÏĨÎ¹":10283,"Î³Î±Î½Î¹ÏĥÏĦÎ¬Î½":10284,"ÏĩÎ½ÎµÎ¹":10285,"ÏĦÏĥÎ¹ÎºÎ¿":10286,"ĠÎĴÎŃÎ²Î±Î¹Î±":10287,"ĠÎĴÎ³Î±Î¯Î½ÎµÎ¹":10288,"ĠÎĴÎ¿ÏģÏģÎ¬":10289,"ĠÎĿÎ¹ÎºÎ®":10290,"ĠÎĿÎŃÎ»Î¹":10291,"ÏĩÎ±ÏģÎ¿Ïį":10292,"ĠÎ´Î¹Î±Î²Îµ":10293,"ĠÎ´Î¹Î±Î¼Î±Î½":10294,"ĠÎ´Î¹Î±Î´Î¹ÎºÎ±":10295,"ĠÎ´Î¹Î±ÏĦÎ±Î³Î®":10296,"ĠÎ´Î¹Î±ÎºÏĮÏĥÎ¹Î±":10297,"ĠÎ´Î¹Î±Î¼Î±ÏģÏĦÏħ":10298,"ĠÎºÎ±ÏĦÎ¬ÏĢÎ¹Îµ":10299,"ĠÎºÎ±ÏĦÎ¬ÏĢÎ»Î·Îº":10300,"ĠÏĢÏģÎ¿ÏĥÏĢÎ¿Î¹":10301,"ÎĮÏĦÎ¹":10302,"ÎĮÂµÏīÏĤ":10303,"ÎĪÏĩÎµÎ¹":10304,"ÎĪÎ²Î±Î»Îµ":10305,"ĠÎ±ÏĢÎ¿Î¶Î·":10306,"ĠÎ±ÏĢÎ¿Î³Î¿Î·":10307,"ĠÎ±ÏĢÎ¿Î³ÎµÏįÎ¼Î±ÏĦÎ±":10308,"ĠÎ±ÏĨÏģÏĮ":10309,"ĠÎķÎ¯Î´Î±":10310,"ĠÂµÎµÎ»Ïī":10311,"ÏĥÏĦÎ±Î»":10312,"ÏĥÏĦÎ±ÏĦÎ¹ÎºÏĮ":10313,"ÏĥÏĦÎ±ÂµÎ¬":10314,"ÂµÎ±ÏĥÎµ":10315,"ÏİÎ½Î±Î¶Îµ":10316,"ĠÎ§ÏģÏį":10317,"ĠÎ§Î¹Î¿Î½":10318,"Î²Î¬Î»":10319,"Î²Î¬Î»Î¹":10320,"ĠÏĨÎ±ÎºÎµ":10321,"ĠÏĨÎ±ÎºÎŃÏĤ":10322,"ĠÎīÎ¸ÎµÎ»Î±":10323,"ÎĿÎŁÎ¥ÎĿ":10324,"Î¿ÏĩÎ¿Î¹":10325,"ĠÎĨÏĦ":10326,"ĠÎĨÏģ":10327,"ĠÎĨÏģÎ±":10328,"ĠÎĨÎ³Î¹":10329,"ĠÎĨÎ»ÎºÎ·":10330,"ĠÎĨÏĨÎ·ÏĥÎµ":10331,"ÏģÎ½Î¬":10332,"ÏģÎ½Î¬ÎµÎ¹":10333,"ÎŃÏĨÏĦÎ¹Î±":10334,"ÏĥÎºÎŃÏĨÏĦÎ·ÎºÎµ":10335,"ĠÎŃÎ²Î·":10336,"ÏĦÏģÎµÏħÎµ":10337,"ĠÎ²Î¬Î»Îµ":10338,"ÏĥÏĦÎ·ÏĥÎ±Î½":10339,"ÏĢÎ®ÏģÎµ":10340,"ĠÎ±Î¼ÎŃÏĦÏģÎ·":10341,"Î²ÎµÏĦÎµ":10342,"ĠÏĢÏģÏĮÎµ":10343,"ĠÏĢÏģÏĮÎ»Î±Î²Î±Î½":10344,"Î¼Î¹Î¿ÏĤ":10345,"ÏĦÎ¿ÏħÏģÎ³":10346,"ÏĦÎ¿ÏħÎ¹ÏĦÏĤ":10347,"Î³ÎµÎ¹Î¬":10348,"ĠÎĽÎ¹":10349,"ĠÎĽÎ¬":10350,"ĠÎ±ÎºÎ¿ÏįÎ³Î¿Î½ÏĦÎ±ÏĤ":10351,"ĠÏĢÎŃÎ¼ÏĢ":10352,"ÎĶÎ¹":10353,"ÎĶÏħÏĥÏĦÏħÏĩÏİÏĤ":10354,"ĠÎļÎ±Î¼":10355,"ĠÏĢÎ¿Î½ÏĦÎ¹ÎºÏĮ":10356,"ĠÎ±ÏģÏĩÎ±Î¹":10357,"ĠÎ¡Î±Î»ÏĨ":10358,"ĠÏĥÏħÎ¼ÏĨÎ¿ÏģÎ¬":10359,"ÏģÎ¹ÏĥÏĦÎ®":10360,"ĠÎ»Î±ÏĦÏģÎµ":10361,"ĠÎ»Î±Î¯Î¼Î±":10362,"Î¹ÏĥÂµÎŃÎ½Î·":10363,"ĠÎ±ÎºÏģÎ¹":10364,"ĠÎŃÎºÎ»ÎµÏĪÎµ":10365,"ÎŃÎ²Î³Î±":10366,"ĠÏĥÏĩÎ¿Î¹Î½Î¯":10367,"ĠÎľÎµÏĦÎ±":10368,"ĠÎľÎµÎ»Î¹ÏĥÏĥ":10369,"ĠÏĢÏģÏİÏĦÎ¿Î¹":10370,"ĠÏĢÏģÏīÏĦÏĮ":10371,"ĠÏĥÎ¹Î³Î¿":10372,"ĠÎ»Î¹ÏĩÎ¿Ïħ":10373,"ĠÎºÎ¿ÏģÏİÎ½Î±":10374,"ĠÏĢÎ¹Ïī":10375,"ĠÏĢÎ¹Î¬Î½Î¿":10376,"ĠÎºÎ±ÏģÎ´Î¹ÎŃÏĤ":10377,"ĠÎºÎ±ÏģÎ´Î¿ÏįÎ»ÎµÏĤ":10378,"ĠÏĢÎµÏģÎ¯ÏĨÎ·":10379,"ĠÏĢÎµÏģÎ¯Î¼ÎµÎ½Î±":10380,"ĠÎ¼ÏħÏĥÏĦÎ®ÏģÎ¹Î¿":10381,"ĠÏĨÎ¿ÏģÎŃ":10382,"ĠÏĨÎ¿ÏģÏİÎ½ÏĦÎ±ÏĤ":10383,"ĠÎ»ÎµÏīÏĨÎ¿Ïģ":10384,"ĠÎ¦Î±Î½ÏĦÎ¬":10385,"ĠÏĥÎ±Î»Î¬":10386,"Î´Î®ÏĥÎµÎ¹":10387,"ÏģÎ¿ÏĩÎ±":10388,"ĠÎ±Î³Î¿ÏģÎ¹Î¿Ïį":10389,"ĠÎĳÎ½ÎŃÎ²":10390,"ĠÎĳÎ½ÎŃÏĥÏĦÎ·ÏĤ":10391,"ĠÎ¶Î®Î»ÎµÏħÎµ":10392,"ĠÎ¶Î®ÏĦÎ·ÏĥÎ±":10393,"ĠÎ¶Î®Î»ÎµÏħÎ±Î½":10394,"Î»ÏİÏĥÎ¿ÏħÎ½":10395,"ĠÎ¸ÏħÂµÏĮ":10396,"Î¼Î¿ÏħÎ½Î±":10397,"ĠÎ¹ÏĥÏĦÎ¿ÏįÏĤ":10398,"ÏĥÏħÏĩÎ±":10399,"ÎµÏģÎ³":10400,"ĠÏĨÏħÎ»Î»Ïī":10401,"ĠÏĪÎ·Î»Î®":10402,"ĠÎ³ÏħÎ½Î±Î¯ÎºÎ±ÏĦÎ¿Ïħ":10403,"ĠÎ¼Î¹Î»Î¹Î¬":10404,"ĠÎ¼Î¹ÏĥÎ¿":10405,"ÎľÎµÎ»Ïī":10406,"ĠÎ¬Î½Î¿Î¹Î³Î¼Î±":10407,"ĠÏĢÎ±Î»Î¬Î¼Î·":10408,"ĠÎ³Î¬Î¼Î¿Î¹":10409,"ĠÂµÎ±Î¶Îµ":10410,"ĠÂµÎ±ÎºÏģÎ¹":10411,"ĠÎ±Î½Î¬ÏĪÎµÎ¹":10412,"ÎĽÎµÏĤ":10413,"ĠÎ´ÏİÏĥÎ¿ÏħÎ¼Îµ":10414,"ĠÎ´ÏİÏĥÎµÏĦÎµ":10415,"ĠÎ¼ÎµÎ³Î±Î»Î¿ÏĢ":10416,"ĠÎºÎ®ÏĢÎ¿ÏħÏĤ":10417,"ĠÎ³Î»ÏħÎºÏį":10418,"Î²Î¿Î¼Î±Î¹":10419,"ÏĨÏħÎ³ÎµÏĤ":10420,"ĠÏĢÏģÎ¬Î³Î¼Î±ÏĦÎ¬":10421,"ÏĨÎ¿Î¼Î·ÏĩÎ±Î½Î®":10422,"ÏĦÎ¿ÏįÏģÎ±":10423,"ĠÏĢÎ¿Î¹ÏĮÏĤ":10424,"ĠÎºÎ»Î±Î¯Î½Îµ":10425,"Î¶ÏīÎ³ÏģÎ±ÏĨ":10426,"ÏĥÏĦÎ®ÏĥÎµÎ¹":10427,"ÏģÎ³Î¿ÏħÏĤ":10428,"ÏĦÎ¶Î¹":10429,"ÏĦÎ¶Î¬":10430,"ĠÎ±ÎµÏģÎ¿":10431,"ĠÎ±ÎµÏĦÎ¯Î½Î±":10432,"ĠÏĥÏĢÎ¹ÏĦÎ¹ÎºÏĮ":10433,"ĠÎ´Î¹Î¬ÏģÎºÎµÎ¹Î±":10434,"ÏĦÏįÎ¸Î·ÎºÎµ":10435,"ĠÎ¶Î·ÏĦÎ®ÏĥÎ¿ÏħÎ½":10436,"ĠÎµÎºÏĦÎµ":10437,"ÏģÎ¿ÏĢÎ¿":10438,"ĠÏĨÎ±Î½ÎŃÏģÏī":10439,"ĠÏĦÏģÏĮÎ¹ÎºÎ±":10440,"ĠÏĩÎ¿ÏģÎŃÏĪÎ¿ÏħÎ½":10441,"ĠÎŃÏĢÎ±Î¹Î¾Î±Î½":10442,"ÏĥÏĥÏĮÏĦÎµÏģÎ¿":10443,"ĠÏħÏĢÎ¿Î»Î¿Î³":10444,"ĠÏħÏĢÎ¿Î»Î¿Î³Î¹":10445,"Î»Î»Î±ÎºÏĦÎ¹ÎºÏĮ":10446,"ĠÎ±ÏĢÎ±ÏģÎ·Î³ÏĮ":10447,"ĠÏĩÏİÎ¼Î±ÏĦÎ±":10448,"Î³Î³ÏħÎ»Î¿":10449,"ĠÎµÏħÏĦÏħÏĩÎ¯Î±ÏĤ":10450,"ĠÎ±ÏĨÎ®Î½ÎµÎ¹ÏĤ":10451,"ĠÎłÎ±ÏģÎ¯ÏĥÎ¹":10452,"ĠÏĨÎŃÏģÎ½Î¿ÏħÎ½":10453,"ĠÎĸÎ¿ÏįÏĥÎµ":10454,"ĠÏĨÏĦÎ¬ÏĥÎ¿ÏħÎ½":10455,"ĠÏĨÏĦÎ¹Î¬Î¾Î¿ÏħÎ¼Îµ":10456,"ĠÎºÎ¿Î»Î»Î®ÏĥÎµÎ¹":10457,"Î¤ÏĮÏĦÎµÏĤ":10458,"ĠÎºÎ»ÎµÎ¹ÏĥÏĦÎ¬":10459,"ĠÏĨÎ¿Î²Î®Î¸Î·ÎºÎ±Î½":10460,"ĠÏĢÎµÏģÏĢÎ±ÏĦÏİÎ½ÏĦÎ±ÏĤ":10461,"ĠÏĢÎµÏģÏĢÎ±ÏĦÎ¿ÏįÎ½":10462,"ĠÎ¼Î¿Î½Î¿Î»ÏĮÎ³Î·ÏĥÎµ":10463,"ĠÏĦÏģÎ¿ÂµÎ±Î³":10464,"Î§ÏģÎ¹ÏĥÏĦ":10465,"ĠÎµÏĢÎŃÎ¼ÎµÎ½Îµ":10466,"ĠÎºÎ¬Î¸Î¿Î½ÏĦÎ±Î¹":10467,"ĠÎºÎ±Î»Î¿ÎºÎ±Î¯ÏģÎ¹Î±":10468,"ÎĨÎ»Î»ÏīÏĥÏĦÎµ":10469,"ÎīÎ¸ÎµÎ»Îµ":10470,"ÏĦÎµÏħÏĥÎµ":10471,"ĠÎľÎ¹Î±ÏĤ":10472,"ĠÏħÏĢÏĮÎ³ÎµÎ¹Î¿":10473,"ÎµÎ³Î³Î±":10474,"ĠÎŃÎ²Î³Î±Î¶Î±Î½":10475,"ĠÎ³ÎµÎ½ÎµÎ¹Î¬":10476,"ĠÎ¿Î¼Î¿ÏģÏĨÏĮÏĦÎµÏģÎ¿":10477,"ĠÎ²ÎµÎ²Î±Î¯ÏīÏĤ":10478,"ĠÏĢÎ±ÏģÎ±Î¼Î¹ÎºÏģÏĮ":10479,"ÏĥÏħÎ½Î±Î½":10480,"ÏģÎ¹Î¿ÎºÎ±ÏģÏĩÎ±ÏģÎ¯ÎµÏĤ":10481,"ĠÏĦÏģÎ±ÏĢÎŃÎ¶Î¹Î±":10482,"ĠÏĩÏģÎ®ÂµÎ±ÏĦÎ±":10483,"ĠÎ¬Î³ÏģÎ¹ÎµÏĤ":10484,"ĠÏĢÎ±ÏģÎŃÎ¼ÎµÎ¹Î½Îµ":10485,"ĠÏĥÎ·Î¼Î±Î¯Î½Î¿ÏħÎ½":10486,"ĠÏĨÏīÎ½Î¬Î¾ÎµÎ¹":10487,"Î±Î¼ÎŃÏĥÏīÏĤ":10488,"ĠÏĢÎµÎ¯ÏģÎ±":10489,"ĠÎ´ÏģÎ¬ÎºÎ¿Ïħ":10490,"ĠÏĦÎµÎ»ÎµÏħÏĦÎ±Î¯ÎµÏĤ":10491,"ĠÏĢÎŃÏĦÎ±Î»Î±":10492,"ĠÏĨÎµÎ³Î³Î¬ÏģÎ¹Î±":10493,"ĠÎ±ÎºÎ¿Î»Î¿ÏħÎ¸ÎµÎ¯":10494,"ĠÏĨÏĦÏīÏĩÎ¹Î¬":10495,"ĠÏĢÏģÏĮÏĥÏīÏĢÎ±":10496,"ĠÎ±Î¯ÏĥÎ¸Î·":10497,"ĠÏħÏĢÏĮÎ»Î¿Î¹ÏĢÎ¿Î¹":10498,"ÏĦÏģÎ¬Î»Îµ":10499,"ÏĦÏģÎ¬ÎºÎ·ÏĤ":10500,"ĠÎ¼Î±Î½ÏĦÎ¯":10501,"ĠÎ±Î½Î¿Î¯Î³Î¿Î½ÏĦÎ±ÏĤ":10502,"ĠÏĢÎ»Î±ÏĦÎ¹Î¬":10503,"ĠÏĢÎ»Î±ÎºÏĮÏĥÏĦÏģÏī":10504,"Î³ÏħÏģÎ¯ÏĥÎµÎ¹":10505,"ĠÏĢÎ±Î½ÏĦÏģÎµÏįÏĦÎ·ÎºÎ±Î½":10506,"ÎļÎ¬ÏĦÎ¹":10507,"ÎļÎ¬Î¸Î¹ÏĥÎµ":10508,"ĠÏģÏīÏĦÎ®ÏĥÏī":10509,"ĠÏĥÎºÎ¯Î¿ÏħÏģÎµ":10510,"ĠÎ³ÎºÏģÎ¹Î½Î¹Î¬":10511,"ĠÏĦÏģÎ¯ÏĩÎµÏĤ":10512,"Î¬Î½Î¹Î¶Î±Î½":10513,"ÏģÎµÏħÏĦÎµÎ¯":10514,"ĠÎ²Î³Î¬Î¶Î¿Î½ÏĦÎ±ÏĤ":10515,"ĠÂµÎ¹ÎºÏģÎ¬":10516,"ĠÎłÎµÏĦÏģÎ¬Î»Îµ":10517,"ĠÏĩÏģÏħÏĥÎ¬ÏĨÎ¹Î±":10518,"ĠÏĦÏĥÎ±ÎºÎ¬Î»Î¹Î±":10519,"ÎºÎ¿Î¹Î¼Î®Î¸Î·ÎºÎµ":10520,"ÏħÏĩÎ®Î¸Î·ÎºÎµ":10521,"ĠÎ±Î½ÏĦÎ¹Î¼Îµ":10522,"ĠÎ±Î½ÏĦÎ¹Î»Î®":10523,"ĠÏĦÏģÎ±Î³Î¿ÏħÎ´Î¬":10524,"ĠÏĦÎ¿ÏĢÎµ":10525,"ĠÎ±Î½ÎµÎ²Î±":10526,"ĠÎºÎ±ÏĦÎµÎ²ÎµÎ¯":10527,"ĠÎºÎ±ÏĦÎµÏįÎ¸ÏħÎ½":10528,"ĠÎºÎ¿ÏħÏģÎ±ÏĥÏĦÎµÎ¯":10529,"ĠÎºÎ¿ÏħÏģÎ±ÏĥÎ¼ÎŃÎ½Î·":10530,"ĠÎ±Î¹ÏİÎ½Î¹Î±":10531,"ĠÎµÏĢÎ¯ÏĦÎ·Î´ÎµÏĤ":10532,"ĠÎ¼Î±Î¶ÎµÏįÎµÎ¹":10533,"ĠÎ¼Î±Î¶ÎµÏįÎ¿ÏħÎ½":10534,"ĠÎµÎ¹Î´Î¹Îº":10535,"ĠÎµÎ¹ÏģÎ®Î½Î·":10536,"ĠÏĩÏģÎµÎ¹Î¬Î¶Î¿Î½ÏĦÎ±Î½":10537,"ĠÎľÎ¬Î»Î»Î¿Î½":10538,"ĠÎľÎ¬ÏĦÎ±Î¹Î±":10539,"ĠÎľÎ¬Î¹Î³ÎºÎ¿":10540,"ĠÏĩÏĦÏįÏĢÎ·ÏĥÎ±Î½":10541,"ĠÏĢÎ»ÎŃÎºÎµÎ¹":10542,"ĠÎ²ÏģÎ±Î²Îµ":10543,"ÎĳÎ½ÏĦÎ¯Î¿":10544,"ĠÎºÎ±Î¸Î±ÏģÎ¯ÏĥÎµÎ¹":10545,"ĠÏĦÏģÎµÎ»ÏĮ":10546,"ĠÎ³ÏģÎ±Î¼Î¼Î±":10547,"ĠÏĥÎ¿Î²Î±ÏģÎ®":10548,"ĠÏħÏĢÎ¿Î´ÎŃÏĩ":10549,"ĠÎĽÎ¯Î»Î·":10550,"ĠÎºÎ¿ÏħÎ²ÎŃÎ½ÏĦÎµÏĤ":10551,"Î¬ÏĢÎ»ÏīÏĥÎµ":10552,"ĠÎ¼Î¯Î»Î¹Î±":10553,"ĠÎ¼Î¯Î»Î·ÏĥÎ±Î½":10554,"ĠÏĨÏħÎ»Î±Îº":10555,"ĠÏĪÎ¬ÏĩÎ½Ïī":10556,"ĠÎºÎ¯ÏĦÏģÎ¹Î½ÎµÏĤ":10557,"ĠÏĥÎ¿ÏĨÎ¯":10558,"ĠÎľÎ¹Î½":10559,"ĠÏĦÎµÎ»ÎµÎ¹ÏİÎ½ÎµÎ¹":10560,"ĠÎºÎ±ÏĦÎ±ÏĨÎŃÏģÎµÎ¹ÏĤ":10561,"ĠÏĥÏħÎ³ÏĩÏİ":10562,"ĠÏĥÏħÎ³Î½ÏİÎ¼Î·":10563,"ĠÏĢÎ±Î½ÎŃÎ¼Î¿ÏģÏĨÎ·":10564,"ĠÎ±ÏģÎ¹ÏĥÏĦÎµ":10565,"ĠÎ¼Î¬Î¸Î¿ÏħÎ½":10566,"ĠÎ¼Î¬Î¸Î¿ÏħÎ¼Îµ":10567,"ĠÎ¼Î¬Î¸Î±Î¹Î½Îµ":10568,"ĠÏĪÏīÎ¼Î¬ÎºÎ¹":10569,"Ġ15":10570,"Ġ18":10571,"ĠÏĥÏĦÎµÎ½Î¿ÏĩÏİ":10572,"ĠÎŃÏĪÎ±Î¾Îµ":10573,"ĠÎ¼Î¿ÏħÏĥÎ¹ÎºÎ®ÏĤ":10574,"ĠÎ²ÏģÎ¯ÏĥÎºÎ¿ÏħÎ½":10575,"ĠÎ¿ÏģÎ¼Î®":10576,"ĠÎ¼Î¹ÏĥÎ®":10577,"ĠÏĥÏĦÎ±Î¼Î±ÏĦÎ®ÏĥÎ¿ÏħÎ½":10578,"ÏĦÏģÎ¿ÏĢÎ®":10579,"ĠÏĨÎ¿ÏħÏģ":10580,"Î²Î¿Î»Î¯Î±":10581,"Î²Î¿Î»Î¿ÏįÏĥÎ±Î½":10582,"ĠÏĦÎ¿Î¯ÏĩÎ¿Î¹":10583,"ĠÏĢÎ¿Î½ÏĦÎ¹ÎºÎ¿Ïį":10584,"ĠÎ²Î¿Î·Î¸ÏĮ":10585,"Î¿Î»Î¿Î³Î®Î¸Î·ÎºÎµ":10586,"ĠÎºÎ»ÎŃÏĪÎµÎ¹":10587,"Î¼Î¹ÎºÏģÏĮ":10588,"ĠÏĩÎ±Î¼ÏĮÎ³ÎµÎ»Î±":10589,"ĠÏĢÎµÏģÎ¬ÏĥÎµÎ¹ÏĤ":10590,"ĠÏĢÎµÏģÎ¬ÏĥÎ¿ÏħÎ¼Îµ":10591,"Î´ÏįÎ¿":10592,"ĠÎºÎ¹Î½Î´ÏįÎ½":10593,"ĠÏħÏĢÎ¿ÏĥÏĦÎ·":10594,"ĠÎºÎ»Î¬Î¼Î±":10595,"ĠÎ½Î¿Î¹Ïİ":10596,"ĠÎŃÏĢÎ¹Î½Î±Î½":10597,"ĠÎļÏħÏģÎ¬":10598,"ĠÏĢÎ»Î¿ÏįÏĥÎ¹Î¿Î¹":10599,"ĠÏĢÎ±Î¯ÏģÎ½Î¿Î½ÏĦÎ±ÏĤ":10600,"ĠÎĵÎ·ÏģÏħ":10601,"ĠÎ±Î½Î·ÏĥÏħÏĩÎ¯Î±":10602,"ĠÎŃÏģÏĩÎ¿Î¼Î±Î¹":10603,"ĠÎºÎ±Î·Î¼ÎŃÎ½Î¿ÏĤ":10604,"ĠÎ¾Î±ÏĢÎ»ÏİÏĥÎµÎ¹":10605,"ĠÏĢÎ¹ÏĥÏĦÏĮÏĤ":10606,"Î³Î¿Î·ÏĦÎµÏħÎ¼ÎŃÎ½Î¿ÏĤ":10607,"ĠÎ±Î»Î·Î¸Î¹Î½ÏĮ":10608,"ĠÎ»Î±Î¹ÂµÏĮ":10609,"ĠÎ£ÎºÎŃÏĨ":10610,"ĠÏħÏĢÎµÏģ":10611,"ĠÏħÏĢÎµÏģÎ·":10612,"ĠÏħÏĢÎµÏģÎ®ÏĨÎ±Î½":10613,"ĠÏĨÏģÎ¿Î½ÏĦÎ¯ÏĥÎµÎ¹":10614,"ÎľÏĢÎ±Î±ÂµÏĢÎ¿ÏįÏģ":10615,"ĠÎ¾ÎµÏĩÏīÏģÎ¯Î¶ÎµÎ¹":10616,"ĠÎĸÎ±Î¼Î¶Î±":10617,"ĠÎ±ÏĥÏĨÎ¬":10618,"ĠÎ´ÏģÎ¿ÏĥÎµÏģÎ¬":10619,"ĠÏĢÎµÏģÎ®ÏĨÎ±Î½Î¿":10620,"ĠÎ±Î½ÎŃÎ¼Îµ":10621,"ĠÎºÎ¿ÏħÎ²Î±Î»Î¿ÏįÏĥÎµ":10622,"ĠÏĢÎ±ÏģÎ±ÎºÎ¿Î»Î¿ÏħÎ¸":10623,"ĠÎŃÎºÎ»Î±Î¹Î³Î±Î½":10624,"ĠÎµÏħÏĩÎ®Î¸Î·ÎºÎµ":10625,"Î±Î±Î±Î±Î±":10626,"ĠÎµÎ»ÎµÏħÎ¸ÎµÏģÏİÏĥÏī":10627,"ĠÎµÎ»ÎµÏħÎ¸ÎµÏģÏīÎ¸ÎµÎ¯":10628,"ĠÎ¬ÏĢÎ»ÏīÎ½Îµ":10629,"ĠÎºÏįÎºÎ½Î¿Î¹":10630,"ĠÎ¶ÏīÎ½ÏĦÎ±Î½Î¬":10631,"ĠÎ»Î¹Î³ÏĮÏĦÎµÏģÎ¿":10632,"ĠÎ³Î±ÏģÎ³Î±Î»Î·ÏĦÏĮ":10633,"ĠÎ³Î±ÏģÎ³Î±Î»Î¿ÏĬ":10634,"ĠÎ±Î´ÏįÎ½Î±ÏĦÎ¿Î½":10635,"ĠÎŃÏĥÎºÎ±Î²Îµ":10636,"ĠÎ´Î¿ÏįÎ»ÎµÏħÎ±Î½":10637,"ĠÎ¸Î±ÏįÎ¼Î±Î¶Îµ":10638,"ĠÎŃÎºÏĢÎ»Î·ÎºÏĦÎ¿Î¹":10639,"ÎĸÎ®":10640,"ĠÎ»Î¿Î³Î±ÏģÎ¹Î±":10641,"ĠÏĢÎ¿Î»ÏįÏĩÏģÏīÎ¼Î·":10642,"ĠÎ§Î±ÏĥÎ¬Î½":10643,"ÎĴÎ±ÏĥÎ¯Î»Î·":10644,"ĠÏĥÎ¬Î»Î¹Î±":10645,"ĠÏĥÎ¬ÎºÎ¿ÏħÏĤ":10646,"ÎºÏĮÎºÎºÎ¹Î½Î¿":10647,"ĠÂµÎµÎ³Î¬Î»Î±":10648,"ĠÎĨÎ½Î¿Î¹Î¾Î·":10649,"ĠÏĦÏģÎ¿Î¼ÎµÏģÏĮÏĤ":10650,"ĠÏĢÏģÎ¿ÏĩÏīÏģÎ¬":10651,"ĠÏĢÎ»Î¿ÎºÎ¬Î¼Î¹Î±":10652,"ĠÏĥÏħÎ¼Î²Î¿ÏħÎ»ÎŃÏĤ":10653,"ĠÎĸÎ®ÏĥÎ·":10654,"ĠÎĸÎ®ÏĥÎ·ÏĤ":10655,"ĠÎ¬ÏģÏģÏīÏĥÏĦÎ·":10656,"ĠÎµÎ»Î±ÏĨÏģÎ¹Î¬":10657,"ĠÎºÎ¿Î½ÏĦÏĮ":10658,"ĠÎºÎ±ÏģÎ±Î²Î¹Î¿Ïį":10659,"ĠÏĩÎ¯Î»Î¹ÎµÏĤ":10660,"ĠÎļÏĮÎ³Î¹Î±":10661,"ĠÎ²Î¬ÏģÎºÎµÏĤ":10662,"ĠÎĽÎ±Î²ÏįÏģÎ¹Î½":10663,"Î·ÂµÎ®ÏĦÏģÎ·":10664,"ĠÎ±ÏģÏĩÎ¯ÏĥÎ¿ÏħÎ½":10665,"ĠÏĥÎºÏĮÏĦÏīÏĥÎµ":10666,"Î¸ÎŃÏĦÎ·ÏĥÎµ":10667,"ĠÏĥÏĦÎµÎ¯Î»Î¿ÏħÎ½":10668,"ĠÎ§Î¬ÏģÎ·ÏĤ":10669,"ĠÎ¸ÏħÎ¼ÏīÎ¼ÎŃÎ½Î¿":10670,"ĠÏĥÎºÎ±ÏģÏĨÎ¬Î»ÏīÏĥÎµ":10671,"ĠÏĦÏģÎ±Î³Î¿ÏħÎ´Î¿ÏįÏĥÎ±Î½":10672,"ĠÎ±Î½Î®ÏĥÏħÏĩÎ¿Î¹":10673,"Î¿Î¿Î¿Î¿":10674,"ĠÏĦÎ¶Î¯ÏĦÎ¶Î¹ÎºÎ±":10675,"ĠÎ³Î»ÎŃÎ½ÏĦÎ¹Î±":10676,"ĠÎ±ÏĢÎ¿ÏĩÎ±Î¹ÏģÎŃ":10677,"ĠÎ¾Î±ÏĨÎ½Î¹Î¬ÏĥÏĦÎ·ÎºÎµ":10678,"ĠÎ¾Î±ÏĨÎ½Î¹Î±ÏĥÎ¼ÎŃÎ½Î¿ÏĤ":10679,"ĠÎ²Î±ÏģÎ¹Îµ":10680,"ĠÎ¹Î´Î¹Î±Î¯ÏĦÎµÏģÎ·":10681,"ĠÏĢÎµÎ¹Î½Î¬Ïī":10682,"ĠÎ³ÏģÎ®Î³Î¿ÏģÎ·":10683,"ĠÏĢÏħÎ³Î¿Î»Î±Î¼ÏĢÎ¯Î´ÎµÏĤ":10684,"ĠÏĦÎ¯Î³ÏģÎ·ÏĤ":10685,"ĠÎºÎµÎ»Î±Î·":10686,"ĠÎ»Î¹Î²Î¬Î´Î¹Î±":10687,"ĠÎ´Î¬ÏĩÏĦÏħÎ»Î¬":10688,"ĠÎľÎ¹Î»ÏĦÎ¹Î¬Î´Î·":10689,"ĠÏĥÏħÎ¶Î·ÏĦÎ¿ÏįÏĥÎ±Î½":10690,"ĠÎłÎ¿Î»Î»Î¿Î¯":10691,"ĠÎ¼Î¬Î³Î¿ÏħÎ»Î¬":10692,"ĠÎļÎ¹Î½ÎŃÎ¶Î¿":10693,"ĠÎ±ÏĥÎ·ÂµÎŃÎ½":10694,"ĠÏĮÏģÎ¼Î·ÏĥÎµ":10695,"âĢ´,":10696,"ĠÎ±Î³Î³ÎŃÎ»":10697,"ĠÏĢÎ¿ÏĦÎ±Î¼Î¿Ïį":10698,"ĠÎºÎ»ÎµÎ¹Î´Î±ÏģÎ¹ÎŃÏĤ":10699,"ĠÎµÏĦÎ¿Î¯Î¼Î±":10700,"ÏģÎ¯ÏĥÏĦÎµÏĤ":10701,"ĠÎļÎ¿ÏģÏİ":10702,"ĠÏĢÏģÎ¿ÏĥÏĦÎ±ÏĦÎµÏį":10703,"ĠÎºÎµÏģÎ´Î¹":10704,"ĠÎ²Î¿Î·Î¸Î¬ÏĤ":10705,"ĠÏĦÏģÎ¿Î¼Î±Î³Î¼ÎŃÎ½Î·":10706,"ĠÎ¤Î·Î»ÎŃÎ¼Î±":10707,"ĠÎłÎ¿ÏģÏĦÎ¿ÎºÎ±Î»Î¯Î±ÏĤ":10708,"ĠÎ¼ÏĢÎ¿ÏģÎŃÏĥÎ¿ÏħÎ½":10709,"ĠÎ¼ÏĢÎ¿ÏģÎŃÏĥÎµÎ¹ÏĤ":10710,"ĠÎĨÎ»Î»Î¿ÏĤ":10711,"ĠÏĥÎ±ÎºÎ¯Î´Î¹Î¿":10712,"ĠÎ¿Î½Î¿Î¼Î¬Î¶Î¿ÏħÎ½":10713,"ĠÎ³Î¿Î·":10714,"ÂµÎ¿Î½Î¹Î¬ÏĤ":10715,"ĠÏĥÏħÎ»Î»Î¿Î³":10716,"ĠÏĢÎµÏģÏĢÎ¬ÏĦÎ·Î¼Î±":10717,"ÏĥÎºÏĮÏĦÎ±":10718,"ĠÏĥÏĢÎ±Î¸Î¹Î¬":10719,"ĠÏĨÏĦÎ±Î¯":10720,"ĠÎĳÎºÎ¿ÏįÏĥÏĦÎµ":10721,"ĠÏģÎ¿ÏħÎ¸Î¿ÏįÎ½":10722,"ĠÎ¾Î±ÏĢÎ»ÏīÎ¼ÎŃÎ½Î¿":10723,"ĠÎ¾Î±ÏĢÎ»ÏīÎ¼ÎŃÎ½Î¿ÏĤ":10724,"ĠÏĩÏģÏħÏĥÎ±ÏĨÎ¹ÎºÎ¬":10725,"ĠÎµÎ³Î³ÏĮÎ½Î¹Î±":10726,"ĠÎµÎ²Î´Î¿Î¼Î¬Î´ÎµÏĤ":10727,"ĠÎ½Î¹ÏİÏĥÎµÎ¹":10728,"ĠÏĨÏħÏĦÏģÏİÎ½Î¿ÏħÎ½":10729,"ĠÎ²ÏģÏİÎ¼Î¹ÎºÎ±":10730,"ĠÎĳÎ»Î»Î¹ÏİÏĤ":10731,"ĠÎłÎŃÏģÎ±ÏĥÎµ":10732,"ĠÎ±Î½Î±Î³ÎºÎ¬ÏĥÏĦÎ·ÎºÎ±Î½":10733,"ĠÎ¼Î±Î³ÎµÎ¯ÏģÎµÏħÎµ":10734,"ĠÎĻÏĥÎ¯Î´ÏīÏģÎ¿":10735,"ĠÎµÏĢÎ¹ÏĥÎºÎŃÏĢÏĦÎ¿Î½ÏĦÎ±Î½":10736,"ĠÎµÏĩÎ¸ÎŃÏĤ":10737,"ĠÎºÎ±Î¼Î¬ÏģÎ¹":10738,"ĠÎºÎ±ÎºÎ¿ÏįÏģÎ³Î¿ÏĤ":10739,"ĠÎºÏĮÎ»ÏĢÎ¿":10740,"ĠÏĢÎ±ÏģÎ±Î¾ÎµÎ½Îµ":10741,"ĠÎºÎ±ÏĦÎ±ÏĢÎ»Î·ÎºÏĦÎ¹ÎºÎ®":10742,"ĠÎĿÏĦÎ¿ÏħÎ²Î¿ÏħÏģÎ½Î¬":10743,"ĠÏĢÎµÎ¹ÏģÎ±ÏĦÎ®ÏĤ":10744,"ĠÎ»Î¬Î¼ÏĢÎµÎ¹":10745,"ĠÎ¬Î³Î³ÎµÎ»Î¿Î¹":10746,"ĠÏĥÎ¹Î´ÎµÏģÎŃÎ½Î¹Î±":10747,"ĠÎºÎ·ÏĢÎ¿ÏħÏģÏĮ":10748,"ĠÎºÎ·ÏĢÎ¿ÏħÏģÏĮÏĤ":10749,"ĠÎ²Î±ÏĦÏģÎ±ÏĩÎ¬ÎºÎ¹":10750,"ÏĥÎ¸Î·ÏĦÎ±":10751,"ĠÎ½ÏĮÏĥÏĦÎ¹Î¼Î¿":10752,"ĠÎºÎ±Î»Î¿ÏįÎ´Î¹Î±":10753,"ĠÎ¸Î±ÏģÏģÎµÏĦÎ¬":10754,"ÎļÎ±Î½ÎŃÎ½Î±ÏĤ":10755,"ĠÎŃÏĩÎ±ÏĥÎ±":10756,"ĠÎ¼Î¹Î»Î®ÏĥÏī":10757,"ĠÎ¼Î¹Î»Î®ÏĥÎ¿ÏħÎ½":10758,"ĠÎ»Î¬ÂµÏĢÎµÎ¹":10759,"ĠÏĩÎµÎ¹ÏģÎ¿ÎºÏģÏĮ":10760,"ĠÎºÎ¿ÏĩÏįÎ»Î¹Î±":10761,"ĠÎºÎµÎ½ÏĦÎ·":10762,"ĠÎ¼Î±Î¸Î®Î¼Î±ÏĦÎ¬":10763,"ĠÎĳÏĢÏĮÎ»Î»ÏīÎ½Î±ÏĤ":10764,"ĠÎºÏģÎµÎ²Î±ÏĦÎ¬ÎºÎ¹":10765,"ÎĴÎ»ÎŃÏĢÏī":10766,"ĠÎ±ÎºÎ¿Î»Î¿ÏħÎ¸Î¿ÏįÏĥÎ±Î½":10767,"ĠÎŃÎ´Î¹ÏīÎ¾Îµ":10768,"ĠÎŃÎ´Î¹ÏīÏĩÎ½Îµ":10769,"ĠÎĨÎ½Î¸ÏģÏīÏĢÎ¿ÏĤ":10770,"ĠÎ¼Î¿Î²":10771,"ĠÎ±ÏĦÎ¼ÏĮÏĥ":10772,"ĠÎ¾ÎµÏĩÏį":10773,"Î£ÎºÎ¯Î¿ÏħÏģÎµ":10774,"ĠÎ³ÎµÂµÎ¬ÏĦÎ·":10775,"ĠÎ³ÎµÂµÎ¬ÏĦÎ¿":10776,"ĠÎºÏģÎ±ÏĦÎ®Î¸Î·ÎºÎµ":10777,"ĠÎ¼ÎµÏĦÎ±ÏĨÎŃÏģÎ¿ÏħÎ½":10778,"ĠÎ¶Î·ÏĦÎ¹Î¬Î½Î¿":10779,"ĠÎºÎ¿ÏħÎ²ÎŃÎ½ÏĦÎ¹Î±Î¶Î±Î½":10780,"ĠÏĨÏģÎ¬Î¿ÏħÎ»Î±":10781,"ĠÏĨÏģÎ¬Î¿ÏħÎ»ÎµÏĤ":10782,"ĠÏĩÏģÏīÎ¼Î±ÏĦÎ¹ÏĥÏĦÎ¬":10783,"ĠÎ±ÏĢÎŃÎ¾Ïī":10784,"Î³Î±ÏĢÎ¿ÏįÏĥÎµ":10785,"ĠÏħÏĢÎ¬Î»Î»Î·":10786,"ĠÏĪÎ¯Î¸Ïħ":10787,"ĠÏĢÎµÏģÎ¹ÏĨÏģÏĮÎ½Î·":10788,"ĠÎ±Î½Î±ÎºÎ¬Î»ÏħÏĪÎµ":10789,"ĠÎ¼ÏĢÎ±Î¼ÏĢÎ¿ÏįÎ»Î±":10790,"ĠÏĦÎŃÎ»ÎµÎ¹ÏīÏĥÎµ":10791,"ĠÎ³Î½ÏİÏģÎ¹ÏĥÎ±":10792,"ĠÏĥÏĦÎŃÎºÎ¿Î½ÏĦÎ±Î¹":10793,"ĠÎµÎ»Î±ÏĨÎ¹Î¿Ïį":10794,"ĠÎ¿ÏģÏĨÎ±Î½Î®":10795,"ĠÎ±ÏĢÎŃÏģÎ±Î½ÏĦÎ¿":10796,"ÏĩÎ¿Î»Î¯Î±":10797,"ĠÎ³ÏĮÎ½Î±ÏĦÎ±":10798,"ĠÎ¸Î±ÏħÎ¼Î±ÏĥÎ¼ÏĮ":10799,"Î´ÎµÏħÏĦÎ¹ÎºÎ¬":10800,"ĠÎ¾ÎµÏĢÎµÏģÎ¬ÏĥÎµÎ¹":10801,"Î¿ÏĥÎºÏİÎ»Î·":10802,"ĠÎ½ÎµÏħÏģÎ¯Î±":10803,"ĠÎºÎ±Î½Î±ÏģÎ¯Î½Î¹Î±":10804,"ĠÎ¸ÎµÏīÏģÎ¿ÏįÏĥÎµ":10805,"ĠÎ¸ÎµÏģÎ±ÏĢÎµ":10806,
[...]
